<pad>	0
</s>	0
<s>	0
<unk>	0
<|im_start|>	0
<|im_end|>	0
<think>	0
</think>	0
<tools>	0
</tools>	0
<tool_call>	0
</tool_call>	0
<tool_result>	0
</tool_result>	0
<act_execute>	0
<act_refuse>	0
<act_expand>	0
<act_shape>	0
<act_escalate>	0
<act_stop>	0
nod	0
shake_head	0
come_here	0
stop	0
point	0
wave	0
bow	0
sit	0
stand	0
go_to	0
set_switch	0
open_door	0
close_door	0
take_out_trash	0
order_food	0
cancel_order	0
target	0
place	0
id	0
on	0
door	0
shop	0
dish	0
left	0
right	0
user	0
kitchen	0
living	0
entry	0
trash	0
kitchen_light	0
living_light	0
front	0
back	0
兰州拉面	0
麦当劳	0
牛肉面	0
巨无霸	0
true	0
false	0
null	0
get_weather	0
set_lights	0
invoice	0
city	0
room	0
vendor	0
total	0
due_date	0
brightness	0
{	0
}	0
[	0
]	0
"	0
:	0
,	0
一	0
乙	0
二	0
十	0
丁	0
厂	0
七	0
卜	0
八	0
人	0
入	0
儿	0
匕	0
几	0
九	0
刁	0
了	0
刀	0
力	0
乃	0
又	0
三	0
干	0
于	0
亏	0
工	0
土	0
士	0
才	0
下	0
寸	0
大	0
丈	0
与	0
万	0
上	0
小	0
口	0
山	0
巾	0
千	0
乞	0
川	0
亿	0
个	0
夕	0
久	0
么	0
勺	0
凡	0
丸	0
及	0
广	0
亡	0
门	0
丫	0
义	0
之	0
尸	0
己	0
已	0
巳	0
弓	0
子	0
卫	0
也	0
女	0
刃	0
飞	0
习	0
叉	0
马	0
乡	0
丰	0
王	0
开	0
井	0
天	0
夫	0
元	0
无	0
云	0
专	0
丐	0
扎	0
艺	0
木	0
五	0
支	0
厅	0
不	0
犬	0
太	0
区	0
历	0
歹	0
友	0
尤	0
匹	0
车	0
巨	0
牙	0
屯	0
戈	0
比	0
互	0
切	0
瓦	0
止	0
少	0
曰	0
日	0
中	0
贝	0
冈	0
内	0
水	0
见	0
午	0
牛	0
手	0
气	0
毛	0
壬	0
升	0
夭	0
长	0
仁	0
什	0
片	0
仆	0
化	0
仇	0
币	0
仍	0
仅	0
斤	0
爪	0
反	0
介	0
父	0
从	0
仑	0
今	0
凶	0
分	0
乏	0
公	0
仓	0
月	0
氏	0
勿	0
欠	0
风	0
丹	0
匀	0
乌	0
勾	0
凤	0
六	0
文	0
亢	0
方	0
火	0
为	0
斗	0
忆	0
计	0
订	0
户	0
认	0
冗	0
讥	0
心	0
尺	0
引	0
丑	0
巴	0
孔	0
队	0
办	0
以	0
允	0
予	0
邓	0
劝	0
双	0
书	0
幻	0
玉	0
刊	0
未	0
末	0
示	0
击	0
打	0
巧	0
正	0
扑	0
卉	0
扒	0
功	0
扔	0
去	0
甘	0
世	0
艾	0
古	0
节	0
本	0
术	0
可	0
丙	0
左	0
厉	0
石	0
右	0
布	0
夯	0
戊	0
龙	0
平	0
灭	0
轧	0
东	0
卡	0
北	0
占	0
凸	0
卢	0
业	0
旧	0
帅	0
归	0
旦	0
目	0
且	0
叶	0
甲	0
申	0
叮	0
电	0
号	0
田	0
由	0
只	0
叭	0
史	0
央	0
兄	0
叽	0
叼	0
叫	0
叩	0
叨	0
另	0
叹	0
冉	0
皿	0
凹	0
囚	0
四	0
生	0
矢	0
失	0
乍	0
禾	0
丘	0
付	0
仗	0
代	0
仙	0
们	0
仪	0
白	0
仔	0
他	0
斥	0
瓜	0
乎	0
丛	0
令	0
用	0
甩	0
印	0
尔	0
乐	0
句	0
匆	0
册	0
卯	0
犯	0
外	0
处	0
冬	0
鸟	0
务	0
包	0
饥	0
主	0
市	0
立	0
冯	0
玄	0
闪	0
兰	0
半	0
汁	0
汇	0
头	0
汉	0
宁	0
穴	0
它	0
讨	0
写	0
让	0
礼	0
训	0
议	0
必	0
讯	0
记	0
永	0
司	0
尼	0
民	0
弗	0
弘	0
出	0
辽	0
奶	0
奴	0
召	0
加	0
皮	0
边	0
孕	0
发	0
圣	0
对	0
台	0
矛	0
纠	0
母	0
幼	0
丝	0
邦	0
式	0
迂	0
刑	0
戎	0
动	0
扛	0
寺	0
吉	0
扣	0
考	0
托	0
老	0
巩	0
圾	0
执	0
扩	0
扫	0
地	0
场	0
扬	0
耳	0
芋	0
共	0
芒	0
亚	0
芝	0
朽	0
朴	0
机	0
权	0
过	0
臣	0
吏	0
再	0
协	0
西	0
压	0
厌	0
戌	0
在	0
百	0
有	0
存	0
而	0
页	0
匠	0
夸	0
夺	0
灰	0
达	0
列	0
死	0
成	0
夹	0
夷	0
轨	0
邪	0
尧	0
划	0
迈	0
毕	0
至	0
此	0
贞	0
师	0
尘	0
尖	0
劣	0
光	0
当	0
早	0
吁	0
吐	0
吓	0
虫	0
曲	0
团	0
吕	0
同	0
吊	0
吃	0
因	0
吸	0
吗	0
吆	0
屿	0
屹	0
岁	0
帆	0
回	0
岂	0
则	0
刚	0
网	0
肉	0
年	0
朱	0
先	0
丢	0
廷	0
舌	0
竹	0
迁	0
乔	0
迄	0
伟	0
传	0
乒	0
乓	0
休	0
伍	0
伏	0
优	0
臼	0
伐	0
延	0
仲	0
件	0
任	0
伤	0
价	0
伦	0
份	0
华	0
仰	0
仿	0
伙	0
伪	0
自	0
伊	0
血	0
向	0
似	0
后	0
行	0
舟	0
全	0
会	0
杀	0
合	0
兆	0
企	0
众	0
爷	0
伞	0
创	0
肌	0
肋	0
朵	0
杂	0
危	0
旬	0
旨	0
旭	0
负	0
匈	0
名	0
各	0
多	0
争	0
色	0
壮	0
冲	0
妆	0
冰	0
庄	0
庆	0
亦	0
刘	0
齐	0
交	0
衣	0
次	0
产	0
决	0
亥	0
充	0
妄	0
闭	0
问	0
闯	0
羊	0
并	0
关	0
米	0
灯	0
州	0
汗	0
污	0
江	0
汛	0
池	0
汝	0
汤	0
忙	0
兴	0
宇	0
守	0
宅	0
字	0
安	0
讲	0
讳	0
军	0
讶	0
许	0
讹	0
论	0
讼	0
农	0
讽	0
设	0
访	0
诀	0
寻	0
那	0
迅	0
尽	0
导	0
异	0
弛	0
孙	0
阵	0
阳	0
收	0
阶	0
阴	0
防	0
奸	0
如	0
妇	0
妃	0
好	0
她	0
妈	0
戏	0
羽	0
观	0
欢	0
买	0
红	0
驮	0
纤	0
驯	0
约	0
级	0
纪	0
驰	0
纫	0
巡	0
寿	0
弄	0
麦	0
玖	0
玛	0
形	0
进	0
戒	0
吞	0
远	0
违	0
韧	0
运	0
扶	0
抚	0
坛	0
技	0
坏	0
抠	0
扰	0
扼	0
拒	0
找	0
批	0
址	0
扯	0
走	0
抄	0
贡	0
汞	0
坝	0
攻	0
赤	0
折	0
抓	0
扳	0
抡	0
扮	0
抢	0
孝	0
坎	0
均	0
抑	0
抛	0
投	0
坟	0
坑	0
抗	0
坊	0
抖	0
护	0
壳	0
志	0
块	0
扭	0
声	0
把	0
报	0
拟	0
却	0
抒	0
劫	0
芙	0
芜	0
苇	0
芽	0
花	0
芹	0
芥	0
芬	0
苍	0
芳	0
严	0
芦	0
芯	0
劳	0
克	0
芭	0
苏	0
杆	0
杠	0
杜	0
材	0
村	0
杖	0
杏	0
杉	0
巫	0
极	0
李	0
杨	0
求	0
甫	0
匣	0
更	0
束	0
吾	0
豆	0
两	0
酉	0
丽	0
医	0
辰	0
励	0
否	0
还	0
尬	0
歼	0
来	0
连	0
轩	0
步	0
卤	0
坚	0
肖	0
旱	0
盯	0
呈	0
时	0
吴	0
助	0
县	0
里	0
呆	0
吱	0
吠	0
呕	0
园	0
旷	0
围	0
呀	0
吨	0
足	0
邮	0
男	0
困	0
吵	0
串	0
员	0
呐	0
听	0
吟	0
吩	0
呛	0
吻	0
吹	0
呜	0
吭	0
吧	0
邑	0
吼	0
囤	0
别	0
吮	0
岖	0
岗	0
帐	0
财	0
针	0
钉	0
牡	0
告	0
我	0
乱	0
利	0
秃	0
秀	0
私	0
每	0
兵	0
估	0
体	0
何	0
佐	0
佑	0
但	0
伸	0
佃	0
作	0
伯	0
伶	0
佣	0
低	0
你	0
住	0
位	0
伴	0
身	0
皂	0
伺	0
佛	0
囱	0
近	0
彻	0
役	0
返	0
余	0
希	0
坐	0
谷	0
妥	0
含	0
邻	0
岔	0
肝	0
肛	0
肚	0
肘	0
肠	0
龟	0
甸	0
免	0
狂	0
犹	0
狈	0
角	0
删	0
条	0
彤	0
卵	0
灸	0
岛	0
刨	0
迎	0
饭	0
饮	0
系	0
言	0
冻	0
状	0
亩	0
况	0
床	0
库	0
庇	0
疗	0
吝	0
应	0
这	0
冷	0
庐	0
序	0
辛	0
弃	0
冶	0
忘	0
闰	0
闲	0
间	0
闷	0
判	0
兑	0
灶	0
灿	0
灼	0
弟	0
汪	0
沐	0
沛	0
汰	0
沥	0
沙	0
汽	0
沃	0
沦	0
汹	0
泛	0
沧	0
没	0
沟	0
沪	0
沈	0
沉	0
沁	0
怀	0
忧	0
忱	0
快	0
完	0
宋	0
宏	0
牢	0
究	0
穷	0
灾	0
良	0
证	0
启	0
评	0
补	0
初	0
社	0
祀	0
识	0
诈	0
诉	0
罕	0
诊	0
词	0
译	0
君	0
灵	0
即	0
层	0
屁	0
尿	0
尾	0
迟	0
局	0
改	0
张	0
忌	0
际	0
陆	0
阿	0
陈	0
阻	0
附	0
坠	0
妓	0
妙	0
妖	0
姊	0
妨	0
妒	0
努	0
忍	0
劲	0
矣	0
鸡	0
纬	0
驱	0
纯	0
纱	0
纲	0
纳	0
驳	0
纵	0
纷	0
纸	0
纹	0
纺	0
驴	0
纽	0
奉	0
玩	0
环	0
武	0
青	0
责	0
现	0
玫	0
表	0
规	0
抹	0
卦	0
坷	0
坯	0
拓	0
拢	0
拔	0
坪	0
拣	0
坦	0
担	0
坤	0
押	0
抽	0
拐	0
拖	0
者	0
拍	0
顶	0
拆	0
拎	0
拥	0
抵	0
拘	0
势	0
抱	0
拄	0
垃	0
拉	0
拦	0
幸	0
拌	0
拧	0
拂	0
拙	0
招	0
坡	0
披	0
拨	0
择	0
抬	0
拇	0
拗	0
其	0
取	0
茉	0
苦	0
昔	0
苛	0
若	0
茂	0
苹	0
苗	0
英	0
苟	0
苑	0
苞	0
范	0
直	0
茁	0
茄	0
茎	0
苔	0
茅	0
枉	0
林	0
枝	0
杯	0
枢	0
柜	0
枚	0
析	0
板	0
松	0
枪	0
枫	0
构	0
杭	0
杰	0
述	0
枕	0
丧	0
或	0
画	0
卧	0
事	0
刺	0
枣	0
雨	0
卖	0
郁	0
矾	0
矿	0
码	0
厕	0
奈	0
奔	0
奇	0
奋	0
态	0
欧	0
殴	0
垄	0
妻	0
轰	0
顷	0
转	0
斩	0
轮	0
软	0
到	0
非	0
叔	0
歧	0
肯	0
齿	0
些	0
卓	0
虎	0
虏	0
肾	0
贤	0
尚	0
旺	0
具	0
味	0
果	0
昆	0
国	0
哎	0
咕	0
昌	0
呵	0
畅	0
明	0
易	0
咙	0
昂	0
迪	0
典	0
固	0
忠	0
呻	0
咒	0
咋	0
咐	0
呼	0
鸣	0
咏	0
呢	0
咄	0
咖	0
岸	0
岩	0
帖	0
罗	0
帜	0
帕	0
岭	0
凯	0
败	0
账	0
贩	0
贬	0
购	0
贮	0
图	0
钓	0
制	0
知	0
迭	0
氛	0
垂	0
牧	0
物	0
乖	0
刮	0
秆	0
和	0
季	0
委	0
秉	0
佳	0
侍	0
岳	0
供	0
使	0
例	0
侠	0
侥	0
版	0
侄	0
侦	0
侣	0
侧	0
凭	0
侨	0
佩	0
货	0
侈	0
依	0
卑	0
的	0
迫	0
质	0
欣	0
征	0
往	0
爬	0
彼	0
径	0
所	0
舍	0
金	0
刹	0
命	0
肴	0
斧	0
爸	0
采	0
觅	0
受	0
乳	0
贪	0
念	0
贫	0
忿	0
肤	0
肺	0
肢	0
肿	0
胀	0
朋	0
股	0
肮	0
肪	0
肥	0
服	0
胁	0
周	0
昏	0
鱼	0
兔	0
狐	0
忽	0
狗	0
狞	0
备	0
饰	0
饱	0
饲	0
变	0
京	0
享	0
庞	0
店	0
夜	0
庙	0
府	0
底	0
疟	0
疙	0
疚	0
剂	0
卒	0
郊	0
庚	0
废	0
净	0
盲	0
放	0
刻	0
育	0
氓	0
闸	0
闹	0
郑	0
券	0
卷	0
单	0
炬	0
炒	0
炊	0
炕	0
炎	0
炉	0
沫	0
浅	0
法	0
泄	0
沽	0
河	0
沾	0
泪	0
沮	0
油	0
泊	0
沿	0
泡	0
注	0
泣	0
泞	0
泻	0
泌	0
泳	0
泥	0
沸	0
沼	0
波	0
泼	0
泽	0
治	0
怔	0
怯	0
怖	0
性	0
怕	0
怜	0
怪	0
怡	0
学	0
宝	0
宗	0
定	0
宠	0
宜	0
审	0
宙	0
官	0
空	0
帘	0
宛	0
实	0
试	0
郎	0
诗	0
肩	0
房	0
诚	0
衬	0
衫	0
视	0
祈	0
话	0
诞	0
诡	0
询	0
该	0
详	0
建	0
肃	0
录	0
隶	0
帚	0
屉	0
居	0
届	0
刷	0
屈	0
弧	0
弥	0
弦	0
承	0
孟	0
陋	0
陌	0
孤	0
陕	0
降	0
函	0
限	0
妹	0
姑	0
姐	0
姓	0
妮	0
始	0
姆	0
迢	0
驾	0
叁	0
参	0
艰	0
线	0
练	0
组	0
绅	0
细	0
驶	0
织	0
驹	0
终	0
驻	0
绊	0
驼	0
绍	0
绎	0
经	0
贯	0
契	0
贰	0
奏	0
春	0
帮	0
玷	0
珍	0
玲	0
珊	0
玻	0
毒	0
型	0
拭	0
挂	0
封	0
持	0
拷	0
拱	0
项	0
垮	0
挎	0
城	0
挟	0
挠	0
政	0
赴	0
赵	0
挡	0
拽	0
哉	0
挺	0
括	0
垢	0
拴	0
拾	0
挑	0
垛	0
指	0
垫	0
挣	0
挤	0
拼	0
挖	0
按	0
挥	0
挪	0
拯	0
某	0
甚	0
荆	0
茸	0
革	0
茬	0
荐	0
巷	0
带	0
草	0
茧	0
茵	0
茶	0
荒	0
茫	0
荡	0
荣	0
荤	0
荧	0
故	0
胡	0
荫	0
荔	0
南	0
药	0
标	0
栈	0
柑	0
枯	0
柄	0
栋	0
相	0
查	0
柏	0
栅	0
柳	0
柱	0
柿	0
栏	0
柠	0
树	0
勃	0
要	0
柬	0
咸	0
威	0
歪	0
研	0
砖	0
厘	0
厚	0
砌	0
砂	0
泵	0
砚	0
砍	0
面	0
耐	0
耍	0
牵	0
鸥	0
残	0
殃	0
轴	0
轻	0
鸦	0
皆	0
韭	0
背	0
战	0
点	0
虐	0
临	0
览	0
竖	0
省	0
削	0
尝	0
昧	0
盹	0
是	0
盼	0
眨	0
哇	0
哄	0
哑	0
显	0
冒	0
映	0
星	0
昨	0
咧	0
昭	0
畏	0
趴	0
胃	0
贵	0
界	0
虹	0
虾	0
蚁	0
思	0
蚂	0
虽	0
品	0
咽	0
骂	0
勋	0
哗	0
咱	0
响	0
哈	0
哆	0
咬	0
咳	0
咪	0
哪	0
哟	0
炭	0
峡	0
罚	0
贱	0
贴	0
贻	0
骨	0
幽	0
钙	0
钝	0
钞	0
钟	0
钢	0
钠	0
钥	0
钦	0
钧	0
钩	0
钮	0
卸	0
缸	0
拜	0
看	0
矩	0
毡	0
氢	0
怎	0
牲	0
选	0
适	0
秒	0
香	0
种	0
秋	0
科	0
重	0
复	0
竿	0
段	0
便	0
俩	0
贷	0
顺	0
修	0
俏	0
保	0
促	0
俄	0
俐	0
侮	0
俭	0
俗	0
俘	0
信	0
皇	0
泉	0
鬼	0
侵	0
禹	0
侯	0
追	0
俊	0
盾	0
待	0
徊	0
衍	0
律	0
很	0
须	0
叙	0
剑	0
逃	0
食	0
盆	0
胚	0
胧	0
胆	0
胜	0
胞	0
胖	0
脉	0
胎	0
勉	0
狭	0
狮	0
独	0
狰	0
狡	0
狱	0
狠	0
贸	0
怨	0
急	0
饵	0
饶	0
蚀	0
饺	0
饼	0
峦	0
弯	0
将	0
奖	0
哀	0
亭	0
亮	0
度	0
迹	0
庭	0
疮	0
疯	0
疫	0
疤	0
咨	0
姿	0
亲	0
音	0
帝	0
施	0
闺	0
闻	0
闽	0
阀	0
阁	0
差	0
养	0
美	0
姜	0
叛	0
送	0
类	0
迷	0
籽	0
娄	0
前	0
首	0
逆	0
兹	0
总	0
炼	0
炸	0
烁	0
炮	0
炫	0
烂	0
剃	0
洼	0
洁	0
洪	0
洒	0
柒	0
浇	0
浊	0
洞	0
测	0
洗	0
活	0
派	0
洽	0
染	0
洛	0
浏	0
济	0
洋	0
洲	0
浑	0
浓	0
津	0
恃	0
恒	0
恢	0
恍	0
恬	0
恤	0
恰	0
恼	0
恨	0
举	0
觉	0
宣	0
宦	0
室	0
宫	0
宪	0
突	0
穿	0
窃	0
客	0
诫	0
冠	0
诬	0
语	0
扁	0
袄	0
祖	0
神	0
祝	0
祠	0
误	0
诱	0
诲	0
说	0
诵	0
垦	0
退	0
既	0
屋	0
昼	0
屏	0
屎	0
费	0
陡	0
逊	0
眉	0
孩	0
陨	0
除	0
险	0
院	0
娃	0
姥	0
姨	0
姻	0
娇	0
姚	0
娜	0
怒	0
架	0
贺	0
盈	0
勇	0
怠	0
癸	0
蚤	0
柔	0
垒	0
绑	0
绒	0
结	0
绕	0
骄	0
绘	0
给	0
绚	0
骆	0
络	0
绝	0
绞	0
骇	0
统	0
耕	0
耘	0
耗	0
耙	0
艳	0
泰	0
秦	0
珠	0
班	0
素	0
匿	0
蚕	0
顽	0
盏	0
匪	0
捞	0
栽	0
捕	0
埂	0
捂	0
振	0
载	0
赶	0
起	0
盐	0
捎	0
捍	0
捏	0
埋	0
捉	0
捆	0
捐	0
损	0
袁	0
捌	0
都	0
哲	0
逝	0
捡	0
挫	0
换	0
挽	0
挚	0
热	0
恐	0
捣	0
壶	0
捅	0
埃	0
挨	0
耻	0
耿	0
耽	0
聂	0
恭	0
莽	0
莱	0
莲	0
莫	0
莉	0
荷	0
获	0
晋	0
恶	0
莹	0
莺	0
真	0
框	0
梆	0
桂	0
桔	0
栖	0
档	0
桐	0
株	0
桥	0
桦	0
栓	0
桃	0
格	0
桩	0
校	0
核	0
样	0
根	0
索	0
哥	0
速	0
逗	0
栗	0
贾	0
酌	0
配	0
翅	0
辱	0
唇	0
夏	0
砸	0
砰	0
砾	0
础	0
破	0
原	0
套	0
逐	0
烈	0
殊	0
殉	0
顾	0
轿	0
较	0
顿	0
毙	0
致	0
柴	0
桌	0
虑	0
监	0
紧	0
党	0
逞	0
晒	0
眠	0
晓	0
哮	0
唠	0
鸭	0
晃	0
哺	0
晌	0
剔	0
晕	0
蚌	0
畔	0
蚣	0
蚊	0
蚪	0
蚓	0
哨	0
哩	0
圃	0
哭	0
哦	0
恩	0
鸯	0
唤	0
唁	0
哼	0
唧	0
啊	0
唉	0
唆	0
罢	0
峭	0
峨	0
峰	0
圆	0
峻	0
贼	0
贿	0
赂	0
赃	0
钱	0
钳	0
钻	0
钾	0
铁	0
铃	0
铅	0
缺	0
氧	0
氨	0
特	0
牺	0
造	0
乘	0
敌	0
秤	0
租	0
积	0
秧	0
秩	0
称	0
秘	0
透	0
笔	0
笑	0
笋	0
债	0
借	0
值	0
倚	0
俺	0
倾	0
倒	0
倘	0
俱	0
倡	0
候	0
赁	0
俯	0
倍	0
倦	0
健	0
臭	0
射	0
躬	0
息	0
倔	0
徒	0
徐	0
殷	0
舰	0
舱	0
般	0
航	0
途	0
拿	0
耸	0
爹	0
舀	0
爱	0
豺	0
豹	0
颁	0
颂	0
翁	0
胰	0
脆	0
脂	0
胸	0
胳	0
脏	0
脐	0
胶	0
脑	0
脓	0
逛	0
狸	0
狼	0
卿	0
逢	0
鸵	0
留	0
鸳	0
皱	0
饿	0
馁	0
凌	0
凄	0
恋	0
桨	0
浆	0
衰	0
衷	0
高	0
郭	0
席	0
准	0
座	0
症	0
病	0
疾	0
斋	0
疹	0
疼	0
疲	0
脊	0
效	0
离	0
紊	0
唐	0
瓷	0
资	0
凉	0
站	0
剖	0
竞	0
部	0
旁	0
旅	0
畜	0
阅	0
羞	0
羔	0
瓶	0
拳	0
粉	0
料	0
益	0
兼	0
烤	0
烘	0
烦	0
烧	0
烛	0
烟	0
烙	0
递	0
涛	0
浙	0
涝	0
浦	0
酒	0
涉	0
消	0
涡	0
浩	0
海	0
涂	0
浴	0
浮	0
涣	0
涤	0
流	0
润	0
涧	0
涕	0
浪	0
浸	0
涨	0
烫	0
涩	0
涌	0
悖	0
悟	0
悄	0
悍	0
悔	0
悯	0
悦	0
害	0
宽	0
家	0
宵	0
宴	0
宾	0
窍	0
窄	0
容	0
宰	0
案	0
请	0
朗	0
诸	0
诺	0
读	0
扇	0
诽	0
袜	0
袖	0
袍	0
被	0
祥	0
课	0
冥	0
谁	0
调	0
冤	0
谅	0
谆	0
谈	0
谊	0
剥	0
恳	0
展	0
剧	0
屑	0
弱	0
陵	0
祟	0
陶	0
陷	0
陪	0
娱	0
娟	0
恕	0
娥	0
娘	0
通	0
能	0
难	0
预	0
桑	0
绢	0
绣	0
验	0
继	0
骏	0
球	0
琐	0
理	0
琉	0
琅	0
捧	0
堵	0
措	0
描	0
域	0
捺	0
掩	0
捷	0
排	0
焉	0
掉	0
捶	0
赦	0
堆	0
推	0
埠	0
掀	0
授	0
捻	0
教	0
掏	0
掐	0
掠	0
掂	0
培	0
接	0
掷	0
控	0
探	0
据	0
掘	0
掺	0
职	0
基	0
聆	0
勘	0
聊	0
娶	0
著	0
菱	0
勒	0
黄	0
菲	0
萌	0
萝	0
菌	0
萎	0
菜	0
萄	0
菊	0
菩	0
萍	0
菠	0
萤	0
营	0
乾	0
萧	0
萨	0
菇	0
械	0
彬	0
梦	0
婪	0
梗	0
梧	0
梢	0
梅	0
检	0
梳	0
梯	0
桶	0
梭	0
救	0
曹	0
副	0
票	0
酝	0
酗	0
厢	0
戚	0
硅	0
硕	0
奢	0
盔	0
爽	0
聋	0
袭	0
盛	0
匾	0
雪	0
辅	0
辆	0
颅	0
虚	0
彪	0
雀	0
堂	0
常	0
眶	0
匙	0
晨	0
睁	0
眯	0
眼	0
悬	0
野	0
啪	0
啦	0
曼	0
晦	0
晚	0
啄	0
啡	0
距	0
趾	0
啃	0
跃	0
略	0
蚯	0
蛀	0
蛇	0
唬	0
累	0
鄂	0
唱	0
患	0
啰	0
唾	0
唯	0
啤	0
啥	0
啸	0
崖	0
崎	0
崭	0
逻	0
崔	0
帷	0
崩	0
崇	0
崛	0
婴	0
圈	0
铐	0
铛	0
铝	0
铜	0
铭	0
铲	0
银	0
矫	0
甜	0
秸	0
梨	0
犁	0
秽	0
移	0
笨	0
笼	0
笛	0
笙	0
符	0
第	0
敏	0
做	0
袋	0
悠	0
偿	0
偶	0
偎	0
偷	0
您	0
售	0
停	0
偏	0
躯	0
兜	0
假	0
衅	0
徘	0
徙	0
得	0
衔	0
盘	0
舶	0
船	0
舵	0
斜	0
盒	0
鸽	0
敛	0
悉	0
欲	0
彩	0
领	0
脚	0
脖	0
脯	0
豚	0
脸	0
脱	0
象	0
够	0
逸	0
猜	0
猪	0
猎	0
猫	0
凰	0
猖	0
猛	0
祭	0
馅	0
馆	0
凑	0
减	0
毫	0
烹	0
庶	0
麻	0
庵	0
痊	0
痒	0
痕	0
廊	0
康	0
庸	0
鹿	0
盗	0
章	0
竟	0
商	0
族	0
旋	0
望	0
率	0
阎	0
阐	0
着	0
羚	0
盖	0
眷	0
粘	0
粗	0
粒	0
断	0
剪	0
兽	0
焊	0
焕	0
清	0
添	0
鸿	0
淋	0
涯	0
淹	0
渠	0
渐	0
淑	0
淌	0
混	0
淮	0
淆	0
渊	0
淫	0
渔	0
淘	0
淳	0
液	0
淤	0
淡	0
淀	0
深	0
涮	0
涵	0
婆	0
梁	0
渗	0
情	0
惜	0
惭	0
悼	0
惧	0
惕	0
惟	0
惊	0
惦	0
悴	0
惋	0
惨	0
惯	0
寇	0
寅	0
寄	0
寂	0
宿	0
窒	0
窑	0
密	0
谋	0
谍	0
谎	0
谐	0
袱	0
祷	0
祸	0
谓	0
谚	0
谜	0
逮	0
敢	0
尉	0
屠	0
弹	0
隋	0
堕	0
随	0
蛋	0
隅	0
隆	0
隐	0
婚	0
婶	0
婉	0
颇	0
颈	0
绩	0
绪	0
续	0
骑	0
绰	0
绳	0
维	0
绵	0
绷	0
绸	0
综	0
绽	0
绿	0
缀	0
巢	0
琴	0
琳	0
琢	0
琼	0
斑	0
替	0
揍	0
款	0
堪	0
塔	0
搭	0
堰	0
揩	0
越	0
趁	0
趋	0
超	0
揽	0
堤	0
提	0
博	0
揭	0
喜	0
彭	0
揣	0
插	0
揪	0
搜	0
煮	0
援	0
搀	0
裁	0
搁	0
搓	0
搂	0
搅	0
壹	0
握	0
搔	0
揉	0
斯	0
期	0
欺	0
联	0
葫	0
散	0
惹	0
葬	0
募	0
葛	0
董	0
葡	0
敬	0
葱	0
蒋	0
蒂	0
落	0
韩	0
朝	0
辜	0
葵	0
棒	0
棱	0
棋	0
椰	0
植	0
森	0
焚	0
椅	0
椒	0
棵	0
棍	0
椎	0
棉	0
棚	0
棕	0
棺	0
榔	0
椭	0
惠	0
惑	0
逼	0
粟	0
棘	0
酣	0
酥	0
厨	0
厦	0
硬	0
硝	0
确	0
硫	0
雁	0
殖	0
裂	0
雄	0
颊	0
雳	0
暂	0
雅	0
翘	0
辈	0
悲	0
紫	0
凿	0
辉	0
敞	0
棠	0
赏	0
掌	0
晴	0
睐	0
暑	0
最	0
晰	0
量	0
鼎	0
喷	0
喳	0
晶	0
喇	0
遇	0
喊	0
遏	0
晾	0
景	0
畴	0
践	0
跋	0
跌	0
跑	0
跛	0
遗	0
蛙	0
蛛	0
蜓	0
蜒	0
蛤	0
喝	0
鹃	0
喂	0
喘	0
喉	0
喻	0
啼	0
喧	0
嵌	0
幅	0
帽	0
赋	0
赌	0
赎	0
赐	0
赔	0
黑	0
铸	0
铺	0
链	0
销	0
锁	0
锄	0
锅	0
锈	0
锋	0
锌	0
锐	0
甥	0
掰	0
短	0
智	0
氮	0
毯	0
氯	0
鹅	0
剩	0
稍	0
程	0
稀	0
税	0
筐	0
等	0
筑	0
策	0
筛	0
筒	0
筏	0
答	0
筋	0
筝	0
傲	0
傅	0
牌	0
堡	0
集	0
焦	0
傍	0
储	0
皓	0
皖	0
粤	0
奥	0
街	0
惩	0
御	0
循	0
艇	0
舒	0
逾	0
番	0
释	0
禽	0
腊	0
脾	0
腋	0
腔	0
腕	0
鲁	0
猩	0
猬	0
猾	0
猴	0
惫	0
然	0
馈	0
馋	0
装	0
蛮	0
就	0
敦	0
斌	0
痘	0
痢	0
痪	0
痛	0
童	0
竣	0
阔	0
善	0
翔	0
羡	0
普	0
粪	0
尊	0
奠	0
道	0
遂	0
曾	0
焰	0
港	0
滞	0
湖	0
湘	0
渣	0
渤	0
渺	0
湿	0
温	0
渴	0
溃	0
溅	0
滑	0
湃	0
渝	0
湾	0
渡	0
游	0
滋	0
渲	0
溉	0
愤	0
慌	0
惰	0
愕	0
愣	0
惶	0
愧	0
愉	0
慨	0
割	0
寒	0
富	0
寓	0
窜	0
窝	0
窖	0
窗	0
窘	0
遍	0
雇	0
裕	0
裤	0
裙	0
禅	0
禄	0
谢	0
谣	0
谤	0
谦	0
犀	0
属	0
屡	0
强	0
粥	0
疏	0
隔	0
隙	0
隘	0
媒	0
絮	0
嫂	0
媚	0
婿	0
登	0
缅	0
缆	0
缉	0
缎	0
缓	0
缔	0
缕	0
骗	0
编	0
骚	0
缘	0
瑟	0
鹉	0
瑞	0
瑰	0
瑙	0
魂	0
肆	0
摄	0
摸	0
填	0
搏	0
塌	0
鼓	0
摆	0
携	0
搬	0
摇	0
搞	0
塘	0
摊	0
聘	0
斟	0
蒜	0
勤	0
靴	0
靶	0
鹊	0
蓝	0
墓	0
幕	0
蓬	0
蓄	0
蒲	0
蓉	0
蒙	0
蒸	0
献	0
椿	0
禁	0
楚	0
楷	0
榄	0
想	0
槐	0
榆	0
楼	0
概	0
赖	0
酪	0
酬	0
感	0
碍	0
碘	0
碑	0
碎	0
碰	0
碗	0
碌	0
尴	0
雷	0
零	0
雾	0
雹	0
辐	0
辑	0
输	0
督	0
频	0
龄	0
鉴	0
睛	0
睹	0
睦	0
瞄	0
睫	0
睡	0
睬	0
嗜	0
鄙	0
嗦	0
愚	0
暖	0
盟	0
歇	0
暗	0
暇	0
照	0
畸	0
跨	0
跷	0
跳	0
跺	0
跪	0
路	0
跤	0
跟	0
遣	0
蜈	0
蜗	0
蛾	0
蜂	0
蜕	0
嗅	0
嗡	0
嗓	0
署	0
置	0
罪	0
罩	0
蜀	0
幌	0
错	0
锚	0
锡	0
锣	0
锤	0
锥	0
锦	0
键	0
锯	0
锰	0
矮	0
辞	0
稚	0
稠	0
颓	0
愁	0
筹	0
签	0
简	0
筷	0
毁	0
舅	0
鼠	0
催	0
傻	0
像	0
躲	0
魁	0
衙	0
微	0
愈	0
遥	0
腻	0
腰	0
腥	0
腮	0
腹	0
腺	0
鹏	0
腾	0
腿	0
鲍	0
猿	0
颖	0
触	0
解	0
煞	0
雏	0
馍	0
馏	0
酱	0
禀	0
痹	0
廓	0
痴	0
痰	0
廉	0
靖	0
新	0
韵	0
意	0
誊	0
粮	0
数	0
煎	0
塑	0
慈	0
煤	0
煌	0
满	0
漠	0
滇	0
源	0
滤	0
滥	0
滔	0
溪	0
溜	0
漓	0
滚	0
溢	0
溯	0
滨	0
溶	0
溺	0
粱	0
滩	0
慎	0
誉	0
塞	0
寞	0
窥	0
窟	0
寝	0
谨	0
褂	0
裸	0
福	0
谬	0
群	0
殿	0
辟	0
障	0
媳	0
嫉	0
嫌	0
嫁	0
叠	0
缚	0
缝	0
缠	0
缤	0
剿	0
静	0
碧	0
璃	0
赘	0
熬	0
墙	0
墟	0
嘉	0
摧	0
赫	0
截	0
誓	0
境	0
摘	0
摔	0
撇	0
聚	0
慕	0
暮	0
摹	0
蔓	0
蔑	0
蔡	0
蔗	0
蔽	0
蔼	0
熙	0
蔚	0
兢	0
模	0
槛	0
榴	0
榜	0
榨	0
榕	0
歌	0
遭	0
酵	0
酷	0
酿	0
酸	0
碟	0
碱	0
碳	0
磁	0
愿	0
需	0
辖	0
辗	0
雌	0
裳	0
颗	0
瞅	0
墅	0
嗽	0
踊	0
蜻	0
蜡	0
蝇	0
蜘	0
蝉	0
嘛	0
嘀	0
赚	0
锹	0
锻	0
镀	0
舞	0
舔	0
稳	0
熏	0
箕	0
算	0
箩	0
管	0
箫	0
舆	0
僚	0
僧	0
鼻	0
魄	0
魅	0
貌	0
膜	0
膊	0
膀	0
鲜	0
疑	0
孵	0
馒	0
裹	0
敲	0
豪	0
膏	0
遮	0
腐	0
瘩	0
瘟	0
瘦	0
辣	0
彰	0
竭	0
端	0
旗	0
精	0
粹	0
歉	0
弊	0
熄	0
熔	0
煽	0
潇	0
漆	0
漱	0
漂	0
漫	0
滴	0
漾	0
演	0
漏	0
慢	0
慷	0
寨	0
赛	0
寡	0
察	0
蜜	0
寥	0
谭	0
肇	0
褐	0
褪	0
谱	0
隧	0
嫩	0
翠	0
熊	0
凳	0
骡	0
缩	0
慧	0
撵	0
撕	0
撒	0
撩	0
趣	0
趟	0
撑	0
撮	0
撬	0
播	0
擒	0
墩	0
撞	0
撤	0
增	0
撰	0
聪	0
鞋	0
鞍	0
蕉	0
蕊	0
蔬	0
蕴	0
横	0
槽	0
樱	0
橡	0
樟	0
橄	0
敷	0
豌	0
飘	0
醋	0
醇	0
醉	0
磕	0
磊	0
磅	0
碾	0
震	0
霄	0
霉	0
瞒	0
题	0
暴	0
瞎	0
嘻	0
嘶	0
嘲	0
嘹	0
影	0
踢	0
踏	0
踩	0
踪	0
蝶	0
蝴	0
蝠	0
蝎	0
蝌	0
蝗	0
蝙	0
嘿	0
嘱	0
幢	0
墨	0
镇	0
镐	0
镑	0
靠	0
稽	0
稻	0
黎	0
稿	0
稼	0
箱	0
篓	0
箭	0
篇	0
僵	0
躺	0
僻	0
德	0
艘	0
膝	0
膛	0
鲤	0
鲫	0
熟	0
摩	0
褒	0
瘪	0
瘤	0
瘫	0
凛	0
颜	0
毅	0
糊	0
遵	0
憋	0
潜	0
澎	0
潮	0
潭	0
鲨	0
澳	0
潘	0
澈	0
澜	0
澄	0
懂	0
憔	0
懊	0
憎	0
额	0
翩	0
褥	0
谴	0
鹤	0
憨	0
慰	0
劈	0
履	0
豫	0
缭	0
撼	0
擂	0
操	0
擅	0
燕	0
蕾	0
薯	0
薛	0
薇	0
擎	0
薪	0
薄	0
颠	0
翰	0
噩	0
橱	0
橙	0
橘	0
整	0
融	0
瓢	0
醒	0
霍	0
霎	0
辙	0
冀	0
餐	0
嘴	0
踱	0
蹄	0
蹂	0
蟆	0
螃	0
器	0
噪	0
鹦	0
赠	0
默	0
黔	0
镜	0
赞	0
穆	0
篮	0
篡	0
篷	0
篱	0
儒	0
邀	0
衡	0
膨	0
雕	0
鲸	0
磨	0
瘾	0
瘸	0
凝	0
辨	0
辩	0
糙	0
糖	0
糕	0
燃	0
濒	0
澡	0
激	0
懒	0
憾	0
懈	0
窿	0
壁	0
避	0
缰	0
缴	0
戴	0
擦	0
藉	0
鞠	0
藏	0
藐	0
檬	0
檐	0
檀	0
礁	0
磷	0
霜	0
霞	0
瞭	0
瞧	0
瞬	0
瞳	0
瞩	0
瞪	0
曙	0
蹋	0
蹈	0
螺	0
蟋	0
蟀	0
嚎	0
赡	0
穗	0
魏	0
簧	0
簇	0
繁	0
徽	0
爵	0
朦	0
臊	0
鳄	0
癌	0
辫	0
赢	0
糟	0
糠	0
燥	0
懦	0
豁	0
臀	0
臂	0
翼	0
骤	0
藕	0
鞭	0
藤	0
覆	0
瞻	0
蹦	0
嚣	0
镰	0
翻	0
鳍	0
鹰	0
瀑	0
襟	0
璧	0
戳	0
孽	0
警	0
蘑	0
藻	0
攀	0
曝	0
蹲	0
蹭	0
蹬	0
巅	0
簸	0
簿	0
蟹	0
颤	0
靡	0
癣	0
瓣	0
羹	0
鳖	0
爆	0
疆	0
鬓	0
壤	0
馨	0
耀	0
躁	0
蠕	0
嚼	0
嚷	0
巍	0
籍	0
鳞	0
魔	0
糯	0
灌	0
譬	0
蠢	0
霸	0
露	0
霹	0
躏	0
黯	0
髓	0
赣	0
囊	0
镶	0
瓤	0
罐	0
矗	0
北京市	0
北京	0
天津市	0
天津	0
河北省	0
山西省	0
内蒙古自治区	0
辽宁省	0
吉林省	0
黑龙江省	0
上海市	0
上海	0
江苏省	0
浙江省	0
安徽省	0
福建省	0
江西省	0
山东省	0
河南省	0
湖北省	0
湖南省	0
广东省	0
广西壮族自治区	0
海南省	0
重庆市	0
重庆	0
四川省	0
贵州省	0
云南省	0
西藏自治区	0
陕西省	0
甘肃省	0
青海省	0
宁夏回族自治区	0
新疆维吾尔自治区	0
石家庄市	0
石家庄	0
唐山市	0
唐山	0
秦皇岛市	0
秦皇岛	0
邯郸市	0
邯郸	0
邢台市	0
邢台	0
保定市	0
保定	0
张家口市	0
张家口	0
承德市	0
承德	0
沧州市	0
沧州	0
廊坊市	0
廊坊	0
衡水市	0
衡水	0
太原市	0
太原	0
大同市	0
大同	0
阳泉市	0
阳泉	0
长治市	0
长治	0
晋城市	0
晋城	0
朔州市	0
朔州	0
晋中市	0
晋中	0
运城市	0
运城	0
忻州市	0
忻州	0
临汾市	0
临汾	0
吕梁市	0
吕梁	0
呼和浩特市	0
呼和浩特	0
包头市	0
包头	0
乌海市	0
乌海	0
赤峰市	0
赤峰	0
通辽市	0
通辽	0
鄂尔多斯市	0
鄂尔多斯	0
呼伦贝尔市	0
呼伦贝尔	0
巴彦淖尔市	0
巴彦淖尔	0
乌兰察布市	0
乌兰察布	0
兴安盟	0
兴安	0
锡林郭勒盟	0
锡林郭勒	0
阿拉善盟	0
阿拉善	0
沈阳市	0
沈阳	0
大连市	0
大连	0
鞍山市	0
鞍山	0
抚顺市	0
抚顺	0
本溪市	0
本溪	0
丹东市	0
丹东	0
锦州市	0
锦州	0
营口市	0
营口	0
阜新市	0
阜新	0
辽阳市	0
辽阳	0
盘锦市	0
盘锦	0
铁岭市	0
铁岭	0
朝阳市	0
朝阳	0
葫芦岛市	0
葫芦岛	0
长春市	0
长春	0
吉林市	0
吉林	0
四平市	0
四平	0
辽源市	0
辽源	0
通化市	0
通化	0
白山市	0
白山	0
松原市	0
松原	0
白城市	0
白城	0
延边朝鲜族自治州	0
延边朝鲜族	0
哈尔滨市	0
哈尔滨	0
齐齐哈尔市	0
齐齐哈尔	0
鸡西市	0
鸡西	0
鹤岗市	0
鹤岗	0
双鸭山市	0
双鸭山	0
大庆市	0
大庆	0
伊春市	0
伊春	0
佳木斯市	0
佳木斯	0
七台河市	0
七台河	0
牡丹江市	0
牡丹江	0
黑河市	0
黑河	0
绥化市	0
绥化	0
大兴安岭地区	0
大兴安岭	0
南京市	0
南京	0
无锡市	0
无锡	0
徐州市	0
徐州	0
常州市	0
常州	0
苏州市	0
苏州	0
南通市	0
南通	0
连云港市	0
连云港	0
淮安市	0
淮安	0
盐城市	0
盐城	0
扬州市	0
扬州	0
镇江市	0
镇江	0
泰州市	0
泰州	0
宿迁市	0
宿迁	0
杭州市	0
杭州	0
宁波市	0
宁波	0
温州市	0
温州	0
嘉兴市	0
嘉兴	0
湖州市	0
湖州	0
绍兴市	0
绍兴	0
金华市	0
金华	0
衢州市	0
衢州	0
舟山市	0
舟山	0
台州市	0
台州	0
丽水市	0
丽水	0
合肥市	0
合肥	0
芜湖市	0
芜湖	0
蚌埠市	0
蚌埠	0
淮南市	0
淮南	0
马鞍山市	0
马鞍山	0
淮北市	0
淮北	0
铜陵市	0
铜陵	0
安庆市	0
安庆	0
黄山市	0
黄山	0
滁州市	0
滁州	0
阜阳市	0
阜阳	0
宿州市	0
宿州	0
六安市	0
六安	0
亳州市	0
亳州	0
池州市	0
池州	0
宣城市	0
宣城	0
福州市	0
福州	0
厦门市	0
厦门	0
莆田市	0
莆田	0
三明市	0
三明	0
泉州市	0
泉州	0
漳州市	0
漳州	0
南平市	0
南平	0
龙岩市	0
龙岩	0
宁德市	0
宁德	0
南昌市	0
南昌	0
景德镇市	0
景德镇	0
萍乡市	0
萍乡	0
九江市	0
九江	0
新余市	0
新余	0
鹰潭市	0
鹰潭	0
赣州市	0
赣州	0
吉安市	0
吉安	0
宜春市	0
宜春	0
抚州市	0
抚州	0
上饶市	0
上饶	0
济南市	0
济南	0
青岛市	0
青岛	0
淄博市	0
淄博	0
枣庄市	0
枣庄	0
东营市	0
东营	0
烟台市	0
烟台	0
潍坊市	0
潍坊	0
济宁市	0
济宁	0
泰安市	0
泰安	0
威海市	0
威海	0
日照市	0
日照	0
临沂市	0
临沂	0
德州市	0
德州	0
聊城市	0
聊城	0
滨州市	0
滨州	0
菏泽市	0
菏泽	0
郑州市	0
郑州	0
开封市	0
开封	0
洛阳市	0
洛阳	0
平顶山市	0
平顶山	0
安阳市	0
安阳	0
鹤壁市	0
鹤壁	0
新乡市	0
新乡	0
焦作市	0
焦作	0
濮阳市	0
濮阳	0
许昌市	0
许昌	0
漯河市	0
漯河	0
三门峡市	0
三门峡	0
南阳市	0
南阳	0
商丘市	0
商丘	0
信阳市	0
信阳	0
周口市	0
周口	0
驻马店市	0
驻马店	0
武汉市	0
武汉	0
黄石市	0
黄石	0
十堰市	0
十堰	0
宜昌市	0
宜昌	0
襄阳市	0
襄阳	0
鄂州市	0
鄂州	0
荆门市	0
荆门	0
孝感市	0
孝感	0
荆州市	0
荆州	0
黄冈市	0
黄冈	0
咸宁市	0
咸宁	0
随州市	0
随州	0
恩施土家族苗族自治州	0
恩施土家族苗族	0
长沙市	0
长沙	0
株洲市	0
株洲	0
湘潭市	0
湘潭	0
衡阳市	0
衡阳	0
邵阳市	0
邵阳	0
岳阳市	0
岳阳	0
常德市	0
客厅	0
卧室	0
书房	0
厨房	0
卫生间	0
阳台	0
餐厅	0
主卧	0
次卧	0
玄关	0
儿童房	0
办公室	0
会议室	0
走廊	0
浴室	0
厕所	0
。	-0.291983
、	-4.60674
)	-4.82736
(	-4.88389
▁	-5.51773
為	-5.68713
國	-5.80933
於	-5.82706
《	-6.00572
·	-6.0108
-	-6.04672
》	-6.06692
Category	-6.22017
|	-6.22963
學	-6.30146
()	-6.43925
「	-6.48147
.	-6.55546
與	-6.58375
後	-6.61375
1	-6.62322
」	-6.64864
區	-6.68242
“	-6.69049
時	-6.72837
個	-6.77778
;	-6.81936
2	-6.84373
”	-6.85992
3	-6.97299
會	-7.00361
px	-7.03895
東	-7.04079
長	-7.04554
發	-7.10458
4	-7.13684
縣	-7.16191
亞	-7.16637
員	-7.23026
稱	-7.25837
5	-7.28227
灣	-7.29567
車	-7.29709
線	-7.30253
thumb	-7.30989
爾	-7.31484
來	-7.32528
軍	-7.33151
間	-7.35616
種	-7.37116
10	-7.38058
華	-7.39381
並	-7.39624
8	-7.41122
6	-7.42539
7	-7.45061
進	-7.45443
9	-7.47893
▁thumb	-7.48059
開	-7.48608
內	-7.49264
12	-7.50476
體	-7.51628
現	-7.51629
電	-7.52735
過	-7.54221
號	-7.62466
歷	-7.63061
馬	-7.63181
11	-7.64049
蘭	-7.65001
島	-7.65987
郡	-7.66347
語	-7.66493
屬	-7.67406
數	-7.67543
動	-7.67612
羅	-7.70532
對	-7.71025
經	-7.72185
/	-7.76899
將	-7.77816
參	-7.78742
門	-7.79026
達	-7.79939
場	-7.80136
隊	-7.81405
義	-7.81631
賽	-7.82396
書	-7.84165
龍	-7.84772
設	-7.8512
當	-7.85302
約	-7.85896
從	-7.87342
s	-7.89021
C	-7.90275
資	-7.91657
鐵	-7.92512
業	-7.93998
戰	-7.94996
樂	-7.9675
||	-7.98548
紀	-7.98566
類	-7.98816
A	-8.01424
總	-8.01576
組	-8.01645
聯	-8.04434
20	-8.05363
務	-8.06874
單	-8.07255
統	-8.07895
兩	-8.08465
zh	-8.12201
該	-8.1298
產	-8.13113
廣	-8.14128
說	-8.14952
級	-8.15595
製	-8.16215
傳	-8.16562
親	-8.16649
這	-8.16782
機	-8.16911
園	-8.17866
則	-8.1792
張	-8.19212
創	-8.20261
劇	-8.22688
處	-8.23658
萬	-8.25366
無	-8.25839
別	-8.26233
點	-8.27051
S	-8.27318
2008	-8.27667
選	-8.28287
黃	-8.28933
奧	-8.2949
節	-8.29944
圖	-8.30127
條	-8.30952
15	-8.31308
2010	-8.32216
獲	-8.32773
師	-8.33248
▁《	-8.33839
維	-8.34885
稱為	-8.36056
團	-8.37074
B	-8.37191
畫	-8.37278
町	-8.37484
頭	-8.37869
愛	-8.38062
2006	-8.38828
關	-8.39403
臺灣	-8.39725
2007	-8.4069
)、	-8.41142
M	-8.42915
2009	-8.43169
結	-8.4322
陳	-8.43483
16	-8.43562
權	-8.44557
漢	-8.44743
兒	-8.46767
據	-8.47161
30	-8.47209
19	-8.47591
黨	-8.47878
2000	-8.47996
獎	-8.48222
積	-8.4865
興	-8.48938
職	-8.49017
見	-8.50243
2005	-8.50268
納	-8.50482
應	-8.50961
18	-8.5135
臺	-8.52034
聖	-8.52823
們	-8.53172
風	-8.54059
舉	-8.54444
|250	-8.5475
14	-8.54869
13	-8.5489
鎮	-8.55039
變	-8.55325
擔	-8.55576
連	-8.55948
》(	-8.56663
》、《	-8.56695
網	-8.57431
報	-8.57921
歐	-8.57928
陽	-8.57952
蘇	-8.58113
D	-8.5813
帶	-8.58591
陸	-8.5886
2004	-8.60624
許	-8.60744
運	-8.61753
質	-8.62323
H	-8.6233
e	-8.6238
領	-8.62861
17	-8.62908
紅	-8.62995
宮	-8.63326
環	-8.63327
導	-8.63934
邊	-8.64029
魚	-8.65009
劉	-8.65429
|-|	-8.65968
連結	-8.66223
編	-8.6723
實	-8.67402
鄉	-8.67641
倫	-8.67853
飾	-8.67885
當時	-8.68819
屆	-8.68901
氣	-8.70521
觀	-8.71008
25	-8.72156
國際	-8.72274
較	-8.725
電視	-8.73078
—	-8.73602
雲	-8.73616
J	-8.73847
G	-8.73868
項	-8.75278
薩	-8.75407
歲	-8.75432
P	-8.75659
館	-8.7569
詞	-8.7579
強	-8.75902
衛	-8.7644
2011	-8.76499
記	-8.76722
2003	-8.77882
樓	-8.78143
K	-8.78175
T	-8.78312
2002	-8.7856
21	-8.78858
雙	-8.78873
屬於	-8.79053
000	-8.80368
E	-8.80409
獻	-8.80486
銀	-8.81468
R	-8.82388
藝	-8.83431
轉	-8.83455
簡	-8.83723
築	-8.84057
視	-8.84113
論	-8.84481
F	-8.85127
24	-8.85292
L	-8.85845
還	-8.86061
魯	-8.86956
獨	-8.87207
譯	-8.87307
離	-8.87308
▁REDIRECT	-8.87377
——	-8.8781
簡稱	-8.88003
葉	-8.88667
讀	-8.89209
沒	-8.90627
錄	-8.90676
標	-8.91171
聞	-8.91246
術	-8.91412
2001	-8.91685
22	-8.91775
遊戲	-8.92056
i	-8.92377
'	-8.92645
a	-8.92684
28	-8.93108
N	-8.93229
諾	-8.93298
設計	-8.9389
23	-8.939
頓	-8.94022
溫	-8.94468
後來	-8.94541
耶	-8.94583
調	-8.95048
橋	-8.96554
寫	-8.975
隨	-8.97685
勝	-8.98425
26	-8.98988
100	-8.99006
發現	-9.00024
徵	-9.01808
時間	-9.02822
The	-9.03056
孫	-9.03355
|200	-9.03846
費	-9.04615
擊	-9.05186
殺	-9.05214
繼	-9.05268
1998	-9.05614
》()	-9.05694
順	-9.05849
200	-9.06222
詩	-9.06295
裝	-9.06802
極	-9.07375
慶	-9.07527
認為	-9.07867
庫	-9.07943
1999	-9.08037
27	-9.08547
層	-9.08825
顯	-9.09114
寶	-9.09368
=	-9.0961
戶	-9.09803
O	-9.10193
禮	-9.10699
W	-9.11071
計	-9.11367
豐	-9.11454
楊	-9.11467
狀	-9.11733
舊	-9.11757
僅	-9.12391
萊	-9.12523
29	-9.12578
組織	-9.12787
吳	-9.13181
擁	-9.13707
麥	-9.13789
樹	-9.14268
裡	-9.15061
飛	-9.15123
1997	-9.15638
給	-9.15781
樣	-9.15985
麗	-9.16598
護	-9.16823
X	-9.17045
圍	-9.17216
眾	-9.17391
運動員	-9.17693
響	-9.17708
g	-9.17808
聲	-9.18497
話	-9.18746
復	-9.18822
寧	-9.18831
m	-9.19005
辦	-9.19024
1994	-9.19151
1990	-9.19993
終	-9.2089
鄰	-9.21165
y	-9.21594
員會	-9.21645
轄	-9.2173
烏	-9.21997
專	-9.22115
協	-9.22297
構	-9.22418
佈	-9.22614
鮮	-9.22944
鰭	-9.23176
滿	-9.23461
側	-9.23814
d	-9.23815
戰爭	-9.24092
茨	-9.24583
1996	-9.24806
n	-9.25195
I	-9.25599
31	-9.25769
2012	-9.25858
廳	-9.25951
規	-9.26042
遠	-9.26278
啟	-9.26358
|300	-9.2661
攝	-9.26874
運動	-9.27015
–	-9.27544
x	-9.27919
專輯	-9.27975
營	-9.28049
t	-9.28064
這個	-9.28338
p	-9.28596
50	-9.29856
V	-9.29857
決	-9.30209
al	-9.31167
500	-9.31641
雖	-9.31736
週	-9.32058
of	-9.32204
醫	-9.32268
靈	-9.32642
態	-9.32875
熱	-9.32897
執	-9.32999
」(	-9.33222
遷	-9.33243
參與	-9.33447
輪	-9.33835
異	-9.33854
1995	-9.34511
藍	-9.3452
細	-9.34765
傑	-9.35854
貝	-9.35878
題	-9.36003
讓	-9.36595
榮	-9.36726
韓國	-9.36927
0	-9.36953
1980	-9.37228
鄭	-9.37381
o	-9.37853
機場	-9.38587
採	-9.39119
2020	-9.39147
澤	-9.39631
韓	-9.39949
遊	-9.40322
鳥	-9.41596
1992	-9.41795
併	-9.4195
2013	-9.42042
U	-9.42146
1993	-9.42147
兩個	-9.42489
關係	-9.43041
頁	-9.43154
晉	-9.43199
亨	-9.43331
and	-9.44175
國國	-9.4422
in	-9.44355
c	-9.44392
監	-9.44495
經濟	-9.44723
圓	-9.44924
廠	-9.45343
電視劇	-9.45356
負責	-9.45454
+	-9.4623
貴	-9.46488
開發	-9.46711
議	-9.46922
賓	-9.47852
勢	-9.48388
銷	-9.48562
聯賽	-9.49237
餘	-9.494
(;)	-9.4943
tw	-9.50127
埔	-9.5057
藝術	-9.50572
將軍	-9.51268
動畫	-9.51443
40	-9.51628
職業	-9.52238
齊	-9.52288
參見	-9.52428
》《	-9.53051
續	-9.53457
300	-9.53512
綠	-9.53669
1991	-9.5403
證	-9.54243
藩	-9.54409
備	-9.54484
價	-9.54489
趙	-9.54502
裔	-9.54677
廟	-9.54786
載	-9.55066
請	-9.55166
運動會	-9.55383
輕	-9.55599
幾	-9.55897
羅馬	-9.56242
頻	-9.56443
卻	-9.56492
難	-9.56739
蓋	-9.56831
岡	-9.56893
諸	-9.56903
～	-9.56912
牠們	-9.57319
盧	-9.57943
臨	-9.57961
1988	-9.58116
1989	-9.58633
奪	-9.58678
b	-9.58681
傳統	-9.58735
績	-9.58945
莊	-9.59479
60	-9.59964
鳳	-9.60518
Y	-9.60902
盃	-9.60961
k	-9.61034
2014	-9.61296
儀	-9.61514
『	-9.61586
hans	-9.61686
陣	-9.62491
1970	-9.62587
邨	-9.63003
團體	-9.631
・	-9.63109
駐	-9.63589
養	-9.63781
農	-9.63797
階	-9.64054
f	-9.64079
Z	-9.64898
徑	-9.64993
1987	-9.65024
2015	-9.65236
」、「	-9.65306
紹	-9.66369
經營	-9.66463
JR	-9.66666
廣東	-9.6711
盤	-9.67312
er	-9.67466
機構	-9.6765
1949	-9.68155
2016	-9.68343
1950	-9.68394
1984	-9.68924
臘	-9.69086
藥	-9.69233
優	-9.69241
喀	-9.69344
廢	-9.69388
畢業	-9.69515
1960	-9.69629
歡	-9.69721
1986	-9.7015
協會	-9.70205
1985	-9.70541
練	-9.70618
槍	-9.70687
經歷	-9.71011
歸	-9.71416
恆	-9.72136
圳	-9.72573
柯	-9.72677
阪	-9.73272
1983	-9.73672
敗	-9.73799
戲	-9.74061
〈	-9.74185
韦	-9.74231
須	-9.74832
嚴	-9.74854
瑪	-9.74988
hk	-9.75046
!	-9.7529
電腦	-9.75296
莎	-9.75734
剛	-9.75799
問題	-9.76082
億	-9.7619
厄	-9.76431
認	-9.76643
1982	-9.76934
喬	-9.77031
400	-9.77087
總統	-9.77127
現時	-9.77238
姬	-9.77285
預	-9.77728
夢	-9.77913
〉	-9.78112
cn	-9.78418
冊	-9.78944
彈	-9.78962
賢	-9.79202
結構	-9.79219
頂	-9.79916
es	-9.80185
並於	-9.8093
>	-9.81067
舉辦	-9.81088
凱	-9.81245
佔	-9.8151
計劃	-9.81517
us	-9.81931
釋	-9.82006
詹	-9.82439
況	-9.8247
&	-9.82519
脈	-9.83021
確	-9.83055
艦	-9.8307
齒	-9.83282
』	-9.83443
ing	-9.83454
800	-9.835
絲	-9.83535
1981	-9.8376
戰鬥	-9.83827
傷	-9.84021
輔	-9.84926
《》	-9.85586
紀錄	-9.85759
2018	-9.86002
鐘	-9.86003
劃	-9.8604
識	-9.86136
橫	-9.86206
憲	-9.86316
評	-9.86479
壽	-9.865
顏	-9.86608
學習	-9.86625
偉	-9.86694
1945	-9.87026
2017	-9.87035
斷	-9.87203
區劃	-9.87302
韋	-9.87723
綱	-9.87789
1978	-9.88057
講	-9.88064
貨	-9.88343
600	-9.88659
經過	-9.89181
棲	-9.89248
標準	-9.89591
80	-9.89684
謝	-9.89763
2019	-9.89813
蟲	-9.90251
//	-9.90419
險	-9.90486
爲	-9.90751
1979	-9.91251
試	-9.91535
#	-9.91594
對於	-9.91687
軌	-9.91902
48	-9.92097
勞	-9.92153
錢	-9.92828
廈	-9.92958
筆	-9.93524
選區	-9.93719
個縣	-9.93758
購	-9.93976
en	-9.94124
記載	-9.94151
資訊	-9.9418
懷	-9.94442
劍	-9.9481
1958	-9.9482
檔	-9.95164
r	-9.95232
換	-9.95364
蓮	-9.95651
騎	-9.95709
......	-9.95972
呂	-9.96022
補	-9.96107
亂	-9.96238
堅	-9.96242
de	-9.96353
範圍	-9.96468
課	-9.9648
軟	-9.96655
創辦	-9.96667
財	-9.97017
樂團	-9.97437
茲	-9.9752
嶺	-9.97672
雜誌	-9.97944
綜	-9.98076
h	-9.98398
z	-9.98825
雍	-9.98848
”(	-9.98999
<	-9.99085
賴	-9.99124
鹽	-9.99352
腳	-9.99595
輝	-9.99875
寬	-9.99911
NGC	-10.0018
濟	-10.0036
選舉	-10.0086
揮	-10.0092
碼	-10.0093
鏡	-10.0125
”、“	-10.0191
l	-10.0212
35	-10.0246
Q	-10.0255
娛樂	-10.029
這種	-10.0293
顆	-10.0313
銅	-10.0347
適	-10.0356
2021	-10.0377
壓	-10.0383
32	-10.0397
貿	-10.0421
the	-10.0423
v	-10.0471
緒	-10.0504
業務	-10.0506
com	-10.0558
涅	-10.062
濱	-10.0621
湯	-10.0632
測	-10.0641
1930	-10.0659
an	-10.0708
ati	-10.073
數學	-10.0783
ISBN	-10.0821
遺	-10.0881
700	-10.0922
ed	-10.0942
250	-10.0954
額	-10.096
の	-10.0994
70	-10.0995
尋	-10.0998
揚	-10.1015
營運	-10.1039
廣場	-10.1068
貞	-10.1108
曆	-10.1114
1956	-10.1116
?	-10.1177
1920	-10.1199
擴	-10.1251
嗣	-10.1264
絕	-10.127
峽	-10.1285
錦標賽	-10.1286
實際	-10.1294
1968	-10.1295
雞	-10.1301
貓	-10.1316
緣	-10.1328
歲時	-10.1342
漸	-10.1359
贏	-10.136
幫	-10.137
畢業於	-10.1386
1952	-10.1395
編號	-10.142
計畫	-10.143
1975	-10.1441
會議	-10.1443
惡	-10.1447
襲	-10.1473
訊	-10.1486
hant	-10.1491
戀	-10.1501
顧	-10.1569
夠	-10.1569
狄	-10.1607
覺	-10.1652
塊	-10.1669
1946	-10.168
1955	-10.1704
縮寫	-10.1719
km	-10.1729
陰	-10.1745
36	-10.1746
習	-10.1749
1976	-10.1755
獸	-10.1777
1972	-10.18
150	-10.1821
尹	-10.1822
紐	-10.1824
90	-10.1836
議員	-10.1855
領導	-10.187
1966	-10.1876
ia	-10.1878
|240	-10.1911
籃	-10.1916
1974	-10.1948
擊敗	-10.1951
滅	-10.1965
蕭	-10.1969
1973	-10.1977
紐約	-10.1987
2022	-10.1994
陀	-10.2031
1977	-10.2047
1964	-10.2056
礎	-10.206
視為	-10.2087
勳	-10.2095
連載	-10.2172
檢	-10.2221
隻	-10.2225
45	-10.2235
紋	-10.2265
襄	-10.2272
錦	-10.2302
1965	-10.2312
賀	-10.2313
獅	-10.2314
無綫電視	-10.2334
to	-10.2345
減	-10.2359
2023	-10.2363
際	-10.2387
1969	-10.2404
th	-10.2427
1959	-10.2446
00	-10.2456
祿	-10.2475
飲	-10.2484
壘	-10.2497
鋒	-10.25
運輸	-10.251
桓	-10.2522
1954	-10.2528
匯	-10.2538
譜	-10.2545
33	-10.255
隸	-10.2555
訓	-10.2572
純	-10.2575
1940	-10.2583
島嶼	-10.2625
is	-10.2643
飯	-10.2647
錫	-10.2656
~	-10.2662
「」	-10.2666
馬來	-10.267
轄區	-10.2677
1948	-10.2686
倉	-10.2693
1961	-10.2712
CD	-10.2713
蘇聯	-10.2723
齡	-10.2725
;)	-10.2739
猶	-10.2745
敵	-10.276
燈	-10.2785
center	-10.2791
傳說	-10.2815
執導	-10.2838
1937	-10.2857
ae	-10.2866
var	-10.2869
負	-10.287
隱	-10.2882
丞	-10.2884
訓練	-10.2889
圭	-10.2899
札	-10.2908
軟體	-10.2924
奎	-10.2937
國內	-10.2961
龜	-10.2967
靜	-10.2983
郵	-10.2984
願	-10.3029
醫學	-10.3056
et	-10.3066
1963	-10.3071
婦	-10.3105
祐	-10.3107
體長	-10.3111
1962	-10.313
賣	-10.3132
1947	-10.3174
苯	-10.3179
酶	-10.3203
2024	-10.3206
1971	-10.3234
決賽	-10.326
鋼	-10.3265
專業	-10.3271
38	-10.3287
1967	-10.3316
貢	-10.3354
II	-10.3355
);	-10.3441
戰後	-10.3451
阮	-10.3464
譯為	-10.3469
輸	-10.3495
”)	-10.3503
34	-10.3507
賞	-10.3523
軍隊	-10.3536
觸	-10.3599
覽	-10.3599
鄉試	-10.361
陸軍	-10.3618
馮	-10.3661
1938	-10.3662
統計	-10.3671
敘	-10.3679
at	-10.3748
蹟	-10.3752
1957	-10.3773
擬	-10.3773
鄧	-10.3804
NBA	-10.3814
category	-10.3838
→	-10.3844
ic	-10.3878
誠	-10.3879
http	-10.3888
up	-10.3904
1953	-10.3908
繪	-10.3911
仕	-10.3912
麵	-10.3913
愛爾蘭	-10.3954
碩	-10.3954
複	-10.396
訂	-10.3971
1951	-10.3973
貫	-10.4003
」)	-10.4035
滕	-10.4052
37	-10.4068
贊	-10.4069
1000	-10.414
42	-10.415
關於	-10.417
飛機	-10.42
討	-10.4215
議會	-10.4237
www	-10.4256
幣	-10.4263
參賽	-10.428
1927	-10.4284
戲劇	-10.4324
1.	-10.4332
坂	-10.4352
」()	-10.436
or	-10.436
輯	-10.4366
燒	-10.4379
900	-10.4414
1939	-10.4414
毗	-10.4443
廿	-10.4445
選擇	-10.4457
爭	-10.4463
辭	-10.4485
衝	-10.4498
國際機場	-10.4502
詳	-10.4503
le	-10.4506
1932	-10.452
1941	-10.4534
j	-10.454
隸屬於	-10.4561
憑	-10.4586
Windows	-10.4596
邵	-10.4598
厥	-10.4608
繼續	-10.462
▁250	-10.4626
謂	-10.4648
幹	-10.4661
粵語	-10.4674
暨	-10.4714
聽	-10.476
w	-10.4768
瑚	-10.4776
鍾	-10.4783
潛	-10.4791
麓	-10.4808
-1	-10.4817
實驗	-10.4817
1934	-10.4822
審	-10.4826
簡歷	-10.4853
1933	-10.4861
賈	-10.4872
鴻	-10.4891
紙	-10.4907
俠	-10.4934
問	-10.4939
則為	-10.4942
獎項	-10.4946
緬	-10.4976
遜	-10.4982
號線	-10.501
於臺灣	-10.5015
萬曆	-10.5023
1935	-10.5053
織	-10.5075
儲	-10.5077
連續	-10.5084
1936	-10.5089
穩	-10.5091
120	-10.5101
烷	-10.5106
隸屬	-10.5107
產業	-10.5145
1928	-10.5195
st	-10.5201
備註	-10.5202
監製	-10.5205
蒿	-10.5208
man	-10.5235
1912	-10.5237
2025	-10.5243
u	-10.525
劑	-10.5253
當選	-10.5271
華職	-10.5282
.)	-10.5295
1926	-10.5295
設於	-10.53
烯	-10.5313
記錄	-10.5317
淺	-10.5318
麟	-10.5324
1931	-10.5333
斐	-10.5377
離開	-10.5392
颱風	-10.5427
(1	-10.548
圖書館	-10.5523
蔣	-10.5526
膠	-10.5548
賜	-10.5548
1924	-10.5556
機關	-10.5607
亞歷	-10.5619
雜	-10.5625
農業	-10.5634
鑑	-10.5648
隨後	-10.5681
魚體	-10.5685
壇	-10.5697
撫	-10.5697
豬	-10.5709
準	-10.571
規則	-10.5731
談	-10.5741
肅	-10.575
55	-10.5766
鷹	-10.578
碼頭	-10.5793
酮	-10.5817
礦	-10.5837
灘	-10.5845
國時	-10.5846
1929	-10.5858
級聯賽	-10.5859
編劇	-10.5868
欽	-10.5869
In	-10.5872
暫	-10.5879
車輛	-10.5879
1889	-10.5888
翌	-10.5893
75	-10.5913
64	-10.593
畢業後	-10.5962
ofthe	-10.5968
1913	-10.5987
壞	-10.5988
酯	-10.5989
_	-10.599
1942	-10.6006
規劃	-10.6015
DVD	-10.6045
39	-10.6063
齋	-10.6095
44	-10.6097
電視動畫	-10.6103
種類	-10.6115
棄	-10.613
維爾	-10.6138
殼	-10.6138
1944	-10.6147
am	-10.6147
迦	-10.6176
軸	-10.6179
療	-10.618
Ca	-10.619
彌	-10.6205
閩	-10.6207
溝	-10.6214
鶴	-10.6239
獄	-10.6245
櫻	-10.6249
戶時	-10.6264
彥	-10.6266
1900	-10.6267
璋	-10.6268
Li	-10.6269
1925	-10.6277
災	-10.6282
兩種	-10.6284
虞	-10.6304
託	-10.6322
朔	-10.6331
汀	-10.6354
畢	-10.6357
1919	-10.6386
磯	-10.6408
獵	-10.6413
腓	-10.6426
um	-10.6453
併為	-10.6456
買	-10.6459
簽	-10.646
1922	-10.65
|220	-10.6511
mm	-10.6515
胺	-10.652
奧運	-10.6525
1943	-10.6536
盡	-10.6538
編輯	-10.6548
內閣	-10.6586
煙	-10.6604
脫	-10.6648
1918	-10.665
氟	-10.6653
謀	-10.6718
陝	-10.6737
數據	-10.6778
1923	-10.6818
閉	-10.6831
ge	-10.686
諡	-10.6904
廖	-10.692
43	-10.6929
for	-10.6931
曉	-10.694
邁	-10.6946
劇場	-10.6964
誕	-10.6991
65	-10.6999
α	-10.7002
魚類	-10.7004
濃	-10.7009
寮	-10.7018
張專輯	-10.7028
邱	-10.7029
Al	-10.7036
贈	-10.704
〕	-10.7051
設備	-10.7064
狀態	-10.7073
47	-10.7073
汶	-10.7085
46	-10.7086
41	-10.7088
見於	-10.7094
現為	-10.7101
腦	-10.7103
張單	-10.7114
韻	-10.7118
誤	-10.7151
國語	-10.7157
蕃	-10.7158
範	-10.7198
AV	-10.7201
漁	-10.7229
el	-10.7264
2.	-10.729
驅	-10.7294
梵	-10.7299
1921	-10.7309
伽	-10.7338
緊	-10.7379
鱗	-10.7392
as	-10.7397
盜	-10.7412
ta	-10.7416
54	-10.7428
詔	-10.7462
於東	-10.7471
Univer	-10.7498
閣	-10.7519
殘	-10.7519
訴	-10.7534
鬥	-10.7545
1914	-10.7566
琪	-10.7567
跡	-10.7574
52	-10.7608
滅絕	-10.7624
後於	-10.7627
)、《	-10.7667
▁陳	-10.7683
谥	-10.7686
|150	-10.7715
涼	-10.7727
將領	-10.7734
臨時	-10.774
稅	-10.7743
1911	-10.775
懿	-10.7759
髮	-10.7763
縱	-10.7767
...	-10.7775
Co	-10.7788
樂專輯	-10.779
1910	-10.7791
標誌	-10.7848
砲	-10.7904
競	-10.7918
牠	-10.7946
‧	-10.7967
垣	-10.7967
re	-10.7969
昇	-10.7972
實錄	-10.7991
Le	-10.8015
東漢	-10.8017
禎	-10.8026
56	-10.803
DNA	-10.8034
區內	-10.8036
並沒	-10.8056
潔	-10.8058
網頁	-10.8062
ISO	-10.8065
CH	-10.8067
牆	-10.8069
專門	-10.8069
裏	-10.8076
聲優	-10.8106
爭議	-10.8108
學術	-10.8128
關條	-10.8146
诏	-10.8151
SS	-10.8153
綫	-10.8156
li	-10.8172
埼	-10.8188
cm	-10.8211
貝爾	-10.8217
51	-10.826
國歷	-10.8266
ch	-10.8268
58	-10.8284
觀眾	-10.8309
鴨	-10.8339
Re	-10.8339
傾	-10.8363
勁	-10.8384
龐	-10.839
帥	-10.8415
漢語	-10.8459
總會	-10.8475
鈴	-10.8489
蘋	-10.849
譚	-10.8491
St	-10.8499
1905	-10.8521
條約	-10.854
戰國時	-10.8542
榮譽	-10.8564
禧	-10.8564
牟	-10.8571
內戰	-10.8572
東亞	-10.8576
53	-10.8581
File	-10.8588
來說	-10.8593
101	-10.861
責	-10.8611
熱帶	-10.8613
嶼	-10.8614
49	-10.8619
珀	-10.8626
1917	-10.863
幹線	-10.8631
擢	-10.8633
亞軍	-10.8639
為臺灣	-10.8647
180	-10.8656
顧問	-10.8662
ma	-10.8667
咀	-10.8688
迴	-10.8707
86	-10.8727
遼	-10.8762
薦	-10.8765
讷	-10.8774
John	-10.8775
ly	-10.8791
崗	-10.8791
na	-10.8795
喪	-10.8797
翡	-10.8812
剌	-10.8841
偵	-10.8843
註冊	-10.8856
馬爾	-10.8864
謙	-10.8868
銘	-10.8872
東縣	-10.8891
嫡	-10.8892
產黨	-10.8903
淨	-10.8939
1.5	-10.8971
機會	-10.8974
徹	-10.8975
MBC	-10.8976
餅	-10.8983
國陸軍	-10.8995
org	-10.9001
縮	-10.9004
3.	-10.9028
KBS	-10.9031
la	-10.9036
狀況	-10.9037
網絡	-10.905
於臺	-10.9055
ine	-10.9061
汕	-10.9085
Linux	-10.9119
彦	-10.9128
io	-10.913
裴	-10.9139
國電	-10.9147
腸	-10.9175
62	-10.9179
聰	-10.9187
荃灣	-10.9202
-2	-10.9211
開設	-10.9212
發動	-10.9225
1904	-10.9234
(;	-10.9235
錯	-10.9249
濕	-10.9263
57	-10.9264
淵	-10.9269
麼	-10.9271
電視廣	-10.9278
學會	-10.9291
1896	-10.9294
鳴	-10.931
躍	-10.9311
對應	-10.9313
東區	-10.9332
軒	-10.9334
虛	-10.9339
1906	-10.9343
鳥類	-10.9353
no	-10.9354
-10	-10.9356
長約	-10.9387
350	-10.9388
譽	-10.9394
荊	-10.9429
觀測	-10.9436
炳	-10.9452
頸	-10.9459
59	-10.9468
mo	-10.9472
針對	-10.9477
註	-10.9496
ian	-10.9499
TV	-10.9501
冕	-10.9505
別為	-10.9513
電視節	-10.9531
1901	-10.9556
彗	-10.9577
畿	-10.9591
*	-10.9602
co	-10.9619
Nati	-10.9659
針	-10.9659
La	-10.9662
虛構	-10.9667
SBS	-10.9682
蜥	-10.9684
樂隊	-10.9704
較為	-10.9708
01	-10.9712
纂	-10.9725
醫療	-10.9725
Me	-10.9728
ex	-10.973
1908	-10.9749
簡單	-10.9752
鮑	-10.9763
賦	-10.9818
os	-10.9828
Med	-10.9871
彝	-10.9873
──	-10.9876
佈於	-10.9895
終點	-10.992
De	-10.9932
駛	-10.9933
氫	-10.9935
壯	-10.9948
No	-10.9952
1915	-10.9957
ent	-10.9965
’	-10.9978
頃	-10.999
詳細	-11.0007
88	-11.0026
經濟學	-11.0044
ie	-11.0054
Cl	-11.0066
該縣	-11.0079
禦	-11.0086
係	-11.0089
▁張	-11.0092
1897	-11.0094
祁	-11.0102
羌	-11.0114
損	-11.0138
Data	-11.0143
1916	-11.0183
頜	-11.0186
禪	-11.019
be	-11.0199
瓊	-11.0213
sof	-11.0218
鰭軟條	-11.022
寵	-11.0235
Na	-11.0235
Cat	-11.0239
ad	-11.0248
義縣	-11.0255
07	-11.0261
貧	-11.0267
喙	-11.0278
ro	-11.029
噶	-11.0294
湛	-11.0297
處於	-11.0325
礙	-11.0325
1907	-11.0327
橫濱	-11.0339
驚	-11.0344
貼	-11.0346
頒獎	-11.0351
睿	-11.0376
訪	-11.038
潤	-11.038
68	-11.0385
63	-11.0387
1909	-11.0389
1903	-11.0421
緯	-11.0423
耆	-11.044
貨幣	-11.0452
pp	-11.0452
andC	-11.0475
85	-11.048
by	-11.048
堊紀	-11.0513
110	-11.0516
儘	-11.052
web	-11.0542
舜	-11.0546
國職	-11.0552
霧	-11.0554
棟	-11.056
戰時	-11.0562
1895	-11.0568
1898	-11.0595
World	-11.0604
png	-11.0604
61	-11.0637
ne	-11.0639
鱷	-11.0642
66	-11.0669
薹	-11.0672
small	-11.0674
開業	-11.0719
1902	-11.0733
08	-11.074
Br	-11.0756
國軍	-11.0762
稱號	-11.0772
岐	-11.0784
te	-11.0816
Internati	-11.0818
舊稱	-11.0824
掛	-11.0841
競賽	-11.0843
72	-11.0847
貢獻	-11.0848
資產	-11.0857
3000	-11.0858
渭	-11.0889
連續劇	-11.0894
欖	-11.0914
鵝	-11.0921
霖	-11.0926
誌	-11.0927
ar	-11.0934
El	-11.0962
|280	-11.0968
05	-11.0969
職務	-11.101
楠	-11.1018
da	-11.102
發現於	-11.102
聖經	-11.1026
耶稣	-11.1026
奧運會	-11.1041
81	-11.1042
--	-11.1045
PC	-11.1053
Kane	-11.1073
韶	-11.1094
95	-11.1104
-3	-11.1112
複雜	-11.1121
約為	-11.1128
‘	-11.114
遠鏡	-11.1142
it	-11.1146
×	-11.1151
沖	-11.1158
劇團	-11.1159
Google	-11.1159
崙	-11.1212
III	-11.1215
”《	-11.1226
醛	-11.1228
呎	-11.1231
240	-11.1231
An	-11.1254
噴	-11.1272
der	-11.1303
頗	-11.1307
─	-11.1315
03	-11.1322
2.5	-11.1326
04||||200	-11.1327
di	-11.1328
||||2000	-11.1335
膚	-11.134
▁劉	-11.136
绥	-11.1368
術語	-11.1381
鯨	-11.139
開辦	-11.1392
販	-11.1393
這裡	-11.1416
MD	-11.1421
04	-11.1427
76	-11.1436
苷	-11.1442
熱帶氣	-11.1443
05||||200	-11.1446
阜	-11.1449
360	-11.1455
學時	-11.1466
開賽	-11.1499
銜	-11.1511
築師	-11.1522
緩	-11.1522
02	-11.1524
130	-11.1535
賊	-11.1535
這樣	-11.154
ca	-11.1553
勵	-11.1557
會員	-11.1561
ary	-11.1578
遺產	-11.1582
160	-11.1595
01||||200	-11.1607
頌	-11.1608
ri	-11.1612
簽約	-11.1614
黏	-11.1621
孢	-11.1623
tr	-11.1637
長達	-11.1647
Aiken	-11.1667
140	-11.1696
認識	-11.1718
UTC	-11.173
帶領	-11.1738
準備	-11.1749
會試	-11.1751
經驗	-11.1755
AmericanCounties	-11.176
粵	-11.1763
02||||200	-11.1769
CC	-11.1769
邊緣	-11.1775
輛	-11.1798
挝	-11.1804
▁黃	-11.1845
é	-11.1855
220	-11.1863
β	-11.1889
1500	-11.1892
OriginsofCount	-11.1896
鐸	-11.1897
號為	-11.1898
03||||200	-11.1922
叢	-11.1928
2026	-11.1933
復興	-11.1936
67	-11.1953
脅	-11.1958
佔領	-11.1974
im	-11.1985
厝	-11.1985
參選	-11.1988
Mo	-11.1995
【	-11.2025
蘆	-11.2028
69	-11.2029
評論	-11.2031
毀	-11.2041
戀愛	-11.2052
妾	-11.2057
鑽	-11.2059
暱稱	-11.2093
78	-11.2097
96	-11.2101
蝦	-11.2107
ea	-11.2135
後衛	-11.2136
yNamesDatesofCre	-11.2142
醬	-11.2146
ve	-11.2146
|《	-11.2152
龍屬	-11.2152
ers	-11.2162
me	-11.2194
輻鰭魚綱鱸	-11.2198
ii	-11.2208
115	-11.2212
園區	-11.2216
|180	-11.222
ry	-11.2245
(、)	-11.2257
閒	-11.2279
個國	-11.2294
讀書	-11.2297
99	-11.2316
06	-11.2319
CO	-11.2322
New	-11.2335
ti	-11.2342
營業	-11.2358
AC	-11.2371
」;	-11.2412
】	-11.2417
ir	-11.2422
懸	-11.2443
薨	-11.2446
笠	-11.2449
蔷	-11.2449
闊	-11.246
爺	-11.247
國聯	-11.2476
em	-11.2486
ー	-11.2493
Man	-11.25
q	-11.2515
ica	-11.2521
FC	-11.2535
幾個	-11.2543
Web	-11.2546
邸	-11.2547
獻劉寧顏編	-11.2553
機車	-11.2556
俞	-11.2595
201	-11.2605
競爭	-11.2607
膽	-11.2609
駿	-11.2618
矶	-11.2623
綽號	-11.2627
討論	-11.2627
廣義	-11.2632
land	-11.2637
鱸	-11.2639
羅門	-11.2642
HK	-11.2646
輻	-11.2656
戰車	-11.2669
ス	-11.2674
ata	-11.2677
|350	-11.268
慮	-11.2684
糧	-11.2693
74	-11.2693
ka	-11.2705
轟	-11.272
電話	-11.2728
編號為	-11.2747
塚	-11.2752
標題	-11.2766
書寫	-11.2772
ha	-11.2781
77	-11.2785
IC	-11.2798
鯛	-11.2801
▁馬	-11.2809
NHK	-11.2809
該區	-11.2811
親為	-11.2822
窩	-11.2826
會區	-11.2845
競選	-11.2858
讀於	-11.2876
國總統	-11.2877
鹛	-11.2888
ina	-11.2888
鏈	-11.2889
andPopulati	-11.2896
MV	-11.292
岑	-11.2921
1899	-11.2934
|400	-11.2934
DD	-11.2944
穀	-11.2947
PS	-11.2951
塾	-11.2955
%	-11.2955
報導	-11.2971
孚	-11.2981
−	-11.2991
color	-11.2995
艦隊	-11.2998
鎖	-11.3011
氣體	-11.3011
戰鬥機	-11.3014
測試	-11.3023
ium	-11.3024
疊	-11.3024
陇	-11.3031
鍵	-11.3031
隊長	-11.3039
僖	-11.3064
sa	-11.3068
go	-11.3076
僕	-11.3088
萼	-11.3094
穎	-11.3094
彎	-11.3099
BB	-11.3099
國國會	-11.3099
會長	-11.31
經紀	-11.3107
蘭縣	-11.3123
鳅	-11.3135
98	-11.3136
時會	-11.3141
鵬	-11.3144
閃	-11.3148
ard	-11.3164
TVB	-11.3184
為國	-11.3187
堀	-11.3192
確認	-11.3207
My	-11.3218
73	-11.3222
Gu	-11.3222
$	-11.3228
Go	-11.3232
▁300	-11.3246
79	-11.3249
__	-11.3274
簡稱為	-11.3279
倭	-11.328
譽為	-11.3286
ana	-11.3305
農曆	-11.3308
瀨	-11.3329
為現	-11.3342
Ma	-11.3348
陸續	-11.3354
岱	-11.3361
83	-11.3366
eo	-11.3377
篤	-11.3388
萬張	-11.3392
EP	-11.3393
97	-11.3399
Cate	-11.3414
華視	-11.3416
祯	-11.3431
偽	-11.3436
斬	-11.3438
個種	-11.3441
1885	-11.3444
蹤	-11.3448
un	-11.3465
ensis	-11.3466
電車	-11.3475
92	-11.3481
當於	-11.3482
1890	-11.3486
Be	-11.3496
騰	-11.3499
飛彈	-11.3503
琦	-11.3509
net	-11.3516
105	-11.3516
無綫	-11.3518
84	-11.3522
粵劇	-11.3523
(2006	-11.3525
ra	-11.3528
5000	-11.3535
(2007	-11.3543
搖滾	-11.3547
狹	-11.3554
Categ	-11.3555
ter	-11.3555
帶來	-11.3571
漳	-11.3573
Pro	-11.359
-4	-11.3591
兩條	-11.3598
alt	-11.361
ac	-11.3613
購買	-11.3618
▁redirect	-11.3619
á	-11.3626
87	-11.3627
業餘	-11.3638
為東	-11.3642
2)	-11.3645
協議	-11.3657
黛	-11.3661
現場	-11.3663
Dav	-11.3667
撲	-11.3671
ke	-11.3684
晉級	-11.3687
au	-11.3687
於臺灣臺	-11.3688
幾內亞	-11.3696
個體	-11.3698
條紋	-11.3702
1871	-11.3704
該國	-11.371
溴	-11.3728
https	-11.373
骼	-11.3737
107	-11.3742
SO	-11.3749
text	-11.3754
82	-11.3761
罷	-11.3764
Bo	-11.3772
繪畫	-11.3779
濁	-11.3783
認證	-11.3786
AKB	-11.3792
280	-11.3795
sand	-11.3803
PlayStati	-11.3804
釜	-11.3812
岡縣	-11.3814
閱讀	-11.3814
並與	-11.3819
後裔	-11.3821
嵩	-11.3826
酰	-11.3836
Di	-11.384
ant	-11.3844
駁	-11.3853
い	-11.3858
Ha	-11.3859
幟	-11.3873
si	-11.3877
ey	-11.3878
ph	-11.3883
於該	-11.3885
se	-11.389
綿	-11.3901
style	-11.3915
詠	-11.3924
Ar	-11.3944
別稱	-11.3958
團隊	-11.3958
僑	-11.3972
為該	-11.398
71	-11.398
樂園	-11.3981
09	-11.3985
Catego	-11.3996
並將	-11.3996
Java	-11.401
維亞	-11.4016
瑜	-11.4018
轉換	-11.4021
勞動	-11.4023
夾	-11.403
悅	-11.4031
祚	-11.4033
4.	-11.4037
〔	-11.4041
ga	-11.4049
媽	-11.4056
93	-11.4063
臟	-11.4066
後轉	-11.4066
爾維亞	-11.4078
DC	-11.4079
弼	-11.4083
違	-11.4085
輻鰭魚綱	-11.4091
125	-11.4104
獲獎	-11.4109
規範	-11.4115
車場	-11.4117
滾	-11.4121
樊	-11.4124
臉	-11.4137
設計師	-11.4144
線與	-11.4155
IS	-11.4161
頒	-11.4163
LL	-11.4167
報紙	-11.4168
po	-11.418
(2008	-11.4181
Dicti	-11.4183
積極	-11.4188
泗	-11.4191
諱	-11.4202
學學	-11.4203
銳	-11.4204
國會	-11.4208
戰場	-11.4228
熹	-11.4233
William	-11.4253
籌	-11.4261
Car	-11.4262
龍類	-11.4291
▁2008	-11.4321
ah	-11.4324
帛	-11.4325
圍賽	-11.4331
捲	-11.4336
車隊	-11.4342
奕	-11.4345
堇	-11.4346
閱	-11.4352
窦	-11.4357
孜	-11.4377
紹興	-11.4379
軍團	-11.4383
薩爾	-11.4384
3.5	-11.4386
il	-11.4403
堯	-11.4403
XX	-11.4407
-12	-11.4418
2-	-11.4432
輕鐵	-11.4453
螢	-11.4457
MS	-11.4469
頒發	-11.4469
IP	-11.4472
108	-11.4473
倪	-11.451
▁200	-11.4512
圖書	-11.4516
“”	-11.4519
諡號	-11.4528
104	-11.4539
450	-11.454
馬達	-11.4541
に	-11.4544
ler	-11.4548
|260	-11.4551
ak	-11.4553
躍於	-11.4553
梓	-11.4566
NO	-11.457
耶穌	-11.4588
ya	-11.4591
106	-11.4598
長為	-11.4606
華僑	-11.4614
國現	-11.4626
貨運	-11.4644
個屬	-11.4661
潟	-11.4661
類學	-11.4669
HH	-11.4676
國東	-11.4677
Mac	-11.4683
實現	-11.4689
夥	-11.4693
(2005	-11.4706
撥	-11.4708
臘語	-11.4713
sin	-11.4714
○	-11.4722
義為	-11.4722
醚	-11.4724
ley	-11.4725
Categor	-11.4725
東側	-11.4737
SA	-11.4743
積約	-11.4743
個郡	-11.4744
祇	-11.4745
102	-11.4755
塵	-11.4757
1950-2000.	-11.4764
du	-11.4784
噸	-11.4788
並無	-11.4796
89	-11.4799
華語	-11.4807
驗	-11.4808
檗	-11.4824
103	-11.4833
-11	-11.4834
銅鑼灣	-11.4839
鹼	-11.4844
奧爾	-11.4856
line	-11.4856
狩	-11.4862
瑶	-11.4862
1888	-11.4885
ā	-11.4895
電鐵	-11.4899
敕	-11.4909
訪問	-11.4918
醫師	-11.4919
91	-11.4923
ius	-11.4925
1861	-11.4927
1860	-11.4937
ate	-11.4941
5.	-11.4948
550	-11.4949
禺	-11.4976
〜	-11.4991
ist	-11.5
AM	-11.5005
匯處	-11.5013
樞	-11.5013
雯	-11.5015
駕	-11.5016
侶	-11.5018
od	-11.5028
亞種	-11.5034
den	-11.5041
桿	-11.5043
歐陽	-11.5046
駕駛	-11.5067
賭	-11.5069
Love	-11.5071
ground	-11.5076
訊號	-11.5077
170	-11.5088
109	-11.509
ul	-11.5092
棣	-11.5096
”()	-11.5097
葉縣	-11.5098
庫縣	-11.5099
輩	-11.5112
HD	-11.5113
ner	-11.512
align	-11.5121
uk	-11.5141
電氣	-11.5142
鶯	-11.5144
綜藝節	-11.5159
1886	-11.516
數碼	-11.5164
點則	-11.5167
莖	-11.5167
Am	-11.5173
est	-11.5177
領隊	-11.5177
罰	-11.5178
頂級	-11.5178
yl	-11.5194
敖	-11.5195
ン	-11.5196
總經	-11.5205
莞	-11.5216
County	-11.5216
榮獲	-11.5217
書長	-11.522
兀	-11.522
戰國	-11.5227
脫離	-11.5232
簽訂	-11.5232
2.0	-11.5235
雉	-11.5244
應該	-11.5248
ル	-11.5251
牽	-11.5252
do	-11.5256
貪	-11.5256
東晉	-11.5264
顛	-11.527
發佈	-11.5273
鋪	-11.5279
總監	-11.5281
強調	-11.5282
し	-11.5296
mi	-11.5296
橢圓	-11.5306
1.2	-11.5307
學歷	-11.5307
蘭語	-11.5308
繞	-11.5313
為輻鰭魚綱	-11.5322
(1)	-11.5322
壩	-11.5325
僉	-11.533
達爾	-11.5336
(2004	-11.5345
費爾	-11.5351
my	-11.5351
煉	-11.5355
-15	-11.5359
と	-11.536
習慣	-11.536
兩側	-11.5363
荀	-11.5374
結業	-11.5374
ot	-11.5375
國國會選區	-11.5378
▁楊	-11.5386
衛隊	-11.5392
別於	-11.5393
-20	-11.5394
駒	-11.5398
TBS	-11.5408
勸	-11.5417
Retrieved	-11.5418
Vol	-11.5418
650	-11.5421
-21	-11.5437
為臺	-11.5438
爐	-11.5441
將會	-11.5448
bi	-11.5474
und	-11.5501
擾	-11.5503
pa	-11.5506
爾頓	-11.5514
RNA	-11.5532
†	-11.5533
遲	-11.5536
覽會	-11.5536
蓮縣	-11.5541
關鍵	-11.5543
釐	-11.555
Bar	-11.5551
BBC	-11.556
.;	-11.557
屆賽	-11.5571
掃	-11.5579
賽車	-11.558
Ba	-11.558
時裝	-11.5604
實業	-11.5604
衞	-11.5612
毗鄰	-11.5614
per	-11.5635
1800	-11.5654
毓	-11.5655
時報	-11.5659
ce	-11.5659
汐	-11.567
ol	-11.568
ni	-11.5681
ut	-11.5691
-8	-11.5698
Ad	-11.57
MA	-11.5703
To	-11.5707
MP	-11.5713
1887	-11.5716
縣東	-11.5717
0.5	-11.5718
範疇	-11.5719
參議	-11.5721
Po	-11.5728
1880	-11.5728
320	-11.573
Lu	-11.5739
ja	-11.5745
組賽	-11.5745
評價	-11.5761
op	-11.577
ment	-11.5774
廬	-11.5778
1879	-11.5792
Lo	-11.5793
1.8	-11.5797
帳	-11.5797
蜥蜴	-11.5801
饒	-11.5807
鯊	-11.5807
並獲	-11.5808
郝	-11.5813
記憶	-11.582
(2009	-11.5827
94	-11.583
ru	-11.583
終於	-11.5832
750	-11.5836
疊紀	-11.584
-」	-11.5852
Paul	-11.5853
1884	-11.5854
據說	-11.5857
娅	-11.5857
繩	-11.5859
遙	-11.5859
區議會	-11.5864
絕對	-11.5868
ba	-11.587
線車	-11.5872
諧	-11.5875
Robert	-11.5886
gi	-11.5887
He	-11.5899
pe	-11.5901
All	-11.5904
ng	-11.5905
瑛	-11.5905
colsp	-11.5906
蝕	-11.5907
1894	-11.5907
關東	-11.5916
數個	-11.5937
茜	-11.5948
裝備	-11.5949
(2)	-11.5949
領銜	-11.5954
嬪	-11.5972
1893	-11.5981
觀點	-11.5984
del	-11.5984
財團	-11.599
ur	-11.599
竺	-11.5999
260	-11.6
環繞	-11.6001
闵	-11.6004
230	-11.6004
1870	-11.6006
-9	-11.6008
▁吳	-11.6013
務員	-11.6017
昊	-11.6018
選為	-11.6019
ten	-11.6028
國與	-11.6029
邏輯	-11.603
sch	-11.6032
晏	-11.6034
age	-11.605
業區	-11.6054
溥	-11.6064
lo	-11.6066
學編	-11.6077
羟	-11.6078
City	-11.6081
戟	-11.6084
傘	-11.6091
皋	-11.6094
ん	-11.6095
級別	-11.6099
運會	-11.6101
Lanham	-11.6103
み	-11.6116
1868	-11.6122
樺	-11.6122
Ne	-11.6128
總計	-11.6137
鎌倉	-11.6143
試圖	-11.6151
1872	-11.6154
編碼	-11.616
American	-11.6161
-5	-11.6162
les	-11.6185
頭銜	-11.6193
匡	-11.6195
搶	-11.6195
Group	-11.6196
憂	-11.6196
錯誤	-11.6198
婷	-11.6206
祺	-11.621
聯絡	-11.6212
so	-11.6214
ア	-11.6218
1200	-11.6249
酋	-11.6251
mer	-11.6253
財經	-11.6256
菁	-11.6257
111	-11.6267
Mar	-11.6268
鈞	-11.6273
媛	-11.6275
長於	-11.6276
128	-11.6287
財務	-11.6289
連鎖	-11.6305
繪製	-11.6312
System	-11.6312
類別	-11.6315
務處	-11.6319
James	-11.6345
組聯賽	-11.6347
艷	-11.6353
1891	-11.6355
裝飾	-11.6364
1.6	-11.6369
欄	-11.637
」「	-11.6371
攝於	-11.6372
br	-11.6382
實體	-11.6401
鄒	-11.6404
edu	-11.6406
恪	-11.641
氰	-11.642
鳃	-11.6436
圍繞	-11.6443
|230	-11.6444
ung	-11.6447
+2	-11.6449
鞘	-11.6451
蒼	-11.6454
紀時	-11.6462
紅磡	-11.6466
蔭	-11.6471
邢	-11.6471
鄞	-11.6473
茹	-11.6488
會學	-11.6497
證據	-11.6507
説	-11.6515
AL	-11.6523
翟	-11.6523
ki	-11.6528
IT	-11.6534
試驗	-11.6536
國紐約	-11.6542
屬於東	-11.6545
為兩	-11.6547
sh	-11.6549
DS	-11.6549
San	-11.6554
維護	-11.6559
於該國	-11.657
鑄	-11.6573
現於	-11.6576
page	-11.6577
憶	-11.6586
ver	-11.6591
Ge	-11.6594
Oric	-11.6601
Pa	-11.6608
Music	-11.6619
漿	-11.6619
舖	-11.6623
des	-11.6623
記憶體	-11.6624
襲擊	-11.6627
國獨	-11.6636
り	-11.6654
華裔	-11.6656
視覺	-11.6673
樂壇	-11.6685
ella	-11.6694
Peter	-11.6703
GB	-11.6709
Thomas	-11.6715
關閉	-11.6715
風雲	-11.6733
oc	-11.6735
馳	-11.6737
”;	-11.6739
Ho	-11.674
汾	-11.6742
GDP	-11.6744
135	-11.6744
silver	-11.6745
TT	-11.6747
1873	-11.6751
積為	-11.676
沅	-11.676
擴張	-11.6768
ek	-11.6777
張個	-11.678
vi	-11.6783
-16	-11.6793
4.5	-11.6797
嘗試	-11.6798
Open	-11.6807
編寫	-11.6812
現實	-11.6824
魚棲	-11.6836
曜	-11.6843
1862	-11.6846
1875	-11.6849
OH	-11.6853
瀛	-11.6862
214	-11.6863
om	-11.6864
遠東	-11.6869
臺灣鐵	-11.6874
胤	-11.6882
國際賽	-11.6897
Fe	-11.6899
嘎	-11.69
蟾	-11.6904
無論	-11.6917
鯉	-11.6918
艮	-11.6919
6.	-11.6925
體側	-11.6928
6%	-11.6939
學畢業	-11.6943
鬚	-11.6956
參議員	-11.6957
145	-11.6963
誰	-11.6966
Bi	-11.6968
ty	-11.697
廈門	-11.6973
獲勝	-11.6977
據點	-11.6979
廣島	-11.698
線電視	-11.698
You	-11.6984
OVA	-11.699
Ph	-11.6994
樂錄	-11.7007
き	-11.7008
1876	-11.7011
數種	-11.7011
謠	-11.702
Super	-11.7027
IV	-11.7027
tic	-11.7029
臺灣總	-11.7031
債	-11.7032
1892	-11.7035
學園	-11.7039
閏	-11.704
眾議	-11.7044
侏	-11.7048
か	-11.7055
MM	-11.7063
▁NGC	-11.7068
2%	-11.7072
羲	-11.7076
kg	-11.7081
-18	-11.7083
總數	-11.7084
OS	-11.7084
Si	-11.7086
琛	-11.7089
ber	-11.7091
書記	-11.7096
with	-11.7106
丕	-11.7112
諭	-11.7113
な	-11.7117
廣為	-11.7127
忒	-11.713
杞	-11.7157
瑤	-11.7158
ATP	-11.7169
淚	-11.7176
from	-11.7179
區別	-11.7187
鍋	-11.7188
▁東	-11.7195
イ	-11.7202
個單	-11.7202
5.5	-11.7207
亞語	-11.7209
if	-11.7212
莓	-11.7225
Ch	-11.7227
May	-11.7231
職員	-11.7242
+1	-11.7245
瑪麗	-11.7245
風險	-11.7245
範圍內	-11.7247
誘	-11.7248
濠	-11.7249
臧	-11.7253
fr	-11.7255
時為	-11.7261
Sp	-11.7269
塗	-11.727
(2000	-11.727
Se	-11.7285
270	-11.7289
廚	-11.7295
發動機	-11.7299
(2001	-11.7313
190	-11.7313
師範學	-11.7313
遼寧	-11.7325
轉為	-11.7329
ens	-11.7332
SP	-11.7335
慣	-11.7339
個區	-11.7367
wa	-11.7374
ZZ	-11.7378
渾	-11.7379
轉會	-11.7383
懋	-11.7388
國廣	-11.7395
Sa	-11.7412
關聯	-11.7413
ula	-11.7414
SE	-11.7417
1864	-11.7422
島縣	-11.7441
嵐	-11.7442
199	-11.7447
(2002	-11.7449
Inc	-11.746
妍	-11.7464
濤	-11.7468
tri	-11.7474
く	-11.7475
-17	-11.7477
BA	-11.7485
1883	-11.7489
-7	-11.7492
Fr	-11.7494
Su	-11.7498
ab	-11.7504
蠻	-11.7507
1881	-11.751
東鄰	-11.7516
George	-11.7531
Star	-11.7534
リ	-11.7537
遊樂場	-11.7538
yof	-11.754
瑩	-11.754
ism	-11.7543
屢	-11.7547
1878	-11.7548
芸	-11.7554
EC	-11.7559
8%	-11.7564
閘	-11.7569
蘿	-11.7578
專線	-11.7581
懼	-11.7584
錐	-11.7599
1867	-11.7604
Michael	-11.7605
atus	-11.7613
ou	-11.7618
he	-11.7624
ov	-11.7625
賀縣	-11.7628
擺	-11.7631
gen	-11.7635
學獎	-11.7637
國鐵	-11.7655
Vi	-11.7656
吋	-11.7671
ger	-11.7676
監獄	-11.7678
1.0	-11.7678
ST	-11.7686
進黨	-11.7688
纖維	-11.7696
氣壓	-11.7697
210	-11.7705
軟條	-11.7708
樓層	-11.7711
Ga	-11.7729
園內	-11.7739
侗	-11.775
4000	-11.775
奚	-11.7753
175	-11.7755
泾	-11.7756
123	-11.7757
鏡頭	-11.776
國廣東	-11.7761
inthe	-11.7766
195	-11.7767
mar	-11.7783
甄	-11.7783
莒	-11.7786
淇	-11.7786
は	-11.7793
國倫	-11.78
巖	-11.7802
7.5	-11.7802
Can	-11.7806
112	-11.7812
ko	-11.7828
1.4	-11.7829
1869	-11.7835
鸚鵡	-11.7837
Ra	-11.7839
-6	-11.784
bo	-11.7847
磐	-11.7851
預賽	-11.7856
PP	-11.7859
鹹	-11.7862
1882	-11.7879
Hu	-11.7884
ID	-11.7884
(2010	-11.7894
Mi	-11.7899
園縣	-11.7901
樂學	-11.7904
極為	-11.7908
Th	-11.7909
導體	-11.7922
-19	-11.7923
沖繩	-11.7925
8.	-11.7937
凍	-11.7938
Or	-11.794
島東	-11.7944
SD	-11.7953
γ	-11.7956
So	-11.7956
ies	-11.7959
這類	-11.7963
AT	-11.7964
が	-11.7969
「-	-11.7973
001	-11.7974
++	-11.7978
辯	-11.798
Do	-11.7993
虛擬	-11.7994
翊	-11.7997
獎賽	-11.8006
AB	-11.801
顎	-11.8016
ade	-11.8022
〉、〈	-11.8025
蘭東	-11.8025
頭顱	-11.8038
稱來	-11.8043
DJ	-11.8052
羧	-11.8056
貸	-11.8056
鎊	-11.8059
苻	-11.806
篆	-11.8061
380	-11.8064
lin	-11.8067
TA	-11.8077
對稱	-11.8079
陽縣	-11.8086
諾貝爾	-11.8091
紗	-11.8092
酚	-11.8093
SM	-11.8101
運動場	-11.8108
1848	-11.811
為當時	-11.8111
沂	-11.8119
Sch	-11.8127
)4	-11.8128
琵琶	-11.8136
-13	-11.8161
機動戰	-11.8164
pro	-11.8169
gu	-11.8171
蘇達	-11.8172
《》(	-11.8174
練習	-11.8174
萃	-11.8177
1.3	-11.8182
臺灣臺	-11.8185
Is	-11.8191
賽馬會	-11.8192
Ab	-11.8205
Pi	-11.8217
114	-11.8229
寰	-11.8232
her	-11.8234
eng	-11.8234
US	-11.825
ino	-11.8252
珪	-11.8255
Charles	-11.8263
ari	-11.8264
Producti	-11.8268
..	-11.8275
傳輸	-11.8277
體內	-11.8307
誼	-11.831
ara	-11.8314
斐濟	-11.8316
dy	-11.8319
註釋	-11.8338
階級	-11.8341
屍	-11.8343
發達	-11.8343
tor	-11.8346
鲷	-11.835
戍	-11.8352
縮寫為	-11.8355
One	-11.8355
為漢	-11.8368
為當	-11.8371
qu	-11.8372
118	-11.8372
稜	-11.838
MI	-11.8391
俾	-11.8391
tus	-11.8397
0.1	-11.8403
議長	-11.8407
隕	-11.8413
鑫	-11.8414
聯網	-11.8414
202	-11.842
傳記	-11.842
ville	-11.8421
鋁	-11.8431
1%	-11.8437
ster	-11.8437
聯繫	-11.8441
漢書	-11.8447
啓	-11.8454
pl	-11.8459
Online	-11.8461
ris	-11.8473
van	-11.8477
que	-11.848
sen	-11.8489
117	-11.8495
Uni	-11.8495
倩	-11.8496
China	-11.8496
佚	-11.8498
內設	-11.8499
ura	-11.8503
藝員	-11.8504
劉備	-11.8506
GNU	-11.851
Live	-11.8519
師從	-11.853
sp	-11.8531
講談	-11.8532
幡	-11.8532
BC	-11.8534
師範	-11.8535
擋	-11.854
衛視	-11.8549
」《	-11.8549
證實	-11.8566
準決賽	-11.8573
歷屆	-11.8576
113	-11.8586
1.1	-11.8587
學畢業後	-11.8587
850	-11.8591
Microsoft	-11.8596
EF	-11.8604
155	-11.8616
戰術	-11.8616
埗	-11.8616
Ti	-11.8618
School	-11.8622
獲頒	-11.8633
Per	-11.8635
YY	-11.8636
薰	-11.8639
壺	-11.8639
錦標	-11.8641
(;;)	-11.8642
趕	-11.8643
電訊	-11.8643
°	-11.8647
體積	-11.8648
る	-11.8649
鋼鐵	-11.8654
沖繩縣	-11.8659
cy	-11.8661
AS	-11.8661
chi	-11.8661
產於	-11.8662
胥	-11.8664
編為	-11.8673
鴉	-11.868
傣	-11.868
閔	-11.868
浚	-11.8682
闆	-11.8684
1850	-11.8686
ts	-11.8689
優勢	-11.8693
磺	-11.8695
NH	-11.87
CA	-11.8701
0.0	-11.8701
mann	-11.8705
學館	-11.8708
竇	-11.8722
協調	-11.8724
hi	-11.8725
Life	-11.8734
戰隊	-11.8743
師團	-11.8743
數為	-11.8747
國務	-11.8754
1854	-11.8755
6.5	-11.8755
lan	-11.8759
1600	-11.8765
Un	-11.8766
綁	-11.8767
lu	-11.8771
μ	-11.8773
鰓蓋	-11.879
330	-11.8796
ei	-11.8797
Da	-11.8804
お	-11.8809
縫	-11.8809
ö	-11.8821
該處	-11.8826
▁羅	-11.8828
ze	-11.8831
On	-11.8835
術館	-11.8836
區間	-11.8841
121	-11.8842
馬獎	-11.8845
ology	-11.8845
湄	-11.8846
1866	-11.8849
畫雜誌	-11.8864
ON	-11.8871
our	-11.8872
7.	-11.8874
2.8	-11.8876
筆記	-11.8877
1874	-11.8877
鍵盤	-11.8885
蓟	-11.8886
Dr	-11.8889
ous	-11.8895
124	-11.8901
內陸	-11.8904
紳	-11.8904
ik	-11.8906
鈔	-11.8911
諮詢	-11.8912
邹	-11.8914
IBM	-11.8918
Te	-11.892
鰓	-11.8921
4-	-11.8923
1865	-11.8923
學與	-11.8926
陞	-11.8935
Associati	-11.8937
ance	-11.8938
(2003	-11.8941
ini	-11.8953
煥	-11.8953
(2011	-11.896
運動會獎	-11.8963
3-	-11.8964
ham	-11.8975
適應	-11.8975
陂	-11.8978
側線	-11.8987
墾	-11.8991
嶽	-11.8996
營養	-11.9012
萱	-11.9015
遺跡	-11.9021
Air	-11.9039
變體	-11.9042
訴訟	-11.9042
汴	-11.9045
羅萊納	-11.9045
West	-11.9046
River	-11.9049
bar	-11.905
選舉區	-11.9051
GUNDAM	-11.9052
亞熱帶	-11.9062
ら	-11.9065
DB	-11.9067
單獨	-11.9068
cha	-11.9072
205	-11.9076
JJ	-11.9079
▁2010	-11.9079
浒	-11.908
櫃	-11.9081
′	-11.9084
東吳	-11.9085
ü	-11.9085
瀕	-11.9097
ee	-11.9097
關節	-11.9102
論壇	-11.9106
Park	-11.9114
nd	-11.9117
λ	-11.9118
荃	-11.9118
Ni	-11.9127
ip	-11.9135
後續	-11.9137
pi	-11.9137
ER	-11.9139
華納	-11.9141
錄於	-11.9144
sg	-11.9148
ud	-11.9155
0.3	-11.9156
Ko	-11.9158
-14	-11.9161
146	-11.9167
歷經	-11.9168
bit	-11.9172
關連	-11.9173
OL	-11.9173
og	-11.9174
動車	-11.9174
fa	-11.9178
ci	-11.9185
禍	-11.919
DA	-11.919
喚	-11.9194
「〔	-11.9197
軍艦	-11.9197
潟縣	-11.92
2.6	-11.9204
與東	-11.9206
FF	-11.9212
財產	-11.9213
識別	-11.9215
誦	-11.9221
為紀	-11.9229
開啟	-11.9229
矽	-11.9233
2.4	-11.924
ε	-11.9242
聯會	-11.9244
弈	-11.9256
並稱	-11.9258
蘭國	-11.9262
||||1999	-11.9263
虔	-11.9264
議題	-11.9265
賞識	-11.927
903	-11.9272
開創	-11.9273
OK	-11.9277
嫔	-11.928
脹	-11.9281
這項	-11.9282
car	-11.9284
為總	-11.9286
號碼	-11.9286
齊國	-11.9289
ec	-11.9292
靜岡縣	-11.9296
7-	-11.9297
楞	-11.93
310	-11.9301
標記	-11.9306
!》	-11.9307
澀	-11.9313
min	-11.9319
蛭	-11.9327
168	-11.9328
1863	-11.9332
鵙	-11.9334
ier	-11.9334
尻	-11.9337
Mc	-11.9342
動畫電	-11.9345
ald	-11.9347
術學	-11.9351
兒島縣	-11.9359
Unix	-11.9359
π	-11.9366
Sun	-11.9366
麾	-11.9372
ang	-11.9375
聲稱	-11.9375
info	-11.9376
Ka	-11.9385
ale	-11.9385
Mr	-11.9386
!」	-11.939
跆	-11.9395
FM	-11.9397
AA	-11.9401
men	-11.9403
楓	-11.9408
ai	-11.9412
婺	-11.9413
慘	-11.9413
ラ	-11.9418
ker	-11.9418
ity	-11.9425
0.2	-11.9429
義務	-11.9437
SC	-11.944
稷	-11.944
.1	-11.9443
發電	-11.9444
zi	-11.9448
辭職	-11.9449
國電視	-11.9458
256	-11.946
機槍	-11.9473
瑾	-11.9479
NA	-11.9481
end	-11.9483
為單	-11.9483
Project	-11.9489
趨	-11.9491
(2021	-11.9493
褶	-11.9498
樸	-11.95
詢	-11.9501
妝	-11.9502
4%	-11.9507
採訪	-11.9507
6000	-11.9511
鬆	-11.9514
eri	-11.9519
裘	-11.9522
148	-11.9523
騙	-11.953
az	-11.953
倖	-11.954
и	-11.9542
va	-11.9547
釀	-11.9549
122	-11.9549
144	-11.955
all	-11.9551
Mor	-11.9552
We	-11.9556
▁鄭	-11.9557
gr	-11.9559
RE	-11.9567
滿貫	-11.9571
爭奪	-11.9573
「」(	-11.9573
Power	-11.958
Gr	-11.958
該劇	-11.9584
MB	-11.9592
1855	-11.9592
For	-11.9593
變遷	-11.9593
湧	-11.9595
諷	-11.9596
虜	-11.9598
漸漸	-11.96
鰻	-11.9607
苓	-11.9611
we	-11.9614
壓縮	-11.9623
EN	-11.9625
UN	-11.9629
總長	-11.9634
1830	-11.9642
遺傳	-11.9656
ps	-11.9656
會於	-11.9657
藝術學	-11.9658
鉤	-11.9659
坞	-11.9666
會計	-11.968
》;	-11.9681
遞	-11.9682
1857	-11.9694
編纂	-11.9697
225	-11.9701
學碩	-11.9702
PA	-11.9706
ach	-11.971
複製	-11.9724
後漢書	-11.9726
媽媽	-11.9728
區與	-11.9732
嘗	-11.9735
ff	-11.974
創設	-11.9744
數據庫	-11.9746
Press	-11.9747
蟒	-11.9748
燮	-11.9754
菀	-11.9759
魚屬	-11.976
Art	-11.9765
熱帶風	-11.9768
ji	-11.9771
ME	-11.9771
ho	-11.9774
鯰	-11.9774
MC	-11.9775
腫	-11.9775
暫時	-11.9776
盎	-11.9779
擔當	-11.9786
154	-11.9788
馬場	-11.9795
統稱	-11.9796
崑	-11.9797
會發	-11.9803
晤	-11.9803
2.3	-11.9806
=1	-11.9808
嬰	-11.9819
岬	-11.982
筠	-11.9821
臥	-11.9822
庾	-11.9823
tes	-11.9824
129	-11.9824
驛	-11.9826
Road	-11.9844
ell	-11.9848
Cu	-11.9855
Inter	-11.9855
マ	-11.9857
栃	-11.986
ene	-11.9861
鉛	-11.9865
iz	-11.9867
铵	-11.9868
孺	-11.9873
斡	-11.9875
淞	-11.9876
樞紐	-11.9877
ay	-11.988
Smith	-11.988
tu	-11.9882
亞納	-11.989
訶	-11.9893
廁	-11.9894
馬紹爾	-11.9896
腭	-11.9897
1877	-11.9898
た	-11.99
1840	-11.9901
禮儀	-11.991
way	-11.9912
AR	-11.9928
165	-11.9936
era	-11.9937
迴賽	-11.9939
漁業	-11.994
link	-11.994
7%	-11.9941
IN	-11.9955
無線電	-11.9956
1400	-11.9974
溫帶	-11.9979
1856	-11.998
鼬	-11.9981
瘋	-11.9985
憤	-11.9993
En	-11.9998
戰結	-12
Unicode	-12
Ta	-12.0002
興農	-12.0003
CPU	-12.001
APG	-12.0011
Sim	-12.0015
會戰	-12.0024
Ro	-12.0024
劍橋	-12.003
ting	-12.003
兩國	-12.0035
張學	-12.004
su	-12.0043
讚	-12.0044
縣內	-12.0046
Lee	-12.0046
King	-12.005
轉變	-12.0057
ola	-12.0062
铎	-12.0065
Office	-12.0068
晉書	-12.0069
1853	-12.0069
í	-12.007
Entertainment	-12.0071
Chi	-12.0082
厲	-12.0083
SI	-12.0088
NewYork	-12.0092
SL	-12.0094
Ltd	-12.0096
橋樑	-12.0105
場館	-12.0109
(2022	-12.0118
-01	-12.012
RA	-12.0121
-30	-12.0121
預測	-12.0128
0.8	-12.013
LCD	-12.0136
浜	-12.0136
ó	-12.0137
ト	-12.0142
カ	-12.0143
berg	-12.0146
1100	-12.0147
ical	-12.0147
瞰	-12.0147
釧	-12.0149
並設	-12.0151
層為	-12.0152
鈉	-12.0154
嬌	-12.0154
Tr	-12.0157
聯軍	-12.016
kin	-12.0166
無黨	-12.0169
國憲	-12.0173
籠	-12.0174
隼	-12.0175
vo	-12.0178
鑒	-12.0182
ap	-12.0187
132	-12.0188
138	-12.019
鳩	-12.0199
Bu	-12.02
aw	-12.0207
osaurus	-12.0207
東邊	-12.0219
鸠	-12.022
兇	-12.0232
Ver	-12.0232
Pr	-12.0241
420	-12.0242
瀏覽	-12.0244
飽	-12.0255
1858	-12.0257
胱	-12.0271
詞彙	-12.0282
116	-12.0285
ev	-12.0289
後擔	-12.0295
FA	-12.0295
業銀	-12.0302
總稱	-12.0305
ling	-12.031
樂劇	-12.0313
☆	-12.0313
News	-12.0317
錶	-12.0321
閻	-12.0325
偃	-12.0326
art	-12.0327
賽馬	-12.033
ep	-12.0332
VI	-12.0334
攝製	-12.0338
暉	-12.0346
ani	-12.0347
晟	-12.0352
豎	-12.0353
ew	-12.0357
專欄	-12.036
ag	-12.0368
燦	-12.037
醫藥學	-12.037
東華	-12.0371
Media	-12.0372
ins	-12.0381
ss	-12.0389
輻鰭魚綱鯉	-12.039
輿	-12.0394
戰爭時	-12.0399
慾	-12.0401
196	-12.0408
Wang	-12.0409
歙	-12.041
par	-12.0411
Mark	-12.0419
2+	-12.042
ま	-12.0422
畝	-12.0422
ob	-12.0427
134	-12.0436
鷗	-12.0442
訥	-12.0443
晉國	-12.0445
聶	-12.0446
岷	-12.0447
鰕	-12.0449
夔	-12.0449
(2013	-12.0449
208	-12.0451
』(	-12.0452
錄製	-12.046
MHz	-12.0464
則稱為	-12.0465
墳	-12.0466
缪	-12.0471
Ben	-12.0474
鬱	-12.0476
孫權	-12.0476
3%	-12.0486
NASA	-12.049
薑	-12.0494
傳遞	-12.0506
ä	-12.0508
1300	-12.051
ド	-12.051
發揮	-12.0513
2.7	-12.052
340	-12.0521
後繼	-12.0522
GA	-12.0522
DE	-12.0523
禱	-12.0523
當選為	-12.0524
▁臺	-12.0528
劾	-12.053
縣長	-12.0531
5%	-12.0533
222	-12.0536
谏	-12.0536
ES	-12.054
”“	-12.0541
RS	-12.0544
頭魚	-12.0546
婁	-12.0547
創業	-12.0548
莘	-12.0549
緝	-12.055
185	-12.0562
戰艦	-12.0564
靈頓	-12.0574
歸為	-12.0575
Red	-12.058
0.4	-12.059
dela	-12.0593
Sam	-12.0606
As	-12.0614
磚	-12.062
諫	-12.062
芷	-12.0622
bin	-12.0622
?”	-12.0626
於韓國	-12.0631
gK	-12.0637
137	-12.0638
CE	-12.064
Er	-12.0641
College	-12.0642
絨	-12.0645
etal	-12.065
Yu	-12.0657
長壽	-12.0657
gov	-12.0661
Saint	-12.0664
發電廠	-12.0675
480	-12.0677
區東	-12.0682
鸫	-12.0686
War	-12.0691
Time	-12.0695
坳	-12.0697
CS	-12.0699
評審	-12.0705
1789	-12.0709
狹義	-12.071
RO	-12.0714
1841	-12.0717
ill	-12.0718
瀧	-12.072
蕙	-12.0723
GO	-12.0723
ク	-12.0725
攜	-12.0726
墜	-12.0726
為藍	-12.0737
ive	-12.0738
206	-12.0739
岐阜縣	-12.0745
1859	-12.0747
籌備	-12.0748
農場	-12.0751
魯國	-12.0752
235	-12.0759
1.7	-12.0761
▁聖	-12.0761
あ	-12.0762
機動	-12.077
0.9	-12.0776
Du	-12.0776
(3)	-12.0776
2》	-12.0783
Fi	-12.0793
136	-12.0798
Hand	-12.0798
巽	-12.0801
It	-12.0806
鈍	-12.0807
漕	-12.081
tra	-12.0813
2500	-12.0816
熱門	-12.0817
andthe	-12.082
※	-12.0821
|270	-12.0825
樵	-12.0826
實踐	-12.0828
槟	-12.0829
芮	-12.083
預計	-12.0832
bu	-12.0834
こ	-12.084
Joseph	-12.0843
頒獎禮	-12.0847
LE	-12.085
Richard	-12.0865
組別	-12.087
126	-12.0874
國職業	-12.0879
颍	-12.088
pt	-12.0881
佔據	-12.0881
瞿	-12.0881
邾	-12.0899
THE	-12.09
Ant	-12.09
衛冕	-12.0903
9%	-12.0914
290	-12.0925
氹	-12.0925
這顆	-12.0937
門員	-12.0938
IATA	-12.0943
1845	-12.0944
靂	-12.0951
Xbox	-12.0951
html	-12.0953
潞	-12.0962
膳	-12.0962
@	-12.0972
197	-12.0973
庫爾	-12.0976
麴	-12.0977
國駐	-12.0977
Game	-12.0977
Cor	-12.0982
綏	-12.0982
av	-12.0985
為黃	-12.0988
let	-12.0991
GG	-12.1002
ig	-12.1002
鷺	-12.1003
籤	-12.1009
1851	-12.1012
Island	-12.1014
貶	-12.1022
蕨	-12.1028
142	-12.1028
終結	-12.1028
さ	-12.1032
曦	-12.1033
嬰兒	-12.104
後為	-12.1042
黃埔	-12.1044
0.6	-12.1044
國軍隊	-12.1044
Black	-12.1049
闖	-12.1059
聖羅馬	-12.1063
軍賽	-12.1065
val	-12.1065
眾議員	-12.1066
ans	-12.1069
key	-12.1077
е	-12.1078
眺	-12.1079
輔導	-12.1083
1700	-12.1086
156	-12.1086
峪	-12.1087
ena	-12.1087
Intel	-12.109
釋迦	-12.109
販賣	-12.1098
團員	-12.11
叻	-12.1106
δ	-12.1109
1836	-12.1109
AMD	-12.1109
飼養	-12.1115
int	-12.1115
North	-12.1118
個車	-12.1119
導師	-12.1122
時間為	-12.1126
複數	-12.1128
郡選區	-12.1132
Her	-12.1137
暢銷	-12.1137
羅傑	-12.1142
Ex	-12.1152
灣總	-12.1154
-25	-12.1156
凱爾	-12.1166
iana	-12.1166
瀚	-12.1167
za	-12.1177
禪師	-12.1179
Club	-12.118
PV	-12.119
無線	-12.119
觀賞	-12.1191
渥	-12.1193
-23	-12.1195
ys	-12.1198
District	-12.1199
class	-12.1204
low	-12.1208
1-	-12.1216
res	-12.122
硼	-12.1221
腎	-12.1221
AD	-12.1227
dor	-12.1228
rus	-12.1231
ft	-12.1234
8.5	-12.1237
Ag	-12.1238
講師	-12.124
鎮壓	-12.1242
輕時	-12.1247
灣電	-12.1258
營區	-12.1264
滙豐	-12.1266
蘊	-12.1273
甬	-12.1279
汲	-12.1279
於現	-12.128
TS	-12.1287
1.9	-12.1288
螯	-12.1289
MO	-12.1294
紡織	-12.1296
這兩個	-12.1298
1-2	-12.1304
誅	-12.1306
姪	-12.1308
221	-12.1309
198	-12.1319
艙	-12.1319
ez	-12.1328
ll	-12.1332
Free	-12.1333
潼	-12.1348
Ru	-12.1349
診	-12.135
亞視	-12.1352
•	-12.1355
亞國	-12.1358
ow	-12.136
則稱	-12.1362
該黨	-12.1366
Par	-12.1367
Names	-12.1368
鄭國	-12.1368
3.3	-12.1371
sub	-12.1371
電視連續劇	-12.1374
亞馬遜	-12.1375
蘇維	-12.1376
2.1	-12.1377
階層	-12.1377
動態	-12.1379
嘯	-12.1384
1852	-12.1387
爾達	-12.1391
於當	-12.1403
暹	-12.1406
嬴	-12.1407
烃	-12.141
納爾	-12.1412
Mu	-12.1412
笃	-12.1417
Henry	-12.1425
愛國	-12.143
買賣	-12.143
Jump	-12.1431
師協	-12.1433
繡	-12.1434
貢區	-12.1436
QQ	-12.1437
鐘獎	-12.1438
ny	-12.144
Sir	-12.144
ite	-12.1452
MicrosoftWindows	-12.1457
9.	-12.1458
1844	-12.1464
189	-12.1466
兒島	-12.1475
會將	-12.1481
Fu	-12.1484
Net	-12.1486
167	-12.1487
楔	-12.1489
а	-12.149
窮	-12.1491
锂	-12.1492
Sal	-12.1494
TR	-12.1495
車廠	-12.1495
|275	-12.1497
hu	-12.1504
203	-12.1505
CN	-12.1509
DOS	-12.151
MacOSX	-12.1512
ros	-12.1515
▁趙	-12.1519
informati	-12.1523
、、、	-12.1527
2.2	-12.1529
Informati	-12.153
Bur	-12.1531
Magazine	-12.1538
歴	-12.1545
昵	-12.1546
門區	-12.1549
Astero	-12.1549
ano	-12.1551
開國	-12.1557
Book	-12.1558
Eu	-12.156
204	-12.1563
-05	-12.1566
猕	-12.1568
Network	-12.1572
Street	-12.1572
Martin	-12.1574
Ed	-12.1574
肽	-12.1576
FI	-12.1577
141	-12.1578
濂	-12.1579
192	-12.1579
PO	-12.1582
這兩	-12.1586
sk	-12.1589
ship	-12.1594
種語	-12.1594
ox	-12.1599
ure	-12.16
龔	-12.16
蔥	-12.1602
1812	-12.1604
鞏	-12.1604
繹	-12.1606
鮋	-12.1608
諾爾	-12.1608
寧縣	-12.1608
貂	-12.1619
3.6	-12.162
纖	-12.1622
bus	-12.1623
XML	-12.1626
網際網	-12.1627
洮	-12.163
At	-12.1635
are	-12.1639
鄉鎮	-12.1639
ala	-12.1642
歡樂	-12.1643
韋爾	-12.1646
KDE	-12.1651
Har	-12.1653
襪	-12.1653
1842	-12.1654
軍陸戰隊	-12.1654
Tri	-12.1658
う	-12.1659
133	-12.1667
Tu	-12.167
-03	-12.1673
歸類於	-12.1677
歐亞	-12.1677
鈣	-12.1686
151	-12.1687
連線	-12.1689
.2	-12.1694
ix	-12.1694
キ	-12.1703
專屬	-12.1705
鉅	-12.1713
softhe	-12.1716
褚	-12.1718
05||||199	-12.1725
-06	-12.1731
珂	-12.1731
會產	-12.1741
職業網	-12.1741
撐	-12.1744
攜帶	-12.1745
AP	-12.1746
)<	-12.175
東臨	-12.175
Win	-12.1754
ford	-12.1755
ミ	-12.176
EL	-12.1765
聯隊	-12.1771
遼東	-12.1771
陳奕	-12.1774
South	-12.1774
158	-12.1778
荨	-12.178
time	-12.1784
119	-12.1786
戰勝	-12.1788
ial	-12.1794
嫻	-12.1797
IA	-12.1798
(2018	-12.1802
Cha	-12.182
齒獸	-12.1821
紙幣	-12.1824
梵語	-12.1828
暢	-12.1829
謀殺	-12.183
04||||199	-12.1833
無線電視	-12.1833
form	-12.1837
yPress	-12.1839
AG	-12.1841
Japan	-12.1843
Ber	-12.1843
(2017	-12.1846
質數	-12.1852
樑	-12.1855
會會長	-12.1864
瑋	-12.1878
で	-12.1881
檳	-12.1882
hr	-12.1883
TVBS	-12.1885
1/	-12.1887
Green	-12.1894
SN	-12.1896
ロ	-12.1905
軍軍	-12.1905
を	-12.1907
護區	-12.1909
鬧	-12.1914
IM	-12.1915
-22	-12.1915
驿	-12.1921
臺鐵	-12.1926
che	-12.1929
ense	-12.1931
Cr	-12.1931
ジ	-12.1932
yn	-12.1948
AN	-12.1951
AI	-12.1951
3.1	-12.1953
ī	-12.1955
個別	-12.1956
eb	-12.1956
亞當	-12.1957
1824	-12.1959
eus	-12.1968
檸	-12.1969
團長	-12.1971
06||||2000	-12.1973
攤	-12.1974
152	-12.1982
員選舉	-12.1985
盃賽	-12.1986
業電	-12.1989
佬	-12.1999
虢	-12.2007
153	-12.2008
簡體	-12.2009
樂製	-12.2014
dis	-12.2021
NET	-12.2026
238	-12.203
dle	-12.2036
個島嶼	-12.2037
烏爾	-12.2039
1843	-12.2043
DO	-12.2045
1821	-12.2048
懲	-12.2055
131	-12.206
邕	-12.2061
來歷	-12.2066
ien	-12.2072
193	-12.2077
1834	-12.208
▁奧	-12.2083
菸	-12.2087
CAS	-12.2087
屆亞	-12.2094
經費	-12.2098
С	-12.21
該書	-12.2106
麒麟	-12.211
ν	-12.2111
Company	-12.2113
綺	-12.2114
!”	-12.2115
port	-12.2119
aceae	-12.2123
槭	-12.2124
rd	-12.2124
蒴	-12.2125
オ	-12.2134
褲	-12.2136
薩諸	-12.2136
1846	-12.2137
1815	-12.2138
border	-12.214
鼩	-12.2146
Tom	-12.2158
衛門	-12.216
ABC	-12.2162
並為	-12.2168
壢	-12.2172
ise	-12.2173
戰敗	-12.2173
1831	-12.2177
龚	-12.2179
會與	-12.218
戰績	-12.2182
370	-12.2183
3.4	-12.2184
單車	-12.2185
Pe	-12.2186
NP	-12.2186
シ	-12.2195
綾	-12.2196
cher	-12.22
vol	-12.2203
辦國	-12.2205
蕩	-12.2209
埔區	-12.2212
ish	-12.2214
HO	-12.2217
div	-12.2218
1814	-12.2221
Hall	-12.2222
139	-12.2224
學業	-12.2226
3.8	-12.2229
羅納	-12.223
ence	-12.2235
琮	-12.2235
後進	-12.2236
郢	-12.224
icus	-12.2243
紀後	-12.2244
К	-12.2244
rie	-12.2246
1847	-12.225
Wi	-12.2254
3.0	-12.2261
je	-12.2264
穹	-12.2266
Big	-12.2268
5.6	-12.2271
API	-12.2271
參謀	-12.2271
則於	-12.2274
OR	-12.2281
間為	-12.2287
謎	-12.2289
Blue	-12.2289
CP	-12.229
80%	-12.2292
並開	-12.2293
ile	-12.2295
後獲	-12.2296
電機	-12.2298
評為	-12.2301
谕	-12.2306
Col	-12.2317
統領	-12.2319
1826	-12.2325
High	-12.2326
223	-12.2328
彈劾	-12.2331
鱷魚	-12.2333
over	-12.2333
gar	-12.2336
mu	-12.2336
Chinese	-12.2339
樂會	-12.2341
BO	-12.2342
211	-12.2343
統籌	-12.2345
搖	-12.2348
cat	-12.235
143	-12.235
昕	-12.2355
維納	-12.2357
轄範圍	-12.236
can	-12.2364
員國	-12.2365
黜	-12.2366
會議員	-12.2375
325	-12.2375
蟻	-12.2377
偕	-12.2381
SH	-12.2381
1833	-12.2381
馬縣	-12.2382
127	-12.2384
BS	-12.239
苋	-12.2394
188	-12.2394
02||||199	-12.2395
(2015	-12.24
疣	-12.2403
CF	-12.2416
147	-12.2421
於歐	-12.2426
▁蘇	-12.243
184	-12.2432
變為	-12.2441
颌	-12.2442
謹	-12.2446
EX	-12.2447
炀	-12.2454
(1992	-12.2455
亞運會	-12.2459
じ	-12.246
總編輯	-12.246
Jean	-12.2463
擇	-12.2474
Hi	-12.2477
CR	-12.2478
國華	-12.2483
後備	-12.2486
Mer	-12.2494
驅動	-12.2496
265	-12.2498
tz	-12.2498
oo	-12.2504
艋舺	-12.2504
國傳統	-12.2504
Sha	-12.2504
擠	-12.2506
陰陽	-12.2511
電擊	-12.2517
運載	-12.2517
ub	-12.2522
峯	-12.253
號稱	-12.2531
ven	-12.2538
鲈	-12.2544
Tolkien	-12.2547
+3	-12.2549
1758	-12.2552
£	-12.2558
鵰	-12.2558
333	-12.256
1825	-12.256
篠	-12.2561
AK	-12.2565
(2019	-12.2566
攸	-12.2567
栾	-12.2567
於當時	-12.2572
01||||199	-12.258
field	-12.2582
August	-12.2586
ett	-12.2587
為獨	-12.2596
逵	-12.2599
陽郡	-12.2604
WW	-12.2606
580	-12.2611
162	-12.2611
3.2	-12.2613
State	-12.2617
(2014	-12.2622
茱	-12.2624
σ	-12.2627
CG	-12.2629
с	-12.2633
頷	-12.2633
級時	-12.2635
麗莎	-12.2643
貞觀	-12.2645
ナ	-12.2645
繆	-12.2646
215	-12.265
sc	-12.2652
颶風	-12.2652
Nu	-12.2655
50%	-12.2658
拋	-12.2659
BL	-12.2661
コ	-12.2662
-24	-12.2663
03||||199	-12.267
獲選為	-12.2673
TO	-12.2676
鹟	-12.2678
狙擊	-12.2681
霆	-12.2685
參軍	-12.2686
準確	-12.2691
Ki	-12.2699
5.8	-12.2702
DR	-12.2703
Champi	-12.2708
640	-12.2709
賽於	-12.2709
Ec	-12.2711
轉運	-12.2712
書紀	-12.2716
鴿	-12.2716
0.7	-12.2718
178	-12.2721
臺東縣	-12.2726
6.8	-12.2727
並擔	-12.2727
東門	-12.2728
鱈	-12.2732
這時	-12.2733
鶲	-12.2733
縣縣長	-12.2738
</	-12.2743
轉寫	-12.2744
鷲	-12.2747
璇	-12.2753
/10001-11000	-12.2757
name	-12.276
賽場	-12.2761
鲀	-12.2762
(2023	-12.277
線資	-12.2771
194	-12.2772
為題	-12.2774
kh	-12.2779
ED	-12.2781
浔	-12.2784
White	-12.2793
Max	-12.2799
!!	-12.2799
組長	-12.2807
ren	-12.2807
219	-12.2807
Science	-12.2809
綸	-12.2809
爾馬	-12.281
Center	-12.2814
Gi	-12.2818
業發	-12.282
則會	-12.282
able	-12.2821
History	-12.2825
Hill	-12.2825
5-	-12.2831
Image	-12.2835
ok	-12.2836
.&	-12.2837
τ	-12.2839
Rock	-12.284
-100	-12.284
Pan	-12.2841
3+	-12.2843
Chem	-12.2848
-50	-12.2849
Franch	-12.2854
檢討	-12.2855
bra	-12.2859
Ac	-12.286
聖誕	-12.2862
當時為	-12.2863
つ	-12.2867
體驗	-12.2874
209	-12.2876
Men	-12.2876
讀賣	-12.2877
?」	-12.2878
4.8	-12.2881
06||||199	-12.2888
275	-12.2888
職責	-12.2891
10%	-12.2897
Para	-12.29
電壓	-12.2904
洙	-12.2904
洱	-12.2907
queryfor	-12.2908
ghtcurveDatabase	-12.2908
285	-12.2912
選輯	-12.2913
細長	-12.2914
開頭	-12.2923
à	-12.2925
rin	-12.2927
專長	-12.2928
tt	-12.2929
進軍	-12.2934
蘇門	-12.2936
ρ	-12.2937
崁	-12.2939
eg	-12.2941
ich	-12.2946
實質	-12.295
(1999	-12.2952
Min	-12.296
齣	-12.2963
贛	-12.2969
House	-12.2973
ind	-12.2981
橋區	-12.2985
搖滾樂團	-12.2988
Editi	-12.2992
720	-12.2993
oli	-12.2996
較長	-12.3
qui	-12.3001
聖馬	-12.3001
SU	-12.3001
173	-12.3001
爛	-12.3003
邏	-12.3003
韓語	-12.3011
430	-12.3012
10000	-12.3012
鵑	-12.303
161	-12.3032
737	-12.3036
》——	-12.3049
4.2	-12.3056
於廣東	-12.3056
ora	-12.3058
3.9	-12.3062
1818	-12.3067
Ku	-12.3067
菅	-12.3067
瓯	-12.3068
16.	-12.3076
1849	-12.3077
af	-12.3077
166	-12.3078
遊記	-12.3083
inae	-12.3083
Land	-12.3084
ム	-12.3087
兩層	-12.3088
157	-12.3089
鹭	-12.3094
CM	-12.3098
Louis	-12.31
館舉	-12.3101
罹	-12.3105
Up	-12.3106
劇電	-12.311
Die	-12.3112
斷層	-12.3115
frame	-12.3116
386	-12.3116
East	-12.3119
у	-12.3124
砷	-12.3129
檜	-12.3129
郴	-12.313
丟	-12.3135
SF	-12.3135
佟	-12.3135
950	-12.3136
8000	-12.3136
幾種	-12.3138
264	-12.314
set	-12.3151
STS	-12.3158
)→	-12.316
頤	-12.3161
該廟	-12.3163
兗	-12.3165
鞑靼	-12.3165
レ	-12.3166
驟	-12.3168
匝	-12.3172
Ir	-12.3172
4.6	-12.318
兩棲	-12.3184
(1998	-12.3186
log	-12.3189
覺羅	-12.3192
Sh	-12.3194
鉄	-12.3196
245	-12.3196
歸類為	-12.3197
雛	-12.32
Central	-12.3206
鸢	-12.3211
5.4	-12.3213
ち	-12.3218
ato	-12.322
軍總	-12.322
Lin	-12.3228
昱	-12.3229
勛	-12.323
1835	-12.323
泸	-12.3231
說話	-12.3232
羰	-12.3233
Games	-12.3234
阙	-12.3236
iti	-12.3239
183	-12.3239
Micro	-12.3245
air	-12.3245
Technology	-12.3246
個獨	-12.3251
對戰	-12.3253
噬	-12.326
飄	-12.3262
323	-12.3262
陸時	-12.3273
pet	-12.328
305	-12.328
Limited	-12.3284
-02	-12.3297
內親	-12.3298
Day	-12.33
傀儡	-12.3301
ax	-12.3303
參觀	-12.3304
301	-12.3306
竺鯛	-12.3314
Corporati	-12.3314
CL	-12.3318
栎	-12.3318
電聯車	-12.332
酋長	-12.332
286	-12.3321
1832	-12.3322
Home	-12.3322
奮	-12.3326
ao	-12.333
閃電	-12.3331
aryofMinorPlanet	-12.3333
這場	-12.3334
隨機	-12.3336
CV	-12.3337
芪	-12.3339
osa	-12.3341
無敵	-12.3347
9.8	-12.3348
虱	-12.3351
lar	-12.3351
軟體動	-12.3351
。」「〔	-12.3354
HTML	-12.3354
隴	-12.336
7.8	-12.3361
滬	-12.3362
毘	-12.3362
-40	-12.3366
峙	-12.3367
illa	-12.3368
2.9	-12.3368
ita	-12.337
鳚	-12.3371
207	-12.3381
First	-12.3381
har	-12.3392
繪圖	-12.3393
瀝	-12.3394
sto	-12.3401
ニ	-12.3404
LC	-12.3404
mp	-12.3405
佥	-12.3405
綜藝	-12.3407
鄱	-12.3413
General	-12.3414
酰胺	-12.3415
191	-12.3416
530	-12.3427
萊塢	-12.3427
ice	-12.3427
啟動	-12.3428
440	-12.3429
詮釋	-12.3431
歷時	-12.3437
ι	-12.344
職業學	-12.3442
衝擊	-12.3444
爾縣	-12.3447
nm	-12.3453
體為	-12.3453
醫藥	-12.347
Team	-12.3471
OP	-12.3473
囓齒	-12.3474
诛	-12.3474
Bank	-12.3484
Gar	-12.3491
闢	-12.3491
時間內	-12.3494
璽	-12.3494
urus	-12.3499
飓	-12.3502
統帥	-12.3505
news	-12.3505
Str	-12.3509
thumbnail	-12.3512
優異	-12.3514
han	-12.3516
開墾	-12.3516
eu	-12.3517
編譯	-12.3517
LA	-12.352
EE	-12.3523
烏茲別	-12.3524
蠟	-12.3526
卞	-12.3527
濬	-12.3528
埕	-12.353
為韓國	-12.353
掖	-12.353
轄屬	-12.3534
978	-12.3536
239	-12.3538
エ	-12.354
CI	-12.3542
ator	-12.3546
VA	-12.3546
為長	-12.3546
聞網	-12.3549
標為	-12.355
MTV	-12.355
ウ	-12.3551
06||||2001	-12.3554
Au	-12.356
侃	-12.3567
華書	-12.3569
驸	-12.3571
8.9	-12.3574
Van	-12.3576
後與	-12.3578
ck	-12.3579
Page	-12.3581
cu	-12.3581
舊屬	-12.3582
這張專輯	-12.3583
茴	-12.3584
僱	-12.3595
締	-12.3597
タ	-12.3598
5°	-12.3598
澧	-12.3601
inus	-12.3602
See	-12.3606
歸於	-12.3609
飛鳥	-12.3609
TI	-12.3619
iv	-12.3619
Chan	-12.362
涿	-12.3625
繫	-12.3628
cl	-12.3628
決議	-12.3628
萊爾	-12.363
對話	-12.3631
煜	-12.3632
249	-12.3632
覓	-12.3632
Luc	-12.3634
儉	-12.3635
貧窮	-12.3637
Girl	-12.3647
職於	-12.3653
Sky	-12.3658
д	-12.3658
620	-12.3661
葆	-12.3664
01-	-12.3666
谟	-12.3668
APGII	-12.3668
mol	-12.3669
1804	-12.3669
郤	-12.367
亞綱	-12.3671
級賽	-12.3671
號誌	-12.368
騎師	-12.3685
脫維亞	-12.3688
國會議員	-12.3688
將這	-12.3692
ram	-12.3694
擲	-12.3699
刪	-12.37
諒	-12.3701
膺	-12.3701
4.0	-12.3703
ser	-12.3703
cr	-12.3713
Tra	-12.3718
寶貝	-12.3719
聖約	-12.372
Real	-12.3728
ú	-12.3729
164	-12.373
186	-12.3731
DM	-12.3732
齒龍	-12.3733
類為	-12.3734
1837	-12.374
off	-12.3741
ops	-12.3741
冢	-12.3743
(2020	-12.3754
軍營	-12.3756
out	-12.3757
學說	-12.3757
Angel	-12.3758
tothe	-12.3759
Royal	-12.3762
涪	-12.3773
無關	-12.3773
ING	-12.3774
兖	-12.3774
辦學	-12.3776
診斷	-12.3776
-08	-12.3776
.-	-12.3779
ku	-12.3781
於紐約	-12.3783
廣島縣	-12.3784
6.7	-12.3785
ted	-12.3786
國奧	-12.3788
ski	-12.3789
吳國	-12.3791
alis	-12.3792
屍體	-12.3793
熱愛	-12.3795
紮	-12.38
780	-12.3802
March	-12.3805
Wall	-12.3808
犍	-12.381
BR	-12.3812
6.6	-12.3819
well	-12.382
nes	-12.382
門將	-12.382
520	-12.3825
5.2	-12.3831
鴨脷	-12.3833
4.7	-12.3834
560	-12.3836
540	-12.3839
後發	-12.3839
1810	-12.384
RT	-12.3841
揆	-12.3841
172	-12.3846
産	-12.3851
Dream	-12.3862
181	-12.3864
6.3	-12.3864
COM	-12.3869
)、「	-12.3869
國國軍	-12.387
醜	-12.3875
氙	-12.3875
靳	-12.3876
辯論	-12.3877
ds	-12.3878
Bay	-12.3882
ick	-12.3884
實數	-12.3885
Ter	-12.3885
jo	-12.389
sv	-12.3891
wi	-12.3892
總決賽	-12.3902
炯	-12.3904
咲	-12.3905
LOVE	-12.3906
Internet	-12.3909
Good	-12.3913
sky	-12.3913
蠡	-12.3913
鹘	-12.3915
災難	-12.3915
(2012	-12.3916
1806	-12.3917
Sea	-12.3923
國網	-12.3924
ust	-12.3925
貫廣東	-12.3933
薔	-12.3937
1820	-12.3942
琰	-12.3942
ifolia	-12.3944
會計師	-12.3947
瑪麗亞	-12.3948
321	-12.3951
tar	-12.3952
镖	-12.3961
て	-12.3966
동	-12.3967
cor	-12.3968
Port	-12.3972
绛	-12.398
晖	-12.398
颐	-12.3982
GooglebooksDisco	-12.3984
1816	-12.3986
228	-12.3996
ا	-12.3997
Edward	-12.4001
め	-12.4001
1839	-12.4003
え	-12.4005
159	-12.4007
ase	-12.4009
163	-12.4009
7000	-12.401
樽	-12.401
殼類	-12.4011
Tar	-12.4013
tan	-12.4014
愍	-12.4015
羅漢	-12.4015
關島	-12.4017
誥	-12.4019
Mal	-12.4021
緊鄰	-12.4022
蜥腳	-12.4028
you	-12.4029
○○	-12.4034
Digital	-12.4034
為無	-12.4037
90%	-12.4038
EA	-12.4039
Che	-12.4039
999	-12.4039
蠅	-12.4041
營辦	-12.4043
177	-12.4047
潑	-12.4048
0.	-12.4052
門縣	-12.4056
ScarecrowPress	-12.4057
Wu	-12.406
GP	-12.406
開闢	-12.4062
(1989	-12.4062
實習	-12.4064
1790	-12.4073
IUCN	-12.4075
ο	-12.4079
埤	-12.4079
Official	-12.408
湊	-12.408
|100	-12.4081
猷	-12.4082
氦	-12.4083
ics	-12.4083
筲	-12.4083
闡	-12.4087
▁葉	-12.4091
20%	-12.4097
rs	-12.4098
編導	-12.4099
1802	-12.4105
+4	-12.4107
鑲	-12.4111
奄	-12.4117
碁	-12.412
佗	-12.4122
-80	-12.4125
勻	-12.4125
▁詹	-12.4126
460	-12.413
預備	-12.4134
XXX	-12.4134
華麗	-12.4136
USS	-12.4136
ada	-12.4137
yo	-12.4138
Tor	-12.4138
CB	-12.414
mat	-12.4143
1792	-12.4145
cho	-12.4146
Cal	-12.4154
証	-12.4156
馬賽	-12.416
tin	-12.4162
3.7	-12.4162
併後	-12.4162
6.9	-12.4165
軍閥	-12.4167
ding	-12.4171
詞語	-12.4172
畿內亞	-12.4179
類動	-12.4182
後隨	-12.4182
嶋	-12.4187
鈕	-12.4189
鑰	-12.4191
祜	-12.4191
璟	-12.4192
007	-12.4194
▁謝	-12.4197
|225	-12.4197
nu	-12.4204
類單	-12.4206
張國	-12.4208
も	-12.4209
pan	-12.4209
終極	-12.421
234	-12.4212
個兒	-12.4217
-2000	-12.4221
為對	-12.4221
ym	-12.4225
摺	-12.4228
滲	-12.4228
離島	-12.4229
樂節	-12.4234
och	-12.4235
▁2009	-12.4243
226	-12.4243
視訊	-12.4244
Pre	-12.425
-26	-12.4253
269	-12.4256
now	-12.4257
-07	-12.4258
eh	-12.4259
Asia	-12.426
積達	-12.426
tis	-12.4262
峇	-12.4264
sta	-12.4266
璜	-12.4266
Jr	-12.427
pr	-12.427
omys	-12.4276
該島	-12.4281
Poly	-12.4283
這條	-12.4286
237	-12.4286
680	-12.4286
ath	-12.4286
趙國	-12.4287
電動	-12.4288
red	-12.4289
390	-12.429
愛媛縣	-12.429
8.8	-12.4293
cc	-12.4294
\	-12.4296
璞	-12.4299
CCTV	-12.4303
潰	-12.4305
Jo	-12.4306
Bel	-12.4306
學醫學	-12.431
archive	-12.4317
Geo	-12.4322
層級	-12.4324
墮	-12.4339
149	-12.4339
▁M	-12.4341
處決	-12.4345
噴發	-12.4347
6.4	-12.4348
Ju	-12.4356
ack	-12.4357
171	-12.4358
淄	-12.4366
點為	-12.4367
GS	-12.4367
綬	-12.4369
會館	-12.4369
麒	-12.4371
湯瑪	-12.4374
後宮	-12.4375
闕	-12.4376
224	-12.4376
TE	-12.4376
365	-12.4378
1788	-12.4379
Model	-12.4381
ert	-12.4383
ib	-12.4384
ccTLD	-12.4385
306	-12.4394
變動	-12.4396
8°	-12.4399
omy	-12.4404
運車	-12.4405
ug	-12.4405
張國榮	-12.4407
畑	-12.4408
衢	-12.4412
叡	-12.4413
癒	-12.4415
彈藥	-12.4417
護單	-12.4433
Yahoo	-12.4435
NOTO	-12.444
(1990	-12.4447
ect	-12.4451
誣	-12.4453
戰機	-12.4456
(4)	-12.4459
Comic	-12.4461
zo	-12.4461
DI	-12.4464
pre	-12.4464
176	-12.4477
氐	-12.4481
fi	-12.4483
緻	-12.4483
str	-12.4485
間擔	-12.4486
璐	-12.4486
稱爲	-12.4487
糾	-12.4487
佘	-12.4487
毀滅	-12.4488
婢	-12.4491
▁許	-12.4494
廢藩	-12.4494
場舉	-12.4497
敗給	-12.4498
Qu	-12.4499
蛺	-12.4503
Museum	-12.4514
勐	-12.4516
Regi	-12.452
Show	-12.4522
後開	-12.4523
話題	-12.4525
ane	-12.4527
扈	-12.4527
圩	-12.4528
Lake	-12.4532
陳國	-12.4535
><	-12.454
參賽資	-12.4543
system	-12.4543
not	-12.4544
Ser	-12.4548
lam	-12.4551
叟	-12.4554
謨	-12.4556
檢驗	-12.4556
2-3	-12.4557
薊	-12.4558
Society	-12.4559
trol	-12.456
嵯	-12.4561
PM	-12.4561
Sports	-12.4561
傭	-12.4562
5.7	-12.4563
Cho	-12.4563
Service	-12.4563
ua	-12.4563
礦業	-12.4565
奘	-12.4566
Sub	-12.4569
撫養	-12.4573
ju	-12.4575
蝰	-12.4577
Os	-12.4578
forthe	-12.4581
hy	-12.4583
藜	-12.4584
182	-12.4586
174	-12.459
Bey	-12.459
4.3	-12.4595
龍灣	-12.4596
浣	-12.4596
uc	-12.4596
Top	-12.4606
ROM	-12.461
賭場	-12.4611
Wiki	-12.4611
±	-12.4613
東勢	-12.4613
š	-12.4621
1828	-12.4622
1829	-12.4624
濮	-12.4626
Mary	-12.4629
(1997	-12.4629
筱	-12.4631
Great	-12.4632
昶	-12.4638
筆劃	-12.464
AE	-12.4641
(2016	-12.4642
233	-12.4643
pH	-12.4651
IEC	-12.4652
Andro	-12.4655
English	-12.4655
為廣	-12.4656
Carl	-12.4657
フ	-12.4658
於蘇	-12.466
Pu	-12.466
醣	-12.4661
ima	-12.4661
檢測	-12.4665
與黃	-12.4667
參賽隊	-12.4669
266	-12.4671
sim	-12.4672
時發	-12.4674
軍盃	-12.4676
屆國	-12.4679
star	-12.4682
(1996	-12.4685
勞倫	-12.4686
詳見	-12.4686
ess	-12.4686
259	-12.4688
單純	-12.4693
1838	-12.4696
鳕	-12.4696
IEEE	-12.4699
-2008	-12.4701
-29	-12.4701
LD	-12.4702
217	-12.4703
yu	-12.4703
و	-12.4707
KK	-12.4708
6.1	-12.4709
lis	-12.4709
213	-12.4716
Mel	-12.4717
EOS	-12.4718
為歐	-12.472
ith	-12.4724
8.3	-12.4724
鳗	-12.4726
ye	-12.4726
於愛	-12.4728
5.3	-12.4732
逍	-12.4733
Daniel	-12.4735
歷來	-12.4737
Ja	-12.4744
铬	-12.4746
Jack	-12.4749
town	-12.475
竊	-12.4751
Hol	-12.4755
獅隊	-12.476
為紅	-12.4761
畢業於國	-12.4761
Gold	-12.4762
Photo	-12.4764
997	-12.477
AU	-12.4772
灣電視	-12.4774
線為	-12.4777
nati	-12.4777
鉀	-12.478
柚	-12.4784
戰雙	-12.4785
part	-12.4789
贖	-12.479
話劇	-12.479
▁+	-12.4793
ML	-12.4793
660	-12.4794
週邊	-12.4797
Mazz	-12.48
(1987	-12.4802
綴	-12.4811
ノ	-12.4812
|210	-12.4814
4.9	-12.4816
FIFA	-12.4817
179	-12.4818
離職	-12.4821
銓	-12.4821
羯	-12.4823
Mag	-12.4824
1807	-12.4824
fer	-12.4837
於廣	-12.4838
慶長	-12.4839
補選	-12.484
評選	-12.4841
優勝	-12.4843
滄	-12.4844
Comp	-12.4847
Young	-12.4851
FS	-12.4852
ks	-12.4853
403	-12.4855
鍊	-12.4855
SR	-12.4858
war	-12.486
餡	-12.4861
410	-12.4862
狩獵	-12.4863
詐	-12.4865
弩	-12.4869
氣層	-12.4873
6.2	-12.4875
Cup	-12.4877
ede	-12.488
隊參	-12.4884
Apple	-12.4885
eth	-12.4891
韃靼	-12.4894
wood	-12.4894
η	-12.4895
304	-12.4895
結識	-12.4895
鄺	-12.4897
記為	-12.4898
儂	-12.4899
sis	-12.4901
國維	-12.4901
澱	-12.4902
廢棄	-12.4904
漲	-12.4907
yr	-12.491
-04	-12.4912
鄰車	-12.4915
適當	-12.4917
魟	-12.492
1783	-12.4922
League	-12.4926
緯來	-12.4927
Software	-12.4928
ali	-12.4928
ble	-12.4932
嗎	-12.4934
唑	-12.4934
淦	-12.4936
ال	-12.494
會變	-12.494
塢	-12.4941
蛟	-12.4944
奧蘭	-12.4944
俸	-12.4946
1801	-12.495
7°	-12.495
SK	-12.4953
aria	-12.4957
ock	-12.4964
gue	-12.4964
70%	-12.4966
鬥爭	-12.4968
駱	-12.4976
國數學	-12.4976
las	-12.4977
窯	-12.4978
;;)	-12.4982
187	-12.4984
樞機	-12.4985
東郡	-12.4987
CCategory	-12.4988
運營	-12.4988
興國	-12.4991
bel	-12.4995
Play	-12.4997
觀賞魚	-12.5002
與陳	-12.5011
555	-12.5012
And	-12.5017
烯烃	-12.5018
縱貫線	-12.5018
糞	-12.5019
濫	-12.5022
1-3	-12.5025
灣區	-12.5029
kan	-12.503
兩項	-12.5032
鼩鼱	-12.5033
ر	-12.5034
23.	-12.5038
ran	-12.504
6.0	-12.5041
GN	-12.5043
Adobe	-12.5043
Research	-12.5044
東莞	-12.5049
957	-12.5052
BE	-12.5057
䲁	-12.5074
す	-12.5077
dia	-12.5079
長時間	-12.5082
於亞	-12.5082
5.0	-12.5083
gs	-12.5084
ette	-12.5084
1791	-12.5084
側為	-12.5088
232	-12.5088
Jan	-12.5093
曇	-12.5093
gg	-12.5094
è	-12.5095
攔	-12.5098
SB	-12.5101
She	-12.5102
mus	-12.5103
纥	-12.5106
Radio	-12.5107
襄陽	-12.5112
eli	-12.5112
263	-12.5113
變數	-12.5115
2005.	-12.5116
fromthe	-12.5116
Out	-12.5116
チ	-12.5126
IF	-12.5129
獲選	-12.513
ning	-12.5133
ben	-12.5135
Key	-12.5136
釘	-12.5139
7.9	-12.5142
紛紛	-12.5142
團結	-12.5147
經學	-12.5151
UP	-12.5151
cin	-12.5159
-28	-12.5162
324	-12.5163
條來	-12.5165
app	-12.5167
顱	-12.5169
後賽	-12.5172
圻	-12.5173
246	-12.5174
間諜	-12.5177
Maxim	-12.5178
翎	-12.5179
244	-12.5181
▁thumbnail	-12.5192
-27	-12.5194
獸腳	-12.5199
弋	-12.5199
296	-12.52
陣營	-12.5201
1776	-12.5202
CCC	-12.5203
aryof	-12.5206
1823	-12.5213
ear	-12.5216
镁	-12.5217
渚	-12.5218
藝復興	-12.5221
邳	-12.5221
Fire	-12.5224
Bal	-12.5224
▁孫	-12.5226
295	-12.5228
》2005	-12.5231
276	-12.5231
東羅馬	-12.5232
轉動	-12.5232
ple	-12.5232
216	-12.5233
競爭對	-12.5233
book	-12.5234
鹬	-12.5235
IE	-12.5236
ain	-12.5238
|500	-12.5239
會對	-12.5243
ms	-12.5246
櫚	-12.5249
啶	-12.5249
9.5	-12.525
渦輪	-12.5251
ef	-12.5252
國時報	-12.5255
脩	-12.5256
偵測	-12.5258
鯨魚	-12.5258
405	-12.5259
寮國	-12.526
▁約	-12.5261
227	-12.5261
朕	-12.5265
東寶	-12.5273
.45	-12.5273
710	-12.5277
KA	-12.5287
ado	-12.529
less	-12.529
ales	-12.5293
1795	-12.5301
漢軍	-12.5303
幂	-12.5303
Ri	-12.5305
NT	-12.5307
338	-12.5312
730	-12.5314
TM	-12.5315
272	-12.5315
Cap	-12.5318
ves	-12.5322
LO	-12.5322
(1904	-12.5322
遊戲機	-12.5325
470	-12.5326
AF	-12.5327
蓼	-12.5329
aga	-12.533
潁	-12.533
祕	-12.533
1784	-12.533
頰	-12.5331
淅	-12.5332
處長	-12.5332
308	-12.5333
瀋陽	-12.5334
憩	-12.5335
連環	-12.5346
ever	-12.5347
會運動	-12.5348
車廂	-12.5349
Es	-12.5357
Ang	-12.5357
MG	-12.5365
RI	-12.5367
變換	-12.5367
Christian	-12.5369
職後衛	-12.5369
羅倫	-12.5372
(1847	-12.5372
婭	-12.5373
驕	-12.5377
1793	-12.5379
滯	-12.5379
ama	-12.538
2-1	-12.538
國際電	-12.5385
.06	-12.5386
獎勵	-12.5388
ero	-12.5389
楸	-12.5395
啟發	-12.5397
栒	-12.5398
(1993	-12.5399
FL	-12.5407
靈寶鑽	-12.5408
蚺	-12.5409
濾	-12.5409
睾	-12.5411
к	-12.5414
article	-12.5416
專責	-12.5416
鈾	-12.5417
攬	-12.5421
雙親	-12.5421
動詞	-12.5421
inter	-12.5422
RR	-12.5428
ér	-12.5428
ue	-12.5432
雙層	-12.5433
9°	-12.5436
Sol	-12.5436
Standard	-12.5441
ō	-12.5449
1827	-12.545
1817	-12.5453
寢	-12.5462
環節	-12.5462
骸	-12.5463
277	-12.547
縣縣	-12.5471
ET	-12.5472
1803	-12.5473
TP	-12.5477
xi	-12.5479
670	-12.5481
Part	-12.5482
輕軌	-12.5486
tal	-12.5487
隊員	-12.5487
5.1	-12.5491
ria	-12.5491
銃	-12.5492
犧	-12.5499
蠶	-12.5499
诃	-12.5501
簡寫	-12.5504
Cy	-12.5505
/2	-12.5506
BBS	-12.5511
諾魯	-12.5514
Val	-12.5516
臺東	-12.5517
負擔	-12.5521
630	-12.5523
(1985	-12.5527
GE	-12.5529
廟號	-12.5539
湍	-12.5539
镍	-12.554
н	-12.5541
桢	-12.5543
蒐	-12.5544
DOI	-12.5544
Chen	-12.5552
273	-12.5561
Frank	-12.5565
itt	-12.5571
內務	-12.5572
cell	-12.5573
侖	-12.5576
熾	-12.558
1775	-12.5583
庠	-12.5588
Chang	-12.5589
廣鐵	-12.559
ico	-12.5593
調節	-12.5593
メ	-12.5593
IANA	-12.5597
1781	-12.5598
8.4	-12.56
鎮區	-12.5606
開採	-12.5606
為雙	-12.5608
-09	-12.5609
WA	-12.561
Dan	-12.5614
Church	-12.5615
簾	-12.5617
ω	-12.5618
cal	-12.5618
(1820	-12.5619
7.2	-12.562
amp	-12.5621
fe	-12.5628
JO	-12.5635
債務	-12.5635
NC	-12.5638
318	-12.564
島町	-12.5644
圖爾	-12.5649
stra	-12.5651
236	-12.5657
lus	-12.5658
鐮	-12.566
262	-12.566
槳	-12.5661
ome	-12.5661
寶塚	-12.5662
248	-12.5662
瀾	-12.5663
煦	-12.5665
ori	-12.5667
uck	-12.5668
June	-12.567
ota	-12.567
伎	-12.5671
動機	-12.5674
κ	-12.5675
ash	-12.5682
world	-12.5691
藝員訓練	-12.5695
aka	-12.5698
炔	-12.5699
駝	-12.57
翹	-12.5703
鑾	-12.5705
甯	-12.5705
巒	-12.5706
歳	-12.5707
Han	-12.5713
僭	-12.5713
European	-12.5715
Kar	-12.5716
兩邊	-12.5716
參數	-12.5717
樂團體	-12.5717
亞裔	-12.5719
218	-12.5721
izati	-12.5722
營盤	-12.5725
魨	-12.5727
無數	-12.5731
ste	-12.5732
驗證	-12.5732
747	-12.5733
Andrew	-12.5736
國寶	-12.5738
語譯	-12.5739
375	-12.574
係數	-12.5742
sel	-12.5743
變種	-12.5744
7.7	-12.5745
212	-12.5745
剝	-12.5751
-200	-12.5751
鄴	-12.5753
↑	-12.5756
鋸齒	-12.5756
din	-12.5758
練馬師	-12.5759
uri	-12.5761
區擔	-12.5768
魚體側	-12.5768
570	-12.5769
Code	-12.577
該節	-12.577
san	-12.5772
rac	-12.5774
Global	-12.5775
30%	-12.5777
於倫	-12.5777
環線	-12.5777
ness	-12.5781
羁縻	-12.5782
爾語	-12.5782
590	-12.5785
鼐	-12.5788
aro	-12.5793
孛	-12.5795
uch	-12.5801
|320	-12.5802
對論	-12.5807
525	-12.5809
KO	-12.5816
LG	-12.5819
倉庫	-12.582
鸚	-12.5821
307	-12.5823
elli	-12.5826
YouTube	-12.5828
飪	-12.5834
為無綫電視	-12.5835
墳場	-12.5836
趨勢	-12.5836
亞東	-12.5837
龍門	-12.5838
ese	-12.5841
CT	-12.5846
Number	-12.5847
Bell	-12.5851
為國際	-12.5853
過後	-12.5856
vis	-12.5858
502	-12.5859
個無	-12.586
亞爾	-12.5864
HE	-12.5865
Of	-12.5865
蝸	-12.5866
與現	-12.5867
Ur	-12.5869
IO	-12.5872
燧	-12.5873
轉戰	-12.5874
1796	-12.5877
與張	-12.5879
bb	-12.5879
385	-12.5882
仄	-12.5883
Ray	-12.5885
ique	-12.5887
8.6	-12.589
229	-12.5892
vin	-12.5899
data	-12.59
pen	-12.5902
-2007	-12.5903
優點	-12.5905
個項	-12.5906
5.9	-12.5907
mel	-12.5909
馥	-12.591
荃灣區	-12.5912
擊隊	-12.5913
wan	-12.5915
間進	-12.5916
king	-12.5917
21.	-12.5917
襯	-12.5918
製藥	-12.5924
↓	-12.5925
Pers	-12.5927
耶魯	-12.5931
認為這	-12.5933
後遷	-12.5933
iss	-12.5934
Hy	-12.5934
eto	-12.5937
606	-12.594
td	-12.594
羅賓	-12.5951
羅來納	-12.5954
Sunday	-12.5954
總盃	-12.5956
.11	-12.5957
%20	-12.5959
撾	-12.5959
Ke	-12.596
釣魚	-12.5962
17.	-12.5966
Map	-12.5966
嶄	-12.5967
斐爾	-12.5968
Council	-12.5973
169	-12.5976
PDF	-12.5977
mb	-12.5979
臺灣師範	-12.598
創專輯	-12.5981
eur	-12.5983
經濟發	-12.5984
day	-12.5986
HI	-12.5988
黨黨員	-12.5988
252	-12.599
ي	-12.5991
麝	-12.5996
當區議員	-12.5997
255	-12.5999
璘	-12.6001
楨	-12.6002
婕妤	-12.6002
矯	-12.6006
ret	-12.6006
962	-12.6007
鳌	-12.6007
級為	-12.6009
祂	-12.6012
採購	-12.6015
-35	-12.6021
橐	-12.6025
get	-12.6034
Grand	-12.6034
Les	-12.6035
DF	-12.6035
'''	-12.6037
蟬	-12.6038
蠍	-12.6039
tur	-12.6042
戸	-12.6042
ule	-12.6044
1798	-12.6045
KI	-12.6048
Law	-12.605
區議會選舉	-12.6052
や	-12.6056
USB	-12.6056
End	-12.6059
oma	-12.6062
だ	-12.6062
Ya	-12.6065
ender	-12.6065
鮨	-12.6067
機隊	-12.607
東歐	-12.607
ssp	-12.6072
暱稱為	-12.6073
lum	-12.6073
1750	-12.6075
980	-12.6076
電視網	-12.6077
sing	-12.6078
0°	-12.6079
LGBT	-12.6081
鄢	-12.6088
旻	-12.6089
Water	-12.6089
401	-12.609
298	-12.609
PGA	-12.609
頓縣	-12.6093
時稱	-12.6093
電報	-12.6093
-2005	-12.6094
GM	-12.6095
區議員	-12.6096
BBB	-12.6102
ui	-12.6102
–3	-12.6105
會隨	-12.6107
這個時	-12.611
gra	-12.611
覽館	-12.6114
242	-12.6115
Mini	-12.6116
ring	-12.6121
國統	-12.6122
pur	-12.6123
繳	-12.6124
iensis	-12.6125
興縣	-12.6125
rit	-12.6128
Com	-12.613
風氣	-12.6131
劭	-12.6131
機廠	-12.6132
WTA	-12.6135
9.7	-12.6139
Ban	-12.614
án	-12.6147
burg	-12.6151
鼴	-12.6152
use	-12.6158
hor	-12.6167
Pop	-12.6168
榛	-12.617
瀨戶內	-12.6177
柵	-12.6178
兩屆	-12.6179
253	-12.6181
Ak	-12.6182
肄業	-12.6183
確實	-12.6183
闾	-12.6184
暹羅	-12.6187
veryCircumstance	-12.6191
oph	-12.6192
協盃	-12.6199
.01	-12.6201
螂	-12.6203
縣議員	-12.6203
GT	-12.6206
鮫	-12.6206
2100	-12.6212
鉉	-12.6217
604	-12.6217
Trans	-12.6218
261	-12.6223
笈	-12.6224
鋤	-12.6226
Gen	-12.6238
م	-12.624
840	-12.6241
後將	-12.6242
PE	-12.6244
Pra	-12.6245
Rev	-12.6246
體長約	-12.6246
Studio	-12.6251
Bus	-12.6251
1780	-12.6253
內側	-12.6253
灣東	-12.6253
倪匡	-12.6255
eCategory	-12.6256
現時為	-12.6256
員陣	-12.6256
zz	-12.626
鈺	-12.626
SSS	-12.6261
細節	-12.6262
兩顆	-12.6262
icum	-12.6262
獵戶	-12.6268
(1912	-12.627
網誌	-12.627
ney	-12.6271
賤	-12.6271
eof	-12.6284
×10	-12.6286
IR	-12.6287
4.1	-12.6288
2°	-12.6289
質學	-12.6289
1786	-12.6291
YCategory	-12.6293
Player	-12.6295
後緣	-12.6298
Alexander	-12.63
Cross	-12.6301
動脈	-12.6302
測驗	-12.6307
積約為	-12.6308
Ana	-12.631
▁烏	-12.6311
迺	-12.6311
Neo	-12.6315
約佔	-12.6319
▁盧	-12.6322
1777	-12.6324
OM	-12.6325
Maria	-12.6327
Pl	-12.6328
議會議員	-12.6331
ern	-12.6331
NS	-12.6333
較於	-12.6333
町內	-12.6335
Mobile	-12.6338
Ann	-12.6341
SV	-12.6346
Anti	-12.6347
Sc	-12.6348
287	-12.6348
內華達	-12.6349
宕	-12.6354
洵	-12.6355
lie	-12.6355
酐	-12.6355
(1986	-12.6355
htm	-12.6359
節點	-12.6361
钊	-12.6362
535	-12.6365
8.1	-12.6368
1785	-12.6374
黨黨	-12.638
軍節	-12.6381
4.4	-12.6382
Heart	-12.6383
303	-12.6383
▁__	-12.6384
BSD	-12.6384
UK	-12.6386
驚悚	-12.6388
Auto	-12.639
tive	-12.6393
橋頭	-12.6396
fin	-12.6397
PR	-12.6398
園藝	-12.6399
ult	-12.6406
404	-12.6409
運轉	-12.641
sol	-12.6416
Arc	-12.6418
ose	-12.6421
iff	-12.6422
7.6	-12.6429
Mas	-12.6429
橫帶	-12.643
鹳	-12.6432
ore	-12.6432
.05	-12.6435
Va	-12.6438
601	-12.6441
謚	-12.6441
Will	-12.6443
yan	-12.6443
睢	-12.6446
黨員	-12.6446
電腦遊戲	-12.6447
Direct	-12.6447
ray	-12.6448
Hal	-12.6449
萬華區	-12.645
斛	-12.645
與馬	-12.6451
757	-12.6454
UT	-12.6455
sha	-12.6459
枋	-12.6467
茛	-12.6471
OF	-12.6473
稱謂	-12.6476
Taiwan	-12.6476
營團	-12.6477
PL	-12.6478
茱萸	-12.6485
tre	-12.6486
個獎項	-12.6488
gn	-12.649
羨	-12.6491
魚亞	-12.6492
澗	-12.6492
251	-12.6493
LS	-12.6494
罵	-12.6495
洩	-12.6496
TH	-12.6497
rad	-12.6497
與電	-12.6501
DDD	-12.6501
13.	-12.6503
1811	-12.6504
農產	-12.6505
東亞運動會	-12.6511
▁維	-12.6513
國際奧	-12.6513
Im	-12.6513
Ken	-12.6514
ord	-12.6521
藝術與	-12.6524
ici	-12.6525
inger	-12.6525
Cambr	-12.6527
鋼彈	-12.6534
2007.	-12.6535
402	-12.6535
dr	-12.6536
OC	-12.6536
粲	-12.6537
種說	-12.6537
AAA	-12.6537
學問	-12.6538
1797	-12.6539
(742	-12.6542
诰	-12.6544
執業	-12.6544
610	-12.6548
ture	-12.6553
獎學	-12.6554
Band	-12.6556
ami	-12.6556
т	-12.6557
9.6	-12.6558
わ	-12.6563
ズ	-12.6564
Sec	-12.6564
Children	-12.6567
Space	-12.6569
Light	-12.657
ッ	-12.6574
Bor	-12.6574
(1967	-12.6574
嘌呤	-12.6577
萩	-12.6577
標籤	-12.6581
蕪	-12.6583
僅僅	-12.6584
瑜伽	-12.6584
(1980	-12.6586
廚師	-12.6587
Wii	-12.6588
548	-12.659
880	-12.659
960	-12.659
331	-12.6591
0%	-12.6592
後兩	-12.6592
40%	-12.6596
15.	-12.6596
anti	-12.6602
講學	-12.6602
397	-12.6605
業職業學	-12.6606
.08	-12.6608
雲達	-12.661
1805	-12.6612
CW	-12.6614
552	-12.6614
9.2	-12.662
標準時間	-12.6621
10.	-12.6622
(1991	-12.6622
LCategory	-12.6626
吡	-12.6627
崧	-12.6628
旌	-12.6628
1、2	-12.6631
れ	-12.6632
PI	-12.6633
軍聯賽	-12.6633
|130	-12.6634
SKE	-12.6637
345	-12.6641
書畫	-12.6642
о	-12.6643
▁2007	-12.6646
God	-12.6649
頭髮	-12.665
戲劇學	-12.665
2/	-12.6653
399	-12.6655
勝負	-12.6657
Post	-12.6658
Tim	-12.666
Nor	-12.6663
▁亞	-12.6665
243	-12.6665
ky	-12.6666
cle	-12.6671
瑄	-12.6671
皈	-12.668
485	-12.6683
這個詞	-12.6684
書館	-12.6688
UC	-12.6694
Ger	-12.6694
車禍	-12.6695
ika	-12.6695
hl	-12.6696
1822	-12.6696
Б	-12.6701
MAX	-12.6705
總統選舉	-12.6706
293	-12.6707
Over	-12.671
22.	-12.671
ight	-12.6711
Best	-12.6713
Who	-12.6714
-12-	-12.6715
經擔	-12.6715
(1984	-12.6717
撈	-12.6718
蘿蔔	-12.6719
06||||200	-12.6719
決戰	-12.672
寫為	-12.672
LP	-12.6721
Card	-12.6722
wer	-12.6723
Anth	-12.6724
恂	-12.6726
poly	-12.6726
985	-12.6728
335	-12.6728
轭	-12.6729
號艦	-12.6739
705	-12.6742
鋸	-12.6743
CBS	-12.6747
Management	-12.675
嫡長	-12.675
費區	-12.6751
LaNew	-12.6754
來進	-12.6755
pm	-12.6762
317	-12.6765
〇	-12.6768
爾幹	-12.6769
aff	-12.6773
沱	-12.6775
ken	-12.6777
亞運	-12.6777
國際體	-12.6782
ological	-12.6783
Johns	-12.6784
國國務	-12.6787
專賣	-12.6787
於兩	-12.6789
new	-12.6791
Del	-12.6794
sec	-12.6794
Pat	-12.6794
RAM	-12.6794
娛	-12.6801
杵	-12.6802
●	-12.6803
內約	-12.6804
60%	-12.6806
Av	-12.6808
並發	-12.6809
Type	-12.6809
懶	-12.681
陸軍軍	-12.6814
宸	-12.6815
醴	-12.6816
1001	-12.6816
岚	-12.6818
纏	-12.6818
桅	-12.6819
衆	-12.682
HHH	-12.6821
與發	-12.6822
沖積	-12.6826
hn	-12.6831
760	-12.6835
並稱為	-12.6836
氣溫	-12.6837
響應	-12.6839
DL	-12.6839
Point	-12.6839
(1966	-12.684
環狀	-12.6841
並進	-12.6841
鰺	-12.6842
術師	-12.6844
龍亞	-12.6845
萬歲	-12.6845
Stephen	-12.6849
.13	-12.6854
GPL	-12.6856
麥當勞	-12.6858
隍	-12.6861
1808	-12.6865
矚	-12.6865
ブ	-12.6865
娑	-12.6867
證書	-12.6869
pin	-12.6871
見證	-12.6872
▁150	-12.6883
別號	-12.6885
050	-12.6887
254	-12.6887
sinensis	-12.6891
510	-12.6894
サ	-12.6895
231	-12.6895
Hello	-12.69
農紅軍	-12.69
IX	-12.6901
Wa	-12.6902
ann	-12.6904
钛	-12.6905
琥珀	-12.6907
墊	-12.6907
唸	-12.6908
軍將領	-12.6909
滦	-12.6911
MF	-12.6911
捨	-12.6913
GR	-12.6916
visi	-12.6916
っ	-12.6919
618	-12.692
ein	-12.6922
more	-12.6924
1794	-12.6928
Albert	-12.6929
爾維	-12.6929
283	-12.6931
舊譯	-12.6933
6-3	-12.6941
(1963	-12.6943
蟾蜍	-12.6947
盪	-12.695
KB	-12.695
冼	-12.6954
亞細亞	-12.6954
煩	-12.6958
纶	-12.6961
蓋爾	-12.6961
USA	-12.6961
華倫	-12.6962
1782	-12.6962
anda	-12.6963
770	-12.6968
605	-12.6973
ated	-12.6977
(1995	-12.6977
–4	-12.6981
odi	-12.6981
Encyclopedia	-12.6983
GI	-12.6983
М	-12.6984
bat	-12.6985
Special	-12.6986
А	-12.6987
IL	-12.6988
British	-12.6988
Brown	-12.6989
Taylor	-12.6989
Design	-12.6991
黴	-12.6992
18.	-12.6994
Bl	-12.6999
506	-12.7001
骰	-12.7002
賺	-12.7005
戰亂	-12.7005
隊總	-12.7007
進駐	-12.7008
−1	-12.7014
Arm	-12.7015
258	-12.7016
縱帶	-12.7016
——《	-12.7017
Pol	-12.7019
100%	-12.702
▁歐	-12.7021
賽勝	-12.7024
業學	-12.7025
284	-12.7031
狄奧	-12.7032
279	-12.7034
NVIDIA	-12.7035
菴	-12.7035
505	-12.7037
Mat	-12.7037
Far	-12.7037
Channel	-12.7038
會進	-12.704
經為	-12.7048
滸傳	-12.7048
場賽	-12.7049
type	-12.7049
oth	-12.7049
NE	-12.705
鸞	-12.7051
Town	-12.7053
1809	-12.7054
(2006)	-12.7055
聖誕節	-12.7058
種種	-12.7059
mit	-12.7061
鰭條	-12.7065
.07	-12.7068
whois	-12.7072
ass	-12.7073
Bre	-12.7082
shi	-12.7082
Ling	-12.7082
動產	-12.7083
HS	-12.7084
July	-12.7085
334	-12.7087
6°	-12.709
light	-12.7091
Wats	-12.7092
690	-12.7094
(618	-12.7094
親屬	-12.7095
徳	-12.7097
領軍	-12.7098
耦	-12.7098
聲帶	-12.7099
1819	-12.71
這階	-12.71
賃	-12.7101
涅槃	-12.7104
425	-12.7111
lib	-12.7116
fu	-12.712
連絡	-12.7121
Stati	-12.7121
-2009	-12.7121
TC	-12.7122
龍與	-12.7125
299	-12.7126
減輕	-12.7127
Paris	-12.7127
NBC	-12.7129
oi	-12.713
profile	-12.7131
還沒	-12.7133
8.2	-12.7134
CCD	-12.7134
м	-12.7135
Records	-12.714
Centre	-12.7141
煒	-12.7141
''	-12.7141
Dec	-12.7142
278	-12.7143
IDE	-12.7144
羣	-12.7145
8.7	-12.7146
Core	-12.7148
晝	-12.7148
1778	-12.7151
晁	-12.7153
Dor	-12.7154
1°	-12.7155
Gra	-12.7155
Fa	-12.7159
擊遊戲	-12.7161
code	-12.7163
繞經	-12.7167
專員	-12.7169
MT	-12.7171
cul	-12.7171
288	-12.7173
Shi	-12.7179
Bill	-12.7181
awa	-12.7186
興業	-12.7188
會黨	-12.719
GL	-12.7191
鹵	-12.7192
4°	-12.7196
烽	-12.7198
г	-12.72
汶萊	-12.72
WindowsXP	-12.7201
蟠	-12.7201
甄選	-12.7203
Ram	-12.7203
1770	-12.7203
輾轉	-12.7203
gan	-12.7212
》〈	-12.7213
asa	-12.7213
Link	-12.7214
▁臺灣	-12.7216
Coll	-12.7218
ole	-12.7228
羅蘭	-12.7229
軍戰	-12.7231
ə	-12.7233
olo	-12.7235
267	-12.7236
ele	-12.7236
兩隊	-12.7237
鎬	-12.7239
gl	-12.7242
滘	-12.7244
鯊魚	-12.7246
為陳	-12.7251
603	-12.7255
289	-12.7256
現稱	-12.7262
PHP	-12.7263
EMI	-12.7265
rat	-12.7267
現況	-12.7269
1760	-12.7271
Char	-12.7273
▁韓	-12.7274
RC	-12.7278
322	-12.728
ONEPIECE	-12.7281
Language	-12.7281
實為	-12.7282
灣鎮	-12.7284
會選舉	-12.7284
241	-12.7286
鱲	-12.7286
Facebook	-12.7287
鎂	-12.729
ū	-12.729
ska	-12.7291
BD	-12.7291
7.3	-12.7294
Scott	-12.7295
藩國	-12.7295
EI	-12.7297
饑	-12.7298
牒	-12.7298
06||||2002	-12.7303
ova	-12.7305
00-	-12.7307
響樂團	-12.7308
sy	-12.731
atthe	-12.731
App	-12.7311
ings	-12.7312
涇	-12.7316
Ten	-12.7317
Database	-12.7318
257	-12.7318
場戰	-12.7319
oy	-12.7323
為師	-12.7324
為鄰	-12.7325
uni	-12.7327
蝮	-12.7328
堺	-12.7329
叱咤樂壇	-12.7335
衝鋒槍	-12.7336
Pyth	-12.7338
羅爾	-12.7341
泓	-12.7342
頑	-12.7343
陀羅	-12.7344
陛	-12.7345
阱	-12.7345
垩	-12.7346
(?-	-12.7346
▁S	-12.7347
Ly	-12.7349
(1909	-12.735
長選舉	-12.7353
uz	-12.7355
002	-12.7357
為電	-12.7358
時與	-12.7362
”·	-12.7368
cept	-12.7368
list	-12.737
荚蒾	-12.737
荠	-12.7371
區總	-12.7372
rap	-12.7374
(1962	-12.7377
lic	-12.7378
總銷	-12.7381
專門學	-12.7385
house	-12.7385
嬅	-12.7388
動畫製	-12.7389
Dis	-12.7392
訣	-12.7394
乂	-12.7397
炙	-12.7399
294	-12.7402
劃歸	-12.7402
316	-12.7406
▁220	-12.7408
靜岡	-12.7413
彙	-12.7416
740	-12.7416
門戶	-12.7417
.22	-12.7419
NY	-12.7421
將該	-12.7423
Review	-12.7423
itch	-12.7426
鈎	-12.7429
з	-12.7429
accessed	-12.743
ひ	-12.7434
蒨	-12.7434
3-4	-12.7435
鋅	-12.7438
311	-12.7439
MU	-12.7441
祉	-12.7442
遁	-12.7444
爺爺	-12.7448
707	-12.745
.04	-12.745
ias	-12.7457
ón	-12.7459
(;;	-12.7461
(1982	-12.7473
len	-12.7474
Development	-12.7475
Mus	-12.7482
鋰	-12.7483
鷸	-12.7484
宮內	-12.7486
嵊	-12.7488
貽	-12.7488
東邨	-12.7489
its	-12.749
涟	-12.7493
臻	-12.7494
國銀	-12.75
爾遜	-12.7501
ign	-12.7502
職權	-12.7503
稅務	-12.7508
Astro	-12.7509
3°	-12.751
313	-12.7512
Fort	-12.7513
424	-12.7514
Comm	-12.7514
鴞	-12.7517
pus	-12.752
衛國	-12.7522
Lan	-12.7525
Business	-12.7526
April	-12.7529
Earth	-12.753
ë	-12.7533
3500	-12.7537
棗	-12.7537
(1914	-12.7538
閑	-12.754
佤	-12.7542
820	-12.7542
獻給	-12.7542
馴	-12.7543
ech	-12.7545
!(	-12.7548
▁蕭	-12.7549
聞節	-12.755
掾	-12.7552
(1981	-12.7552
406	-12.7552
pha	-12.7552
sal	-12.7553
003	-12.7555
費電視	-12.7556
導彈	-12.7558
lot	-12.7567
6-4	-12.7567
內閣總	-12.7569
(2024	-12.7572
發後	-12.7573
Ap	-12.7575
蛞蝓	-12.7575
FR	-12.7576
7.4	-12.7577
리	-12.7579
1799	-12.7581
Little	-12.7581
une	-12.7582
Drag	-12.7589
Christ	-12.7593
聯營	-12.7594
姦	-12.7594
-2003	-12.7595
專營	-12.7596
組組長	-12.7598
歆	-12.76
529	-12.7602
為聖	-12.7604
親則	-12.7606
nan	-12.7607
iya	-12.7609
|120	-12.7609
OBE	-12.761
but	-12.7611
itz	-12.7612
501	-12.7615
寵愛	-12.7619
Public	-12.7621
25%	-12.7622
黍	-12.763
約於	-12.7631
縣丞	-12.7631
Vo	-12.7633
pdf	-12.7635
tel	-12.7635
–7	-12.7638
遠眺	-12.7639
343	-12.764
vir	-12.7642
581	-12.7644
zu	-12.7645
table	-12.7646
||||1998	-12.7646
駙馬	-12.7649
護衛	-12.7649
遙遠	-12.7652
钵	-12.7652
Sk	-12.7653
337	-12.7658
622	-12.7659
資訊網	-12.766
STAR	-12.7662
無錫	-12.7663
Now	-12.7666
務總	-12.7669
.35	-12.7673
Tan	-12.7677
認爲	-12.7678
Times	-12.7679
Anders	-12.7682
Mozilla	-12.7683
aya	-12.7687
win	-12.7688
inc	-12.7688
tom	-12.7689
ingt	-12.7689
ila	-12.769
靚	-12.7692
(1911	-12.7692
藔	-12.7695
纜車	-12.7695
剛鐸	-12.7698
嚇	-12.7699
(1978	-12.7702
SG	-12.7703
BU	-12.7705
貨車	-12.7707
帶動	-12.7711
(1965	-12.7712
CU	-12.7716
oul	-12.7716
將來	-12.7716
990	-12.7722
場內	-12.7725
pel	-12.7728
.02	-12.7728
eni	-12.7731
與歐	-12.7731
專題	-12.7732
RPG	-12.7734
獺	-12.7735
Ol	-12.7735
ZCategory	-12.7738
淖	-12.7739
ハ	-12.7741
殭屍	-12.7742
員長	-12.7742
燭	-12.7742
27.	-12.7743
澍	-12.7744
軍機	-12.7744
瀨戶	-12.7747
ping	-12.7747
BCategory	-12.7748
絡	-12.775
281	-12.7751
490	-12.7751
349	-12.7753
個賽	-12.7753
ê	-12.7756
444	-12.7757
312	-12.7759
龍頭	-12.7761
衛軍	-12.7762
烏龍	-12.7769
敗後	-12.777
lea	-12.7771
Bio	-12.7776
1772	-12.7777
486	-12.7777
jp	-12.7778
П	-12.7778
約藝員	-12.7779
Oxford	-12.7782
-2002	-12.7782
Tur	-12.7783
設為	-12.7786
護國	-12.7789
θ	-12.7791
00(	-12.7794
樂風	-12.7794
绶	-12.7795
厭	-12.7796
荻	-12.7796
優質	-12.7797
車錦標賽	-12.7798
貨櫃	-12.7799
醜聞	-12.78
幺	-12.78
軌跡	-12.7801
賁	-12.7802
was	-12.7802
俟	-12.7803
ral	-12.7804
為馬	-12.7805
動電話	-12.7805
jap	-12.7807
247	-12.7809
sum	-12.7814
aut	-12.7815
蘭茲	-12.782
遠離	-12.782
HC	-12.7823
(1913	-12.7824
蜑	-12.7825
▁紅	-12.7825
ICAO	-12.7835
與劉	-12.7837
Server	-12.7838
▁2011	-12.7839
EM	-12.7842
阡	-12.7843
喃	-12.7845
於奧	-12.7847
機種	-12.7848
寫實	-12.7848
埗區	-12.7848
CK	-12.7849
鏢	-12.7849
焯	-12.7849
長榮	-12.785
”。《	-12.7852
級盃	-12.7859
=2	-12.7859
-60	-12.786
Kin	-12.7862
險遊戲	-12.7863
ela	-12.7863
藝學	-12.7865
兩間	-12.7869
bor	-12.7871
過於	-12.7871
press	-12.7872
鐵車	-12.7875
鳢	-12.7876
Wei	-12.7876
Ren	-12.7882
號幹線	-12.7884
岐阜	-12.7884
309	-12.7889
Ros	-12.7889
監視	-12.789
Computer	-12.7891
耶穌會	-12.7892
319	-12.7893
說為	-12.7893
愷	-12.7895
ificati	-12.7896
槌	-12.7898
bl	-12.7902
鞮	-12.7903
煬	-12.7904
瀉	-12.7904
Place	-12.7909
靜脈	-12.7909
mor	-12.7911
廳長	-12.7911
911	-12.7919
.50	-12.792
盃決賽	-12.7923
溧	-12.7924
Ind	-12.7924
NI	-12.7927
(1983	-12.7931
團於	-12.7931
268	-12.7932
BI	-12.7933
1-1	-12.7935
東宮	-12.7939
Flash	-12.7943
ema	-12.7946
喆	-12.7947
1752	-12.7951
團軍	-12.7952
槓	-12.7954
634	-12.7955
琊	-12.7957
邺	-12.796
MR	-12.796
島與	-12.7963
個亞種	-12.7968
HA	-12.797
aq	-12.7977
Profile	-12.7983
バ	-12.7985
.03	-12.7987
1727	-12.7991
變異	-12.7992
與鄰	-12.7994
馬鈴	-12.7994
雙魚	-12.7994
Landkreis	-12.7996
639	-12.7998
歐語	-12.7998
鏞	-12.7999
Tour	-12.8001
1620	-12.8002
Sport	-12.8005
邛	-12.8006
訛	-12.8009
儋	-12.801
灣臺	-12.8011
擄	-12.8012
澤東	-12.8013
▁麥	-12.8014
9.4	-12.8015
輕鬆	-12.8015
302	-12.8017
oz	-12.802
342	-12.802
Hor	-12.8021
gin	-12.8027
UR	-12.8027
補給	-12.803
聲調	-12.803
hol	-12.803
廣闊	-12.8032
Mad	-12.8033
ofa	-12.8038
▁亨	-12.8038
nie	-12.8038
att	-12.8041
蘭開	-12.8046
Rec	-12.8047
4/	-12.8049
県	-12.8052
屬雜	-12.8052
cus	-12.8054
6-2	-12.8054
φ	-12.8059
湳	-12.8059
惇	-12.8059
lang	-12.806
315	-12.806
糾紛	-12.8062
384	-12.8062
軼	-12.8062
餉	-12.8063
窪	-12.8063
縣廳	-12.807
陰謀	-12.8072
Ste	-12.8073
zen	-12.8073
雙線	-12.8075
nus	-12.8076
變後	-12.8077
625	-12.8079
314	-12.8081
員時	-12.8081
ual	-12.8088
7.1	-12.8088
1779	-12.809
Alex	-12.809
廂	-12.8094
Sin	-12.8095
via	-12.8095
UL	-12.8096
Socket	-12.8096
kar	-12.8097
Foundati	-12.8098
+01	-12.8099
435	-12.8104
續約	-12.8106
328	-12.8107
態為	-12.8109
512	-12.811
毋	-12.8112
寶麗	-12.8114
荼	-12.8116
336	-12.8117
龍華	-12.8117
斬殺	-12.8118
tro	-12.8118
Old	-12.8121
Pres	-12.8123
頂點	-12.8131
(1968	-12.8131
淪	-12.8132
-1945	-12.8133
NN	-12.8134
線圖	-12.8138
mani	-12.8141
▁呂	-12.8142
356	-12.8148
white	-12.815
September	-12.8153
-11-	-12.8154
HCategory	-12.8154
ы	-12.8154
gy	-12.8155
諺	-12.8156
Friedrich	-12.8158
UNIX	-12.8159
製備	-12.816
硒	-12.8165
(1928	-12.8165
2400	-12.8165
樁	-12.8167
壟斷	-12.8168
畲	-12.8169
(758	-12.8172
類遊戲	-12.8173
參戰	-12.8178
omo	-12.8179
702	-12.8179
1650	-12.818
島郡	-12.8182
執筆	-12.8182
鐵東	-12.8183
map	-12.8188
ili	-12.8193
INN	-12.8193
設計與	-12.8195
敵軍	-12.8196
現轄	-12.8202
▁愛	-12.8204
É	-12.8206
縱橫	-12.8208
Op	-12.8208
參謀長	-12.8209
後漢	-12.8211
圓環	-12.8212
oro	-12.8213
9000	-12.8213
譙	-12.8215
Master	-12.8215
ب	-12.8216
長樂	-12.8216
舫	-12.8216
於長	-12.8217
钡	-12.822
錘	-12.822
atum	-12.8221
黨內	-12.8222
瑕	-12.8222
Act	-12.8222
島灣	-12.8223
潢	-12.8223
巔	-12.8223
010	-12.8224
挾	-12.8224
yx	-12.8224
RFC	-12.8226
Rain	-12.8227
後會	-12.8232
軍與	-12.8238
534	-12.8238
oda	-12.8239
cia	-12.8241
PD	-12.8241
Sur	-12.8241
dan	-12.8243
國喬	-12.8246
竺鲷	-12.8253
CX	-12.8255
戰區	-12.8258
JA	-12.8261
.09	-12.8263
986	-12.8265
eD	-12.8265
mes	-12.8266
649	-12.8267
妳	-12.8268
動車組	-12.8268
珉	-12.8268
ira	-12.827
劃為	-12.8272
載於	-12.8272
CSA	-12.8274
495	-12.8278
1764	-12.8278
By	-12.8282
481	-12.8284
谿	-12.8284
為這	-12.8297
區塊	-12.83
Zi	-12.8301
1769	-12.8302
黃偉	-12.8305
馬綫	-12.8308
Encyclopediaof	-12.8309
UnitedStates	-12.8311
ful	-12.8314
馬頭	-12.8315
補習	-12.8316
縱貫	-12.8321
ˊ	-12.8323
396	-12.8323
^	-12.8327
肱	-12.8328
邯鄲	-12.833
弁	-12.8331
л	-12.8331
弒	-12.8331
(1979	-12.8332
聲樂	-12.8333
傳達	-12.8335
創辦於	-12.8339
-1999	-12.834
-1989	-12.834
臺語	-12.8343
Sen	-12.8346
297	-12.8347
1813	-12.8349
娛樂場	-12.8351
強壯	-12.8354
Lam	-12.8357
live	-12.8358
504	-12.8362
als	-12.8362
В	-12.8366
セ	-12.8368
Report	-12.8369
People	-12.837
621	-12.837
詞編	-12.8371
Karl	-12.8372
東經	-12.8376
ος	-12.8377
跖	-12.8377
bio	-12.8379
動員	-12.838
(1994	-12.838
鬃	-12.8382
ille	-12.8385
GPS	-12.8386
鯉魚門	-12.8386
琬	-12.8387
uma	-12.8387
駐紮	-12.8387
榈	-12.8388
焘	-12.8389
國號	-12.8392
Cam	-12.8393
LI	-12.8394
image	-12.8396
tent	-12.8396
辍	-12.8398
VO	-12.8399
爾諾	-12.8401
+5	-12.8404
屆議員	-12.8405
漢傳	-12.8405
Mod	-12.8405
р	-12.8411
ns	-12.8412
aur	-12.8415
gh	-12.8416
蓣	-12.8417
Systems	-12.8417
rick	-12.8418
戰爭後	-12.8419
about	-12.8419
359	-12.8422
lem	-12.8423
MPEG	-12.8425
飛馬	-12.8425
9.9	-12.8428
釣	-12.8428
註釋參	-12.8428
Phil	-12.8429
tsu	-12.843
遺傳學	-12.8431
愛麗絲	-12.8433
TX	-12.8434
.40	-12.8437
NG	-12.8438
沔	-12.844
嬉	-12.844
訖	-12.844
628	-12.844
阆	-12.844
於馬	-12.8442
沌	-12.8443
鯉魚	-12.8444
VS	-12.8446
AND	-12.8446
項賽	-12.8447
爭論	-12.8448
;2.	-12.8449
ION	-12.845
ball	-12.8451
(1970	-12.8452
リー	-12.8454
SW	-12.8454
isa	-12.8457
頗為	-12.8466
Disc	-12.8468
die	-12.8468
鮟鱇	-12.8469
nor	-12.8469
腧	-12.847
fo	-12.847
January	-12.8477
anus	-12.848
Pierre	-12.8482
Night	-12.8483
479	-12.8483
Ham	-12.8485
飛龍	-12.8485
271	-12.849
樂組	-12.8491
arc	-12.8491
還會	-12.8491
開羅	-12.8493
モ	-12.8496
態學	-12.8498
誅殺	-12.85
(1902	-12.85
HBO	-12.8501
ن	-12.8501
551	-12.8502
們會	-12.8508
Hot	-12.8511
4-6	-12.8511
縣議會	-12.8512
CBE	-12.8521
EV	-12.8522
對較	-12.8525
game	-12.8525
為亞	-12.8525
1683	-12.8528
California	-12.8531
4500	-12.8531
Il	-12.8532
Chu	-12.8536
View	-12.8536
274	-12.854
HTTP	-12.854
398	-12.8542
eck	-12.8543
欒	-12.8546
駭	-12.8547
國營	-12.8547
笏	-12.8547
柘	-12.855
櫛鱗	-12.855
Girls	-12.855
懸掛	-12.8551
咎	-12.8551
彌陀	-12.8552
pxthumb	-12.8552
585	-12.8553
玺	-12.8553
mal	-12.8554
TN	-12.8554
Rap	-12.8557
other	-12.8561
view	-12.8562
(1976	-12.8563
國慶	-12.8565
劉瑾	-12.8566
學裏	-12.8569
sar	-12.8572
Neu	-12.8576
Run	-12.858
OT	-12.8582
號開	-12.8585
Volume	-12.8586
old	-12.8587
連續兩	-12.8588
409	-12.8589
▁颱風	-12.8591
arch	-12.8592
螈	-12.8595
過兩	-12.86
郯	-12.8601
轎車	-12.8601
馀	-12.8611
465	-12.8612
國對	-12.8614
發聲	-12.8618
344	-12.862
(1969	-12.8626
Za	-12.8629
準則	-12.863
羅東	-12.8631
mod	-12.8635
394	-12.8635
–5	-12.8635
將於	-12.8636
鳐	-12.8639
隊隊長	-12.864
(621	-12.864
Library	-12.8642
萬餘	-12.8642
395	-12.8647
354	-12.8647
ame	-12.8647
時開	-12.8649
777	-12.8651
svg	-12.8652
滷	-12.8654
鶇	-12.8654
於聖	-12.8655
畫風	-12.8657
鎧	-12.8657
隍廟	-12.8657
忻	-12.8659
嘆	-12.8662
絞	-12.8664
1-4	-12.8665
與臺	-12.8669
併購	-12.8671
531	-12.8671
Der	-12.8671
ric	-12.8673
law	-12.868
叢書	-12.868
met	-12.868
Social	-12.8681
國際標準	-12.8681
Human	-12.8684
頂級聯賽	-12.8685
Electr	-12.8686
YA	-12.8689
鮈	-12.869
題為	-12.8697
Ve	-12.8699
ARM	-12.8701
Fin	-12.8704
デ	-12.8705
ces	-12.8706
戰記	-12.8707
.38	-12.8711
釋參	-12.8712
巻	-12.8713
則與	-12.8716
宥	-12.8717
adi	-12.8717
姒	-12.8718
傳聞	-12.8718
妊娠	-12.8719
hel	-12.8724
326	-12.8724
-70	-12.8726
“”(	-12.8729
iva	-12.8732
632	-12.8734
lat	-12.8737
寬頻	-12.8739
ONE	-12.8741
詩經	-12.8743
lia	-12.8744
oe	-12.8745
け	-12.8745
TU	-12.8751
ISA	-12.8752
Astr	-12.8753
-2006	-12.8754
701	-12.8755
該組織	-12.8755
lim	-12.8756
Communicati	-12.876
級數	-12.876
leg	-12.8762
Arthur	-12.8763
ude	-12.8763
3/	-12.8764
-31	-12.8764
head	-12.8765
鐘樓	-12.8766
儼	-12.8771
釗	-12.8771
蹼	-12.8773
泮	-12.8776
1740	-12.8776
top	-12.8778
8.0	-12.8781
擊樂	-12.8782
cer	-12.8784
Ce	-12.8785
.30	-12.8788
636	-12.8789
國際單	-12.8792
Math	-12.8793
PT	-12.8793
aud	-12.8795
376	-12.8801
Historyof	-12.8813
Western	-12.8813
張國語專輯	-12.8814
ZZZ	-12.8815
39.	-12.8816
韓戰	-12.8817
dar	-12.8817
(1368	-12.8819
䲗	-12.882
า	-12.8822
漢諾	-12.8823
國際編號	-12.8823
ere	-12.8824
刈	-12.8825
塹	-12.8827
ē	-12.8828
棧	-12.8828
當過	-12.883
PU	-12.8831
硤	-12.8831
曬	-12.8831
為準	-12.8832
457	-12.8832
-2-	-12.8832
hal	-12.8832
雒	-12.8833
ref	-12.8833
缙	-12.8836
岙	-12.8836
饪	-12.8837
Sta	-12.8839
Plan	-12.8841
zy	-12.8846
put	-12.8846
轄區內	-12.8852
nis	-12.8855
擊機	-12.8856
umb	-12.8856
館內	-12.8857
馬遷	-12.8857
緊張	-12.8858
為繼	-12.886
494	-12.8862
1603	-12.8863
-2011	-12.8865
292	-12.8865
sat	-12.8866
蔣經國	-12.8868
歸類	-12.8868
554	-12.887
ˋ	-12.8872
臺灣縣	-12.8879
瀬	-12.8879
層樓	-12.8881
space	-12.8882
譚詠麟	-12.8883
Formati	-12.8883
CBA	-12.8883
1753	-12.8883
9.3	-12.8884
糸	-12.8885
覲	-12.8886
Shan	-12.8886
铀	-12.8887
я	-12.8888
縛	-12.8889
賄	-12.8889
Line	-12.889
LIVE	-12.889
lit	-12.8891
詣	-12.8891
珥	-12.8891
(2008)	-12.8893
愛達	-12.8893
edi	-12.8893
迥	-12.8894
Fair	-12.8894
-2001	-12.8895
WWW	-12.8896
(1975	-12.8898
兩組	-12.8901
龍觀	-12.8904
體結構	-12.8911
б	-12.8914
(1949	-12.8914
Mur	-12.8914
Ze	-12.8915
NR	-12.8917
歸屬	-12.8919
機組	-12.8919
ute	-12.892
諾維	-12.8922
ICE	-12.8924
Wil	-12.8925
LLL	-12.8926
til	-12.8927
.28	-12.8927
AW	-12.8928
Battleof	-12.8929
282	-12.8929
3166-2	-12.893
會導	-12.8931
屬東	-12.8933
oh	-12.8934
Kr	-12.8936
Roman	-12.8939
(1941	-12.8941
藓	-12.8941
簪	-12.8943
pter	-12.8944
鎳	-12.8944
sz	-12.8945
員獎	-12.8945
)——	-12.8945
恥	-12.8946
啞	-12.8946
蘭嶼	-12.8947
颚	-12.8947
鎮總	-12.895
卅	-12.8951
墜毀	-12.8951
33.	-12.8952
IRT	-12.8954
專訪	-12.8955
LED	-12.8958
edby	-12.8959
鮭	-12.8962
縣轄	-12.8963
專為	-12.8968
1654	-12.8969
錦賽	-12.8972
GSM	-12.8973
810	-12.8975
0-1	-12.8977
oll	-12.8982
Arch	-12.8983
個亞	-12.8983
ava	-12.8988
row	-12.8992
頭頂	-12.8993
Magic	-12.8993
756	-12.8993
Williams	-12.9001
朐	-12.9002
來語	-12.9003
飼	-12.9004
籬	-12.9006
荥	-12.9006
邯	-12.9007
527	-12.9009
樂創	-12.9009
艱	-12.901
國藩	-12.901
(1906	-12.901
從東	-12.9011
侬	-12.9012
455	-12.9018
禮記	-12.9019
Not	-12.9019
狹長	-12.902
賀郡	-12.9021
476	-12.9023
Mari	-12.9023
舉薦	-12.9027
(1955	-12.9029
553	-12.9032
1111	-12.9034
Je	-12.9036
Fan	-12.9036
rod	-12.9036
轟動	-12.9038
遊業	-12.904
.44	-12.904
383	-12.9042
Boy	-12.9044
Bou	-12.9044
靈異	-12.9045
hen	-12.9045
間發	-12.9045
327	-12.9048
Apache	-12.905
orn	-12.9054
ά	-12.9055
屬經紀	-12.9057
谯	-12.906
兌	-12.906
墘	-12.9061
por	-12.9065
豔	-12.9065
無綫電視劇	-12.9066
life	-12.9072
無窮	-12.9072
Pen	-12.9077
諾貝爾獎	-12.9077
線設	-12.9079
CEO	-12.9079
én	-12.9086
ery	-12.9087
樓為	-12.9088
灣獨	-12.9092
373	-12.9094
bis	-12.9097
Eric	-12.9098
(1948	-12.9102
莊園	-12.9103
Populati	-12.9108
Pentium	-12.911
bert	-12.911
United	-12.9112
Sound	-12.9113
ASCII	-12.9113
渦	-12.9114
韜	-12.9115
統稱為	-12.9116
eria	-12.9119
耒	-12.9122
髻	-12.9123
HP	-12.9123
陰莖	-12.9123
-1998	-12.9123
Lau	-12.9124
Mill	-12.9124
絳	-12.9125
Back	-12.9127
в	-12.9128
筵	-12.913
於漢	-12.9136
.32	-12.9137
iro	-12.9138
bal	-12.9144
870	-12.9146
Fl	-12.9149
並從	-12.915
續發	-12.9152
37.	-12.9153
Opera	-12.9158
鹑	-12.916
act	-12.916
MMM	-12.9169
鬣蜥	-12.9169
1598	-12.917
rem	-12.9174
戦	-12.9175
aj	-12.9175
Tai	-12.9177
0000	-12.9178
elle	-12.9178
IPA	-12.918
WindowsVista	-12.9181
畫質	-12.9181
ل	-12.9182
脈衝	-12.9183
(1862	-12.9188
ABA	-12.9193
559	-12.9196
Oh	-12.9199
數論	-12.9201
stein	-12.9202
Work	-12.9207
mil	-12.9209
624	-12.921
Institute	-12.921
爾濱	-12.9211
mis	-12.9212
544	-12.9213
|160	-12.9214
vel	-12.9214
軍進	-12.9214
454	-12.9218
Government	-12.9221
1277	-12.9222
ré	-12.9227
關懷	-12.9227
ゆ	-12.9227
Pri	-12.9229
4-5	-12.9231
930	-12.9233
珮	-12.9234
憂鬱	-12.9237
usa	-12.9238
iPh	-12.924
陣線	-12.9242
辕	-12.9244
arm	-12.9244
pri	-12.9245
祗	-12.9245
箴	-12.9246
Hans	-12.9249
sor	-12.9249
pil	-12.9253
549	-12.9254
versi	-12.9254
Court	-12.9257
Queen	-12.926
alan	-12.926
451	-12.9261
區專線	-12.9264
臺幣	-12.9264
Your	-12.9269
稱讚	-12.927
▁國際	-12.927
屆奧	-12.9272
905	-12.9272
運動會銀	-12.9275
WS	-12.9275
爾納	-12.9277
opsis	-12.9277
FT	-12.9277
HR	-12.9281
yunnanensis	-12.9281
業務為	-12.9283
907	-12.9283
隊隊員	-12.9283
.29	-12.9284
點檔	-12.9287
(1977	-12.9288
ご	-12.9288
-2010	-12.9292
麂	-12.9292
1590	-12.9295
rig	-12.9298
Hotel	-12.9298
嫦	-12.9298
》2004	-12.9299
憐	-12.9299
rec	-12.9299
為農業	-12.9301
鐘錶	-12.9302
斂	-12.9303
罹難	-12.9304
羈	-12.9307
Ash	-12.9308
弑	-12.9311
國領	-12.9311
圖鑑	-12.9313
Kal	-12.9314
審議	-12.9315
762	-12.9316
▁薩	-12.9317
Euro	-12.9317
ビ	-12.9318
編組	-12.932
聯賽盃	-12.9321
後趙	-12.9323
標語	-12.9324
蘭經	-12.9326
655	-12.9326
機體	-12.9327
Class	-12.9328
LR	-12.9331
base	-12.9334
969	-12.9334
528	-12.9334
888	-12.9337
31.	-12.9339
電廠	-12.934
戶線	-12.9341
nt	-12.9342
860	-12.9343
eds	-12.9345
/01	-12.9346
Chri	-12.9346
468	-12.9346
QS	-12.9347
407	-12.9348
參與過	-12.9351
葦	-12.9351
記號	-12.9352
馬術	-12.9352
縣誌	-12.9355
灝	-12.9357
昀	-12.9358
紅葉	-12.9358
離島區	-12.9358
償	-12.9359
鵲	-12.936
sfor	-12.9362
湟	-12.9362
灑	-12.9362
邈	-12.9363
7.0	-12.9363
畠	-12.9363
從軍	-12.9364
1113	-12.9367
衮	-12.9373
538	-12.9373
藍調	-12.9379
>>	-12.938
What	-12.938
業為	-12.9385
(1908	-12.9387
his	-12.9387
Books	-12.9387
cap	-12.9387
MAN	-12.939
830	-12.9391
▁2006	-12.9391
團體賽	-12.9394
1787	-12.9394
asp	-12.9398
▁240	-12.9398
長孫	-12.9399
eta	-12.94
Chris	-12.9401
遜縣	-12.9404
Mount	-12.9406
藁	-12.9406
潛艦	-12.9407
Chemistry	-12.9407
獴	-12.9408
諸羅縣	-12.9411
RB	-12.9411
ban	-12.9412
鑿	-12.9416
443	-12.9416
鬍	-12.9416
456	-12.9417
XP	-12.9417
;3.	-12.9418
TL	-12.9419
(1959	-12.942
钴	-12.942
恺	-12.9423
吒	-12.9424
焙	-12.9424
Instituteof	-12.9425
娩	-12.9425
OO	-12.9429
(1644	-12.9433
(1960	-12.9433
轄內	-12.9434
ets	-12.9438
498	-12.9439
(1964	-12.9444
時設	-12.9452
Four	-12.9454
10.5	-12.9457
2300	-12.9459
mac	-12.9464
區發	-12.9464
408	-12.9466
under	-12.9467
Family	-12.9468
獾	-12.9468
MacOS	-12.9469
Kim	-12.9471
이	-12.9472
Square	-12.9472
358	-12.9473
頭龍	-12.9476
區設	-12.9476
澹	-12.9477
蠔	-12.9478
栢	-12.9478
腈	-12.9478
666	-12.948
礫	-12.948
藥師	-12.9481
VCD	-12.9482
筍	-12.9483
窺	-12.9484
砵	-12.9484
組為	-12.9484
熵	-12.9484
戛	-12.9487
Officialweb	-12.9487
冪	-12.9487
Box	-12.9487
鞅	-12.9488
ij	-12.9494
(2005)	-12.9496
LM	-12.9497
496	-12.9499
國總統選舉	-12.95
該項	-12.95
▁喬	-12.9502
rh	-12.9503
ashi	-12.9507
這張	-12.9508
422	-12.9512
oa	-12.9519
355	-12.952
壢區	-12.952
Football	-12.9525
電視臺	-12.9528
閘門	-12.9528
YYY	-12.9529
該戰鬥	-12.953
俳	-12.9534
557	-12.9536
個數	-12.9536
col	-12.9536
兩隻	-12.9538
驥	-12.9539
華電	-12.9539
隈	-12.954
顫	-12.9541
脇	-12.9543
Party	-12.9543
団	-12.9543
匍匐	-12.9546
VII	-12.9547
謝爾	-12.9549
75%	-12.9552
臨濟	-12.9553
涅茨	-12.9558
pal	-12.956
291	-12.9565
Wils	-12.9565
589	-12.9567
華爾	-12.9569
Ci	-12.9571
爾貝	-12.9573
.19	-12.9575
統計學	-12.9578
島國	-12.9578
Salix	-12.9582
1707	-12.9586
Н	-12.9586
並參與	-12.9588
動畫師	-12.9589
Engine	-12.9593
Stadium	-12.9594
Soc	-12.9595
ire	-12.9597
Az	-12.9597
蔻	-12.96
Walter	-12.9603
wiki	-12.9605
郡東	-12.9605
704	-12.9606
》2006	-12.9609
د	-12.9616
istic	-12.9623
籌備處	-12.9623
366	-12.9625
(1853	-12.9627
盡頭	-12.9629
關稅	-12.9635
sia	-12.9636
BF	-12.9636
532	-12.9638
374	-12.9641
comm	-12.9645
實務	-12.9647
椴	-12.9651
556	-12.9651
SuperJunior	-12.9652
OxfordUniver	-12.9653
後來於	-12.9653
創設於	-12.9654
Tech	-12.9659
â	-12.9661
埭	-12.9662
Den	-12.9663
稔	-12.9665
榭	-12.9669
蒯	-12.9671
韬	-12.9671
Hook	-12.9672
368	-12.9673
iOS	-12.9673
tos	-12.9673
瀕臨	-12.9677
(1972	-12.9679
ming	-12.9681
總書記	-12.9682
Rob	-12.9683
華電視	-12.9684
納達爾	-12.9684
329	-12.9685
1754	-12.9686
Yo	-12.9688
441	-12.9695
線側	-12.9695
時鐘	-12.9701
Age	-12.9701
吳興	-12.9702
561	-12.9702
預設	-12.9707
為兩個	-12.9711
osaur	-12.9712
etta	-12.9714
Under	-12.9715
蛸	-12.9715
審計	-12.9715
Accessed	-12.9716
0011	-12.9716
Script	-12.9717
Wood	-12.9717
ね	-12.9718
How	-12.9719
After	-12.972
.20	-12.972
餚	-12.9722
ingthe	-12.9726
Garden	-12.9727
餓	-12.9732
杲	-12.9735
1/2	-12.974
罔	-12.9741
uli	-12.9742
緯為	-12.9748
連隊	-12.9748
bre	-12.9751
363	-12.9755
決賽週	-12.9756
ode	-12.9758
徑運動員	-12.9763
562	-12.9764
asi	-12.9768
iu	-12.9769
鱂	-12.9769
過來	-12.977
Tam	-12.977
684	-12.9773
Multi	-12.9775
group	-12.9777
TER	-12.9777
InternetExplorer	-12.9778
2-0	-12.9782
Pal	-12.9783
Soft	-12.9785
Twins	-12.9785
micro	-12.9786
gor	-12.9786
PG	-12.9787
(1961	-12.9788
總領	-12.9789
樞紐機場	-12.979
412	-12.979
貳	-12.9792
PSP	-12.9792
416	-12.9792
邊為	-12.9793
瑠	-12.9795
rim	-12.9795
報復	-12.9796
國經濟	-12.9797
Table	-12.9798
KE	-12.9804
hard	-12.9804
▁馮	-12.9804
テ	-12.9804
sign	-12.9805
敵對	-12.9813
1765	-12.9814
汕頭	-12.9814
---	-12.9815
Plus	-12.9817
gal	-12.9818
1773	-12.982
VR	-12.9823
(2007)	-12.9823
lac	-12.9823
1234	-12.9825
From	-12.9825
(1974	-12.9826
Em	-12.9826
學聯	-12.9827
後晉	-12.9827
536	-12.9829
Kiss	-12.9831
ische	-12.9832
黃門	-12.9833
qua	-12.9834
yp	-12.9836
Jim	-12.984
▁藍	-12.984
October	-12.9842
Pacific	-12.9842
uv	-12.9842
Express	-12.9842
國際學	-12.9845
ELEVEn	-12.9847
AO	-12.9847
殤	-12.9849
tum	-12.9851
滙	-12.9851
螳螂	-12.9852
駅	-12.9852
1660	-12.9853
ents	-12.9855
free	-12.9857
讀聖	-12.9863
瓮	-12.9865
葺	-12.9866
bro	-12.9867
Kan	-12.9869
466	-12.9871
6-1	-12.9875
Rose	-12.988
332	-12.9882
該會	-12.9883
search	-12.9892
545	-12.9893
奧羅	-12.9895
Rich	-12.9897
FRS	-12.9897
MVP	-12.9898
(2004)	-12.9902
(1646	-12.9904
蛹	-12.9904
Ubuntu	-12.9906
Victor	-12.9907
602	-12.9908
1569	-12.9908
Gal	-12.9908
Anna	-12.9909
436	-12.9915
GC	-12.9917
锺	-12.9917
總幹	-12.9917
ζ	-12.9918
萊頓	-12.9919
ory	-12.9921
〉(	-12.9922
767	-12.9923
346	-12.9926
讓給	-12.9926
1-0	-12.9928
內爾	-12.9929
Dar	-12.993
|2008	-12.9931
508	-12.9934
س	-12.9936
ally	-12.9938
豐縣	-12.9938
對賽	-12.9938
omic	-12.9938
師資	-12.9939
(1988	-12.994
||||198	-12.994
▁傑	-12.9942
sur	-12.9946
Kh	-12.9948
una	-12.9949
Aero	-12.9951
Toppdomän	-12.9954
dd	-12.9954
524	-12.9956
線條	-12.9957
、、、、	-12.9957
區則	-12.9959
vs	-12.9961
cos	-12.9963
栉	-12.9965
ぐ	-12.9966
453	-12.9966
隊奪	-12.9966
ough	-12.997
Samuel	-12.997
Francis	-12.9971
採納	-12.9971
352	-12.9976
櫛	-12.9978
▁貝	-12.9979
誌銘	-12.9979
鰂	-12.998
gel	-12.9981
煲	-12.9981
751	-12.9984
苯胺	-12.9984
瑗	-12.9984
運動會舉	-12.9985
(1645	-12.9985
紇	-12.9985
2008.	-12.9986
alo	-12.9986
籲	-12.9986
1067	-12.9986
32.	-12.9986
電視電	-12.9988
□	-12.9989
HighSchool	-12.9991
shan	-12.9993
1701	-12.9993
ld	-12.9995
缮	-12.9998
?-	-12.9999
mys	-13
馬來亞	-13.0002
icac	-13.0003
Est	-13.0004
(1971	-13.0004
1762	-13.001
489	-13.0011
Gene	-13.0012
ras	-13.0014
mas	-13.0017
間傳說	-13.0018
(1920	-13.0021
鲢	-13.0023
-1997	-13.0025
Yang	-13.0026
plan	-13.0028
cker	-13.003
nic	-13.0033
972	-13.0034
|135	-13.0034
hua	-13.0035
騷	-13.0036
cs	-13.0037
INE	-13.004
膦	-13.0044
発	-13.0044
皺	-13.0045
漪	-13.0048
ott	-13.0049
妲	-13.005
Bat	-13.0051
藩廳	-13.0052
......○	-13.0052
謁	-13.0053
該線	-13.0059
該屆	-13.0059
スト	-13.006
貝殼	-13.0061
PPP	-13.0061
428	-13.0064
籌辦	-13.0067
DTV	-13.0068
rot	-13.0068
chin	-13.0068
els	-13.0069
鳥龍	-13.0069
1766	-13.007
683	-13.0078
3-5	-13.0079
吳郡	-13.008
727	-13.0082
ulus	-13.0083
4+	-13.0086
—)	-13.0089
隊於	-13.0091
0000000	-13.0093
This	-13.0094
trans	-13.0095
Marie	-13.0097
Journal	-13.0097
722	-13.0097
pat	-13.0097
Biography	-13.0097
POP	-13.0097
ガ	-13.0098
無雙	-13.0098
RU	-13.0098
Main	-13.0099
ツ	-13.01
離隊	-13.01
number	-13.01
(1898	-13.01
Modern	-13.0101
Down	-13.0101
multi	-13.0101
Portable	-13.0102
轉車	-13.0104
ı	-13.0107
靛	-13.0108
면	-13.0109
415	-13.0111
霓	-13.0111
謊	-13.0111
悌	-13.0112
檎	-13.0112
聿	-13.0113
遐	-13.0115
暈	-13.0117
Rh	-13.0117
陟	-13.0118
para	-13.0121
數約	-13.0121
Brand	-13.0122
(1939	-13.0122
單層	-13.0123
長慶	-13.0124
pes	-13.0124
轉會費	-13.0124
於馬來	-13.0124
py	-13.0124
ø	-13.0129
樂廳	-13.0131
戰兩	-13.0131
ois	-13.0135
▁耶	-13.0138
9.0	-13.0139
586	-13.014
507	-13.0141
zer	-13.0143
yer	-13.0143
聞報	-13.0147
pers	-13.0147
鲆	-13.0157
dec	-13.0159
Educati	-13.0164
們對	-13.0165
omi	-13.0166
х	-13.0167
為勝	-13.0168
(1875	-13.0169
υ	-13.0173
1615	-13.0176
徑錦標賽	-13.0177
940	-13.0179
682	-13.018
477	-13.0182
詐騙	-13.0182
歿	-13.0183
傳統漢	-13.0184
ago	-13.0186
驷	-13.0186
讚賞	-13.0187
547	-13.0191
opus	-13.0191
645	-13.0191
RD	-13.0191
Allen	-13.0195
ān	-13.0196
box	-13.02
韓國電	-13.0203
475	-13.0204
(1905	-13.0205
總體	-13.0205
DT	-13.0207
max	-13.0207
aki	-13.0207
Award	-13.0208
doi	-13.0208
Tro	-13.0211
諡號為	-13.0212
鮡	-13.0218
OB	-13.0218
Alpha	-13.0219
Camp	-13.0221
Res	-13.0222
avi	-13.0224
蜷	-13.0225
Dance	-13.0226
漢時	-13.0226
時擔	-13.0226
chen	-13.0228
ा	-13.0228
15%	-13.0229
1756	-13.023
GNOME	-13.0231
ボ	-13.0231
3-1	-13.0232
(1903	-13.0232
莆	-13.024
峴	-13.0241
543	-13.0243
貯	-13.0244
謬	-13.0246
cent	-13.0247
▁柯	-13.0249
於義	-13.025
◎	-13.0252
editi	-13.0253
並對	-13.0253
觸鬚	-13.0254
EB	-13.0255
圖畫	-13.0256
List	-13.0257
anna	-13.0258
鄧麗	-13.026
會會	-13.0261
對決	-13.0261
盜賊	-13.0262
sse	-13.0267
聽眾	-13.0268
吳縣	-13.0271
433	-13.0273
nia	-13.0273
rom	-13.0273
3-6	-13.0275
921	-13.0276
門町	-13.0277
1492	-13.0278
NK	-13.0278
Schne	-13.028
鲃	-13.0283
Sm	-13.0285
烏魯	-13.0285
20°	-13.0287
島綫	-13.0288
鰍	-13.0289
VE	-13.0289
353	-13.029
卻沒	-13.0295
FTP	-13.0296
NEWS	-13.0299
埔鄉	-13.0299
0101	-13.03
綽	-13.0301
ail	-13.0301
鯖	-13.0303
沢	-13.0306
遊戲開發	-13.0307
char	-13.0307
1644	-13.0308
mir	-13.0309
璉	-13.0309
锑	-13.031
sl	-13.0311
燉	-13.0311
761	-13.0312
(5)	-13.0312
炽	-13.0312
tia	-13.0315
1720	-13.0318
戰線	-13.032
aiko	-13.0321
enti	-13.0324
←	-13.0325
dra	-13.033
牽連	-13.033
1127	-13.0332
686	-13.0334
總結	-13.0335
圖為	-13.0338
後則	-13.0339
Ace	-13.034
NF	-13.0341
PK	-13.0343
侏羅紀	-13.0345
357	-13.035
582	-13.0351
週數	-13.0351
Dra	-13.0356
議員選舉	-13.0358
1295	-13.0358
uta	-13.0359
濃國	-13.0359
Source	-13.036
December	-13.0362
諜	-13.0363
362	-13.0365
長岡	-13.0365
說裡	-13.0365
fishbase	-13.0365
č	-13.0365
莅	-13.0368
Clarke	-13.0369
長陳	-13.037
IUPAC	-13.0371
1774	-13.0374
東鄉試	-13.0374
蕲	-13.0374
Unit	-13.0375
ㄧ	-13.0375
醮	-13.0377
.46	-13.0379
娣	-13.0383
鳳陽	-13.0384
794	-13.0385
兮	-13.0385
Mega	-13.039
Bas	-13.0391
讀學	-13.0392
～》	-13.0393
蘭島	-13.04
mini	-13.0401
應為	-13.0405
–9	-13.0405
Joe	-13.0406
eder	-13.0409
95%	-13.0411
790	-13.0412
DP	-13.0417
專頁	-13.0417
實權	-13.0419
1540	-13.0421
Elst	-13.0422
9.1	-13.0425
597	-13.0427
О	-13.0427
鯧	-13.0428
642	-13.0431
ろ	-13.0432
Series	-13.0435
銨	-13.0436
ット	-13.0437
會會員	-13.0438
ô	-13.0438
lc	-13.0439
劍術	-13.0439
ante	-13.044
數萬	-13.044
蓓	-13.0442
髯	-13.0442
鹫	-13.0443
铂	-13.0443
毎	-13.0444
亶	-13.0444
猗	-13.0445
tax	-13.0446
賣給	-13.0447
藍線	-13.0449
ors	-13.0452
轼	-13.0452
388	-13.0455
車體	-13.0457
Acti	-13.0457
history	-13.0461
2200	-13.0462
ESO	-13.0463
|20	-13.0467
med	-13.0468
爾茲	-13.0471
7-5	-13.0472
Ball	-13.0475
ges	-13.0475
(1998)	-13.0476
Zo	-13.0477
love	-13.0479
ference	-13.048
Alan	-13.0482
靈寶	-13.0488
蚶	-13.0493
Collecti	-13.0494
acc	-13.0496
義與	-13.0497
sburg	-13.0497
Interactive	-13.05
実	-13.0501
黒	-13.0505
rate	-13.0505
Xe	-13.0507
驢	-13.0507
豉	-13.0509
1080	-13.0509
YO	-13.051
Islands	-13.0512
1609	-13.0515
討厭	-13.0516
倆	-13.0517
國畫	-13.0518
壕	-13.0519
-47	-13.052
mark	-13.0522
sten	-13.0522
423	-13.0523
diti	-13.0529
槍擊	-13.0531
.88	-13.0537
國內戰	-13.0537
稱資	-13.0539
run	-13.0541
382	-13.0544
1670	-13.0545
▁雙	-13.0547
隊參賽	-13.0548
對馬	-13.0548
靈長	-13.0549
eau	-13.0551
п	-13.0552
347	-13.0552
ities	-13.0552
寬約	-13.0552
-----	-13.0553
she	-13.0554
=0	-13.0554
敗於	-13.0555
806	-13.0555
tica	-13.0559
wo	-13.0562
TCP	-13.0563
.34	-13.0563
970	-13.0566
Right	-13.0566
菰	-13.0567
(1894	-13.0568
絢	-13.0569
ネ	-13.0569
ケ	-13.057
IG	-13.0571
χ	-13.0573
蘭達	-13.0574
結論	-13.0575
alStatistics	-13.0577
鰲	-13.0577
)#	-13.0577
eme	-13.0578
Planet	-13.0578
》2008	-13.058
442	-13.058
連載於	-13.058
苳	-13.058
餾	-13.0583
嘔	-13.0583
1635	-13.0585
護聯	-13.0587
國電視劇	-13.0587
ί	-13.0591
1768	-13.0593
長頸	-13.0593
農學	-13.0596
陸譯	-13.0598
Hay	-13.0599
樹幹	-13.0601
ct	-13.0603
Missi	-13.0605
UM	-13.0607
執權	-13.0607
醫學獎	-13.0613
Statistics	-13.0616
973	-13.0618
(1937	-13.0622
評審團	-13.0622
Baby	-13.0624
APS	-13.0625
1705	-13.0625
ward	-13.0625
亞戰爭	-13.0625
(1910	-13.0626
629	-13.0626
為觀賞魚	-13.0633
Mk	-13.0633
ی	-13.0633
November	-13.0633
1680	-13.0634
district	-13.0635
ふ	-13.0635
626	-13.0635
ば	-13.0636
Flor	-13.0645
Mike	-13.0647
縉	-13.0648
see	-13.065
regi	-13.0652
′′	-13.0652
釉	-13.0652
361	-13.0653
蘇軾	-13.0655
575	-13.0656
龈	-13.0656
1610	-13.0656
Gun	-13.0657
締結	-13.0657
颉	-13.0658
file	-13.066
談話	-13.066
嚴謹	-13.066
gas	-13.0662
ister	-13.0666
ograph	-13.0667
魚綱	-13.0667
AX	-13.0669
483	-13.0671
亂時	-13.0671
陰縣	-13.0675
Hard	-13.0675
432	-13.0679
萬歐	-13.068
轉錄	-13.0687
rati	-13.0687
於羅馬	-13.069
448	-13.0694
1688	-13.0695
結構與	-13.0695
華飾	-13.0698
music	-13.0698
華潤	-13.07
ort	-13.07
aba	-13.0708
總務	-13.071
増	-13.071
643	-13.0711
魯閣	-13.0711
482	-13.0712
樂獎	-13.0712
華茲	-13.0713
諏訪	-13.0713
SHI	-13.0715
瑭	-13.0719
CNN	-13.0719
虧	-13.0722
饋	-13.0722
itis	-13.0723
lock	-13.0723
saurus	-13.0724
檄	-13.0725
漢學	-13.0725
極樂	-13.0726
Nan	-13.0732
蘭裔	-13.0733
選舉結	-13.0734
fl	-13.0735
1626	-13.0737
Site	-13.0745
(1946	-13.0749
697	-13.075
》2007	-13.0756
為愛	-13.0757
長橢圓	-13.0758
JP	-13.0761
ダ	-13.0761
49.	-13.0762
FN	-13.0763
組裝	-13.0764
mg	-13.0767
杓	-13.0769
團總	-13.0769
34.	-13.0772
Nik	-13.0773
Wilhelm	-13.0775
ör	-13.0777
鬣	-13.0778
(1973	-13.0779
姫	-13.078
荚	-13.0781
ichthys	-13.0781
Sci	-13.0782
紅樓夢	-13.0783
ICD	-13.0783
odo	-13.0783
■	-13.0784
Call	-13.0784
劉義	-13.0784
參將	-13.0786
訟	-13.0787
奭	-13.0787
pu	-13.0789
訓導	-13.079
漢陽	-13.079
蜥腳類	-13.079
決於	-13.0794
558	-13.0796
胪	-13.0797
||||199	-13.0797
478	-13.0798
師賽	-13.0798
Wen	-13.0801
1759	-13.0803
537	-13.0803
1747	-13.0809
1738	-13.0811
484	-13.0813
橫貫	-13.0816
language	-13.0818
後經	-13.0819
場對	-13.0821
諸軍	-13.0822
『』	-13.0822
經發	-13.0823
fish	-13.0825
533	-13.0825
Ye	-13.0826
wei	-13.0831
902	-13.0831
ries	-13.0832
▁韋	-13.0834
愛爾蘭語	-13.084
1673	-13.084
Transport	-13.0841
▁蔣	-13.0841
ت	-13.0842
Р	-13.0842
》2009	-13.0843
▁frame	-13.0844
個羅馬	-13.0844
鸮	-13.0845
י	-13.0845
Lewis	-13.0845
GeForce	-13.0847
Harris	-13.0848
osus	-13.0852
nar	-13.0854
玟	-13.0856
Story	-13.0857
豊	-13.0857
Philip	-13.0858
FE	-13.0858
よ	-13.0859
楹	-13.086
1632	-13.0863
546	-13.0863
GUI	-13.0866
tcolor	-13.0868
NCAA	-13.087
Fox	-13.0871
務農	-13.0875
lay	-13.0876
that	-13.0882
904	-13.0883
sde	-13.0883
車頭	-13.0884
808	-13.0887
Visual	-13.0893
illi	-13.0902
anensis	-13.0902
->	-13.0904
牠們會	-13.0906
Australia	-13.0907
Airport	-13.0908
526	-13.0909
Dia	-13.091
Journalof	-13.0911
Happy	-13.0913
Two	-13.0913
thi	-13.0914
鱉	-13.0915
Ob	-13.0918
ど	-13.0919
雙語	-13.0921
鳶	-13.0922
uf	-13.0923
對這	-13.0924
醯	-13.0924
1687	-13.0924
隊贏	-13.0926
shire	-13.0926
(1907	-13.0929
電纜	-13.0929
嵇	-13.093
愛華頓	-13.0931
忤	-13.0935
tha	-13.0935
過濾	-13.0936
499	-13.0937
ther	-13.0938
Mix	-13.094
kr	-13.0941
$1	-13.0941
572	-13.0942
578	-13.0943
與歷	-13.0943
541	-13.0946
?》	-13.0947
sm	-13.0949
oxy	-13.0949
RP	-13.0952
escens	-13.0956
(2001)	-13.0957
東線	-13.0958
ック	-13.0958
458	-13.0962
565	-13.0963
區範圍	-13.0964
數條	-13.0966
書處	-13.0967
-300	-13.0969
(1889	-13.0971
輟學	-13.0976
義鄉	-13.0978
盜龍	-13.0978
ч	-13.0978
Mai	-13.0979
獸醫	-13.098
鳎	-13.0981
Article	-13.0982
網頁瀏覽	-13.0985
Cityof	-13.0985
搖滾樂隊	-13.0986
Alfred	-13.099
spin	-13.0991
吳語	-13.0992
萘	-13.0996
ов	-13.0997
曳	-13.0997
軍佔領	-13.0998
齊書	-13.0998
麋	-13.0998
嵋	-13.0999
癖	-13.0999
=100	-13.0999
賠償	-13.1
徑為	-13.1
BMW	-13.1001
攪	-13.1002
懲罰	-13.1003
term	-13.1003
儁	-13.1003
桀	-13.1004
339	-13.1005
led	-13.1006
Tel	-13.1006
JJJ	-13.1007
鱷類	-13.1007
話說	-13.1008
reg	-13.1009
Way	-13.101
種國際	-13.101
Chr	-13.1014
蘇蘇	-13.1015
環狀線	-13.1016
1703	-13.1017
11.5	-13.1019
時將	-13.1022
BEST	-13.1023
後從	-13.1024
伽羅	-13.1027
eat	-13.1028
Wan	-13.103
426	-13.1032
php	-13.1035
1501	-13.1036
餘數	-13.1037
JCategory	-13.1038
議會選舉	-13.104
369	-13.104
Publishing	-13.1046
AH	-13.1048
兩類	-13.1049
Evoluti	-13.105
WindowsMobile	-13.105
Rep	-13.105
報業	-13.1051
》2002	-13.1053
Summer	-13.1054
麵條	-13.1055
431	-13.1057
仕於	-13.1057
ost	-13.1059
sie	-13.106
-2012	-13.106
=|	-13.1062
Adam	-13.1063
菓	-13.1063
鑲黃	-13.1064
-1996	-13.1064
1658	-13.1065
撃	-13.1066
溼	-13.1069
妫	-13.1069
殇	-13.1072
腱	-13.1073
稜鏡	-13.1073
軛	-13.1073
絲綢	-13.1074
學創	-13.1075
1024	-13.1075
881	-13.1076
RM	-13.1076
▁鄧	-13.1078
產業園區	-13.1078
Jacks	-13.1081
FX	-13.1082
徑約	-13.1082
Say	-13.1083
Rd	-13.1085
ATI	-13.1087
IB	-13.1087
reacti	-13.1088
Pass	-13.1089
bot	-13.1093
492	-13.1093
(2010)	-13.1098
bul	-13.1098
於烏	-13.11
968	-13.1103
項於	-13.1104
Force	-13.1105
課長	-13.1106
羅馬時	-13.1107
41.	-13.1108
ito	-13.111
遺體	-13.1111
arn	-13.1112
-90	-13.1113
006	-13.1115
sti	-13.1115
獻記載	-13.1116
駛於	-13.1118
這兩種	-13.1118
(1895	-13.1119
Mail	-13.1121
+0	-13.1123
967	-13.1125
635	-13.1125
處處長	-13.1126
Washingt	-13.1127
TD	-13.1128
-2004	-13.1128
्	-13.1128
(1945	-13.1128
漩渦	-13.113
Britannica	-13.1131
楂	-13.1131
擔綱	-13.1132
+6	-13.1132
503	-13.1132
936	-13.1132
噹	-13.1133
鲑	-13.1133
麗華	-13.1133
dal	-13.1133
?)	-13.1134
ml	-13.1135
393	-13.1136
節慶	-13.1137
TOC	-13.1137
歩	-13.1139
個傳統	-13.114
胭	-13.114
463	-13.1141
誡	-13.1142
dom	-13.1145
繕	-13.1145
XXXX	-13.1151
cht	-13.1158
齊桓	-13.1159
蟲類	-13.1159
據稱	-13.116
0.00	-13.1163
於舊	-13.1165
聽聞	-13.1167
(1950	-13.1168
kt	-13.1174
926	-13.1174
匯報	-13.1176
Hz	-13.1178
Hit	-13.1179
367	-13.118
syn	-13.1181
柯爾	-13.1184
NEC	-13.1188
パ	-13.119
愛電視	-13.1191
691	-13.1193
Т	-13.1195
588	-13.1195
Audio	-13.12
電場	-13.12
貓頭鷹	-13.1201
グ	-13.1201
1613	-13.1203
Secret	-13.1204
731	-13.1204
Berg	-13.1206
Lang	-13.1206
歷險記	-13.1206
國際關係	-13.1208
諾亞	-13.1209
燈籠	-13.1212
12.5	-13.1212
側開門	-13.1213
駱駝	-13.1213
禰	-13.1215
個階	-13.1217
區檔	-13.1219
Tele	-13.1221
預購	-13.1223
gli	-13.1224
Tak	-13.1225
ote	-13.1227
Ali	-13.1228
賽區	-13.1228
Kit	-13.1229
Fo	-13.1232
567	-13.1233
Services	-13.1235
2-4	-13.1237
軍務	-13.1244
rum	-13.1247
arr	-13.1249
評論員	-13.1256
Sel	-13.1257
yth	-13.1257
單線	-13.126
礦場	-13.1262
築設計	-13.1262
勳銜	-13.1264
pra	-13.1265
structi	-13.1269
José	-13.1271
ography	-13.1273
1689	-13.1273
iano	-13.1273
凱薩	-13.1276
錳	-13.1278
Kra	-13.1278
ヤ	-13.1279
瓚	-13.1282
國際組織	-13.1282
607	-13.1284
445	-13.1285
鸾	-13.1288
繇	-13.1289
(1931	-13.1289
nal	-13.1293
672	-13.1294
hir	-13.1294
徵選	-13.1298
來臺	-13.1299
Py	-13.1304
563	-13.1308
ACE	-13.1309
Asian	-13.1311
00、	-13.1314
910	-13.1315
Enterprise	-13.1316
Georg	-13.132
華東	-13.1321
509	-13.1321
491	-13.1322
ext	-13.1323
HTC	-13.1326
Pad	-13.1327
劍擊	-13.1328
371	-13.133
thu	-13.1333
matic	-13.1333
聖瑪	-13.1335
Camellia	-13.1336
寶馬	-13.1338
轉變為	-13.1339
Divisi	-13.1343
56.	-13.1344
phi	-13.1345
MicrosoftOffice	-13.1346
吲哚	-13.1348
Tower	-13.1349
aca	-13.135
oto	-13.1351
Sr	-13.1351
901	-13.1352
1556	-13.1353
會聖	-13.1353
æ	-13.1353
.43	-13.1354
-1944	-13.1354
1-5	-13.1358
/10	-13.1358
侏儸紀	-13.1359
峽兩	-13.1359
孖	-13.1359
瓘	-13.1362
砥	-13.1363
皎	-13.1363
Fang	-13.1363
瑣	-13.1364
號戰艦	-13.1364
漢譯	-13.1364
say	-13.1365
07||||	-13.1366
aris	-13.137
DX	-13.137
鮮語	-13.1371
-85	-13.1372
648	-13.1373
聖誕島	-13.1378
島語	-13.1379
並擁	-13.1379
Profess	-13.1379
1⁄2	-13.138
080	-13.1383
Base	-13.1385
802	-13.1387
Bad	-13.1388
522	-13.1394
378	-13.14
ず	-13.1401
virus	-13.1401
strasb	-13.1405
963	-13.1405
573	-13.1406
○○○	-13.1407
472	-13.1408
(1863	-13.141
個鎮	-13.141
1/3	-13.1411
667	-13.1411
568	-13.1411
閥	-13.1411
ς	-13.1416
391	-13.1416
較淺	-13.1417
Object	-13.1417
yi	-13.1417
843	-13.1418
803	-13.1418
鸫鹛	-13.142
應變	-13.1421
Promoti	-13.1421
枇杷	-13.1421
》(《	-13.1422
ポ	-13.1423
農業為	-13.1423
372	-13.1424
SQL	-13.1425
約熱內盧	-13.1427
633	-13.1431
莪	-13.1432
負債	-13.1432
933	-13.1433
487	-13.1433
悶	-13.1435
TOP	-13.1436
Color	-13.1437
CRH	-13.1437
Pic	-13.1439
WR	-13.144
騷擾	-13.1441
ра	-13.1442
band	-13.1443
骊	-13.1444
闋	-13.1444
鞨	-13.1445
HF	-13.1447
1648	-13.1447
Golden	-13.1448
×2	-13.1451
water	-13.1451
blog	-13.1452
Arts	-13.1454
業協會	-13.1455
Bird	-13.1458
0-0	-13.1461
America	-13.1462
Mil	-13.1463
辦單	-13.1467
trop	-13.1469
988	-13.1469
755	-13.147
舊時	-13.1471
85%	-13.1471
車輪	-13.1475
576	-13.1477
809	-13.1478
yErics	-13.1483
Athl	-13.1484
剎	-13.1486
約會	-13.1489
chinensis	-13.1491
rea	-13.1493
鼯	-13.1496
Д	-13.1497
519	-13.1499
綠島	-13.15
1767	-13.1504
▁T	-13.1505
chus	-13.1507
瘡	-13.1507
Σ	-13.1507
閤	-13.1508
Hen	-13.1508
琨	-13.1509
009	-13.151
685	-13.151
LU	-13.1511
詭	-13.1511
SMAP	-13.1513
Works	-13.1513
Johann	-13.1513
鄯	-13.1513
439	-13.1514
專區	-13.1515
箇	-13.1516
(1956	-13.1517
謫	-13.1519
嚨	-13.1519
ean	-13.1519
-1990	-13.1519
诠	-13.152
BM	-13.1522
2600	-13.1525
work	-13.1526
亞諾	-13.1526
NNN	-13.1527
灣縣	-13.1528
434	-13.1529
Meta	-13.153
為觀賞	-13.153
media	-13.1531
824	-13.1537
kel	-13.1538
(1947	-13.154
Et	-13.1541
與臺灣	-13.1543
畢業於東	-13.1547
Sy	-13.1552
379	-13.1552
738	-13.1556
742	-13.1557
鲹	-13.1562
1~	-13.1565
Beta	-13.1566
學領	-13.1568
584	-13.1569
ux	-13.1569
▁邱	-13.1572
И	-13.1572
線編號	-13.1574
card	-13.1574
lei	-13.1574
aku	-13.1575
623	-13.1575
675	-13.1578
無機	-13.1578
Valley	-13.1579
芎	-13.1579
1012	-13.1579
萬壽	-13.158
677	-13.158
甕	-13.158
1745	-13.1581
阗	-13.1587
Pin	-13.1588
録	-13.1589
1742	-13.1589
聳	-13.159
羅維	-13.159
療養	-13.1592
骁	-13.1595
619	-13.1595
(1900	-13.1597
藩藩	-13.1597
迴響	-13.1599
個鄉	-13.1603
hun	-13.1605
MK	-13.1606
681	-13.1606
593	-13.1609
Single	-13.1615
則將	-13.1617
_(	-13.1618
rock	-13.162
sus	-13.162
Audi	-13.1623
EST	-13.1625
CCCC	-13.1628
2009.	-13.1629
414	-13.1631
鯨隊	-13.1631
(1723	-13.1633
state	-13.1633
1602	-13.1635
》1993	-13.1636
對該	-13.1638
2700	-13.1638
542	-13.1641
據傳	-13.1642
Studies	-13.1643
Commissi	-13.1643
3-0	-13.1643
▁280	-13.1644
1737	-13.1644
價為	-13.1644
771	-13.1644
Medical	-13.1645
莊區	-13.1646
緋	-13.165
殯儀館	-13.1651
該隊	-13.1654
768	-13.1654
-32	-13.1654
etti	-13.1655
1508	-13.1658
関	-13.1658
1661	-13.1659
587	-13.1661
誇	-13.1661
缽	-13.1662
thes	-13.1662
運動會網	-13.1662
東風	-13.1663
為終點	-13.1666
gol	-13.1666
攘	-13.1667
聖戰	-13.1672
靜態	-13.1673
mag	-13.1677
漸變	-13.1679
979	-13.1681
僱員	-13.1681
646	-13.1681
-64	-13.1682
566	-13.1684
Qua	-13.1687
471	-13.1687
1453	-13.1691
內亂	-13.1694
975	-13.1697
647	-13.1697
1525	-13.1698
VB	-13.1699
軍醫	-13.1703
ls	-13.1704
1604	-13.1704
紙張	-13.1704
961	-13.1711
eti	-13.1711
Ident	-13.1711
008	-13.1712
佈滿	-13.1713
has	-13.1714
417	-13.1717
Jam	-13.1717
Instrumental	-13.1718
vor	-13.1719
Columbia	-13.172
MX	-13.1721
鱧	-13.1722
Televisi	-13.1722
JavaScript	-13.1723
—10	-13.1723
725	-13.1724
義軍	-13.1729
ร	-13.173
(1957	-13.173
tl	-13.1731
å	-13.1731
(1901	-13.1735
sam	-13.1738
Ever	-13.1739
iao	-13.1739
濑	-13.1739
429	-13.1741
賠	-13.1742
邠	-13.1743
權國	-13.1743
ast	-13.1743
鉛筆	-13.1743
AGE	-13.1746
Ass	-13.1747
級戰隊	-13.1748
せ	-13.1748
蘭陽	-13.1749
Miss	-13.1752
該詞	-13.1752
龍隊	-13.1753
body	-13.1753
842	-13.1756
爭執	-13.1758
-2013	-13.1759
ware	-13.1762
搖滾樂	-13.1763
詩詞	-13.1763
MIT	-13.1765
781	-13.1766
high	-13.1766
ographic	-13.1767
iri	-13.1768
1722	-13.1772
-1988	-13.1774
1685	-13.1775
寬廣	-13.1777
wen	-13.1777
1743	-13.1778
見習	-13.1779
體現	-13.1779
應對	-13.178
OG	-13.1782
Pb	-13.1782
030	-13.1784
comCategory	-13.1785
時獲	-13.1789
視頻	-13.179
遠處	-13.1791
419	-13.1792
亞馬	-13.1793
Г	-13.1796
Head	-13.1799
1565	-13.1799
銣	-13.1801
ザ	-13.1801
Rat	-13.1802
DirectX	-13.1803
1623	-13.1803
選區議員	-13.1804
潯	-13.1804
yd	-13.1806
芈	-13.1807
藪	-13.1807
model	-13.1808
闇	-13.1809
盜壘	-13.1811
1699	-13.1811
禿	-13.1812
離異	-13.1812
榷	-13.1813
Get	-13.1814
朮	-13.1814
1744	-13.1816
摯	-13.1817
.31	-13.1817
輒	-13.1818
帧	-13.1819
訪談	-13.182
Lac	-13.182
爰	-13.1823
nos	-13.1827
個總	-13.183
01.	-13.183
387	-13.1832
絲狀	-13.1833
聞記	-13.1834
2008-09	-13.1836
Europe	-13.1837
992	-13.1841
應選	-13.1843
493	-13.1844
lati	-13.1848
348	-13.1848
Jas	-13.1853
與當時	-13.1853
複線	-13.1853
947	-13.1855
876	-13.1857
對數	-13.1861
668	-13.1861
國臨時	-13.1862
tern	-13.1866
Pur	-13.1868
FO	-13.187
KV	-13.1871
國國際	-13.1871
(1573	-13.1871
碇	-13.1872
Community	-13.1874
Ts	-13.1874
BASIC	-13.1875
NU	-13.1876
無齒	-13.1876
HL	-13.1878
Area	-13.1878
缨	-13.1879
頓國	-13.1879
040	-13.1881
1559	-13.1881
(1918	-13.1883
Δ	-13.1883
電臺	-13.1883
3166-1	-13.1885
務業	-13.1885
637	-13.1886
煇	-13.1888
』」	-13.1888
鉢	-13.1889
488	-13.189
盱眙	-13.1891
紐約時報	-13.1893
個國際	-13.1893
塊厝	-13.1894
學經濟學	-13.1896
(1936	-13.19
TheC	-13.1901
俠傳	-13.1902
廢黜	-13.1903
產階級	-13.1903
鑑於	-13.1904
PB	-13.1904
-1991	-13.1905
時還	-13.191
753	-13.191
(1916	-13.1912
綠黨	-13.1912
/2000	-13.1912
協辦	-13.1914
born	-13.1918
1741	-13.1918
ark	-13.1918
yt	-13.1919
進會	-13.1919
(1921	-13.192
10.1	-13.1921
ello	-13.1922
703	-13.1924
lé	-13.1924
play	-13.1925
598	-13.1926
hai	-13.1926
los	-13.1927
寬闊	-13.1929
Burn	-13.193
(1867	-13.1934
soft	-13.1937
Alt	-13.1943
獸屬	-13.1943
863	-13.1944
BP	-13.1945
プ	-13.1945
馬師	-13.1946
▁凱	-13.1946
Off	-13.195
Qt	-13.1951
▁廖	-13.1951
Prince	-13.1954
oko	-13.1955
來製	-13.196
macr	-13.1961
Lord	-13.1961
與楊	-13.1962
烴	-13.1962
甌	-13.1963
û	-13.1964
霰彈槍	-13.1965
苯酚	-13.1966
逍遙	-13.1967
吡啶	-13.1967
恽	-13.1968
棻	-13.1968
撻	-13.1969
洄	-13.197
沭	-13.197
Syn	-13.197
腎臟	-13.1971
轶	-13.1973
輪碼頭	-13.1973
碉	-13.1974
煩惱	-13.1974
辯護	-13.1979
遊樂區	-13.1979
474	-13.1981
CDMA	-13.1982
(1958	-13.1983
さん	-13.1985
938	-13.1987
島戰	-13.1988
諸島	-13.199
005	-13.199
lf	-13.1993
1697	-13.1994
與奧	-13.1994
alPark	-13.1996
sw	-13.1998
東維	-13.1999
sby	-13.2001
ライ	-13.2002
Gray	-13.2004
1713	-13.2007
紅樹	-13.2008
418	-13.2011
轉職	-13.2018
KS	-13.2018
蓋亞	-13.2021
anc	-13.2024
Dom	-13.2024
BN	-13.2025
59.	-13.2025
977	-13.2027
別區	-13.2028
1636	-13.2029
first	-13.2029
1755	-13.2031
February	-13.2032
377	-13.2032
業專	-13.2034
Access	-13.2034
-、-	-13.2036
國滅	-13.2037
Silver	-13.2037
539	-13.2038
餃	-13.2043
last	-13.2043
Kor	-13.2044
粿	-13.2045
燾	-13.2045
奬	-13.2049
Mg	-13.2049
昴	-13.205
1640	-13.205
詢問	-13.2051
拋棄	-13.2051
頓網	-13.2053
務區	-13.2055
谒	-13.2057
絲帶	-13.2059
1749	-13.206
頒佈	-13.2063
centr	-13.2064
bol	-13.2065
60°	-13.2066
過這	-13.2067
國賓	-13.207
4-1	-13.2072
754	-13.2073
ave	-13.2073
1669	-13.2073
BT	-13.2075
Name	-13.2076
923	-13.2081
364	-13.2081
897	-13.2081
會聯	-13.2082
發揚	-13.2085
兩線	-13.2088
-1)	-13.2088
His	-13.2089
Awards	-13.209
tter	-13.2092
兩個縣	-13.2093
Dur	-13.2093
Nature	-13.2094
對陣	-13.2095
筆畫	-13.2098
890	-13.2098
楠梓	-13.2098
詔書	-13.2098
anthus	-13.2099
發電機	-13.21
Film	-13.2103
連勝	-13.2104
鱚	-13.2105
(1882	-13.2106
feat	-13.2106
鰈	-13.2107
nom	-13.2108
577	-13.2109
1691	-13.2109
462	-13.211
aci	-13.2113
Sil	-13.2114
ぶ	-13.2114
964	-13.2114
側開	-13.2114
Produce	-13.2114
ו	-13.2115
阪飛腳	-13.2116
瀋	-13.2116
當於現	-13.2117
389	-13.2118
運輸機	-13.2119
pos	-13.2119
341	-13.2119
7-8	-13.2119
RX	-13.212
Steve	-13.212
珩	-13.2122
1101	-13.2123
4×100	-13.2125
別町	-13.2126
燊	-13.2126
鬬	-13.2126
Ent	-13.2126
ious	-13.2128
報員	-13.2128
崑崙	-13.2129
驍	-13.2129
經銷	-13.2129
1629	-13.2131
腌	-13.2132
郧	-13.2132
pyr	-13.2132
稟	-13.2133
674	-13.2134
娼	-13.2134
閩縣	-13.2135
641	-13.2135
睞	-13.2136
魚龍	-13.2137
(1919	-13.2139
則較	-13.214
609	-13.2141
Hel	-13.2143
厄爾	-13.2144
Last	-13.2144
圓錐	-13.2146
True	-13.2149
長濱	-13.2149
會車	-13.215
質與	-13.215
蘭職業	-13.215
iel	-13.2152
Zu	-13.2154
arg	-13.2156
長島	-13.2157
1562	-13.2157
osis	-13.2159
(2000)	-13.216
軍銜	-13.2161
無鱗	-13.2162
595	-13.2166
shell	-13.2169
隨時	-13.2169
edin	-13.2171
Hart	-13.2173
為職業	-13.2173
(2009)	-13.2175
004	-13.2176
698	-13.218
TW	-13.218
bri	-13.2183
XCategory	-13.2184
為圓	-13.2186
紅線	-13.219
Stage	-13.2194
SPEED	-13.2194
tain	-13.2194
worth	-13.2196
ŋ	-13.2199
ер	-13.22
662	-13.22
Winter	-13.2201
mos	-13.2201
Building	-13.2201
図	-13.2203
ㄨ	-13.2204
uit	-13.2204
閭	-13.2205
鯤	-13.2205
電氣軌	-13.2206
曠	-13.2207
638	-13.2207
Schoolof	-13.2209
晔	-13.2209
821	-13.221
輔幣	-13.2211
2006-07	-13.2214
ín	-13.2214
苕	-13.2215
肄	-13.2215
踞	-13.2218
7-6	-13.2221
榮町	-13.2225
ALL	-13.2227
ifer	-13.2227
達賴	-13.2229
1645	-13.2232
/02	-13.2232
Bun	-13.2233
無綫電視藝員	-13.2234
Dun	-13.2235
KU	-13.2237
iflora	-13.2239
為輔	-13.2243
5-6	-13.2246
ej	-13.2246
592	-13.2248
-33	-13.2248
騎馬	-13.2249
於紐	-13.225
師長	-13.225
official	-13.2252
會組織	-13.2253
錫蘭	-13.2256
無間	-13.2258
1260	-13.2259
694	-13.2263
Rehd	-13.2263
Health	-13.2263
計時	-13.2264
ан	-13.2266
1717	-13.2266
員約	-13.2269
鯡	-13.2271
銫	-13.2273
Advanced	-13.2274
Twitter	-13.2278
inn	-13.2278
ector	-13.2282
韌	-13.2282
subsp	-13.2283
梶	-13.2284
盂	-13.2286
铨	-13.2287
rist	-13.2288
噁	-13.2288
滌	-13.229
汜	-13.229
2007/08	-13.229
隗	-13.229
German	-13.2292
虔誠	-13.2293
Arg	-13.2294
452	-13.2294
偽裝	-13.2299
雜貨	-13.23
為銀	-13.2302
1279	-13.2302
1584	-13.2305
緣關係	-13.2309
RW	-13.2309
須賀	-13.231
歐陸	-13.231
656	-13.2311
951	-13.2311
(1938	-13.2316
0-2	-13.2319
Beat	-13.232
團練	-13.232
vent	-13.232
kov	-13.2321
區間車	-13.2321
758	-13.2322
805	-13.2324
anga	-13.2325
Low	-13.2325
1560	-13.2325
aster	-13.233
etic	-13.233
發燒	-13.2333
Anne	-13.2333
514	-13.2337
藍綠	-13.2348
.58	-13.2349
iformes	-13.2351
Final	-13.2352
|190	-13.2353
bur	-13.2357
index	-13.2358
Lady	-13.2359
戰敗後	-13.236
|2007	-13.2363
.39	-13.2363
804	-13.2364
733	-13.2366
884	-13.2366
珣	-13.2367
昙	-13.2368
鑼	-13.2368
鉑	-13.2368
齒齦	-13.2368
稗	-13.2369
掸	-13.2369
烏蘭	-13.2372
(1868	-13.2374
718	-13.2376
東亞傳統	-13.2376
凋	-13.2376
464	-13.2376
郓	-13.2377
983	-13.2378
Set	-13.2379
憶錄	-13.2379
蜿	-13.238
間開	-13.238
bs	-13.2381
儲備	-13.2381
732	-13.2381
蔭權	-13.2382
Physics	-13.2382
侷	-13.2384
-3-	-13.2386
Gall	-13.2387
sil	-13.2388
籌組	-13.239
語發	-13.239
1430	-13.239
té	-13.2394
畫賞	-13.2394
908	-13.2396
516	-13.2397
1588	-13.24
Thr	-13.2401
-150	-13.2402
3、4	-13.2403
Temp	-13.2404
427	-13.2409
國遼寧	-13.2409
1572	-13.241
HT	-13.2411
▁阮	-13.2411
Small	-13.2412
與吳	-13.2415
獎盃	-13.2418
779	-13.2419
(1935	-13.2421
1618	-13.2422
Lim	-13.2425
1746	-13.2427
Ari	-13.2427
簡寫為	-13.2427
715	-13.2428
ente	-13.2428
鲇	-13.2429
VGA	-13.2431
Applicati	-13.2434
(1600	-13.2434
920	-13.2436
cz	-13.2436
★	-13.2437
Women	-13.2438
PH	-13.2439
461	-13.2439
1582	-13.2442
時則	-13.2442
Davis	-13.2442
(1924	-13.2442
CAD	-13.2442
薩馬	-13.2445
苫	-13.2446
潤發	-13.2446
885	-13.2447
梟	-13.2448
苴	-13.2449
昉	-13.2449
賓槍	-13.2451
708	-13.2451
佰	-13.2451
Magn	-13.2451
糜	-13.2452
紛爭	-13.2453
.89	-13.2455
坍	-13.2455
濛	-13.2456
REA	-13.2456
勖	-13.2457
親緣關係	-13.2457
區轄	-13.246
413	-13.2461
-41	-13.2461
631	-13.2462
bell	-13.2464
Ng	-13.2465
(1871	-13.2465
學園區	-13.2466
EW	-13.2469
對峙	-13.247
KT	-13.2471
dale	-13.2471
為養	-13.2472
vers	-13.2472
1672	-13.2476
cre	-13.2477
(1943	-13.2479
.70	-13.2481
語電	-13.2482
藝術節	-13.2483
827	-13.2484
孫堅	-13.2485
學課	-13.2486
nay	-13.2488
蘭郡	-13.2488
sun	-13.249
納達	-13.2496
槍機	-13.2497
-38	-13.2498
該郡	-13.2502
Liu	-13.2504
稜線	-13.2504
473	-13.2507
dem	-13.2507
––	-13.2508
(1861	-13.2508
(1724	-13.2512
esa	-13.2514
鄞縣	-13.2515
Amaz	-13.2517
+02	-13.2518
轉週	-13.2519
後陸續	-13.252
About	-13.252
見稱	-13.2521
Morris	-13.2522
Collins	-13.2522
Canada	-13.2522
688	-13.2524
蠣	-13.2525
1682	-13.2527
體動	-13.2527
絹	-13.253
MUSIC	-13.253
1587	-13.2531
現過	-13.2531
579	-13.2532
jan	-13.2533
槎	-13.2533
馬頭圍	-13.2534
functi	-13.2534
廩	-13.2535
ND	-13.2535
chu	-13.2536
1656	-13.2537
――	-13.2537
疇	-13.2537
-65	-13.2537
45%	-13.2538
627	-13.2539
Ji	-13.2539
FU	-13.254
戮	-13.254
PF	-13.254
ワ	-13.2541
Fish	-13.2543
Cheng	-13.2545
號運載	-13.2545
骠	-13.2546
hara	-13.2547
pho	-13.2548
1704	-13.2549
TCategory	-13.2549
|175	-13.2551
antha	-13.2551
oria	-13.2553
word	-13.2553
def	-13.2555
-1993	-13.2555
1715	-13.2561
show	-13.2561
1711	-13.2562
rep	-13.2563
994	-13.2564
Wind	-13.2566
ander	-13.2569
歸國	-13.257
929	-13.2573
Word	-13.2574
1681	-13.2578
1641	-13.2585
.73	-13.2587
eno	-13.2587
SIG	-13.2588
read	-13.2588
1493	-13.2588
氣質	-13.2589
radi	-13.259
745	-13.2596
open	-13.2597
長鴻	-13.2598
LAN	-13.2598
-74	-13.2602
Publicati	-13.2604
》2003	-13.2605
む	-13.2605
厥語	-13.2606
765	-13.2608
跗	-13.2608
น	-13.2609
Engineering	-13.2609
Ran	-13.2612
蕈	-13.2612
obo	-13.2612
貴陽	-13.2613
璿	-13.2613
蘇聯紅軍	-13.2614
ester	-13.2617
1614	-13.2618
覃	-13.2619
踝	-13.2619
east	-13.2619
硯	-13.2619
AMP	-13.262
801	-13.2621
.91	-13.2625
UD	-13.2625
(1942	-13.2625
Bob	-13.2627
贲	-13.2628
(1838	-13.2631
範圍為	-13.2631
bank	-13.2631
長興	-13.2635
ophylla	-13.2635
關項	-13.2637
Jin	-13.2637
Ven	-13.2643
TUN	-13.2643
morph	-13.2644
Thor	-13.2644
Acc	-13.2645
1392	-13.2645
IND	-13.2646
對開	-13.2646
020	-13.2646
tv	-13.2646
1690	-13.2648
Bull	-13.2649
Ins	-13.2651
ality	-13.2652
1547	-13.2656
kl	-13.266
plo	-13.2664
.57	-13.2669
2、3	-13.2669
OPS	-13.2669
Ep	-13.267
為鄭	-13.2673
inder	-13.2678
Huang	-13.2679
mic	-13.2681
Gor	-13.2682
tier	-13.2682
(;;;)	-13.2682
苣	-13.2683
Index	-13.2684
Smart	-13.2684
721	-13.2685
點檔連續劇	-13.2687
Cyber	-13.2687
Jud	-13.2687
nik	-13.2687
Australian	-13.2688
臺灣電視	-13.2688
Theatre	-13.2688
鹎	-13.2688
ホ	-13.2688
skin	-13.2689
Jacques	-13.2689
isch	-13.269
Chicago	-13.269
eMule	-13.269
▁韦	-13.2691
1633	-13.2692
Step	-13.2692
槿	-13.2693
碲	-13.2693
Å	-13.2694
薈	-13.2694
With	-13.2694
時稱為	-13.2695
igo	-13.2696
Studios	-13.2696
lio	-13.2698
cur	-13.2698
紡錘	-13.2699
Miller	-13.2699
惡靈	-13.27
ned	-13.2701
暠	-13.2701
汙	-13.2702
點數	-13.2703
虧損	-13.2704
灣電視劇	-13.2704
訂購	-13.2705
胄	-13.2706
泠	-13.2707
縮減	-13.2707
2005-06	-13.2709
1420	-13.2709
獵殺	-13.2711
貝倫	-13.2711
≤	-13.2714
馬納	-13.2714
Battle	-13.2715
glo	-13.2717
RN	-13.272
馬島	-13.2721
Ai	-13.2721
JC	-13.2721
擊劍	-13.2723
aco	-13.2723
692	-13.2723
沖繩島	-13.2725
pul	-13.2726
rio	-13.2727
LT	-13.2728
漸發	-13.2728
橋連	-13.2729
該報	-13.273
Rad	-13.2734
673	-13.2734
gle	-13.2735
兩場	-13.2736
(1870	-13.2736
馬龍	-13.2739
(1932	-13.2741
開場	-13.2743
ace	-13.2743
Archive	-13.2748
2−	-13.2749
eer	-13.2749
衛戰	-13.275
給藥	-13.2751
anth	-13.2753
1710	-13.2754
phy	-13.2756
Rib	-13.2758
(1927	-13.2758
Shin	-13.2759
France	-13.2763
chan	-13.2763
acti	-13.2763
歸還	-13.2763
909	-13.2764
經貿	-13.2765
學醫	-13.2766
彈發	-13.2766
-72	-13.2767
1757	-13.2768
kes	-13.2768
ç	-13.2769
Search	-13.277
鲽	-13.2771
Dallwitz	-13.2771
▁湯	-13.2771
Mass	-13.2771
Kat	-13.2772
(1736	-13.2775
(1925	-13.2776
歸納	-13.2776
392	-13.2777
978-	-13.2778
auer	-13.2779
Gord	-13.2781
賬	-13.2782
顔	-13.2782
簡報	-13.2783
LY	-13.2783
呋喃	-13.2783
峠	-13.2783
elt	-13.2783
阕	-13.2785
詛	-13.2786
雞籠	-13.2788
渎	-13.2788
羿	-13.2788
彊	-13.2789
癮	-13.2789
2007-08	-13.2789
1708	-13.279
孪	-13.279
Wo	-13.279
裨	-13.2792
終審	-13.2794
Bot	-13.2794
(1852	-13.2795
898	-13.2803
圍牆	-13.2804
rt	-13.2804
787	-13.2806
653	-13.2806
(1885	-13.2806
數幾	-13.2808
bia	-13.281
1–1	-13.281
ilia	-13.2811
1702	-13.2812
陽質	-13.2812
kor	-13.2812
Rub	-13.2813
eand	-13.2813
515	-13.2814
749	-13.2819
1730	-13.282
慶曆	-13.282
礎設	-13.2824
Tang	-13.2824
Amb	-13.2826
Soul	-13.2826
轉為職業	-13.2831
進階	-13.2831
1390	-13.2832
歸順	-13.2833
theory	-13.2834
請參	-13.2835
慶應	-13.2835
ates	-13.2844
1594	-13.2846
Mun	-13.2847
鸻	-13.2848
誤會	-13.2848
Л	-13.2849
劇組	-13.2849
ен	-13.2849
Envir	-13.2853
Tsu	-13.2853
-34	-13.2854
Method	-13.2855
752	-13.2855
1638	-13.2857
為熱帶	-13.2857
0-14	-13.2857
鯰屬	-13.2858
Michel	-13.2859
Chemical	-13.2859
Ultra	-13.286
sqmi	-13.286
頭條	-13.286
Frederick	-13.286
該專輯	-13.2861
Ruby	-13.2864
----	-13.2864
521	-13.2866
甾	-13.2867
Agency	-13.2867
ˇ	-13.2868
1487	-13.2868
351	-13.2868
骥	-13.2869
準噶爾	-13.2869
钯	-13.287
钼	-13.287
萜	-13.2871
詰	-13.2871
順時針	-13.2872
烏鴉	-13.2873
匱	-13.2873
敍	-13.2874
hand	-13.2874
藝術總監	-13.2875
CSS	-13.2875
燒毀	-13.2877
gram	-13.2877
攏	-13.2877
Ming	-13.2878
Santa	-13.2878
Des	-13.288
1275	-13.288
時間備註	-13.2881
MBA	-13.2881
橫紋	-13.2882
1643	-13.2883
759	-13.2886
(1884	-13.2888
stance	-13.289
Cass	-13.289
ement	-13.2891
龍蝦	-13.2893
圓頂	-13.2893
1381	-13.2894
Victoria	-13.2898
補習學	-13.2899
Ross	-13.2899
663	-13.2902
額為	-13.2903
聞學	-13.2904
Ty	-13.2904
計約	-13.2904
Gill	-13.2905
Petr	-13.2905
→2	-13.2905
1630	-13.2906
446	-13.2907
iger	-13.2911
Versi	-13.2911
978-7	-13.2913
heim	-13.2914
東萊	-13.2918
(1369	-13.2918
業邨	-13.2925
1617	-13.2926
945	-13.2927
AIR	-13.293
Nam	-13.2937
1/4	-13.2938
Some	-13.2939
BRT	-13.294
韓國職	-13.294
鳔	-13.294
706	-13.2941
449	-13.2941
trich	-13.2942
眾傳	-13.2943
ع	-13.2943
pit	-13.2944
macOS	-13.2944
Russell	-13.2945
Departmentof	-13.2946
569	-13.2947
Bra	-13.2951
sci	-13.2953
YOU	-13.2953
das	-13.2954
Stra	-13.2954
燁	-13.2955
iPod	-13.2955
錡	-13.2956
漣	-13.2956
珏	-13.2956
IFPI	-13.2957
箏	-13.2958
862	-13.2958
勗	-13.2958
氣動	-13.2958
紀開	-13.2959
遺骸	-13.296
HU	-13.296
1675	-13.2961
(1582	-13.2964
(1940	-13.2964
機電	-13.2964
=0.	-13.2965
789	-13.2965
Test	-13.2966
屆奧運	-13.2968
ega	-13.2968
1684	-13.2968
Ara	-13.297
Ul	-13.297
——“	-13.2971
Shu	-13.2975
(1953	-13.2975
跗蹠	-13.2975
』、『	-13.2977
DV	-13.2978
個頂點	-13.2979
Henri	-13.298
1674	-13.298
遊戲內	-13.298
1596	-13.2982
mRNA	-13.2983
爾發現	-13.2983
榮譽勳	-13.2984
954	-13.2985
轉學	-13.2985
(1860	-13.2988
○○○○	-13.2988
1665	-13.2989
dh	-13.2989
615	-13.299
882	-13.2991
Kom	-13.2993
經濟體	-13.2995
661	-13.2996
437	-13.2997
orum	-13.2997
》(;)	-13.2999
main	-13.3001
676	-13.3002
遊戲軟體	-13.3002
iko	-13.3003
.66	-13.3003
.83	-13.3003
(1876	-13.3004
sir	-13.3005
揮發	-13.3006
Fly	-13.3007
歙縣	-13.3007
Yan	-13.3008
Mol	-13.3008
3200	-13.3011
Academy	-13.3014
鄱陽	-13.3014
會場	-13.3016
(1371	-13.3016
)《》(	-13.3019
564	-13.3022
貝爾蘭	-13.3022
Dick	-13.3025
ピ	-13.3028
-57	-13.3029
畢業於聖	-13.303
Urban	-13.3031
illo	-13.3032
ł	-13.3033
SUN	-13.3033
狨	-13.3033
Encyclopædia	-13.3033
Howard	-13.3034
諸國	-13.3036
(1930	-13.3037
叱咤	-13.3037
Norman	-13.3038
1523	-13.304
聾	-13.3041
紛	-13.3042
Track	-13.3042
駐軍	-13.3042
釵	-13.3042
Ker	-13.3042
舂	-13.3042
嗪	-13.3043
CAN	-13.3044
圉	-13.3044
鍛	-13.3044
飛驒	-13.3045
舊約聖經	-13.3045
竄	-13.3047
MY	-13.3047
灣時間	-13.3048
損傷	-13.305
1394	-13.305
纖細	-13.3051
678	-13.3052
ike	-13.3052
喀爾	-13.3053
WB	-13.3053
rag	-13.3053
聰穎	-13.3054
cam	-13.3056
爾薩	-13.3057
987	-13.3058
DK	-13.3058
sd	-13.306
1763	-13.306
burn	-13.3061
請辭	-13.3062
(1879	-13.3062
Mos	-13.3062
電離	-13.3066
Bin	-13.3067
MAC	-13.307
Bern	-13.3071
1606	-13.3073
super	-13.3074
974	-13.3074
sul	-13.3075
Chin	-13.3075
顯現	-13.3076
麗島	-13.3079
dur	-13.3081
lor	-13.3081
陽報	-13.3081
Kir	-13.3083
Matt	-13.3085
萬華	-13.3086
ISU	-13.3086
軍總會	-13.3087
WG	-13.3089
1566	-13.3089
單數	-13.3092
ün	-13.3094
Mountain	-13.3095
616	-13.3095
743	-13.31
imo	-13.31
30°	-13.3103
縣級	-13.3103
莊嚴	-13.3105
見書	-13.3105
Clark	-13.3108
Bol	-13.3108
571	-13.3109
877	-13.3111
stri	-13.3112
Galaxy	-13.3113
纜	-13.3115
Field	-13.3118
Travel	-13.3118
ディ	-13.3119
こう	-13.312
996	-13.3121
1718	-13.3121
788	-13.3121
鰭與	-13.3121
(1999).	-13.3121
대	-13.3123
氈	-13.3124
Kam	-13.3127
茗	-13.3128
Reg	-13.3129
Dem	-13.3129
(1642	-13.3129
611	-13.313
DNS	-13.3132
蔵	-13.3133
豈	-13.3133
鏟	-13.3134
(1897	-13.3135
3300	-13.3135
寔	-13.3135
”(《	-13.3136
線開辦	-13.3136
潍	-13.3137
gua	-13.3138
ür	-13.3138
東漢時	-13.3138
專營權	-13.3141
兩廣總	-13.3142
993	-13.3142
934	-13.3144
andra	-13.3146
1444	-13.3148
1593	-13.3148
處罰	-13.3148
區區議會	-13.315
ather	-13.3151
1545	-13.3152
nam	-13.3152
論語	-13.3154
ング	-13.3154
uth	-13.3156
Species	-13.3159
為晉	-13.3162
Gil	-13.3164
約聖經	-13.3165
1555	-13.3169
現時屬於	-13.3175
(1954	-13.3177
yne	-13.3177
復國	-13.3178
14.5	-13.318
TY	-13.318
Culture	-13.3181
763	-13.3188
iso	-13.3197
1563	-13.3197
國貴	-13.3198
Just	-13.3199
Bart	-13.3201
science	-13.3201
yc	-13.3203
黨組	-13.3203
Taipei	-13.3204
Benjamin	-13.3204
tran	-13.3205
tag	-13.3206
Greek	-13.3207
Has	-13.3207
Debian	-13.3207
蘇軍	-13.3208
Ocean	-13.3209
Style	-13.321
Double	-13.321
1570	-13.3211
.77	-13.3211
stant	-13.3212
Harry	-13.3212
び	-13.3212
弢	-13.3213
Gross	-13.3215
Talk	-13.3215
More	-13.3218
婷婷	-13.3218
辻	-13.3219
Gro	-13.322
925	-13.3221
雋	-13.3221
迴線	-13.3222
钰	-13.3222
墉	-13.3222
疱	-13.3223
497	-13.3223
(1864	-13.3223
2800	-13.3224
猝	-13.3226
錢幣	-13.3227
Juan	-13.3229
佼	-13.323
陽曆	-13.3231
龍記	-13.3234
micr	-13.3234
屆運動會	-13.3234
學學習	-13.3235
當屆	-13.3237
1490	-13.3237
984	-13.3238
1102	-13.3238
1663	-13.324
782	-13.3243
tas	-13.3243
5-7	-13.3244
酋長國	-13.3247
ск	-13.3247
696	-13.3248
擁護	-13.3249
編織	-13.325
電漿	-13.325
flav	-13.3251
1280	-13.3261
venti	-13.3264
愛稱	-13.3265
some	-13.3265
兩廣	-13.327
’”	-13.3272
ない	-13.3273
亞總	-13.3274
995	-13.3274
(1647	-13.328
PRO	-13.3284
蛏	-13.3284
於無綫電視	-13.3285
1678	-13.3285
xx	-13.3288
閩語	-13.3291
SIM	-13.3292
(1370	-13.3294
Fre	-13.3294
張粵語專輯	-13.3297
power	-13.3299
鼹	-13.3301
ats	-13.3301
Mart	-13.3302
989	-13.3302
INSEE	-13.3302
請賽	-13.3303
Pack	-13.3305
COOH	-13.3306
home	-13.3306
飆	-13.3306
閲覧	-13.3307
曷	-13.3308
亞紐幾內亞	-13.3309
粽	-13.331
822	-13.3311
衝鋒	-13.3311
桁	-13.3312
紂	-13.3313
Cer	-13.3313
513	-13.3316
azi	-13.3316
雙殺	-13.3316
enc	-13.3316
LF	-13.3319
Rod	-13.3321
atch	-13.3321
nat	-13.3322
▁尹	-13.3322
421	-13.3325
魯爾	-13.3328
......”	-13.3333
1435	-13.3334
圓鱗	-13.3338
Sing	-13.3341
學專	-13.3343
Schm	-13.3343
Wal	-13.3343
775	-13.3345
896	-13.3345
965	-13.3345
nl	-13.3346
832	-13.3351
cri	-13.3351
Flo	-13.3355
889	-13.3356
與國際	-13.3356
後來轉	-13.3357
381	-13.3363
(1922	-13.3363
隊參與	-13.3363
ped	-13.3364
後決	-13.3366
438	-13.3368
982	-13.3368
Sand	-13.3373
剛剛	-13.3373
source	-13.3377
Latin	-13.3377
AZ	-13.3378
為諸	-13.338
負於	-13.338
sthe	-13.338
ahl	-13.3382
觸發	-13.3383
815	-13.3383
1004	-13.3383
Jane	-13.3385
Ludwig	-13.3386
ь	-13.3386
esi	-13.3387
Moore	-13.3388
ゲ	-13.3388
ヒ	-13.3388
tana	-13.3389
職稱	-13.3389
Morning	-13.339
Level	-13.3391
華語電	-13.3391
與蘇	-13.3391
1666	-13.3393
db	-13.3394
脲	-13.3396
種顏	-13.3396
奐	-13.3396
FP	-13.3396
冑	-13.3397
1517	-13.3397
弇	-13.3397
甦	-13.3398
創傷	-13.3399
側線鱗	-13.3399
汨	-13.3402
Wolf	-13.3402
瑀	-13.3403
574	-13.3403
(2002)	-13.3404
Marc	-13.3405
OSM	-13.3405
Edit	-13.3406
Face	-13.3406
邁爾	-13.3407
賄賂	-13.3407
735	-13.3411
sville	-13.3411
義詞	-13.3411
屬樂團	-13.3412
Metal	-13.3412
較遠	-13.3413
eva	-13.3413
Dark	-13.3416
Lamb	-13.3418
ор	-13.3421
1599	-13.3422
經濟價	-13.3422
-43	-13.3425
1676	-13.3426
unt	-13.3427
|450	-13.343
1714	-13.3434
dev	-13.3434
斃	-13.3434
▁莊	-13.3437
EU	-13.3437
機遊戲	-13.3442
親愛	-13.3443
張粵語	-13.3444
Brian	-13.3445
1466	-13.3446
665	-13.3448
|290	-13.3449
928	-13.3449
Vic	-13.3449
學經濟	-13.345
1668	-13.3454
學實驗	-13.3455
971	-13.3459
any	-13.3459
599	-13.346
Bow	-13.3461
資銀	-13.3461
(1891	-13.3461
▁Redirect	-13.3462
評級	-13.3463
ール	-13.3464
Hung	-13.3465
mur	-13.3467
bil	-13.3467
meter	-13.3468
1388	-13.3469
8859-1	-13.3469
蝟	-13.347
討會	-13.3472
(1933	-13.3472
TableB	-13.3473
1469	-13.3474
釋為	-13.3477
-77	-13.3478
FOR	-13.3479
England	-13.348
JK	-13.3481
統發	-13.3481
839	-13.3481
俚	-13.3482
犢	-13.3484
iki	-13.3484
sche	-13.3485
998	-13.3485
Wor	-13.3486
脛	-13.3487
918	-13.3487
輋	-13.3487
Lep	-13.3487
nit	-13.3488
孿	-13.3488
tech	-13.3488
TB	-13.3489
涓	-13.3489
橇	-13.3489
鉗	-13.3489
714	-13.349
518	-13.3491
踐	-13.3492
俨	-13.3493
駢	-13.3494
924	-13.3495
fur	-13.3495
GGG	-13.3495
1460	-13.3497
縱紋	-13.3497
棨	-13.3499
654	-13.3499
060	-13.3501
為輻鰭魚綱鯉	-13.3502
är	-13.3503
職業聯賽	-13.3504
1415	-13.3504
擊殺	-13.3504
594	-13.3507
oba	-13.3509
ù	-13.351
則認為	-13.3511
視覺藝術	-13.3514
.72	-13.3516
1662	-13.3517
892	-13.352
Zh	-13.352
鳴時	-13.3523
1206	-13.3524
1543	-13.3526
wall	-13.3526
種鳥類	-13.3529
歲時隨	-13.3531
當紅	-13.3533
aa	-13.3533
PSV	-13.3534
iaceae	-13.3535
......」	-13.3535
gress	-13.3536
mn	-13.3537
Lex	-13.3538
經滅絕	-13.3541
實況	-13.3542
Cro	-13.3544
783	-13.3547
rew	-13.3549
.80	-13.3549
ianus	-13.355
Let	-13.3551
-1954	-13.3553
931	-13.3556
後繼續	-13.3557
職級	-13.3558
Satellite	-13.3558
1611	-13.3561
KM	-13.3561
=1.5|	-13.3562
ches	-13.3566
2/3	-13.3567
Gran	-13.3568
uin	-13.3569
為臺灣臺	-13.3569
記紀	-13.357
ability	-13.357
Patrick	-13.3571
ichi	-13.3574
cular	-13.3574
憶蓮	-13.3574
wal	-13.3577
893	-13.3579
Carlos	-13.3579
曄	-13.358
each	-13.358
勅	-13.358
疽	-13.3581
-1-	-13.3583
651	-13.3583
邃	-13.3583
嫣	-13.3586
緩衝	-13.3587
濃縮	-13.3587
會員國	-13.3587
uba	-13.3589
細膩	-13.359
農會	-13.3595
ornis	-13.3596
omer	-13.3598
2011.	-13.3599
Squ	-13.36
財貨	-13.3601
issn	-13.3604
國樂團	-13.3605
Jet	-13.3607
詩銘	-13.3607
enia	-13.361
assi	-13.361
cas	-13.3611
與鄭	-13.3613
Temple	-13.3614
(589	-13.3614
cast	-13.3615
lip	-13.3617
現狀	-13.362
國會圖書館數	-13.362
1706	-13.3623
ゴ	-13.3626
real	-13.3627
YYYY	-13.3628
(1840	-13.3633
LV	-13.3634
848	-13.3636
981	-13.3638
寶島	-13.364
1350	-13.3641
657	-13.3642
ät	-13.3642
Ev	-13.3643
聯酋	-13.3645
MAR	-13.3646
?—	-13.3648
馬懿	-13.3648
遊歷	-13.3648
nh	-13.3648
銀漢魚	-13.365
(1892	-13.3651
523	-13.3651
魴	-13.3654
869	-13.3655
-36	-13.3656
Municipal	-13.3658
ake	-13.3658
1399	-13.3659
Russian	-13.3659
そ	-13.366
Nat	-13.366
該遊戲	-13.3661
Body	-13.3663
who	-13.3664
sey	-13.3665
MOD	-13.3665
uy	-13.3666
.49	-13.3667
YUI	-13.3668
異體	-13.3669
條規	-13.3669
Mei	-13.3669
1771	-13.3671
騫	-13.3671
滎陽	-13.3672
―	-13.3673
鍍	-13.3673
roy	-13.3674
湣	-13.3675
痺	-13.3675
鎚	-13.3676
孫吳	-13.3676
elo	-13.3677
652	-13.3678
Fami	-13.3679
咀碼頭	-13.368
餵	-13.368
碣	-13.3681
iac	-13.3682
蚩	-13.3682
WWE	-13.3683
937	-13.3685
護衛艦	-13.3685
擊潰	-13.3687
hall	-13.3687
蟬聯	-13.3687
1477	-13.369
擊運動員	-13.369
ˋ)	-13.3691
動盪	-13.3693
rel	-13.3693
針葉	-13.3696
峽區	-13.3696
Classic	-13.3698
選舉產	-13.3701
1592	-13.3706
桓溫	-13.3706
1591	-13.3707
ove	-13.3707
Perl	-13.3708
rich	-13.3709
vert	-13.371
USM	-13.3711
-75	-13.3711
護軍	-13.3713
ears	-13.3715
cti	-13.3716
ñ	-13.3718
長級	-13.3718
Jay	-13.3719
Metro	-13.3721
Vir	-13.3722
ICA	-13.3725
關閘	-13.3726
887	-13.3726
unc	-13.3726
韓劇	-13.3728
uda	-13.3728
(1944	-13.3729
sper	-13.373
order	-13.3731
948	-13.3731
gui	-13.3732
Bet	-13.3733
憲報	-13.3734
-1992	-13.3734
遼陽	-13.3736
bach	-13.3737
1677	-13.3738
號場	-13.3739
/03	-13.3741
891	-13.3744
Nov	-13.3745
號連載	-13.3747
漁農	-13.3749
ART	-13.375
ка	-13.375
Compani	-13.375
彈頭	-13.3754
Sat	-13.3754
當時稱為	-13.3754
»	-13.3755
-95	-13.3755
976	-13.3756
ソ	-13.3757
RIGHTLANE	-13.3757
鲟	-13.3759
屆畢業	-13.376
ogen	-13.3762
蠟筆	-13.3763
Pay	-13.3765
(1917	-13.3766
俶	-13.3766
+8	-13.3767
Arn	-13.3767
經營權	-13.3767
陉	-13.3768
eller	-13.3769
組隊	-13.377
鴻臚	-13.377
Chung	-13.3771
樸茨	-13.3772
Cant	-13.3772
補償	-13.3772
Pseudo	-13.3773
oil	-13.3773
珞	-13.378
纣	-13.378
Discovery	-13.378
參賽國	-13.3782
會談	-13.3784
樂總監	-13.3786
1537	-13.3787
濱町	-13.3787
gro	-13.3789
boy	-13.379
(1865	-13.3791
ines	-13.3792
兩塊	-13.3793
(1851	-13.3795
gre	-13.3797
愛倫	-13.3798
him	-13.3804
TF	-13.3804
1250	-13.3806
(1883	-13.3807
彙編	-13.3808
-2015	-13.3808
Int	-13.3813
團團長	-13.3815
ppm	-13.3815
YU	-13.3818
ologi	-13.3819
Shar	-13.3819
KAT	-13.3822
729	-13.3824
Cs	-13.3825
劉璋	-13.3827
Isotop	-13.3833
99%	-13.3835
EEEEEE	-13.3839
(2025	-13.384
鰻鱺	-13.3841
lax	-13.3842
嶺東	-13.3845
CSI	-13.3846
detail	-13.3846
Security	-13.3846
public	-13.3847
biography	-13.3848
鹀	-13.3849
該機場	-13.3852
Airlines	-13.3852
ð	-13.3852
時報鷹	-13.3855
Capital	-13.3855
flu	-13.386
1464	-13.3861
禮頓	-13.3861
牯	-13.3861
50°	-13.3861
綦	-13.3861
啮	-13.3862
duc	-13.3862
協進會	-13.3862
珙	-13.3863
591	-13.3863
緊湊	-13.3863
寛	-13.3864
Roy	-13.3864
栩	-13.3865
Gre	-13.3866
3100	-13.3867
613	-13.3868
绮	-13.3869
聽覺	-13.3869
軀幹	-13.3869
BY	-13.387
馬倫	-13.387
蹤跡	-13.387
畫監	-13.387
強姦	-13.387
淵閣	-13.387
榻	-13.3871
擺脫	-13.3871
872	-13.3871
箔	-13.3873
Cre	-13.388
asia	-13.388
1535	-13.3886
ティ	-13.3887
▁俞	-13.3887
736	-13.3888
(1880	-13.3889
Yi	-13.3889
935	-13.3889
線雙	-13.3889
;;;	-13.3891
cel	-13.3892
Text	-13.3893
則屬於	-13.39
1736	-13.3901
圓盤	-13.3902
467	-13.3904
與夢	-13.3904
1607	-13.3905
》(;	-13.3905
rm	-13.3907
oke	-13.3908
wang	-13.391
bun	-13.391
942	-13.391
UB	-13.3914
imi	-13.3917
Bit	-13.392
luc	-13.3922
apa	-13.3923
10.3	-13.3924
oper	-13.3928
與羅馬	-13.3929
頻譜	-13.3931
67.	-13.3931
-87	-13.3932
tdbg	-13.3934
opod	-13.3936
469	-13.3937
鲉	-13.3938
榧	-13.3939
(1923	-13.3942
苎	-13.3942
Ö	-13.3943
ه	-13.3943
French	-13.3944
Northern	-13.3945
鯊屬	-13.3947
species	-13.3948
國會選區	-13.3948
貘	-13.395
Robins	-13.395
ś	-13.3951
與環	-13.3952
瑁	-13.3955
囉	-13.3955
Avenue	-13.3956
兩張	-13.3956
687	-13.3958
論與	-13.3958
痞	-13.3959
uro	-13.3961
癢	-13.3961
厭惡	-13.3961
國語學	-13.3962
獠	-13.3963
奮鬥	-13.3964
啜	-13.3964
國賢	-13.3964
評鑑	-13.3966
1405	-13.3966
tol	-13.3966
792	-13.3966
unit	-13.3967
Short	-13.3967
敎	-13.3968
賀歲	-13.3968
柩	-13.3968
嚴厲	-13.397
944	-13.397
IST	-13.3972
bas	-13.3972
輿論	-13.3974
TNT	-13.3976
晉鐸	-13.3977
enn	-13.3981
CIA	-13.3982
轉軸	-13.3983
Cast	-13.3983
陳啟	-13.3984
-1995	-13.3984
1143	-13.3987
1023	-13.3994
Stars	-13.3994
Gary	-13.3996
澀會	-13.3996
Pel	-13.3997
mail	-13.3997
Bro	-13.4
攝電	-13.4001
859	-13.4003
auto	-13.4004
817	-13.4004
運碼頭	-13.4004
90°	-13.4005
een	-13.4006
1214	-13.4008
鎮內	-13.4011
Korea	-13.4011
臨終	-13.4012
達馬	-13.4012
ault	-13.4013
國聯賽	-13.4015
(6)	-13.4016
Org	-13.4017
brevi	-13.402
選項	-13.4021
943	-13.4023
late	-13.4024
強賽	-13.4024
(1649	-13.4027
Tran	-13.4028
於侏儸紀	-13.4032
CON	-13.4033
ete	-13.4034
784	-13.4034
886	-13.4035
Industrial	-13.4035
KL	-13.4036
1377	-13.4036
inga	-13.4038
マン	-13.404
Firefox	-13.404
ר	-13.4041
Food	-13.4041
816	-13.4042
會舉辦	-13.4043
Sher	-13.4045
Lie	-13.4045
Ry	-13.4045
정	-13.4045
lec	-13.4049
GHz	-13.4049
槻	-13.4051
ket	-13.4051
祕魯	-13.4052
昺	-13.4052
慶應義塾	-13.4052
黃飛鴻	-13.4053
ENT	-13.4053
ARC	-13.4053
驪	-13.4054
龢	-13.4055
BOX	-13.4055
菟	-13.4055
ACG	-13.4056
樹葉	-13.4057
盤擊敗	-13.4057
來決	-13.4058
檯	-13.4062
淝	-13.4063
亘	-13.4064
兒園	-13.4065
镕	-13.4066
Xi	-13.4066
馬偕	-13.4067
裝設	-13.4068
變質	-13.4068
咀東	-13.4069
討論區	-13.407
Fred	-13.4072
Tax	-13.4073
size	-13.4074
ress	-13.4074
於侏羅紀	-13.4074
1605	-13.4074
iga	-13.4077
946	-13.4078
tory	-13.408
發覺	-13.4082
誤認為	-13.4082
Market	-13.4085
load	-13.4086
748	-13.4089
識庫	-13.409
Touch	-13.4094
746	-13.4094
hat	-13.4095
print	-13.4096
eil	-13.41
lau	-13.41
傳導	-13.4101
based	-13.4103
專職	-13.4106
VT	-13.4107
1541	-13.4107
ope	-13.4107
big	-13.4107
fil	-13.4108
845	-13.4108
|170	-13.4111
譜線	-13.4117
otus	-13.4117
Seas	-13.4118
這麼	-13.4119
rina	-13.4119
ANG	-13.4122
jin	-13.4124
Kha	-13.4125
1413	-13.4125
荸荠	-13.4126
dos	-13.4126
Days	-13.4126
亞維	-13.413
NCBI	-13.4132
EXILE	-13.4137
ý	-13.4139
kirche	-13.4139
Army	-13.4141
電競	-13.4141
ː	-13.4141
minor	-13.4141
魚頭	-13.4142
Youtube	-13.4142
성	-13.4144
烷烃	-13.4144
Af	-13.4146
etus	-13.4148
1530	-13.4149
hm	-13.415
-39	-13.415
(1874	-13.415
盞	-13.4151
黃霑	-13.4151
鄜	-13.4153
0-3	-13.4154
gracilis	-13.4154
涞	-13.4155
帳戶	-13.4156
傳動	-13.4159
grand	-13.4159
1445	-13.416
Take	-13.4161
變態	-13.4161
诣	-13.4164
athan	-13.4164
alb	-13.4164
條連結	-13.4165
MW	-13.4165
參閱	-13.4168
簽證	-13.4168
659	-13.4169
郵輪	-13.4169
1642	-13.417
chel	-13.417
藝電視	-13.4171
cis	-13.4175
1546	-13.4176
Hyper	-13.4177
644	-13.4177
906	-13.4178
939	-13.418
Dam	-13.4182
Blu	-13.4183
1449	-13.4184
時針	-13.4185
ст	-13.4188
796	-13.4192
やま	-13.4192
島東區	-13.4193
聖靈	-13.4195
-2014	-13.4195
gia	-13.4196
韓國電視劇	-13.4197
4-8	-13.4198
wel	-13.4201
無聲	-13.4203
(1929	-13.4204
arin	-13.4205
895	-13.4206
serv	-13.4207
Sar	-13.4209
Ring	-13.4211
Chun	-13.4212
Def	-13.4218
cil	-13.4218
cum	-13.422
動範圍	-13.422
Oct	-13.4221
(1993)	-13.4221
stor	-13.4222
Pyr	-13.4223
927	-13.4224
絲汀	-13.4226
Sl	-13.4227
訂單	-13.4227
828	-13.4228
hainanensis	-13.423
ants	-13.4231
enberg	-13.4231
蛎	-13.4233
灣則	-13.4234
Virtual	-13.4234
Introducti	-13.4234
igh	-13.4235
HHHH	-13.4235
ぎ	-13.4237
bour	-13.4237
1050	-13.4237
MSN	-13.4237
鰻屬	-13.4238
Mah	-13.4238
(583	-13.4239
Š	-13.4239
蘚	-13.424
1138	-13.4241
Por	-13.4241
Mir	-13.4242
TK	-13.4242
菖	-13.4244
诒	-13.4244
Sor	-13.4245
樋	-13.4245
(1866	-13.4246
狙	-13.4247
gata	-13.4247
UV	-13.4247
1225	-13.4248
(1899	-13.4248
test	-13.4248
偵緝	-13.425
镛	-13.425
滁	-13.425
庫頁島	-13.425
1-6	-13.425
宓	-13.425
GU	-13.425
睑	-13.4251
2005/06	-13.4251
NaturalHistory	-13.4251
ár	-13.4252
笺	-13.4253
(1636	-13.4253
596	-13.4253
塭	-13.4254
俸祿	-13.4254
SY	-13.4256
觐	-13.4258
練機	-13.426
pages	-13.426
(607	-13.4262
繆爾	-13.4263
遊覽	-13.4263
bird	-13.4266
應爐	-13.4267
則設	-13.4268
andM	-13.427
3)2	-13.4271
會見	-13.4274
959	-13.4275
774	-13.4278
Rou	-13.428
請參見	-13.4281
Lind	-13.4281
osh	-13.4282
該種	-13.4284
3-2	-13.4285
Kun	-13.4287
黨團	-13.4288
aS	-13.4288
atur	-13.4293
(1893	-13.4295
協議會	-13.4296
溫莎	-13.4298
聞與	-13.4298
1751	-13.4299
eae	-13.4302
Alexandr	-13.4302
missi	-13.4304
gate	-13.4307
莎貝	-13.4309
濟寧	-13.4311
併發	-13.4312
-86	-13.4312
679	-13.4314
sinthe	-13.4315
671	-13.4315
淺藍	-13.4315
nel	-13.432
Pub	-13.432
採礦	-13.432
時擁	-13.4321
hom	-13.4321
lab	-13.4321
該賽	-13.4323
OfficialWeb	-13.4324
occ	-13.4324
dium	-13.4324
輸給	-13.4327
務時間	-13.4327
ان	-13.4327
1135	-13.4329
Texas	-13.4331
剛開	-13.4331
1407	-13.4331
Universal	-13.4332
ج	-13.4334
Playerprofile	-13.4334
Voice	-13.4335
鴴	-13.4336
RTHK	-13.4336
795	-13.4336
へ	-13.4337
サイト	-13.4337
員陳	-13.4339
1716	-13.4339
Movie	-13.4339
(18)	-13.434
1471	-13.434
楯	-13.4341
ß	-13.4342
鏗	-13.4342
覧	-13.4342
SHA	-13.4343
郵遞區號	-13.4343
1532	-13.4344
uan	-13.4345
fan	-13.4345
玠	-13.4346
笹	-13.4347
佶	-13.4347
Blog	-13.4347
紡	-13.4348
氾濫	-13.4348
兌換	-13.4349
資歷	-13.4349
龕	-13.4349
瀘	-13.4349
2006/07	-13.435
癡	-13.435
鄉縣	-13.4351
2008/09	-13.4351
顗	-13.4351
傢	-13.4351
20000	-13.4352
磋	-13.4352
芾	-13.4353
瓒	-13.4354
傷殘	-13.4354
貝魯	-13.4354
橫掃	-13.4355
濕潤	-13.4356
pop	-13.4358
賢齊	-13.436
聞報導	-13.4361
Operati	-13.4362
較輕	-13.4363
場町	-13.4365
ilt	-13.4366
殘餘	-13.4367
03||||	-13.4373
991	-13.4375
(1877	-13.4376
obi	-13.4376
1129	-13.4378
1470	-13.438
Program	-13.438
Roger	-13.4384
arius	-13.4387
1527	-13.4388
會創辦	-13.4388
Visi	-13.439
邊則	-13.4391
osuchus	-13.4391
籌設	-13.4391
review	-13.4393
yama	-13.4394
CY	-13.4394
pic	-13.4395
Jun	-13.4397
XM	-13.4397
粵軍	-13.44
7.62	-13.4401
Dai	-13.4402
ters	-13.4402
(2011)	-13.4402
852	-13.4403
664	-13.4405
RY	-13.4405
黃龍	-13.4406
Mik	-13.441
62.	-13.441
歐幾	-13.441
(1887	-13.4411
軍階	-13.4411
眾對	-13.4413
ilo	-13.4413
785	-13.4415
799	-13.4419
軍備	-13.442
583	-13.4423
865	-13.4423
Drive	-13.4427
(1404	-13.4428
25°	-13.4429
Catholic	-13.4429
1391	-13.443
橫須賀	-13.4432
1719	-13.4433
13.5	-13.4433
額爾	-13.4434
Board	-13.4435
げ	-13.4435
Alice	-13.4436
anger	-13.4436
虻	-13.4436
744	-13.4436
-55	-13.4437
Um	-13.4437
楫	-13.4439
bes	-13.4439
動裝	-13.4439
ギ	-13.444
-------	-13.4442
頓紅襪	-13.4442
樂娛樂	-13.4442
officialweb	-13.4443
1581	-13.4444
壟	-13.4444
1124	-13.4447
鱷屬	-13.4447
699	-13.4449
俑	-13.4449
晞	-13.445
esti	-13.445
Exp	-13.445
孫瓚	-13.445
Cas	-13.4452
1557	-13.4453
IPv	-13.4453
佞	-13.4453
BMG	-13.4453
妣	-13.4454
蹇	-13.4455
铉	-13.4456
毆	-13.4457
勣	-13.4458
沩	-13.4459
1686	-13.4459
陣機會	-13.4462
祕書	-13.4463
Tin	-13.4465
iae	-13.4465
Lab	-13.4467
Year	-13.4467
err	-13.4467
12.7	-13.4467
feld	-13.4467
斷絕	-13.4468
nch	-13.447
2+2	-13.447
爾圖	-13.4471
ency	-13.4474
1534	-13.4475
TRA	-13.4476
+9	-13.4477
灣師範	-13.4477
-2017	-13.4481
aven	-13.4482
懷舊	-13.4484
課題	-13.4484
ink	-13.4486
劍齒	-13.4487
學數學	-13.4488
cross	-13.4492
個虛構	-13.4496
Mach	-13.4496
Historical	-13.4503
(1799	-13.4506
亞倫	-13.4509
1695	-13.451
Yama	-13.451
graph	-13.451
vy	-13.451
陳偉	-13.4515
關連結	-13.4516
×1	-13.4519
1696	-13.4519
該屬	-13.4519
Kara	-13.4521
obj	-13.4522
INT	-13.4522
(1888	-13.4522
izz	-13.4523
BirdLife	-13.4523
DDR	-13.4526
經獲	-13.4527
鼴屬	-13.4528
優賞	-13.4529
鲮	-13.4529
諡為	-13.4529
Us	-13.4531
Hg	-13.4532
Nokia	-13.4533
Kl	-13.4533
Eth	-13.4534
849	-13.4534
thum	-13.4534
844	-13.4535
Committee	-13.4535
mate	-13.4536
Early	-13.4537
1442	-13.4538
Daily	-13.454
766	-13.4541
ě	-13.4541
MBE	-13.4542
894	-13.4542
776	-13.4543
輪驅動	-13.4546
(1886	-13.4546
廣東話	-13.4547
臍	-13.4547
ht	-13.4548
Mars	-13.4548
Ferr	-13.4548
Spa	-13.4548
錨	-13.4549
Corn	-13.455
-52	-13.4552
Berlin	-13.4552
玮	-13.4553
銮	-13.4554
1622	-13.4554
濡	-13.4554
kk	-13.4555
Dinosaur	-13.4555
谔	-13.4555
夙	-13.4556
涸	-13.4556
阯	-13.4557
park	-13.4559
營業額	-13.4561
Olympic	-13.4563
標識	-13.4563
Ian	-13.4564
area	-13.4565
債權	-13.4566
Record	-13.4567
791	-13.4571
1634	-13.4572
aC	-13.4572
Kur	-13.4573
cut	-13.4575
JS	-13.4581
hus	-13.4582
Inf	-13.4584
Seven	-13.4585
dol	-13.4586
nell	-13.4587
het	-13.4588
蓋茨	-13.459
lap	-13.459
費倫	-13.4591
thal	-13.4591
1542	-13.4603
thed	-13.4605
與趙	-13.4606
emi	-13.4607
1380	-13.4613
華興	-13.4614
689	-13.4615
會盃	-13.4616
Liber	-13.4616
nded	-13.4617
tric	-13.4619
stati	-13.462
Hsu	-13.4622
(1850	-13.4623
....	-13.4625
(1735	-13.4629
cad	-13.4631
KKK	-13.4632
1264	-13.4634
Hey	-13.4635
Federati	-13.4635
Sn	-13.4637
並轉	-13.4637
Civil	-13.4638
CDONLY	-13.4638
ˈ	-13.4639
Pascal	-13.4639
毬	-13.4641
總額	-13.4641
4-2	-13.4641
Deep	-13.4642
芍	-13.4643
ChannelV	-13.4645
諦	-13.4647
絶	-13.4648
洺	-13.4648
櫥	-13.4649
琇	-13.465
槃	-13.4651
辇	-13.4651
郗	-13.4651
Wai	-13.4652
炜	-13.4652
闍	-13.4653
殘骸	-13.4654
this	-13.4654
歎	-13.4655
疝	-13.4655
逕	-13.4655
顥	-13.4655
損壞	-13.4655
Beck	-13.4656
ook	-13.4656
塗裝	-13.4656
脫穎	-13.4658
HM	-13.4659
効	-13.466
(2003)	-13.4662
鮮艷	-13.4664
eira	-13.4665
??	-13.4666
447	-13.4667
積極參與	-13.4668
nc	-13.4668
TTT	-13.4669
暢銷書	-13.4669
Lib	-13.467
較強	-13.467
1330	-13.4671
bet	-13.4672
693	-13.4673
頻寬	-13.4674
opa	-13.4679
鄉町	-13.4679
國錦標賽	-13.4681
6500	-13.4683
ardi	-13.4684
寧頓	-13.4685
yg	-13.4688
(、、)	-13.4688
Jeff	-13.4688
Make	-13.4689
798	-13.4689
793	-13.4694
(1859	-13.4694
stan	-13.4695
ocephalus	-13.4696
島機場	-13.4696
ania	-13.4697
Cool	-13.4698
1–0	-13.47
Pas	-13.4703
doc	-13.4703
Dear	-13.4704
Lyn	-13.4705
team	-13.4706
Var	-13.4706
mmf	-13.4707
體顯	-13.4707
決勝	-13.4708
(1567	-13.4708
NL	-13.4709
該雜誌	-13.4711
ments	-13.4712
頸龍	-13.4712
藝經歷	-13.4712
鰭魚	-13.4716
PCI	-13.472
Bau	-13.4721
魯賓	-13.4724
號綫	-13.4725
1351	-13.4725
RV	-13.4726
歸來	-13.4728
icle	-13.4729
Wild	-13.4733
鰩	-13.4733
Local	-13.4734
1533	-13.4734
atra	-13.4734
.63	-13.4736
846	-13.4738
+7	-13.4738
«	-13.4738
Hil	-13.4738
RGB	-13.4739
MAS	-13.4739
ि	-13.4742
658	-13.4742
1360	-13.4742
して	-13.4742
Future	-13.4743
選組	-13.4743
軟體開發	-13.4743
廢線	-13.4744
517	-13.4744
Country	-13.4744
Elizabeth	-13.4744
1142	-13.4745
樂類	-13.4746
Gate	-13.4746
涅涅茨	-13.4746
鸪	-13.4747
(1730	-13.4748
Mis	-13.4748
媽閣	-13.4748
より	-13.4748
吡喃	-13.4751
莢	-13.4752
URL	-13.4752
侑	-13.4755
楣	-13.4755
eofthe	-13.4756
.87	-13.4759
617	-13.476
1521	-13.476
翦	-13.476
匡胤	-13.476
叱	-13.4762
PDA	-13.4762
灣譯	-13.4763
film	-13.4763
餘萬	-13.4765
飢	-13.4765
殆	-13.4766
uber	-13.4768
決鬥	-13.4769
lb	-13.4771
馬薩	-13.4771
請願	-13.4772
sn	-13.4772
標準漢語	-13.4774
1619	-13.4775
1270	-13.4776
▁鍾	-13.4776
OSI	-13.4777
oste	-13.4778
蘇爾	-13.4779
tele	-13.4779
ih	-13.4782
UE	-13.4783
zel	-13.4784
產開發	-13.4785
爾漢	-13.4786
1370	-13.4787
1283	-13.4787
10.0	-13.4794
path	-13.4794
Wing	-13.4794
edes	-13.4797
10.2	-13.4799
pod	-13.48
1624	-13.48
Atlas	-13.48
濟會	-13.4804
貶為	-13.4805
gun	-13.4806
純愛	-13.4807
1616	-13.481
為淺	-13.4811
ân	-13.4817
監護	-13.4817
ATE	-13.4818
-53	-13.4819
學電機	-13.4821
2》()	-13.4821
Indian	-13.4821
Plant	-13.4823
(1651	-13.4825
lung	-13.4827
-04-0	-13.4829
cate	-13.4831
ZA	-13.4832
1551	-13.4833
帶狀	-13.4833
UnicodeISO	-13.4835
than	-13.4835
1439	-13.4836
Thi	-13.4838
1549	-13.4839
1364	-13.4841
Analysis	-13.4842
process	-13.4842
Bost	-13.4842
ف	-13.4844
ほ	-13.4845
Tha	-13.4846
retrieved	-13.4846
Reference	-13.4846
總醫	-13.4846
1002	-13.4847
1180	-13.4847
FreeBSD	-13.4849
Info	-13.4849
such	-13.485
산	-13.485
鵰俠侶	-13.4851
OpenGL	-13.4851
櫟	-13.4852
様	-13.4854
(1643	-13.4854
1667	-13.4857
་	-13.4859
倪柝	-13.486
879	-13.4861
鶻	-13.4861
ラン	-13.4862
1.25	-13.4863
搗	-13.4864
晉時	-13.4865
1728	-13.4866
724	-13.4868
rub	-13.4869
莎蓮	-13.4871
東寧	-13.4871
試鏡	-13.4874
擬遊戲	-13.4876
ehr	-13.4876
(1873	-13.4878
2-2	-13.4881
Macro	-13.4881
oj	-13.4882
寧靜	-13.4882
1150	-13.4883
無須	-13.4887
rose	-13.4887
ophis	-13.4888
鋪設	-13.4888
賀町	-13.4889
608	-13.4892
070	-13.4895
Arab	-13.4895
釋義	-13.4897
1735	-13.4897
mental	-13.4899
lyn	-13.49
轉換為	-13.49
-146	-13.49
Merr	-13.49
鳥屬	-13.49
關內	-13.4901
(1849	-13.4902
獲釋	-13.4902
854	-13.4903
訓練學	-13.4904
aire	-13.4905
(1855	-13.4905
▁賈	-13.4906
1433	-13.4907
enburg	-13.4907
tc	-13.4907
Pot	-13.4907
雜劇	-13.4908
Ancient	-13.4911
erg	-13.4912
1301	-13.4914
hold	-13.4915
這裏	-13.4917
Original	-13.4921
國聯軍	-13.4922
chr	-13.4922
1066	-13.4924
濟醫	-13.4924
1515	-13.4924
計數	-13.4925
Carol	-13.4926
1488	-13.4928
1282	-13.493
Tal	-13.4931
.41	-13.4932
£1	-13.4934
(1915	-13.4936
Route	-13.4937
於熱帶	-13.4937
723	-13.4939
1520	-13.4941
Pedicularis	-13.4942
軀	-13.4942
臺灣電	-13.4942
DDDD	-13.4944
self	-13.4947
葉門	-13.4948
949	-13.4948
龍鳳	-13.4949
Solaris	-13.4949
people	-13.4949
́	-13.4953
Our	-13.4953
741	-13.4954
Machine	-13.4954
蓁	-13.4954
Π	-13.4955
伝	-13.4957
ม	-13.4957
861	-13.4958
772	-13.4958
霏	-13.4959
Delta	-13.496
Ω	-13.496
Jacob	-13.4961
禿髮	-13.4961
鄔	-13.4961
鵜	-13.4962
frameless	-13.4962
嵴	-13.4962
鴛鴦	-13.4963
蜚	-13.4964
岫	-13.4964
妞	-13.4965
hin	-13.4965
眩	-13.4966
騷亂	-13.4966
Emil	-13.4966
鮮豔	-13.4966
钜	-13.4967
1402	-13.4967
Gl	-13.4968
Id	-13.4968
璠	-13.4968
壑	-13.4968
1103	-13.4969
轉讓	-13.4969
學學會	-13.4969
1073	-13.497
855	-13.497
遊樂	-13.497
Mak	-13.4972
戾	-13.4972
涿郡	-13.4974
966	-13.4979
Bernard	-13.4981
011	-13.4985
(1997)	-13.4986
6-0	-13.4986
terms	-13.4987
866	-13.4988
-76	-13.4989
開寶	-13.4989
〜(	-13.4989
sb	-13.499
tract	-13.4991
Dal	-13.4991
Block	-13.4991
國財	-13.4995
Proto	-13.4995
鶴見	-13.4997
屆歐	-13.5
議會議長	-13.5
1536	-13.5
825	-13.5001
檢視	-13.5003
Listof	-13.5003
陸奧國	-13.5005
隨筆	-13.5006
had	-13.5007
憑證	-13.5007
舊對	-13.501
841	-13.5011
衛將軍	-13.5012
黨參選	-13.5013
動亂	-13.5017
fun	-13.502
achi	-13.5021
來賓	-13.5021
umi	-13.5021
Cook	-13.5021
719	-13.5023
Pictures	-13.5024
6-8	-13.5026
Count	-13.5027
hil	-13.5032
tour	-13.5032
藝獎	-13.5032
1440	-13.5032
Avi	-13.5033
殼動	-13.5034
1378	-13.5036
紐倫	-13.5037
Sco	-13.5041
tsch	-13.5044
羅薩	-13.5044
1671	-13.5044
臨沂	-13.5045
1421	-13.5045
Zhang	-13.5046
614	-13.5048
戰廣	-13.505
dent	-13.505
servati	-13.5052
У	-13.5054
IK	-13.5054
database	-13.5054
(1896	-13.5055
Census	-13.5055
culture	-13.5055
eum	-13.5055
們將	-13.5056
Heinrich	-13.5057
ш	-13.5058
dicti	-13.5058
isc	-13.5058
Africa	-13.5059
nov	-13.5059
1494	-13.506
ă	-13.506
ح	-13.5062
Que	-13.5062
Sweet	-13.5062
罟	-13.5063
ò	-13.5063
Profileat	-13.5063
ㄚ	-13.5064
楽	-13.5065
uka	-13.5067
螞蟻	-13.5068
顒	-13.5068
10.4	-13.5069
軫	-13.5069
紅軍	-13.5069
邰	-13.507
剋	-13.507
楓樹	-13.507
から	-13.5071
燿	-13.5072
gd	-13.5073
1550	-13.5073
ZE	-13.5076
崂	-13.5077
ymus	-13.5077
誇張	-13.5078
絕緣	-13.5082
賀藩	-13.5082
滿貫賽	-13.5084
廣東廣	-13.5086
tang	-13.5087
-46	-13.5088
鐵礦	-13.5089
(1848	-13.5091
master	-13.5093
Pul	-13.5094
WindowsNT	-13.5095
NFL	-13.5098
Coast	-13.5101
級驅	-13.5101
Spot	-13.5102
單飛	-13.5103
883	-13.5104
Spring	-13.5105
tem	-13.5106
1027	-13.5107
1694	-13.5113
瑪爾	-13.5113
1583	-13.5116
Dev	-13.5118
廣韻	-13.5118
716	-13.512
麗絲	-13.5121
純種	-13.5121
個選區	-13.5122
1732	-13.5123
î	-13.5125
Boys	-13.5125
場聯賽	-13.5125
Palm	-13.5128
pc	-13.5128
Carr	-13.5131
6-7	-13.5133
Pla	-13.5133
Diam	-13.5134
like	-13.5135
culus	-13.5137
Luis	-13.5137
That	-13.5139
庫茨	-13.514
786	-13.514
4217	-13.5141
Din	-13.5141
thing	-13.5141
10.6	-13.5141
dell	-13.5144
醫護	-13.5144
級潛	-13.5146
(1627	-13.5146
esia	-13.5148
simbad	-13.5148
corn	-13.5151
MON	-13.5153
icola	-13.5153
規畫	-13.5155
(1890	-13.5158
Rubus	-13.516
Cou	-13.5161
會決議	-13.5161
ゅ	-13.5162
Heritage	-13.5162
Current	-13.5162
Kevin	-13.5164
833	-13.5164
.71	-13.5164
Exchange	-13.5165
ɛ	-13.5166
關資	-13.5167
SAMPA	-13.5167
Peace	-13.5168
Webster	-13.5169
轎	-13.5171
喙鯨	-13.5171
Fantasy	-13.5171
扉	-13.5171
萬冊	-13.5171
hot	-13.5172
indica	-13.5172
effect	-13.5172
ό	-13.5173
苄	-13.5173
itu	-13.5173
Major	-13.5174
婕	-13.5174
貨櫃碼頭	-13.5175
铠	-13.5176
ート	-13.5176
瘧	-13.5176
屬機構	-13.5176
蚋	-13.5177
炅	-13.5178
Drama	-13.5178
鉻	-13.5179
url	-13.5179
TIME	-13.5179
‰	-13.5179
Estate	-13.5181
碚	-13.5181
.52	-13.5181
醍	-13.5182
鰭鰭條	-13.5183
797	-13.5183
苻堅	-13.5183
剝奪	-13.5186
毗伽	-13.5186
Sum	-13.5191
興寧	-13.5192
發跡	-13.5193
Organizat	-13.5193
COO	-13.5197
聲譽	-13.5197
國農業	-13.5198
02||||	-13.5198
eph	-13.5198
Motor	-13.5199
樂町線	-13.5202
cert	-13.521
tail	-13.5212
edto	-13.5213
1042	-13.5213
fs	-13.5214
uku	-13.5214
與傳統	-13.5215
級將領	-13.5215
867	-13.5217
xin	-13.5217
Sho	-13.5217
2012.	-13.5218
807	-13.522
1450	-13.5221
moti	-13.5223
楊麗	-13.5224
ucci	-13.5224
vest	-13.5224
團創辦	-13.5229
藍鳥	-13.523
Paper	-13.5231
826	-13.5231
ache	-13.5239
1005	-13.5239
4-0	-13.524
Horn	-13.524
夢宮	-13.5245
樂師	-13.5245
oga	-13.5247
Eng	-13.5247
(1733	-13.5249
Gala	-13.525
836	-13.525
(1858	-13.5251
Six	-13.5253
親陳	-13.5255
/04	-13.5256
語詞	-13.5256
後畢業於	-13.526
國國內	-13.526
務範圍	-13.5263
1363	-13.5264
955	-13.5268
Wave	-13.5269
Protocol	-13.527
1125	-13.527
Proc	-13.5271
Memorial	-13.5271
1368	-13.5271
lag	-13.5273
點盜壘	-13.5275
Revoluti	-13.5275
Bru	-13.5276
Matthew	-13.5277
André	-13.5279
稱漢語	-13.528
鎌	-13.528
έ	-13.5281
GANGAN	-13.5281
礦產	-13.5281
Sig	-13.5282
Zero	-13.5283
钨	-13.5283
JTB	-13.5283
Bai	-13.5283
Forum	-13.5284
郷	-13.5284
蘄	-13.5284
739	-13.5284
馬戲團	-13.5285
詮	-13.5285
吡咯	-13.5286
媯	-13.5287
齒輪	-13.5288
1140	-13.5289
缢	-13.529
隰	-13.5292
00°	-13.5292
Roll	-13.5292
AAAA	-13.5293
遺囑	-13.5293
灣鎮總	-13.5294
钗	-13.5294
Rail	-13.5296
會頒發	-13.5298
Italian	-13.5298
1428	-13.5299
090	-13.53
羅陀	-13.5302
Rome	-13.5304
Nick	-13.5306
Pt	-13.5308
2-6	-13.531
(1996)	-13.5311
3–1	-13.5312
廟內	-13.5313
對聯	-13.5316
Mind	-13.5316
Lev	-13.5317
電燈	-13.5324
BG	-13.5328
劉淵	-13.533
賽決賽	-13.5333
內臟	-13.5334
1452	-13.5334
陳勝	-13.5335
ador	-13.5336
oun	-13.5338
loc	-13.5339
亂後	-13.5341
disc	-13.5342
ESA	-13.5343
Sv	-13.5345
ites	-13.5345
ized	-13.535
(1652	-13.5355
(1869	-13.5355
聽說	-13.5356
劍魚	-13.5356
(1846	-13.5359
岡薩	-13.5361
1646	-13.5362
國會圖書館	-13.5364
gie	-13.5365
黃綠	-13.5365
1721	-13.5368
kha	-13.5368
Leo	-13.5369
Lou	-13.5371
1271	-13.5374
)、《》(	-13.5374
-45	-13.5376
陳曉	-13.5376
嚴肅	-13.5376
樂譜	-13.5377
Paint	-13.5379
預備組	-13.5379
ifera	-13.5379
葳	-13.5381
鱔	-13.5382
electr	-13.5383
BitTorrent	-13.5385
COBRAS	-13.5385
堊	-13.5385
ה	-13.5388
瀆	-13.5388
present	-13.5389
ified	-13.5389
MangaTimeKirara	-13.539
肼	-13.5392
擱	-13.5392
総	-13.5392
Pha	-13.5393
錠	-13.5393
唔	-13.5394
Pun	-13.5394
綬帶	-13.5395
誨	-13.5398
EMU	-13.5398
穫	-13.5399
00～	-13.54
傕	-13.54
縊	-13.54
杼	-13.54
砀	-13.54
core	-13.54
倉頡	-13.54
級戰艦	-13.5401
tree	-13.5403
荟	-13.5404
郡轄	-13.5404
gene	-13.5405
陰曆	-13.5406
1170	-13.5407
預備隊	-13.5408
RK	-13.5409
WP	-13.5409
Otto	-13.5411
廣記	-13.5414
兀兒	-13.5415
噴氣	-13.5415
Chao	-13.5418
board	-13.5418
龍黃	-13.5421
廣東東莞	-13.5422
(1872	-13.5423
1077	-13.5425
1748	-13.5428
usc	-13.5428
1608	-13.5428
裝設計	-13.5428
African	-13.5429
hydro	-13.5429
AFI	-13.543
kun	-13.5431
賽場館	-13.5431
UI	-13.5431
zan	-13.5432
5、6	-13.5434
NTV	-13.5434
辦權	-13.5434
874	-13.5436
phen	-13.544
們認為	-13.5442
1580	-13.5446
駕駛員	-13.5451
phyll	-13.5452
Bert	-13.5453
學圖書館	-13.5456
858	-13.5457
comp	-13.5459
Sto	-13.5461
霧島	-13.5466
1340	-13.5466
sfrom	-13.5466
8-9	-13.5467
爾喀	-13.5469
AIM	-13.5469
date	-13.5471
és	-13.5472
1459	-13.5472
764	-13.5472
-2018	-13.5475
歐聯	-13.5475
Bla	-13.548
qi	-13.548
陸奧	-13.548
778	-13.5481
51.	-13.5483
溞	-13.5483
Anatomy	-13.5484
Ilex	-13.5485
ws	-13.5487
戶藩	-13.5488
椋	-13.5488
ario	-13.5488
Springer	-13.5489
875	-13.5489
蟲學	-13.5489
0.000	-13.5489
黨當選	-13.549
Fund	-13.549
McPh	-13.5491
IAST	-13.5491
orientalis	-13.5491
769	-13.5491
據統計	-13.5492
NIC	-13.5492
鍬	-13.5493
ベ	-13.5493
Jer	-13.5494
Spirit	-13.5494
獅頭	-13.5496
down	-13.5496
SAT	-13.5496
Stock	-13.5497
館長	-13.5497
軒轅劍	-13.5498
蓋範圍	-13.5499
952	-13.5502
span	-13.5503
漩	-13.5504
1123	-13.5505
-79	-13.5505
翱	-13.5506
鼷	-13.5506
詒	-13.5506
Lar	-13.5508
門檻	-13.5508
熒	-13.5509
汊	-13.5509
拮	-13.551
(1570	-13.5511
Late	-13.5511
璩	-13.5512
ITU	-13.5513
廪	-13.5514
灣邨	-13.5514
溥儀	-13.5514
現為無綫電視	-13.5515
錮	-13.5516
興宮	-13.5517
虬	-13.5518
itor	-13.5519
.82	-13.5522
陳鴻	-13.5522
紅磚	-13.5523
1375	-13.5532
-88	-13.5534
岡藩	-13.5534
tea	-13.5535
東鎮	-13.5536
(1837	-13.5537
迦納	-13.5538
angu	-13.5539
iceps	-13.554
務設	-13.554
878	-13.554
eux	-13.5543
RF	-13.5544
(1835	-13.5546
資興	-13.5546
hem	-13.5549
Kw	-13.555
yang	-13.5553
ingen	-13.5555
華嚴	-13.5556
-2019	-13.5556
並隨	-13.5561
強勁	-13.5562
馬來語	-13.5563
號風	-13.5567
mix	-13.5568
Los	-13.557
電極	-13.557
edMinorPlanets	-13.557
Div	-13.557
695	-13.5574
agh	-13.5574
臺灣歷	-13.5575
amine	-13.5575
1235	-13.5577
Ada	-13.5577
Cir	-13.5582
(1655	-13.5588
squ	-13.5589
熱點	-13.559
Acer	-13.5591
(1832	-13.5592
國贛	-13.5593
聲線	-13.5595
Diels	-13.5595
組閣	-13.5597
1356	-13.5598
aru	-13.5599
irostris	-13.5599
98%	-13.56
Wh	-13.5601
lep	-13.5603
TOM	-13.5605
Tree	-13.5606
ро	-13.5609
oti	-13.561
議員總選舉	-13.561
Aug	-13.5611
啉	-13.5611
사	-13.5611
François	-13.5611
gale	-13.5611
穂	-13.5613
緹	-13.5613
數註記	-13.5614
闊葉	-13.5614
ulata	-13.5616
齦	-13.5616
864	-13.5617
喱	-13.5618
dri	-13.5618
碓	-13.5618
讚岐	-13.5619
sex	-13.5621
電話號碼	-13.5621
撣	-13.5621
SARS	-13.5621
擷	-13.5622
KID	-13.5623
ì	-13.5625
pedia	-13.5626
盃決賽週	-13.5626
將這個	-13.5626
挹	-13.5627
诅	-13.5627
級機	-13.5628
vic	-13.5629
俚語	-13.5629
貝塚	-13.563
∈	-13.5631
細緻	-13.5631
1427	-13.5632
積體	-13.5634
count	-13.5634
fly	-13.5636
try	-13.5637
國腳	-13.5637
鳳鳴	-13.5642
萬噸	-13.5643
kit	-13.5646
-130	-13.5647
837	-13.5647
運動員參與	-13.5652
雙葉	-13.5657
726	-13.5657
15.5	-13.5657
Kay	-13.5658
1307	-13.566
Fall	-13.5661
CAT	-13.5661
-51	-13.5663
ター	-13.5664
紅燈	-13.5665
Societyof	-13.5666
AST	-13.5667
Natural	-13.567
pass	-13.567
1328	-13.5672
種細	-13.5674
vu	-13.5676
erd	-13.5676
轉譯	-13.5677
開闊	-13.5678
ée	-13.568
語辭	-13.5686
たい	-13.5689
(1628	-13.5691
mph	-13.5694
門碼頭	-13.5697
1063	-13.5698
Sav	-13.5699
Bee	-13.5699
綱領	-13.57
學講	-13.5702
無緣	-13.5704
Cry	-13.5704
Utricularia	-13.5707
issa	-13.5709
ZZZZ	-13.5709
構圖	-13.5709
ering	-13.571
Chlor	-13.5711
iang	-13.5712
Marshall	-13.5713
麝鼩	-13.5714
1503	-13.5714
SEA	-13.5714
Korlević	-13.5716
國經濟學	-13.5717
Perfect	-13.5717
Federal	-13.5717
Lantis	-13.5719
urt	-13.5721
Edge	-13.5721
Wiley	-13.5722
SUPER	-13.5722
绯	-13.5723
Andy	-13.5724
ちゃん	-13.5724
Oliver	-13.5724
/09	-13.5725
縣埔	-13.5726
時裝電視劇	-13.5726
nas	-13.5726
Ernst	-13.5727
8859	-13.5727
Kai	-13.5727
別冊	-13.5727
瓊瑤	-13.5728
胛	-13.5728
镉	-13.5731
晉陽	-13.5732
環狀輕軌	-13.5732
(1801	-13.5732
邬	-13.5732
蠱	-13.5733
億萬	-13.5733
謬誤	-13.5733
舎	-13.5734
遞補	-13.5734
亳	-13.5734
鉞	-13.5735
眞	-13.5735
lash	-13.5735
薙	-13.5735
塱	-13.5736
揖	-13.5736
郫	-13.5737
HAT	-13.5737
標題為	-13.5737
坨	-13.5739
畫師	-13.5741
sai	-13.5743
嫖	-13.5744
頜齒	-13.5745
兩歲	-13.5745
1040	-13.5748
anta	-13.5753
納維亞	-13.5755
734	-13.5757
899	-13.5757
Five	-13.5758
Scar	-13.5758
dens	-13.5759
-84	-13.5761
1625	-13.5765
round	-13.5767
Most	-13.5767
Sb	-13.5768
1371	-13.5769
erman	-13.577
無盡	-13.5771
Rot	-13.5772
.90	-13.5774
爾茨	-13.5779
監測	-13.578
GIS	-13.5783
51%	-13.5784
Ah	-13.5785
829	-13.5786
Bang	-13.5786
帶電	-13.5791
MOS	-13.5794
這個數	-13.5796
1141	-13.5797
0.01	-13.5797
(1621	-13.5799
Newt	-13.5799
韻學	-13.58
Never	-13.5802
5500	-13.5803
ía	-13.581
834	-13.5811
uo	-13.5811
/2003	-13.5812
Ib	-13.5812
eV	-13.5813
own	-13.5814
opo	-13.5814
ians	-13.5816
after	-13.5822
rach	-13.5822
-37	-13.5822
Vel	-13.5822
鳙	-13.5823
ocy	-13.5823
Mn	-13.5823
ument	-13.5824
Hayata	-13.5825
袞	-13.5826
Province	-13.5826
which	-13.5827
Pap	-13.5827
857	-13.5828
Broadcasting	-13.5828
鸚竺鯛	-13.5829
ស្រុក	-13.583
873	-13.5831
Pho	-13.5832
ユ	-13.5833
Flower	-13.5834
Epi	-13.5834
sea	-13.5834
Billboard	-13.5835
Douglas	-13.5835
835	-13.5835
1240	-13.5836
Legend	-13.5836
김	-13.5836
Energy	-13.5837
일	-13.5837
臺灣鎮總	-13.5839
獼	-13.584
GameBoy	-13.5841
恵	-13.5841
環賽	-13.5841
總獎	-13.5841
Finder	-13.5842
豐橋	-13.5842
ESPN	-13.5844
鎔	-13.5844
澂	-13.5845
煙霧	-13.5845
隱岐	-13.5845
縷	-13.5846
從業員	-13.5847
烨	-13.5847
-62	-13.5849
.81	-13.5849
VIII	-13.5851
穰	-13.5851
撿	-13.5852
膾	-13.5852
鎮國將軍	-13.5853
躋	-13.5854
郕	-13.5854
瓌	-13.5854
2009/10	-13.5855
幔	-13.5855
掙	-13.5856
EAR	-13.5856
熱鬧	-13.5857
Nar	-13.5857
該鎮	-13.5858
cord	-13.5858
stat	-13.586
Greg	-13.5864
-01-0	-13.5865
該機構	-13.5866
並協	-13.5868
1384	-13.5869
涼宮	-13.5871
tig	-13.5875
mine	-13.5879
ofC	-13.5879
(1841	-13.588
發給	-13.5882
(1844	-13.5882
0-8	-13.5882
NV	-13.5884
459	-13.5885
Tab	-13.5885
寶寶	-13.5886
Dog	-13.5887
script	-13.589
編製	-13.5892
庫檔	-13.5896
1659	-13.5897
ACM	-13.5898
現職	-13.5899
1568	-13.5899
gos	-13.5902
經緯	-13.5905
1333	-13.5905
1.5%	-13.5906
sep	-13.591
選專輯	-13.5911
1456	-13.5912
▁225	-13.5915
ClO	-13.5915
婦產	-13.5919
監軍	-13.5921
電動機	-13.5925
(1808	-13.5927
貝納	-13.5928
無異	-13.593
國將領	-13.593
Rosa	-13.5931
Holy	-13.5933
鐵盧	-13.5933
齊亞	-13.5933
論點	-13.5933
wing	-13.5935
Rein	-13.5936
該職	-13.5936
NATO	-13.5938
Path	-13.594
obl	-13.5941
oss	-13.5941
Kel	-13.5941
1693	-13.5942
1134	-13.5942
1204	-13.5944
Nort	-13.5945
XT	-13.5946
Tau	-13.5946
Living	-13.5949
ش	-13.595
ofM	-13.595
(1822	-13.5953
Barry	-13.5953
Guardian	-13.5954
ファ	-13.5954
cgi	-13.5954
coll	-13.5954
鈷	-13.5955
業經營	-13.5956
Lamigo	-13.5956
註腳	-13.5957
ody	-13.5957
♯	-13.5957
驤	-13.5958
搖擺	-13.5959
(1823	-13.5959
MIDI	-13.5959
纘	-13.596
榊	-13.596
1474	-13.5961
958	-13.5961
肟	-13.5961
DDG	-13.5962
罌	-13.5963
暐	-13.5964
鈦	-13.5964
剛鸚鵡	-13.5964
wick	-13.5964
868	-13.5965
驃	-13.5966
聯誼會	-13.5967
遽	-13.5967
record	-13.5969
two	-13.5969
皙	-13.5969
瘀	-13.5969
rice	-13.5969
alpha	-13.5971
苾	-13.5971
847	-13.5971
cata	-13.5971
Trade	-13.5975
rain	-13.5977
itati	-13.5977
辄	-13.5978
Demo	-13.5979
lev	-13.598
Gy	-13.5981
(1843	-13.5982
Sciences	-13.5983
Store	-13.5984
會讓	-13.5984
Peak	-13.5984
1724	-13.5986
臨淄	-13.599
hoe	-13.599
lands	-13.5993
眾運輸	-13.5996
數較	-13.6
Knight	-13.6002
濮陽	-13.6004
Att	-13.6004
1761	-13.6005
Ic	-13.6005
過繼	-13.6006
macro	-13.6007
auri	-13.6008
1252	-13.601
ging	-13.602
709	-13.6022
1161	-13.6024
tact	-13.6024
ruf	-13.6029
ATC	-13.6029
KG	-13.6032
Hum	-13.6033
2009-10	-13.6034
uru	-13.6035
轉職業	-13.6037
1480	-13.604
lov	-13.6041
oku	-13.6042
kal	-13.6042
繼業	-13.6043
831	-13.6045
體質	-13.605
ved	-13.6051
num	-13.6054
澤爾	-13.6055
1649	-13.6056
1276	-13.606
Process	-13.6061
Eastern	-13.6062
cit	-13.6063
JPL	-13.6064
Southern	-13.6064
UEFA	-13.6064
eda	-13.6065
Medicine	-13.6067
cen	-13.6068
structure	-13.6068
Only	-13.6068
萊納	-13.6069
2–1	-13.6069
ジャ	-13.607
～12	-13.607
Scientific	-13.6071
Product	-13.6072
Basic	-13.6073
Orange	-13.6074
ა	-13.6075
蟎	-13.6076
Plaza	-13.6076
纓	-13.6077
tai	-13.6077
Snow	-13.6078
赭	-13.6079
螭	-13.6079
Animax	-13.6079
睽違	-13.6079
Switch	-13.608
赉	-13.6081
癬	-13.6081
彧	-13.6082
飢餓	-13.6082
處處	-13.6082
pla	-13.6084
簷	-13.6084
鏽	-13.6084
辦學團體	-13.6085
遊憩	-13.6087
logo	-13.6087
譴責	-13.609
興奮	-13.6092
ATA	-13.6092
孰	-13.6092
Stand	-13.6093
UML	-13.6095
nect	-13.6096
張掖	-13.6099
Forest	-13.6102
lumin	-13.6103
電視網絡	-13.6104
669	-13.6104
gil	-13.6104
DY	-13.6105
業機構	-13.6106
來計	-13.6107
見說	-13.6108
1274	-13.6108
續時間	-13.6108
alia	-13.6108
Tap	-13.6108
(1878	-13.6109
dz	-13.6111
賓館	-13.6111
1302	-13.6112
iat	-13.6112
樂町	-13.6112
Bass	-13.6115
舊曆	-13.6115
kur	-13.6118
978-4-	-13.6123
1203	-13.6124
ulo	-13.6126
tte	-13.6126
隨時間	-13.6127
CHI	-13.6127
plic	-13.6128
1578	-13.6129
1259	-13.6129
rai	-13.613
(1881	-13.6133
far	-13.6137
012	-13.6137
Stan	-13.6139
園國際機場	-13.6141
force	-13.6146
esh	-13.6148
堅強	-13.6148
Form	-13.6149
rab	-13.6149
1374	-13.6152
Nepenthes	-13.6153
EO	-13.6155
Lei	-13.6158
ible	-13.616
遊說	-13.6169
Torre	-13.6172
lig	-13.6178
(1583	-13.6179
離約	-13.618
龍運	-13.618
omics	-13.6181
Document	-13.6182
1709	-13.6183
蜊	-13.6183
遼國	-13.6183
TheWorld	-13.6183
ACT	-13.6183
Tun	-13.6184
+8)	-13.6184
1475	-13.6185
Crystal	-13.6186
kra	-13.6186
鸲	-13.6188
UNI	-13.6188
1185	-13.6188
Bruce	-13.6189
0.25	-13.6189
ざ	-13.6189
Lawrence	-13.619
Johnny	-13.6191
Macintosh	-13.6191
ก	-13.6191
2027	-13.6191
ق	-13.6191
Note	-13.6191
்	-13.6192
Trust	-13.6192
1320	-13.6192
鐳	-13.6192
鳝	-13.6192
Cole	-13.6193
Hospital	-13.6193
1046	-13.6195
pis	-13.6195
騏	-13.6196
崴	-13.6197
驊	-13.6198
Blood	-13.6198
黟	-13.62
瓏	-13.6201
翕	-13.6201
鴻燊	-13.6201
post	-13.6201
蚵	-13.6201
TOR	-13.6201
TeamA	-13.6201
闐	-13.6202
amel	-13.6202
葉變換	-13.6202
撓	-13.6203
贅	-13.6203
萬曆進	-13.6203
06||||2004	-13.6204
煊	-13.6205
後醍醐	-13.6206
2004-05	-13.6206
碛	-13.6207
殲	-13.6207
奂	-13.6208
珅	-13.621
憧憬	-13.6211
(1999)	-13.6213
ар	-13.6214
shu	-13.6215
NAT	-13.6215
▁譚	-13.6216
atu	-13.6216
吳興區	-13.6217
諮	-13.6217
secti	-13.6219
韻詩	-13.6219
RED	-13.622
輪迴	-13.622
ingof	-13.6225
Rade	-13.6228
單詞	-13.6229
Boo	-13.623
×4	-13.6231
匯豐	-13.6231
11.2	-13.6232
Via	-13.6232
än	-13.6234
astic	-13.6235
Prov	-13.6239
tam	-13.6241
HIV	-13.6244
ocarpa	-13.6245
GPU	-13.6245
sed	-13.6246
922	-13.6246
Rio	-13.6247
gus	-13.6247
prov	-13.6248
GIF	-13.6249
-61	-13.6249
1692	-13.6249
黨爭	-13.6249
1044	-13.6251
Mall	-13.6252
на	-13.6255
Ny	-13.6255
殺傷	-13.6255
詩體	-13.6258
Shaw	-13.6258
とう	-13.6259
hack	-13.6259
tori	-13.626
owski	-13.6261
enz	-13.6262
1284	-13.6263
1261	-13.6264
鮮師	-13.6267
1232	-13.6267
Helen	-13.627
zia	-13.6271
carb	-13.6273
烏蘇	-13.6274
esse	-13.6275
ASP	-13.6277
Steam	-13.6278
ged	-13.6278
蕭條	-13.6281
總統蔣	-13.6284
18.5	-13.6287
uti	-13.6289
uki	-13.6289
eve	-13.6291
1157	-13.6292
(1568	-13.6292
1739	-13.6294
aza	-13.6295
達倫	-13.6296
Close	-13.6299
ISTAT	-13.6299
1601	-13.6299
詩話	-13.63
mund	-13.6301
1653	-13.6301
OGLE	-13.6302
實戰	-13.6302
關聖	-13.6302
馬場舉	-13.6303
魚鰭	-13.6304
狀結構	-13.6304
Speed	-13.6304
Hamilt	-13.6305
Flag	-13.6306
-78	-13.6306
э	-13.6307
BLEACH	-13.6307
(/)	-13.6307
ж	-13.6308
Hemsl	-13.6308
Stuart	-13.6309
Borneo	-13.6309
shanensis	-13.6309
牻	-13.6309
PowerShotA	-13.6309
坌	-13.631
Kelly	-13.6311
Α	-13.6312
abo	-13.6312
ANN	-13.6312
獎狀	-13.6313
iber	-13.6313
閲	-13.6313
Marco	-13.6314
璣	-13.6314
Margaret	-13.6314
UNESCO	-13.6316
Gale	-13.6316
Kol	-13.6317
並採	-13.6318
倬	-13.6318
#.	-13.632
photo	-13.6322
業權	-13.6322
Animat	-13.6323
極強	-13.6323
燎	-13.6324
癱	-13.6324
沆	-13.6325
視無線	-13.6327
灞	-13.6327
簫	-13.6327
怛	-13.6328
請來	-13.6328
eit	-13.633
hur	-13.633
胫	-13.633
79.	-13.6331
DOM	-13.6333
40°	-13.6336
蘇聯時	-13.6338
pala	-13.6339
2-5	-13.634
Nakai	-13.634
齣電	-13.6346
層數	-13.6347
spec	-13.6351
だい	-13.6353
頭獸	-13.6353
職業訓練	-13.6358
Origin	-13.6358
Stein	-13.6358
Nord	-13.6359
rue	-13.636
編審	-13.636
1429	-13.6361
練習賽	-13.6366
Ward	-13.6368
輟	-13.6373
Las	-13.6374
JI	-13.6378
quin	-13.638
ought	-13.6382
iscus	-13.6383
Xu	-13.6384
race	-13.6384
遊俠	-13.6384
ista	-13.6385
Peters	-13.6388
LET	-13.6388
092	-13.6397
Das	-13.6397
(1725	-13.6397
單軌電車	-13.6399
1357	-13.6403
1476	-13.6408
(1992)	-13.6408
開鏡	-13.6412
Dod	-13.6414
hou	-13.6416
鮠	-13.6417
India	-13.6417
閣樓	-13.6417
1009	-13.6418
1389	-13.6419
vill	-13.6421
國無雙	-13.6421
McC	-13.6422
經歷過	-13.6422
鯙	-13.6422
1290	-13.6422
鱵	-13.6423
(2012)	-13.6425
1631	-13.6426
䱵	-13.6427
Animal	-13.6428
Virginia	-13.6428
じょう	-13.6429
夢見	-13.6429
Death	-13.643
ль	-13.6431
Festival	-13.6431
孃	-13.6432
Shanghai	-13.6432
Alliance	-13.6432
Sex	-13.6433
HCl	-13.6435
hip	-13.6437
藺	-13.6438
々	-13.6438
TeX	-13.6439
yle	-13.6439
坻	-13.644
kHz	-13.6441
輕機槍	-13.6442
權勢	-13.6443
梓潼	-13.6444
僱傭	-13.6444
Baker	-13.6444
Beach	-13.6447
甑	-13.6447
應當	-13.6448
僮	-13.6448
1154	-13.6449
徇	-13.6449
optera	-13.6449
師師長	-13.6451
競馬場	-13.6452
1132	-13.6452
軻	-13.6452
verse	-13.6453
銀獎	-13.6457
績勳	-13.6458
16.5	-13.6458
alla	-13.6459
augh	-13.646
試劑	-13.6461
師廟	-13.6462
1137	-13.6462
屆殘	-13.6462
艦長	-13.6463
Extra	-13.6464
sac	-13.6465
2003-04	-13.6467
電腦動畫	-13.6467
伽耶	-13.6468
amm	-13.6469
edge	-13.647
戶曉	-13.6471
1285	-13.6472
龍騎	-13.6474
factor	-13.6475
dam	-13.6482
mento	-13.6484
paper	-13.6486
Next	-13.6488
Ted	-13.6489
aldo	-13.649
Whit	-13.6491
齒獸類	-13.6491
導覽	-13.6492
TheNew	-13.6493
議論	-13.6493
國佔領	-13.6494
預計於	-13.6495
豐鄉	-13.6495
藝術創	-13.6496
sca	-13.6497
試監	-13.6497
enne	-13.65
臺灣話	-13.6502
1336	-13.6504
Flu	-13.6505
oso	-13.6506
獄後	-13.6507
橫條	-13.651
JD	-13.651
飛輪	-13.6511
(1726	-13.6517
1070	-13.6518
側邊	-13.6519
義運動	-13.6521
IRC	-13.6524
oshi	-13.6524
mad	-13.6529
Spec	-13.6533
Republic	-13.6537
uel	-13.6537
838	-13.6538
Fra	-13.6538
Mit	-13.6545
輻鰭魚綱鰈	-13.6546
1438	-13.6546
鹨	-13.6549
project	-13.655
橢	-13.6552
Milli	-13.6553
stituti	-13.6554
氫氣	-13.6554
Steven	-13.6555
MySQL	-13.6555
(1795	-13.6555
(%)	-13.6556
現僅	-13.6556
鍶	-13.6558
1455	-13.6558
기	-13.656
兩點	-13.656
烯酮	-13.6563
腩	-13.6563
鄉議	-13.6563
(1805	-13.6566
铯	-13.6566
風箏	-13.6567
芻	-13.657
湜	-13.657
苌	-13.657
瘠	-13.6571
瑪竇	-13.6571
條狀	-13.6572
鳥喙	-13.6572
聃	-13.6572
較細	-13.6572
竑	-13.6574
損毀	-13.6574
骈	-13.6576
參與電	-13.6577
tec	-13.6577
岌	-13.6577
愔	-13.6578
龛	-13.6578
騷動	-13.6579
Arena	-13.6581
Kas	-13.6581
電腦娛樂	-13.6582
Lé	-13.6584
慶劇	-13.6587
時裝劇	-13.6588
lah	-13.6588
slav	-13.6589
sup	-13.6593
國際聯	-13.6594
1160	-13.6595
1574	-13.6597
rou	-13.6599
讚譽	-13.66
1054	-13.6603
camp	-13.6604
aha	-13.6613
評選為	-13.6614
cop	-13.6615
CAP	-13.6617
sport	-13.662
.2005.	-13.6622
攝過	-13.6622
viati	-13.6624
stro	-13.6625
Past	-13.6627
Bomb	-13.6627
052	-13.6631
your	-13.6632
Lyc	-13.6634
訓學	-13.6636
1162	-13.664
視聽	-13.6641
tung	-13.6642
emia	-13.6644
1408	-13.6644
|140	-13.6645
-82	-13.6646
-56	-13.6647
Buch	-13.6648
0-5	-13.6649
會問題	-13.6652
藩領	-13.6653
tell	-13.6654
豐岡	-13.6654
、、、、、	-13.6659
規賽	-13.666
Apo	-13.6661
eff	-13.6661
AFC	-13.6662
〈〉	-13.6664
Excel	-13.6664
Fun	-13.6665
語裡	-13.6665
kw	-13.6669
雙雙	-13.6669
楤	-13.6669
(1622	-13.667
員訓練	-13.667
門齒	-13.667
鲳	-13.6671
(1796	-13.6673
銅鑼	-13.6674
Graphics	-13.6675
屬薩	-13.6676
淺黃	-13.6676
FootballClub	-13.6676
(1616	-13.6676
Piazza	-13.6677
Kenneth	-13.6677
Police	-13.6678
Virgin	-13.6679
黨聯	-13.6679
鶥	-13.6679
ž	-13.668
Three	-13.6681
ADP	-13.6681
蛆	-13.6681
♪	-13.6682
Than	-13.6683
Disney	-13.6685
GGGG	-13.6686
Fab	-13.6687
並奪	-13.6688
1729	-13.6689
殮	-13.6689
請參閱	-13.669
value	-13.6691
國電視學會	-13.6693
祎	-13.6694
參謀總長	-13.6694
圜	-13.6695
Khan	-13.6695
惺	-13.6695
VP	-13.6695
掣	-13.6696
廍	-13.6696
イン	-13.6696
匐	-13.6697
萬戶	-13.6697
Castle	-13.6697
NMB	-13.6697
匮	-13.6699
Mé	-13.6699
Host	-13.6699
孀	-13.67
仕紳	-13.6701
nut	-13.6702
媲	-13.6702
贛語	-13.6703
跻	-13.6708
Friends	-13.6709
(627	-13.671
-5-	-13.671
1472	-13.6712
續編	-13.6714
價錢	-13.6715
haus	-13.6715
Franz	-13.6717
負載	-13.6717
1156	-13.6717
languages	-13.6718
kle	-13.672
chrom	-13.672
932	-13.6721
Pet	-13.6721
lata	-13.6721
bei	-13.6723
10.7	-13.6723
Lost	-13.6723
server	-13.6723
Zn	-13.6724
oinclude	-13.6724
ars	-13.6724
COMIC	-13.6725
》(2004	-13.6727
Brain	-13.6728
畫獎	-13.6729
譜類	-13.6729
ential	-13.673
魯茲	-13.673
ARP	-13.6731
WAN	-13.6733
also	-13.6739
數減	-13.6739
level	-13.674
Mammal	-13.6741
SDN	-13.6743
1226	-13.6745
2.5%	-13.6748
CMOS	-13.675
Gru	-13.6752
這張單	-13.6752
為該國	-13.6755
rell	-13.6756
槍殺	-13.6756
1224	-13.6757
並給	-13.6757
Prim	-13.6761
Deutsche	-13.6766
Flora	-13.6768
RES	-13.6774
Vita	-13.6775
alus	-13.6775
(1631	-13.6776
為臺灣國	-13.6776
Friend	-13.6776
愛鄉	-13.6777
1447	-13.6779
寧遠	-13.678
1308	-13.6781
(757	-13.6782
tun	-13.6783
屬機關	-13.6787
sley	-13.6788
簽發	-13.6789
ivi	-13.6792
聽從	-13.6795
荛	-13.6795
Album	-13.6797
956	-13.6798
Cheese	-13.6799
缬	-13.6799
際關係	-13.6799
Empire	-13.6799
(1991)	-13.6801
Japanese	-13.6802
Complete	-13.6803
Chat	-13.6804
א	-13.6805
호	-13.6807
TFT	-13.6807
지	-13.6807
ARTSVISION	-13.6808
Chrome	-13.6808
焜	-13.6809
(1994)	-13.6809
FIBA	-13.6809
수	-13.681
school	-13.681
ğ	-13.681
Murray	-13.681
Broad	-13.6811
JUMP	-13.6812
เ	-13.6812
dai	-13.6813
LaLa	-13.6814
學榮譽	-13.6814
roll	-13.6814
鶉	-13.6815
鬚鯨	-13.6816
阇	-13.6817
椋鳥	-13.6817
ㄅㄨ	-13.6817
遹	-13.6818
嶠	-13.682
樹懶	-13.682
Marine	-13.6821
箍	-13.6821
殲滅	-13.6823
皝	-13.6824
酆	-13.6824
1651	-13.6826
郦	-13.6826
诂	-13.6826
QR	-13.6826
雛鳥	-13.6826
Log	-13.6826
(1457	-13.6826
颛顼	-13.6827
-98	-13.6827
etothe	-13.6827
過繼給	-13.6828
アジア	-13.6828
Benth	-13.6831
3/4	-13.6835
1094	-13.6836
Dead	-13.6836
轉彎	-13.6837
Tso	-13.6839
陸軍總	-13.6839
珂郡	-13.684
該網	-13.684
軍駐	-13.6844
話傳說	-13.6845
楠梓區	-13.6847
爾瑪	-13.6847
-71	-13.6849
1106	-13.6849
維茲	-13.685
於廣島縣	-13.685
權運動	-13.6853
雜記	-13.6858
relati	-13.6858
SSE	-13.6862
found	-13.6862
35%	-13.6863
Raym	-13.687
1038	-13.6872
6–1	-13.6874
專輯內	-13.6875
-106	-13.6876
DRAM	-13.6877
ة	-13.688
anica	-13.6881
長軸	-13.6881
1337	-13.6882
cock	-13.6882
Vin	-13.6883
iPad	-13.6883
||||2001	-13.6884
Met	-13.6889
hill	-13.6894
聞頻	-13.6895
gran	-13.6895
inf	-13.6897
093	-13.6898
Tung	-13.6898
1395	-13.6899
~10	-13.6903
stadt	-13.6904
1664	-13.6905
nig	-13.6906
(1732	-13.6908
03.	-13.6909
anne	-13.691
兩個亞種	-13.6911
Come	-13.6912
Ala	-13.6912
epi	-13.6914
靈場	-13.6917
論證	-13.6917
naer	-13.6918
Croc	-13.6919
SpeciesFactsheet	-13.692
擊砲	-13.692
andO	-13.6921
烏來	-13.6922
-94	-13.6923
853	-13.6924
Hetero	-13.6925
Interface	-13.6925
Fol	-13.6925
Canadian	-13.6927
學術語	-13.6929
類運動	-13.693
Break	-13.6931
Č	-13.6932
invert	-13.6932
槲	-13.6932
-4-	-13.6934
-68	-13.6934
Technologies	-13.6934
example	-13.6934
専	-13.6935
1387	-13.6935
pol	-13.6935
ulu	-13.6935
蓑	-13.6935
pg	-13.6936
WASP	-13.6937
Junior	-13.6937
畢後	-13.6938
서	-13.6938
신	-13.6939
Kris	-13.6939
Falc	-13.694
stel	-13.694
磺島	-13.694
ṣ	-13.6941
Thai	-13.6941
♭	-13.6941
塗鴉	-13.6942
MMORPG	-13.6943
鎗	-13.6943
濰	-13.6943
寮區	-13.6943
醌	-13.6943
Tea	-13.6944
고	-13.6944
魷魚	-13.6945
変	-13.6946
hea	-13.6946
Upper	-13.6946
蹠	-13.6947
東鐵綫	-13.6948
砜	-13.6948
||1999	-13.6949
鐵東鐵綫	-13.6949
飾張	-13.6952
俳優	-13.6953
綝	-13.6954
鮭魚	-13.6955
1352	-13.6956
仃	-13.6956
Order	-13.6957
葆楨	-13.6958
鄭經	-13.6961
慘敗	-13.6962
鋸齒狀	-13.6965
凍結	-13.6966
Editor	-13.6966
Andre	-13.6967
fire	-13.6968
й	-13.6968
Od	-13.6969
對弈	-13.697
1151	-13.6972
0/	-13.6972
臘島	-13.6973
amb	-13.6973
1189	-13.6974
蹟辦	-13.6976
燒錄	-13.6977
復設	-13.6977
SPA	-13.6978
GW	-13.6981
leuc	-13.6981
turn	-13.6981
él	-13.6983
3600	-13.6984
ensi	-13.6986
賞賜	-13.6987
Yes	-13.6987
product	-13.6988
屆臺	-13.6988
Graph	-13.6989
謝長	-13.6989
SDL	-13.699
1647	-13.6991
Cher	-13.6992
941	-13.6995
競賽馬	-13.6996
(1385	-13.6997
Change	-13.6999
ime	-13.6999
methyl	-13.7001
Row	-13.7004
(1813	-13.7005
1372	-13.7007
have	-13.7008
》(2007	-13.7012
Electric	-13.7013
連帶	-13.7015
衞國	-13.7017
erre	-13.7018
title	-13.7021
1483	-13.7026
ás	-13.7029
崙戰爭	-13.703
025	-13.703
1539	-13.7032
exp	-13.7032
廣鄉試	-13.7033
Moti	-13.7037
連貫	-13.7037
頂層	-13.7037
磐線	-13.7038
1573	-13.7039
851	-13.7041
報讀	-13.7043
Pant	-13.7043
1655	-13.7046
ipe	-13.7047
asu	-13.7049
鹽場	-13.7049
discovery	-13.7055
Ware	-13.7056
Dio	-13.7056
ת	-13.7058
Calc	-13.7058
運業務	-13.7058
Memory	-13.7058
astr	-13.7062
NewYorkTimes	-13.7062
1465	-13.7063
Associa	-13.7063
Generati	-13.7064
Cloud	-13.7064
ั	-13.7065
न	-13.7065
舘	-13.7066
Gabriel	-13.7066
Chapter	-13.7066
楝	-13.7066
Campbell	-13.7066
ง	-13.7066
Wars	-13.7067
篩	-13.7067
隷	-13.707
Shell	-13.7072
GTK	-13.7072
蘅	-13.7074
琥	-13.7075
llen	-13.7075
峒	-13.7075
昪	-13.7076
Cape	-13.7076
營參將	-13.7076
髦	-13.7077
噶瑪蘭	-13.7077
翳	-13.7079
韌帶	-13.7079
濱長	-13.7079
嬸	-13.708
069	-13.708
構築	-13.708
Plat	-13.7081
題樂園	-13.7082
範圍僅	-13.7083
弔	-13.7083
Bos	-13.7083
logic	-13.7083
夾雜	-13.7083
1734	-13.7083
嶷	-13.7084
炖	-13.7084
鯉屬	-13.7084
(1507	-13.7084
鐘內	-13.7085
線蟲	-13.7086
廆	-13.7087
uensis	-13.7088
羁	-13.7088
Arms	-13.7091
饷	-13.7091
訖點	-13.7091
伽藍	-13.7092
彌補	-13.7093
lk	-13.7097
byG	-13.7097
odus	-13.7097
Sw	-13.7099
(1661	-13.7099
誼賽	-13.7104
Half	-13.7105
alle	-13.7106
(1731	-13.7107
(1856	-13.711
Brun	-13.711
Quin	-13.7111
(1787	-13.7113
0.5%	-13.7115
Rick	-13.7118
dro	-13.7118
10.10	-13.7119
1085	-13.712
遊擊	-13.7126
Brad	-13.7126
£2	-13.7127
1227	-13.7127
決問題	-13.7131
毗連	-13.7132
Messenger	-13.7137
mile	-13.714
1122	-13.7144
學評論	-13.7145
(1679	-13.7147
(1845	-13.7147
1731	-13.7147
遷臺	-13.7149
49%	-13.7151
047	-13.7151
semi	-13.7152
鍾離	-13.7153
醫術	-13.7156
Ryan	-13.7158
gensis	-13.7158
vat	-13.7159
當區議員為	-13.7159
ór	-13.7164
1478	-13.7165
(1659	-13.7168
lich	-13.7169
1032	-13.7171
結構車	-13.7171
團體項	-13.7173
KTV	-13.7178
ely	-13.7179
iza	-13.718
ин	-13.718
Hoo	-13.7181
15000	-13.7182
養樂	-13.7183
opterus	-13.7183
Senecio	-13.7183
Astragalus	-13.7184
國開國	-13.7185
書記載	-13.7186
gk	-13.7186
鯝	-13.7186
1396	-13.7189
聯幫	-13.719
muscle	-13.719
(1592	-13.7191
major	-13.7191
Netscape	-13.7192
Administrati	-13.7192
ев	-13.7193
Singapore	-13.7193
02.	-13.7193
Mala	-13.7195
Oracle	-13.7195
Tokyo	-13.7197
Turbo	-13.7198
鴝	-13.7198
ל	-13.7199
隣	-13.72
hā	-13.7201
tina	-13.7201
GameBoyAdvance	-13.7202
豐島區	-13.7203
orb	-13.7203
惲	-13.7203
個質數	-13.7203
蔺	-13.7204
閎	-13.7204
酢	-13.7205
軒轅	-13.7206
紘	-13.7206
Hemi	-13.7207
擲彈	-13.7207
燙	-13.7207
闓	-13.7207
磡	-13.7208
戲劇節	-13.7208
殯	-13.7208
菑	-13.7208
クロ	-13.7208
溱	-13.7209
貉	-13.721
轅	-13.721
871	-13.7211
妊	-13.7212
豕	-13.7212
琶	-13.7213
卬	-13.7214
趙匡胤	-13.7214
郜	-13.7215
Buck	-13.7215
維奧	-13.7215
鹽埕區	-13.7215
(1630	-13.7216
徭	-13.7219
1409	-13.7219
Dave	-13.7221
acr	-13.7221
Schu	-13.7222
雜訊	-13.7222
Wat	-13.7223
......〔	-13.7223
Bab	-13.7225
專業學	-13.7226
東麓	-13.7227
統計數據	-13.7227
Tiger	-13.723
seas	-13.723
經濟產業	-13.7231
Train	-13.7232
meta	-13.7233
聯賽亞軍	-13.7235
滄龍	-13.7236
機場線	-13.7238
0.1%	-13.7239
劍橋郡	-13.724
蜥屬	-13.7242
級艦	-13.7242
1205	-13.7244
1192	-13.7244
pad	-13.7245
試飛	-13.7245
loba	-13.7247
1526	-13.7248
1163	-13.7248
atro	-13.7248
烏桓	-13.7249
砲臺	-13.725
實證	-13.7251
Bak	-13.7252
膠質	-13.7254
hydr	-13.7255
hum	-13.7257
(960	-13.7258
1099	-13.726
abr	-13.7262
ios	-13.7265
“211	-13.7268
羅茲	-13.7269
aze	-13.7272
856	-13.7272
Serv	-13.7274
昇機	-13.7276
專權	-13.728
abi	-13.7281
該館	-13.7282
yz	-13.7283
mL	-13.7285
Century	-13.7286
藥廠	-13.7287
傳訊	-13.7289
Stu	-13.7289
Pier	-13.729
歐邁	-13.7292
載體	-13.7295
aps	-13.7297
ijk	-13.7297
Notes	-13.7297
imus	-13.7299
諾頓	-13.73
1627	-13.7301
hui	-13.7301
1314	-13.7303
～》()	-13.7304
ango	-13.7305
Cyclo	-13.7311
(1667	-13.7312
1358	-13.7315
ardo	-13.7316
Fer	-13.7321
З	-13.7324
្	-13.7324
梣	-13.7325
|360	-13.7325
帳號	-13.7326
oftheYear	-13.7326
炘	-13.7326
Lap	-13.7326
キャ	-13.7326
Financial	-13.7327
Yellow	-13.7327
鲵	-13.7327
Nels	-13.7327
Prize	-13.7328
羋	-13.7328
鱷龍	-13.7328
Jordan	-13.7329
參贊	-13.733
國陸軍將領	-13.733
鳥瞰	-13.7331
rei	-13.7332
HIP	-13.7332
順慶	-13.7332
อ	-13.7332
ิ	-13.7332
Ernest	-13.7333
ambi	-13.7334
锶	-13.7334
ή	-13.7335
霈	-13.7335
鎘	-13.7335
Are	-13.7336
嚕	-13.7336
鵟	-13.7337
昇動畫	-13.7337
Baptist	-13.7337
暘	-13.7337
BIOS	-13.7338
閹	-13.7338
骷髏	-13.7338
聯誼總會	-13.734
烏龜	-13.7341
鱒	-13.7341
傳給	-13.7341
family	-13.7341
DSL	-13.7341
伋	-13.7341
protein	-13.7341
燦爛	-13.7342
箋	-13.7343
Corp	-13.7344
CHO	-13.7344
ships	-13.7344
Nicol	-13.7344
嚮	-13.7345
1355	-13.7345
flex	-13.7345
刎	-13.7345
灣戲	-13.7346
琚	-13.7346
(1403	-13.7347
陲	-13.7347
嗇	-13.7347
郅	-13.7349
HMS	-13.7351
塚愛	-13.7352
連繫	-13.7352
Batt	-13.7352
(1648	-13.7352
場戰爭	-13.7353
娴	-13.7354
1329	-13.7355
吳鎮	-13.7356
SEC	-13.7356
1571	-13.7357
Brig	-13.7357
(1505	-13.7358
bury	-13.7358
uce	-13.7361
78.	-13.7362
Mountains	-13.7362
鬥遊戲	-13.7362
ental	-13.7363
Well	-13.7366
》(2002	-13.7366
vet	-13.7367
ologie	-13.737
CHA	-13.737
Scr	-13.7372
.2009.	-13.7376
寶劍	-13.7376
rian	-13.7381
SON	-13.7381
Race	-13.7383
ić	-13.7384
Chim	-13.7385
潼關	-13.7386
1589	-13.7389
1361	-13.7389
||1960	-13.7391
1698	-13.7392
dinosaur	-13.7392
屆奧運會	-13.7395
Like	-13.7395
當時還	-13.7396
枋寮	-13.7397
ulum	-13.7399
Fran	-13.7401
1585	-13.7401
etz	-13.7402
Bag	-13.7402
裝劇	-13.7403
hp	-13.7404
Hai	-13.7406
車輛製	-13.7407
30～	-13.7408
plicati	-13.7408
1253	-13.7408
.53	-13.741
這場戰	-13.7411
駕車	-13.7412
stad	-13.7415
0-9	-13.7415
(1577	-13.7415
1726	-13.7416
(1561	-13.7418
馬睿	-13.7418
Theory	-13.7418
vas	-13.7418
鹽運	-13.742
宮嬪	-13.7421
015	-13.7422
1425	-13.7422
Scal	-13.7425
tie	-13.7426
sina	-13.7426
1723	-13.7427
(1729	-13.7427
-89	-13.7428
endo	-13.7432
東閣	-13.7436
1554	-13.7436
Lat	-13.744
melan	-13.7441
應徵	-13.7441
call	-13.7442
Hills	-13.7442
051	-13.7442
5-8	-13.7442
絕種	-13.7442
XWindow	-13.7444
淪為	-13.7446
點擊	-13.7447
-73	-13.7447
sho	-13.7448
WHIP	-13.7448
旃	-13.7451
聲響	-13.7451
Artemisia	-13.7451
ists	-13.7451
貝類	-13.7453
1431	-13.7453
諸將	-13.7453
-6-	-13.7453
Ot	-13.7455
mura	-13.7457
Architecture	-13.7457
蟳	-13.7457
枥	-13.7457
った	-13.7458
WO	-13.7459
Definiti	-13.746
Structure	-13.746
acea	-13.7461
Ost	-13.7461
(1995)	-13.7462
Command	-13.7464
!》()	-13.7465
disease	-13.7466
Adrian	-13.7466
ṭ	-13.7466
*16	-13.7468
Neil	-13.7469
JPEG	-13.7469
ş	-13.7469
ย	-13.747
鮎	-13.747
鸛	-13.7472
濯	-13.7473
Levl	-13.7474
1382	-13.7474
殺戮	-13.7474
藹	-13.7475
鶚	-13.7475
紓	-13.7476
蹴	-13.7476
抉擇	-13.7477
葭	-13.7478
詡	-13.7479
佯	-13.748
繭	-13.748
偈	-13.748
畈	-13.7481
醃製	-13.7481
凱琪	-13.7481
濞	-13.7481
軟顎	-13.7481
APGIII	-13.7482
袤	-13.7482
蘭運動	-13.7483
籌劃	-13.7487
1443	-13.7488
rv	-13.7488
貨幣編號	-13.7488
蕨類	-13.7489
1621	-13.749
Onthe	-13.749
1144	-13.7491
FOX	-13.7493
Gas	-13.7497
Sign	-13.7499
056	-13.75
ICS	-13.75
yand	-13.7501
唸書	-13.7502
logy	-13.7502
zhou	-13.7504
銀禧	-13.7504
網狀	-13.7504
Ori	-13.7506
國陸軍軍	-13.7507
Oak	-13.751
uer	-13.751
13.6	-13.7512
Ek	-13.7513
陳誠	-13.7515
輯錄	-13.7516
cd	-13.7517
assa	-13.7518
alde	-13.7518
した	-13.7519
華懋	-13.752
時間點	-13.7521
×5	-13.7526
773	-13.7532
雙邊	-13.7532
Prote	-13.7532
兩棲類	-13.7542
VIA	-13.7543
Sab	-13.7543
11.3	-13.7544
1152	-13.7544
(1990)	-13.7545
Doc	-13.7545
(1376	-13.7546
Mann	-13.7551
鐘獎戲劇	-13.7552
aux	-13.7554
088	-13.7558
change	-13.756
(1575	-13.756
1473	-13.7561
hof	-13.7563
97%	-13.7563
tology	-13.7564
SSSS	-13.7565
Comb	-13.7567
.61	-13.7569
1628	-13.7569
畢業後進	-13.757
Psc	-13.757
醫務	-13.757
2–0	-13.757
aught	-13.7571
Hou	-13.7573
(1761	-13.7573
戶町	-13.7574
ussi	-13.7575
Tetra	-13.7576
2×	-13.7576
Curr	-13.7583
wald	-13.7585
0-4	-13.7585
耶穌聖	-13.7586
鰨	-13.7589
ibault	-13.759
艋舺縣丞	-13.7592
銅礦	-13.7593
標記為	-13.7593
037	-13.7594
鹽埕	-13.7596
許茹芸	-13.7597
Rue	-13.7597
Device	-13.7597
sphere	-13.7598
20.5	-13.7599
Thomps	-13.76
Birth	-13.7601
99.9	-13.7602
Lucas	-13.7603
俠盜獵	-13.7603
flow	-13.7604
Franklin	-13.7604
Keroro	-13.7604
organicChemistry	-13.7605
罂	-13.7606
15-59	-13.7606
》(2006	-13.7607
禕	-13.7608
pir	-13.7608
鵐	-13.7608
姞	-13.7611
WISE	-13.7612
坵	-13.7612
陳寶	-13.7614
轆	-13.7614
│	-13.7614
堃	-13.7616
yah	-13.7616
琏	-13.7618
2004/05	-13.7618
閨	-13.7619
圍飛馬	-13.7619
蒍	-13.7619
閼	-13.762
搖籃	-13.762
哏	-13.762
spr	-13.762
遴選	-13.7621
蘭聯賽盃	-13.7624
iah	-13.7625
脈絡	-13.7625
編碼為	-13.7625
Ship	-13.7628
6–3	-13.7629
陳炯	-13.7632
necti	-13.7633
1359	-13.7635
gt	-13.7637
1068	-13.7639
Ou	-13.7639
專書	-13.764
Lip	-13.7641
pris	-13.7642
zero	-13.7643
廣東鄉試	-13.7643
AAC	-13.7643
絕頂	-13.7644
cla	-13.7644
abe	-13.7647
Saur	-13.7649
Alc	-13.765
range	-13.7652
yar	-13.7653
sports	-13.7654
歷險	-13.7654
Gir	-13.7655
DMA	-13.7656
Solom	-13.7657
1398	-13.7657
Sem	-13.7659
談論	-13.7662
tou	-13.7662
reference	-13.7663
ité	-13.7664
Eri	-13.7665
maker	-13.7669
6–2	-13.767
Villa	-13.7673
楊堅	-13.7673
chlor	-13.7674
ã	-13.7675
enda	-13.7675
atta	-13.7677
016	-13.7678
JH	-13.768
00~	-13.7683
靜電	-13.7684
(1639	-13.7684
tula	-13.7686
13.3	-13.7686
Prof	-13.7689
Gent	-13.769
[...]
