<pad>	0
</s>	0
<s>	0
<unk>	0
<|im_start|>	0
<|im_end|>	0
<think>	0
</think>	0
<tools>	0
</tools>	0
<tool_call>	0
</tool_call>	0
<tool_result>	0
</tool_result>	0
<act_execute>	0
<act_refuse>	0
<act_expand>	0
<act_shape>	0
<act_escalate>	0
<act_stop>	0
<0x00>	0
<0x01>	0
<0x02>	0
<0x03>	0
<0x04>	0
<0x05>	0
<0x06>	0
<0x07>	0
<0x08>	0
<0x09>	0
<0x0A>	0
<0x0B>	0
<0x0C>	0
<0x0D>	0
<0x0E>	0
<0x0F>	0
<0x10>	0
<0x11>	0
<0x12>	0
<0x13>	0
<0x14>	0
<0x15>	0
<0x16>	0
<0x17>	0
<0x18>	0
<0x19>	0
<0x1A>	0
<0x1B>	0
<0x1C>	0
<0x1D>	0
<0x1E>	0
<0x1F>	0
<0x20>	0
<0x21>	0
<0x22>	0
<0x23>	0
<0x24>	0
<0x25>	0
<0x26>	0
<0x27>	0
<0x28>	0
<0x29>	0
<0x2A>	0
<0x2B>	0
<0x2C>	0
<0x2D>	0
<0x2E>	0
<0x2F>	0
<0x30>	0
<0x31>	0
<0x32>	0
<0x33>	0
<0x34>	0
<0x35>	0
<0x36>	0
<0x37>	0
<0x38>	0
<0x39>	0
<0x3A>	0
<0x3B>	0
<0x3C>	0
<0x3D>	0
<0x3E>	0
<0x3F>	0
<0x40>	0
<0x41>	0
<0x42>	0
<0x43>	0
<0x44>	0
<0x45>	0
<0x46>	0
<0x47>	0
<0x48>	0
<0x49>	0
<0x4A>	0
<0x4B>	0
<0x4C>	0
<0x4D>	0
<0x4E>	0
<0x4F>	0
<0x50>	0
<0x51>	0
<0x52>	0
<0x53>	0
<0x54>	0
<0x55>	0
<0x56>	0
<0x57>	0
<0x58>	0
<0x59>	0
<0x5A>	0
<0x5B>	0
<0x5C>	0
<0x5D>	0
<0x5E>	0
<0x5F>	0
<0x60>	0
<0x61>	0
<0x62>	0
<0x63>	0
<0x64>	0
<0x65>	0
<0x66>	0
<0x67>	0
<0x68>	0
<0x69>	0
<0x6A>	0
<0x6B>	0
<0x6C>	0
<0x6D>	0
<0x6E>	0
<0x6F>	0
<0x70>	0
<0x71>	0
<0x72>	0
<0x73>	0
<0x74>	0
<0x75>	0
<0x76>	0
<0x77>	0
<0x78>	0
<0x79>	0
<0x7A>	0
<0x7B>	0
<0x7C>	0
<0x7D>	0
<0x7E>	0
<0x7F>	0
<0x80>	0
<0x81>	0
<0x82>	0
<0x83>	0
<0x84>	0
<0x85>	0
<0x86>	0
<0x87>	0
<0x88>	0
<0x89>	0
<0x8A>	0
<0x8B>	0
<0x8C>	0
<0x8D>	0
<0x8E>	0
<0x8F>	0
<0x90>	0
<0x91>	0
<0x92>	0
<0x93>	0
<0x94>	0
<0x95>	0
<0x96>	0
<0x97>	0
<0x98>	0
<0x99>	0
<0x9A>	0
<0x9B>	0
<0x9C>	0
<0x9D>	0
<0x9E>	0
<0x9F>	0
<0xA0>	0
<0xA1>	0
<0xA2>	0
<0xA3>	0
<0xA4>	0
<0xA5>	0
<0xA6>	0
<0xA7>	0
<0xA8>	0
<0xA9>	0
<0xAA>	0
<0xAB>	0
<0xAC>	0
<0xAD>	0
<0xAE>	0
<0xAF>	0
<0xB0>	0
<0xB1>	0
<0xB2>	0
<0xB3>	0
<0xB4>	0
<0xB5>	0
<0xB6>	0
<0xB7>	0
<0xB8>	0
<0xB9>	0
<0xBA>	0
<0xBB>	0
<0xBC>	0
<0xBD>	0
<0xBE>	0
<0xBF>	0
<0xC0>	0
<0xC1>	0
<0xC2>	0
<0xC3>	0
<0xC4>	0
<0xC5>	0
<0xC6>	0
<0xC7>	0
<0xC8>	0
<0xC9>	0
<0xCA>	0
<0xCB>	0
<0xCC>	0
<0xCD>	0
<0xCE>	0
<0xCF>	0
<0xD0>	0
<0xD1>	0
<0xD2>	0
<0xD3>	0
<0xD4>	0
<0xD5>	0
<0xD6>	0
<0xD7>	0
<0xD8>	0
<0xD9>	0
<0xDA>	0
<0xDB>	0
<0xDC>	0
<0xDD>	0
<0xDE>	0
<0xDF>	0
<0xE0>	0
<0xE1>	0
<0xE2>	0
<0xE3>	0
<0xE4>	0
<0xE5>	0
<0xE6>	0
<0xE7>	0
<0xE8>	0
<0xE9>	0
<0xEA>	0
<0xEB>	0
<0xEC>	0
<0xED>	0
<0xEE>	0
<0xEF>	0
<0xF0>	0
<0xF1>	0
<0xF2>	0
<0xF3>	0
<0xF4>	0
<0xF5>	0
<0xF6>	0
<0xF7>	0
<0xF8>	0
<0xF9>	0
<0xFA>	0
<0xFB>	0
<0xFC>	0
<0xFD>	0
<0xFE>	0
<0xFF>	0
▁	-2.69071
，	-3.5719

	-3.86306
的	-4.08785
,	-4.43504
0	-4.72498
。	-4.72948
▁"	-4.74184
1	-4.79673
":"	-4.96393
2	-5.01415
.	-5.04952
了	-5.15366
_	-5.19011
","	-5.34198
s	-5.35652
。
	-5.38482
在	-5.43711
":	-5.52989
我	-5.549
、	-5.56339
和	-5.63423
-	-5.65263
是	-5.67549
5	-5.70818
3	-5.72546
。",	-5.72735
▁the	-5.75837
9	-5.79835
你	-5.81249
":{"	-5.82605
4	-5.86619
type	-5.91332
n	-5.94068
8	-6.01766
年	-6.02973
6	-6.06759
有	-6.07374
不	-6.10366
啊	-6.1135
:	-6.17773
7	-6.18582
人	-6.2144
description	-6.24024
▁to	-6.35559
中	-6.36108
(	-6.38614
他	-6.42749
（	-6.43864
▁of	-6.44887
content	-6.50042
大	-6.50862
role	-6.52142
上	-6.5249
/	-6.53736
!	-6.54739
▁a	-6.56338
)	-6.58919
：	-6.59368
为	-6.6056
吗	-6.61815
▁for	-6.6481
一	-6.65597
就	-6.66082
▁(	-6.67611
?
	-6.74242
对	-6.74604
好	-6.7508
string	-6.75225
▁{"	-6.77656
到	-6.78172
也	-6.79005
月	-6.80452
“	-6.80937
'	-6.81152
来	-6.84622
▁and	-6.85028
吧	-6.85095
我们	-6.85107
都	-6.86248
?	-6.87064
呢	-6.87191
要	-6.90099
）	-6.90167
。

	-6.9054
▁in	-6.90578
被	-6.92039
与	-6.92217
The	-6.92264
那	-6.925
function	-6.92783
小	-6.95429
日	-6.95432
这	-6.97319
name	-6.97775
会	-7.00098
d	-7.01337
时	-7.02139
去	-7.02943
可以	-7.03724
e	-7.03752
下	-7.04993
说	-7.06394
这个	-7.07852
!
	-7.08089
多	-7.08163
utterance	-7.09616
”	-7.09883
\	-7.10873
后	-7.11501
以	-7.1157
没有	-7.1165
等	-7.11709
而	-7.12113
user	-7.12422
一个	-7.14511
"},	-7.14807
用	-7.15903
~	-7.16796
t	-7.17052
将	-7.17972
地	-7.19525
或	-7.2027
她	-7.204
看	-7.21653
？",	-7.21934
▁\	-7.22233
id	-7.22625
子	-7.2268
但	-7.23154
ing	-7.23775
·	-7.25988
能	-7.29102
required	-7.302
他们	-7.30207
.","	-7.30564
就是	-7.31246
还	-7.31259
个	-7.31285
parameters	-7.31415
《	-7.32873
ed	-7.32972
出	-7.33535
？
	-7.33749
从	-7.34102
▁{
	-7.34219
过	-7.34404
高	-7.34771
object	-7.35135
里	-7.35624
可	-7.36023
之	-7.37166
水	-7.3728
properties	-7.3852
▁is	-7.40754
哈哈	-7.40796
点	-7.41004
》	-7.41224
"},"	-7.41634
得	-7.42318
没	-7.42508


	-7.43888
system	-7.4426
▁=	-7.44378
g	-7.44379
天	-7.44802
"	-7.45276
m	-7.46072
着	-7.46089
性	-7.46347
家	-7.46575
很	-7.46613
前	-7.47697
想	-7.48945
并	-7.49015
新	-7.51271
？	-7.53687
自己	-7.53884
分	-7.54088
太	-7.55375
现在	-7.55375
吃	-7.5587
又	-7.56658
打	-7.57054
A	-7.5777
三	-7.57841
▁'	-7.58279
还是	-7.58467
其	-7.59113
▁-	-7.59411
▁you	-7.59625
啦	-7.60823
呀	-7.61213
于	-7.62149
":["	-7.63127
default	-7.63227
它	-7.63251
者	-7.63328
但是	-7.64729
心	-7.65106
"}},"	-7.65461
长	-7.66047
▁I	-7.67115
▁*	-7.67425
比	-7.67453
什么	-7.68539
把	-7.68768
该	-7.68913
斯	-7.68941
不是	-7.70839
生	-7.71516
a	-7.71876
▁with	-7.71885
**	-7.71992
及	-7.72249
哦	-7.72421
er	-7.72744
由	-7.72808
C	-7.72984
名	-7.73154
B	-7.74445
S	-7.74773
...
	-7.7507
使用	-7.75264
向	-7.75985
手	-7.76384
:
	-7.76727
>	-7.77348
再	-7.77629
；	-7.77634
做	-7.7797
%	-7.78662
行	-7.78663
所	-7.79174
发	-7.79716
道	-7.7974
.
	-7.80043
当	-7.80536
本	-7.80673

-	-7.81367
山	-7.81453
▁<	-7.81913
y	-7.81922
▁**	-7.82293
拉	-7.82496
好的	-7.82686
内	-7.82935
i	-7.83215
usr	-7.83508
开	-7.84121
sys	-7.84255
T	-7.84321
都是	-7.84779
更	-7.85275
无	-7.85395
美	-7.85726
title	-7.86306
车	-7.86454
这些	-7.86715
",	-7.86719
西	-7.868
德	-7.86835
c	-7.87148
;
	-7.87404
為	-7.88145
进行	-7.88158
公司	-7.88243
哈哈哈	-7.88395
▁or	-7.88492
特	-7.88599
头	-7.88674
h	-7.88763
最	-7.88781
r	-7.88844
也是	-7.89373
因为	-7.89586
号	-7.90499
I	-7.91695
克	-7.91836
的人	-7.91957
时间	-7.9208
▁on	-7.92547
所以	-7.93031
金	-7.93127
x	-7.93338
回	-7.93721
需要	-7.94067
给	-7.941
▁from	-7.94333
法	-7.94725
你们	-7.94796
事	-7.95045
路	-7.95188
！",	-7.95412
成	-7.95442
自	-7.96206
已经	-7.96593
老	-7.96693
中国	-7.96905
你的	-7.97185
p	-7.97397
b	-7.97685
▁be	-7.9815
F	-7.98191
力	-7.98844
外	-7.98964
如果	-7.99108

‎	-7.99249
文	-8.00243
快	-8.00361
真	-8.00746
王	-8.01103
G	-8.01408
嘛	-8.01705
马	-8.02284
还有	-8.02654
assistant	-8.02973
二	-8.03184
可能	-8.03446
的时候	-8.03487
带	-8.03498
in	-8.03769
才	-8.04241
不过	-8.04265
",
	-8.05158
工作	-8.05993
D	-8.06207
走	-8.06591
机	-8.06647
开始	-8.06753
如	-8.06803
安	-8.07081
;	-8.07281
我的	-8.07369
美国	-8.08104
嗯嗯	-8.08197
...	-8.08301
卡	-8.08762
花	-8.09674
v	-8.10155
！	-8.10189
get	-8.10749
部	-8.10797
海	-8.10923
面	-8.11255
阿	-8.11394
加	-8.11492
两	-8.11754
光	-8.12225
这种	-8.1228
那么	-8.12408
通过	-8.12457
重	-8.12516
州	-8.12525
米	-8.1253
市	-8.12597
入	-8.12985
化	-8.13003
国	-8.1301
爱	-8.13395
么	-8.13953
真的	-8.14031
至	-8.14445
M	-8.1472
元	-8.14985
这是	-8.15266
别	-8.15795
买	-8.15876
tool	-8.15925
▁by	-8.1654
气	-8.16866
四	-8.16928
提供	-8.17019
>
	-8.17247
这样	-8.1725
区	-8.17627
al	-8.17659
P	-8.17807
您	-8.17884
使	-8.18149
正	-8.18399
那个	-8.18522
▁that	-8.19282
哈	-8.19319
起	-8.19712
白	-8.19805
今天	-8.20059
ly	-8.20659
k	-8.20742
N	-8.20871
让	-8.21107
请	-8.2156
E	-8.21688
学	-8.22034
~
	-8.22117
是啊	-8.22386
问题	-8.22406
口	-8.22571
南	-8.22721
度	-8.2276
然后	-8.22905
门	-8.22973
你好	-8.23173
於	-8.23662
先	-8.23671
线	-8.23898
嗯	-8.2409
科	-8.24106
f	-8.24205
K	-8.24333
已	-8.24375
位	-8.24518
不要	-8.2536
球	-8.26321
这么	-8.26892
店	-8.27318
"
	-8.27497
一些	-8.27533
怎么	-8.27598
全	-8.27706
W	-8.2774
？"},	-8.27763
)
	-8.27766
方	-8.28244
尔	-8.28575
体	-8.28585
L	-8.28632
相	-8.28636
谢谢	-8.28682
利	-8.28703
我也	-8.28932
万	-8.29262
以及	-8.29854
热	-8.29895
同	-8.2993
一下	-8.29964
约	-8.30122
次	-8.3047
只	-8.30766
包括	-8.30972
跟	-8.31041
而且	-8.31055
com	-8.31139
明	-8.31198
表示	-8.31326
原	-8.31732
公	-8.32286
不能	-8.32342
"}
{"	-8.32758
主	-8.32784
u	-8.33121
R	-8.33259
喜欢	-8.3335
re	-8.33531
▁},
	-8.34116
「	-8.34247
一起	-8.34299
器	-8.34541
城	-8.34606
林	-8.34692
风	-8.3475
感觉	-8.34849
▁if	-8.35021
=	-8.35615
应该	-8.35899
钱	-8.36309
选择	-8.36372
！
	-8.36546
o	-8.36615
第	-8.36831
叫	-8.37685
作	-8.37966
▁

	-8.385
玩	-8.38538
站	-8.38559
{"	-8.38635
▁as	-8.38673
定	-8.38713
死	-8.38937
女	-8.39036
因	-8.39177
世界	-8.3918
此	-8.39215
l	-8.39448
X	-8.39594
五	-8.3978
▁me	-8.39899
[	-8.39906
黑	-8.40047
V	-8.40074
知道	-8.40203
放	-8.40235
非常	-8.40313
不会	-8.407
integer	-8.4085
en	-8.41157
队	-8.41168
▁ID	-8.41329
平	-8.41652
像	-8.41924
身	-8.42148
变	-8.42156
or	-8.42927
▁\"	-8.42937
與	-8.43004
▁this	-8.4304
H	-8.43081
*	-8.4322
神	-8.43433
,"	-8.43642
酒店	-8.43938
书	-8.4395
</	-8.43985
北	-8.44026
希望	-8.44281
字	-8.44471
火	-8.44805
图	-8.45017
片	-8.45105
张	-8.45133
流	-8.45252
is	-8.45423
谁	-8.45587
军	-8.45996
最近	-8.45997
他的	-8.45999
李	-8.46234
量	-8.46419
听	-8.47228
国家	-8.47375
之前	-8.47456
期	-8.47626
Q	-8.47866
其他	-8.48197
见	-8.48376
格	-8.48488
应	-8.48681
物	-8.49035
’	-8.49255
只是	-8.4928
儿	-8.49445
);
	-8.49525
w	-8.49787
式	-8.5034
看到	-8.50523
es	-8.50557
情	-8.50641
只有	-8.50655
石	-8.51016
之后	-8.51061
▁data	-8.51084
场	-8.51232
.

	-8.51366
早	-8.52158
发现	-8.52328
：
	-8.52425
因此	-8.52597
我觉得	-8.52884
▁are	-8.52938
病	-8.53055
主要	-8.53084
），	-8.53143
动	-8.53203
管	-8.53361
电	-8.53852
北京	-8.53869
台	-8.5388
大学	-8.5441
回来	-8.54484
处	-8.54499
型	-8.54679
进	-8.54785
我是	-8.54894
系统	-8.54909
孩子	-8.54946
▁A	-8.54986
穿	-8.55055
政府	-8.55116
to	-8.55121
中的	-8.55144
會	-8.55177
东	-8.55364
总	-8.55514
有点	-8.55555
觉得	-8.55798
▁can	-8.55871
技术	-8.55893
超	-8.56082
不知道	-8.5614
其实	-8.56286
罗	-8.56325
▁an	-8.56373
受	-8.56519
或者	-8.56631
接	-8.56774
局	-8.57262
一样	-8.57362
再见	-8.58195
少	-8.58584
）
	-8.58677
省	-8.58776
number	-8.58794
▁$	-8.58797
红	-8.59025
给我	-8.59077
单	-8.59126
服务	-8.59432
比较	-8.59557
清	-8.5973
：“	-8.59761
後	-8.59771
低	-8.60448
恩	-8.60517
教	-8.60678
巴	-8.60717
自己的	-8.6094
要求	-8.60944
日本	-8.61037
称	-8.61046
住	-8.61058
很多	-8.61114
能够	-8.61251
以后	-8.61518
为什么	-8.61588
通	-8.61857
ation	-8.622
龙	-8.62219
虽然	-8.62229
给你	-8.62336
研究	-8.62337
一直	-8.62379
问	-8.62437
]	-8.62597
河	-8.62693
作为	-8.62771
根据	-8.62771
数	-8.62846
▁The	-8.63118
▁was	-8.63163
求	-8.63193
Y	-8.63335
',	-8.63459
▁which	-8.63505
▁at	-8.63519
则	-8.63534
曾	-8.6362
基	-8.63646
网	-8.6381
必须	-8.63948
on	-8.63978
▁it	-8.63987
+	-8.64236
信	-8.64489
的话	-8.64911
://	-8.64994
合	-8.65045
J	-8.65068
空	-8.65554
布	-8.66225
换	-8.66297
即	-8.66408
Z	-8.66464
活动	-8.6649
眼	-8.66648
是的	-8.66806
皮	-8.66967
正在	-8.67244
哥	-8.67334
`	-8.67342
所有	-8.67669
转	-8.67811
战	-8.67937
好吧	-8.68194
理	-8.68422
表	-8.68484
出来	-8.68496
U	-8.68597
干	-8.68647
起来	-8.68767
目前	-8.68792
。。。	-8.68968
尼	-8.69043
▁["	-8.69184
一般	-8.69368
木	-8.69626
交	-8.69649
來	-8.69693
级	-8.6971
一次	-8.69857
周	-8.70002
对于	-8.70167
手机	-8.70247
对啊	-8.70378
获得	-8.70504
生活	-8.70515
认为	-8.71023
非	-8.71187
连	-8.71204
送	-8.71241
集	-8.71336
如何	-8.71442
找	-8.72071
古	-8.72342
直接	-8.72637
县	-8.72642
几	-8.72867
未	-8.73232
冷	-8.73301
岁	-8.73324
为了	-8.73373
第一	-8.73379
成为	-8.73501
意	-8.73764
亚	-8.73767
th	-8.73933
O	-8.74059
哇	-8.74207
感	-8.74255
任	-8.74353
强	-8.74426
我要	-8.74739
影响	-8.74846
turns	-8.74919
睡	-8.74961
结果	-8.7499
们	-8.75011
看看	-8.75089
時	-8.75167
▁number	-8.75389
达	-8.75512
call	-8.75512
脸	-8.75598
比赛	-8.75789
发生	-8.7595
星	-8.7599
油	-8.76117
电影	-8.76216
▁}
	-8.76328
便	-8.76338
其中	-8.76385
ref	-8.76794
立	-8.76811
▁API	-8.77077
▁re	-8.77172
两个	-8.77304
我想	-8.77354
us	-8.7736
」	-8.77373
z	-8.77448
条	-8.77584
▁not	-8.77588
考	-8.77699
首	-8.77816
写	-8.78126
不同	-8.78199
色	-8.78335
由于	-8.78412
le	-8.78481
▁using	-8.78633
你是	-8.7873
拍	-8.78832
▁S	-8.79012
深	-8.79187
反	-8.79411
世	-8.79503
是不是	-8.79631
赛	-8.79869
远	-8.79881
收	-8.80158
▁your	-8.80266
),	-8.80357
一点	-8.80398
游戏	-8.80471
取	-8.80475
夫	-8.8048
出现	-8.80481
血	-8.80571
经济	-8.80839
制	-8.80897
了吗	-8.8102
常	-8.81377
组织	-8.81425
▁have	-8.81521
方法	-8.81687
计划	-8.81747
功能	-8.81801
社会	-8.81947
信息	-8.82169
▁information	-8.82275
()	-8.82515
语	-8.82626
具有	-8.82674
第二	-8.82716
st	-8.8283
喝	-8.82856
date	-8.83016
报	-8.83116
亲	-8.83175
近	-8.83202
装	-8.83252
关注	-8.83285
代	-8.83298
}	-8.83303
好像	-8.83415
费	-8.83452
完	-8.83534
双	-8.83542
支持	-8.83665
知	-8.83718
村	-8.83984
继续	-8.84079
安全	-8.84108
黄	-8.84192
an	-8.844
飞	-8.84424
田	-8.84573
波	-8.84576
兵	-8.84683
包	-8.84775
华	-8.84857
却	-8.84873
\"	-8.84891
▁list	-8.8505
我就	-8.85087
啥	-8.85298
处理	-8.85401
运动	-8.85464
越	-8.85518
▁C	-8.85789
區	-8.8582
ion	-8.86058
▁return	-8.86103
商	-8.86165
▁|	-8.86184
准备	-8.86235
无法	-8.86309
学校	-8.86327
那些	-8.86429
任何	-8.86435
我们的	-8.86568
爾	-8.86653
calls	-8.86828
菜	-8.86918
之一	-8.86994
完全	-8.8702
半	-8.8727
每	-8.87352
掉	-8.87624
長	-8.87742
个人	-8.87806
明天	-8.87841
班	-8.88083
率	-8.88206
代表	-8.88253
到了	-8.88452
落	-8.88579
工	-8.8858
直	-8.88651
狗	-8.88698
民	-8.88711
<	-8.88715
坐	-8.88881
边	-8.89291
声	-8.89439
云	-8.89487
管理	-8.89622
了解	-8.89749
伊	-8.89856
差	-8.89949
at	-8.90022
关	-8.9011
官	-8.90374
”，	-8.90513
改	-8.90751
雷	-8.90809
六	-8.90857
**:	-8.9087
哈哈哈哈	-8.90904
。”	-8.91018
j	-8.91086
朋友	-8.91123
选	-8.91248
肉	-8.91292
酒	-8.91323
控制	-8.91511
是一个	-8.91588
雪	-8.91603
治疗	-8.91881
time	-8.91914
养	-8.91947
市场	-8.9199
中心	-8.91995
同时	-8.92197
最后	-8.92231
决定	-8.92519
跑	-8.92524
":[{"	-8.92543
经	-8.92556
拿	-8.9277
可是	-8.92888
短	-8.92938
晚上	-8.92943
▁~	-8.93204
解	-8.9353
言	-8.93543
音	-8.93577
刚	-8.93729
品	-8.9399
q	-8.94177
设备	-8.94192
难	-8.94231
节	-8.94307
特别	-8.94417
食	-8.94495
data	-8.9453
别人	-8.94711
确实	-8.94821
士	-8.94967
数据	-8.95217
派	-8.95312
#	-8.9564
国际	-8.95649
七	-8.9584
——	-8.95878
江	-8.96095
人们	-8.9612
设计	-8.96141
毛	-8.96146
▁retrieve	-8.96201
值	-8.96332
end	-8.96353
!!	-8.96441
塔	-8.96538
各	-8.9664
当时	-8.9665
▁`	-8.96886
种	-8.97055
纳	-8.97091
院	-8.97418
code	-8.97489
▁time	-8.97688
房	-8.97728
香港	-8.97831
类	-8.97836
鱼	-8.98752
修	-8.98765
香	-8.98807
脚	-8.98902
倒	-8.98996
肯定	-8.99042
對	-8.99117
▁name	-8.99187
并且	-8.9922
八	-8.99333
▁like	-8.99357
ar	-8.99438
板	-8.99456
进入	-8.99494
arguments	-8.99673
方式	-8.99674
地区	-8.99702
剧	-8.99916
迪	-8.99993
间	-9.00129
奥	-9.00139
史	-9.00173
true	-9.00364
往	-9.00387
男	-9.00524
话	-9.0059
指	-9.00728
推荐	-9.00866
学生	-9.01006
配	-9.01054
发展	-9.01134
帮助	-9.0117
层	-9.01295
笑	-9.01324
各种	-9.01644
並	-9.01664
挺	-9.01676
努力	-9.01797
":[]}}},{"	-9.01915
大家	-9.02159
维	-9.02236
武	-9.02305
奇	-9.02487
按	-9.02632
土	-9.02699
"]}}},{"	-9.02875
普	-9.02897
教育	-9.0296
拜拜	-9.0307
牛	-9.03166
福	-9.03198
我也是	-9.03255
沙	-9.03363
if	-9.03407
这一	-9.0344
那你	-9.03485
画	-9.03498
。”
	-9.03528
保护	-9.03541
好看	-9.03589
▁+	-9.03639
im	-9.03654
案	-9.03655
东西	-9.03875
照	-9.03924
活	-9.03975
项目	-9.04137
学习	-9.04225
一种	-9.04236
讲	-9.04306
).	-9.04417
这次	-9.04437
还没	-9.04483
调	-9.04633
加油	-9.04896
关系	-9.05091
ic	-9.05184
是什么	-9.05386
百	-9.05388
部分	-9.05447
它们	-9.05562
不错	-9.05574
英国	-9.05644
地方	-9.05942
上的	-9.05987
老师	-9.06031
成功	-9.06138
甚至	-9.06189
产品	-9.06256
小时	-9.06435
不好	-9.06482
环境	-9.06491
▁</	-9.06614
森	-9.06664
import	-9.06689
参考文献	-9.06809
贵	-9.06835
▁need	-9.06876
是否	-9.06902
能力	-9.07111
▁B	-9.07152
组	-9.07206
网络	-9.07432
角	-9.07464
保	-9.07468
关于	-9.07663
极	-9.07725
存在	-9.07776
版	-9.07913
用户	-9.08254
留	-9.08283
回家	-9.08402
夜	-9.0843
当然	-9.08533
▁code	-9.08628
这里	-9.08999
传	-9.09041
—	-9.09104
▁given	-9.09167
晚	-9.09228
系	-9.09237
提	-9.09264
▁check	-9.0927
el	-9.09336
形	-9.09381
真是	-9.09442
失	-9.09454
城市	-9.09458
▁specific	-9.09679
何	-9.09788
健康	-9.09816
氏	-9.09824
▁but	-9.09838
导致	-9.09891
让我	-9.09938
一定	-9.09941
國	-9.10146
票	-9.10277
瓦	-9.10336
段	-9.10384
某	-9.10433
伤	-9.10486
哎	-9.10631
压	-9.10664
的是	-9.10723
▁new	-9.10795
共	-9.109
ent	-9.11021
料	-9.11178
足球	-9.11244
企业	-9.11351
。。	-9.11395
结构	-9.11425
根	-9.11511
姐	-9.11528
药	-9.11611
ment	-9.11646
好了	-9.11973
以前	-9.12048
件	-9.12331
哪	-9.12373
建	-9.1241
li	-9.12465
查	-9.12545
参加	-9.12638
权	-9.12646
只能	-9.12733
今年	-9.12735
para	-9.12815
得到	-9.12815
座	-9.129
("	-9.12913
治	-9.12953
质	-9.13045
it	-9.1314
自然	-9.13189
托	-9.13299
有人	-9.13413
若	-9.13662
博	-9.13854
下次	-9.13874
团	-9.13924
的地方	-9.13931
结	-9.13974
保持	-9.14075
歌	-9.14076
將	-9.14143
精	-9.14148
怕	-9.14155
都有	-9.143
('	-9.14383
也不	-9.14621
文化	-9.14819
乐	-9.14854
镇	-9.14866
青	-9.14867
算	-9.14952
完成	-9.15026
据	-9.15112
->	-9.15133
▁[	-9.15135
且	-9.15304
內	-9.15353
▁my	-9.15409
勒	-9.15461
宝	-9.15541
▁search	-9.15571
党	-9.15575
实	-9.15684
著	-9.15772
命	-9.15835
:**	-9.15922
吉	-9.16126
▁de	-9.16141
师	-9.16291
莫	-9.16453
增加	-9.1649
生产	-9.16607
馬	-9.16787
一天	-9.16788
过来	-9.16901
船	-9.16958
@	-9.16971
跳	-9.17008
好好	-9.17009
（）	-9.17209
杀	-9.17243
她的	-9.1725
价格	-9.17271
::	-9.17294
投	-9.17348
排	-9.17491
千	-9.17533
盘	-9.17679
="	-9.17865
列	-9.17889
我在	-9.1811
▁E	-9.1811
https	-9.18213
校	-9.18255
洛	-9.18364
說	-9.18391
女性	-9.18402
英	-9.18455
方面	-9.18511
九	-9.18807
楼	-9.18868
端	-9.18929
ve	-9.19082
▁[{"	-9.19083
et	-9.19137
相关	-9.19205
縣	-9.19205
這	-9.19274
雨	-9.19298
切	-9.19471
记	-9.19485
新闻	-9.19726
才能	-9.19834
草	-9.1989
甲	-9.19918
如此	-9.19924
历史	-9.20022
饭	-9.20023
居	-9.20136
然而	-9.20302
满	-9.20304
"],"	-9.20318
检查	-9.20401
個	-9.20436
一个人	-9.20445
离	-9.2047
源	-9.20583
$	-9.20609
冰	-9.20625
▁Defaults	-9.20646
游	-9.20674
树	-9.20719
Get	-9.2094
停	-9.2106
快乐	-9.21164
梅	-9.21282
分析	-9.21317
我都	-9.21319
阳	-9.214
除了	-9.21402
ll	-9.21419
int	-9.21465
街	-9.21521
▁F	-9.21634
洗	-9.21693
不用	-9.21703
帅	-9.21721
兰	-9.21842
接受	-9.2189
ri	-9.22011
通常	-9.22048
也有	-9.22082
情况	-9.22122
▁details	-9.22127
诺	-9.22139
卖	-9.22307
来说	-9.22355
推	-9.22442
软件	-9.22511
就会	-9.22563
人家	-9.22575
▁help	-9.2263
利用	-9.22705
室	-9.22727
均	-9.22851
错	-9.22953
产	-9.22967
界	-9.23085
拥有	-9.23086
se	-9.23324
例如	-9.23345
瘦	-9.23362
汉	-9.2362
▁about	-9.23696
。。。
	-9.23733
;

	-9.2378
腿	-9.23802
开心	-9.23897
。"},	-9.23963
细胞	-9.24014
分钟	-9.24041
先生	-9.2405
▁specified	-9.24171
假	-9.24287
"]}},{"	-9.24293
▁P	-9.24369
有关	-9.24373
影	-9.24818
牙	-9.25082
strict	-9.25125
▁will	-9.25132
汽车	-9.25268
找到	-9.25294
材料	-9.25345
许多	-9.25401
你要	-9.25544
服	-9.25622
▁c	-9.25649
ro	-9.2577
.,	-9.25869
able	-9.26016
▁format	-9.26093
用于	-9.26102
看了	-9.26141
内容	-9.26199
读	-9.26355
退	-9.2637
之间	-9.26411
想要	-9.26572
他们的	-9.2659
新的	-9.26753
患者	-9.26807
：「	-9.27003
那是	-9.27091
没事	-9.27107
卷	-9.27173
联	-9.27205
来了	-9.27322
显示	-9.27339
自由	-9.27345
回去	-9.27413
步	-9.27483
as	-9.27514
十	-9.2753
▁get	-9.27676
了吧	-9.27766
提高	-9.27823
文件	-9.27873
铁	-9.27878
球队	-9.2791
价	-9.28151
塞	-9.28211
合作	-9.28232
▁{	-9.2826
今	-9.28294
多少	-9.28401
ce	-9.28425
补	-9.28513
每天	-9.28544
and	-9.28639
man	-9.2864
松	-9.28665
ad	-9.28666
追	-9.28678
除	-9.28707
你也	-9.28725
▁current	-9.288
▁K	-9.28813
政治	-9.28879
▁T	-9.29007
救	-9.2901
位于	-9.29068
▁true	-9.29089
然	-9.29127
政	-9.29265
额	-9.29322
乱	-9.29401
客	-9.29435
毕竟	-9.29491
后来	-9.29558
升	-9.29585

‪	-9.29596
课	-9.29619
业	-9.29707
Name	-9.29739
封	-9.29816
目	-9.29886
族	-9.2989
▁G	-9.29891
堂	-9.29916
我会	-9.29977
秀	-9.30156
初	-9.30393
▁M	-9.30405
标准	-9.30433
人员	-9.30543
令	-9.30595
湖	-9.30616
微	-9.30826
事情	-9.30979
理解	-9.31073
人类	-9.31081
de	-9.3115
亦	-9.31177
人的	-9.31267
最终	-9.31276
很好	-9.31296
。
-	-9.31339
支	-9.31371
東	-9.314
期间	-9.3148
有些	-9.31603
幸福	-9.31606
母	-9.31617
."},"	-9.31652
素	-9.31736
属于	-9.31847
领	-9.31952
宗	-9.31997
奖	-9.32022
▁This	-9.32023
去了	-9.32116
猫	-9.3214
真的是	-9.32179
location	-9.32236
咯	-9.3224
正常	-9.32454
电话	-9.32463
胖	-9.32473
超过	-9.32494
整个	-9.32564
il	-9.32573
交易	-9.3258
不想	-9.32639
川	-9.32692
酸	-9.32728
In	-9.3273
不了	-9.32765
ers	-9.32784
现	-9.32796
忙	-9.32849
它的	-9.32852
有什么	-9.33014
建议	-9.33042
复	-9.33201
你可以	-9.33216
音乐	-9.33288
压力	-9.3335
破	-9.33407
副	-9.33459
翻	-9.33513
姆	-9.33514
是个	-9.33624
age	-9.33665
事件	-9.3373
人口	-9.33752
块	-9.34017
条件	-9.34053
–	-9.34125
圣	-9.34138
属	-9.34156
这样的	-9.34182
io	-9.34431
底	-9.34548
造成	-9.34568
痛	-9.34652
▁f	-9.34692
|	-9.34813
作品	-9.34872
过去	-9.34947
)","	-9.34969
吃饭	-9.34997
头发	-9.35021
怎么样	-9.35046
章	-9.35114
威	-9.35211
工程	-9.35242
只要	-9.35244
▁W	-9.35298
亞	-9.3533
社	-9.35452
▁all	-9.35568
证	-9.35618
第三	-9.35645
核	-9.35665
估计	-9.35794
你知道	-9.35798
员	-9.35828
水平	-9.35852
索	-9.35861
陈	-9.35892
該	-9.36177
经常	-9.36226
群	-9.3623
野	-9.36249
一年	-9.36368
春	-9.36484
整	-9.36559
list	-9.36567
赞	-9.36655
医院	-9.36661
▁user	-9.36724
程	-9.36874
造	-9.36961
哪里	-9.37014
朝	-9.37021
家庭	-9.3714
采用	-9.37159
介绍	-9.37385
调查	-9.37396
有没有	-9.37541
待	-9.37577
环	-9.37748
牌	-9.37778
晚安	-9.37856
来自	-9.38159
实现	-9.38196
刘	-9.38277
果	-9.38414
款	-9.3846
银行	-9.38699
▁@	-9.38807
产生	-9.38885
胡	-9.38895
司	-9.38898
蒂	-9.38905
呵呵	-9.38922
妈妈	-9.38935
联系	-9.38939
by	-9.38956
球员	-9.38967
谢谢你	-9.39009
运	-9.39101
▁Re	-9.39145
url	-9.39212
纸	-9.39213
射	-9.3923
味	-9.39252
几个	-9.39261
医生	-9.39346
注意	-9.39365
应用	-9.39393
."}},"	-9.39394
線	-9.39425
期待	-9.39492
投资	-9.39616
曲	-9.39623
背	-9.39688
上海	-9.39833
温	-9.39836
－	-9.39874
身体	-9.39901
您的	-9.3993
演	-9.39971
较	-9.39982
叶	-9.40028
胜	-9.40083
無	-9.40103
no	-9.40191
加入	-9.40278
曼	-9.40351
异	-9.4039
以下	-9.40446
重新	-9.40491
原因	-9.40592

#	-9.40595
架	-9.4061
登	-9.40626
货	-9.40664
"]}}}]
{"	-9.40758
评分	-9.40839
苏	-9.40914
法律	-9.40922
”。	-9.40954
te	-9.40959
ant	-9.40986
!!
	-9.41161
數	-9.41284
年代	-9.41286
是在	-9.4129
府	-9.41365
。"]}	-9.41414
受到	-9.41424
.\	-9.41451
重要	-9.41611
下来	-9.41626
行政	-9.41727
改变	-9.41795
都会	-9.41831
那就	-9.41876
击	-9.42072
建立	-9.4209
超级	-9.42147
Retrieve	-9.42255
考虑	-9.42284
）。	-9.42291
!!!	-9.42299
突然	-9.42398
没错	-9.42504
衣	-9.42511
具	-9.42525
志	-9.42612
ch	-9.42708
达到	-9.42715
▁value	-9.42756
見	-9.4297
出去	-9.42996
▁&	-9.43046
反应	-9.43075
伯	-9.43137
弄	-9.43145
附近	-9.4317
:\	-9.43225
桥	-9.43296
景	-9.43305
不行	-9.43336
防	-9.43371
断	-9.4357
可能会	-9.43581
机构	-9.43742
."}
{"	-9.43944
行为	-9.44054
out	-9.44085
轮	-9.44177
每个	-9.44238
一家	-9.44254
抗	-9.44279
▁based	-9.44303
客户	-9.44322
好多	-9.44327
冠军	-9.44348
be	-9.44404
状态	-9.44449
地址	-9.4448
▁identifier	-9.44549
ive	-9.44553
季	-9.4459
证明	-9.44666
不同的	-9.44697
圈	-9.4473
set	-9.44743
>

	-9.44989
在一起	-9.45036
}},{"	-9.45129
里面	-9.45136
鲁	-9.45154
解决	-9.45158
衣服	-9.45159
俄罗斯	-9.45176
Re	-9.45243
位置	-9.45259
更多	-9.45277
男子	-9.45295
岛	-9.45463
▁location	-9.45511
搞	-9.45533
▁use	-9.45598
减	-9.45692
占	-9.45752
梦	-9.45819
罪	-9.45885
严重	-9.46032
唐	-9.46034
我去	-9.46331
耶	-9.46369
网站	-9.46463
哟	-9.46519
。
“	-9.46602
仅	-9.46611
是一种	-9.46652
▁int	-9.46714
科学	-9.4674
姐姐	-9.46743
min	-9.46756
世纪	-9.46816
密	-9.46885
我不	-9.46925
骨	-9.47021
▁p	-9.47047
看着	-9.47063
▁up	-9.47128
www	-9.47128
泰	-9.47324
ter	-9.47328
帮	-9.47348
最好	-9.47379
专业	-9.47431
申请	-9.47472
▁N	-9.47544
伦	-9.47552
\":	-9.47563
考试	-9.47586
顺	-9.47637
守	-9.47769
急	-9.47811
还要	-9.47842
故	-9.47885
余	-9.479
故事	-9.47954
藏	-9.47956
看来	-9.47965
睡觉	-9.48024
速	-9.48141
视频	-9.48318
随	-9.48404
ra	-9.48428
同学	-9.4845
你说	-9.48528
哭	-9.48558
语言	-9.4858
归	-9.48654
并不	-9.48672
唱	-9.48694
思	-9.48709
什么时候	-9.48712
學	-9.48787
望	-9.48837
的问题	-9.49046
减少	-9.49119
休息	-9.4917
lo	-9.49222
相信	-9.4937
▁results	-9.49392
你看	-9.4943
还好	-9.49547
下午	-9.49562
公里	-9.49601
全球	-9.49653
都不	-9.49697
学院	-9.49731
雅	-9.49748
适合	-9.4978
容易	-9.49905
安装	-9.49907
嘿嘿	-9.49997
json	-9.50049
美國	-9.50138
▁book	-9.50141
當	-9.50167
左右	-9.50359
從	-9.50451
久	-9.50477
表现	-9.50477
▁"#/	-9.50487
ia	-9.50597
液	-9.50644
array	-9.50682
▁//	-9.50686
剂	-9.50739
開	-9.50748
嗨	-9.50794
另外	-9.50948
哪个	-9.50973
昨天	-9.51016
na	-9.51075
报告	-9.51112
左	-9.51116
滴	-9.5112
鬼	-9.5114
脑	-9.51348
天天	-9.51372
夏	-9.51383
刀	-9.51389
丁	-9.51405
上班	-9.51406
▁want	-9.51428
正式	-9.51506
参考资料	-9.51582
永	-9.51798
苹果	-9.51799
足	-9.51829
粉	-9.51834
▁*/
	-9.51881
办	-9.51975
苦	-9.5201
总是	-9.52052
试	-9.52057
我知道	-9.52097
好吃	-9.52102
null	-9.5212
糖	-9.52167
發	-9.52174
▁date	-9.52258
顶	-9.52276
the	-9.52277
ine	-9.52302
套	-9.52314
Fetches	-9.52372
ID	-9.52403
港	-9.52437
贝	-9.52468
建筑	-9.52487
的事	-9.52545
终于	-9.52619
确定	-9.52721
ip	-9.52754
此外	-9.52766
的东西	-9.52772
可爱	-9.52778
體	-9.5281
▁Can	-9.52828
杰	-9.52895
▁order	-9.52986
基本	-9.52992
▁set	-9.53071
戴	-9.53132
致	-9.53214
露	-9.53284
場	-9.53343
▁O	-9.53357
视	-9.53373
兩	-9.53374
冲	-9.53415
告诉我	-9.53442
坚持	-9.53468
诶	-9.53477
空间	-9.53531
开发	-9.53591
听说	-9.53651
▁don	-9.53695
累	-9.53872
人物	-9.53873
细	-9.53899
他在	-9.53934
？
-	-9.53963
富	-9.53988
玉	-9.54063
軍	-9.54156
作用	-9.54271
质量	-9.54329
();
	-9.54422
更新	-9.54444
精神	-9.54493
散	-9.54503
报道	-9.54627
孔	-9.54654
测试	-9.54702
圆	-9.54714
如果你	-9.54772
define	-9.54791
标	-9.54895
温度	-9.5493
希	-9.54996
认识	-9.55
'.","	-9.55045
不到	-9.55058
死了	-9.55108
public	-9.55125
盖	-9.55225
偏	-9.55351
丑	-9.554
你在	-9.55407
宝宝	-9.55416
些	-9.55485
园	-9.55497
离开	-9.5551
德国	-9.55543
走了	-9.55638
杯	-9.55651
灯	-9.55679
佛	-9.557
份	-9.55715
un	-9.55747
▁any	-9.55777
迷	-9.55817
经过	-9.55872
▁If	-9.55901
全部	-9.55989
弱	-9.56026
▁R	-9.56031
呗	-9.56069
son	-9.56104
▁we	-9.56162
存	-9.56248
聚	-9.56256
炎	-9.56263
up	-9.56263
说明	-9.56373
齐	-9.56418
消息	-9.56577
茶	-9.56601
兴	-9.56616
丝	-9.56634
工具	-9.56639
猪	-9.56693
▁void	-9.56743
欧洲	-9.56867
紧	-9.5697
也会	-9.5701
说话	-9.57279
ian	-9.5731
照片	-9.57339
连接	-9.57341
了一个	-9.57561
男人	-9.57601
效果	-9.57685
怪	-9.57757
萨	-9.57808
剪	-9.57867
參考資料	-9.57891
比如	-9.57892
列表	-9.57913
对呀	-9.5793
咋	-9.57989
耳	-9.57991
规定	-9.58041
法国	-9.58105
不断	-9.58136
记得	-9.58173
变化	-9.58179
撒	-9.58215
▁only	-9.58237
首先	-9.58261
购买	-9.58263
易	-9.58339
尽	-9.58342
毒	-9.58358
笔	-9.58365
三个	-9.58488
电脑	-9.58519
em	-9.58603
以上	-9.58636
boolean	-9.58729
▁b	-9.58838
尾	-9.58846
康	-9.58852
样	-9.58959
的一个	-9.58987
乡	-9.58989
value	-9.59115
--	-9.59115
▁J	-9.59132
▁public	-9.59198
甜	-9.59248
训练	-9.59391
（），	-9.594
帝	-9.59484
形成	-9.5964
有一个	-9.59758
▁event	-9.59867
杨	-9.5987
绝	-9.599
未来	-9.59908
艺术	-9.59947
体育	-9.60036
▁class	-9.60062
艾	-9.60119
目标	-9.60245
还在	-9.6026
平台	-9.60319
▁"$	-9.6032
丽	-9.60389
▁service	-9.60431
text	-9.6048
蒙	-9.60483
厚	-9.60526
灵	-9.60588
也可以	-9.60623
api	-9.60706
宁	-9.60707
反正	-9.60763
▁H	-9.60794
机会	-9.60805
词	-9.60819
义	-9.60834
include	-9.60859
让你	-9.60968
症	-9.60997
▁Id	-9.61013
我现在	-9.61066
me	-9.6111
return	-9.61139
引	-9.61163
喜	-9.61219
降	-9.61265
因素	-9.61293
ge	-9.61294
疾病	-9.61319
借	-9.6146
轻	-9.61497
就像	-9.61537
一名	-9.61635
▁License	-9.61642
▁one	-9.6168
交通	-9.61738
友	-9.61881
扎	-9.61962
仍然	-9.61998
共同	-9.62031
ta	-9.62073
避免	-9.62123
爆	-9.62148
第一次	-9.62185
更加	-9.62245
肥	-9.62273
惊	-9.62287
朱	-9.62296
股	-9.62375
▁false	-9.62488
观	-9.62532
执行	-9.62532
那里	-9.62646
容	-9.62826
不可	-9.62866
满足	-9.62879
感到	-9.62947
的小	-9.62956
▁their	-9.62958
ity	-9.62965
私	-9.62969
的时间	-9.63021
版本	-9.63062
？
‎	-9.63085
co	-9.63091
蛋	-9.63164
不得	-9.63167
{	-9.63178
价值	-9.63228
":"","	-9.63262
ur	-9.63272
脱	-9.63276
人民	-9.63331
越来越	-9.63331
▁first	-9.63367
。」	-9.63496
性能	-9.63507
末	-9.63531
▁he	-9.6354
印度	-9.63571
宫	-9.63592
具体	-9.63683
ut	-9.63743
US	-9.63778
不仅	-9.63811
羅	-9.63894
仍	-9.63976
还可以	-9.6401
莱	-9.64049
在这里	-9.64081
操作	-9.6424
宣布	-9.64253
状	-9.6439
坏	-9.64397
ul	-9.64571
一定要	-9.64747
景点	-9.64782
简单	-9.64792
顿	-9.64804
犯	-9.64929
▁know	-9.64944
政策	-9.64979
举	-9.64991
!!!
	-9.65035
我喜欢	-9.65038
至少	-9.6507
，“	-9.65073
增	-9.65145
程序	-9.65183
ate	-9.65216
是呀	-9.65218
计	-9.65249
娜	-9.65253
check	-9.65358
害	-9.65361
Can	-9.65371
search	-9.65376
達	-9.655
方便	-9.65585
&	-9.65608
一位	-9.65652
▁has	-9.65674
届	-9.65685
而已	-9.65708
all	-9.65814
行动	-9.65816
市镇	-9.65842
贴	-9.65859
點	-9.65867
▁In	-9.65905
生物	-9.65907
▁key	-9.65963
Type	-9.65974
String	-9.66025
解释	-9.66061
结婚	-9.66076
機	-9.66155
吃了	-9.66204
那种	-9.66224
设置	-9.66246
▁do	-9.66306
可能是	-9.66365
速度	-9.66389
pe	-9.66408
是谁	-9.66427
per	-9.6646
馆	-9.66575
ist	-9.66577
戏	-9.66652
时代	-9.66659
练	-9.66746
警	-9.66829
Id	-9.66847
合同	-9.66999
随着	-9.67053
混	-9.67115
倍	-9.67144
餐厅	-9.67159
女人	-9.67165
"}}}]}
{"	-9.67181
號	-9.67336
一個	-9.67346
書	-9.67502
瑞	-9.67567
ne	-9.67588
就可以	-9.67588
亮	-9.67628
君	-9.67649
空气	-9.67778
我还	-9.67859
准	-9.67868
资源	-9.67883
亿	-9.67919
的事情	-9.6794
過	-9.67966
那样	-9.68039
战争	-9.68054
阶段	-9.68076
平方公里	-9.68268
一切	-9.6827
）、	-9.68288
性的	-9.68371
event	-9.68372
韩国	-9.68512
卫	-9.68529
保险	-9.68584
过程中	-9.68589
烧	-9.68753
page	-9.68757
ti	-9.68771
库	-9.68773
请问	-9.68895
唉	-9.69012
参考	-9.69012
表面	-9.69059
▁D	-9.69116
枪	-9.69152
太阳	-9.69209
▁file	-9.69399
觉	-9.69418
你好啊	-9.695
▁his	-9.6955
记录	-9.69564
参与	-9.69566
告诉	-9.69579
项	-9.69589
你就	-9.69612
好吗	-9.69681
方向	-9.69718
也许	-9.69737
帕	-9.6975
专	-9.69841
工业	-9.69843
org	-9.69915
秒	-9.69937
京	-9.69985
都没	-9.70052
演员	-9.70061
他说	-9.70108
都在	-9.70124
一条	-9.70142
负	-9.70168
提出	-9.7019
从而	-9.70195
箱	-9.70227
攻	-9.70455
持	-9.70568
孙	-9.70652
模式	-9.70707
▁address	-9.70744
限	-9.7077
干嘛	-9.70799
时期	-9.70816
生命	-9.70859
new	-9.70872
門	-9.70898
止	-9.70926
▁He	-9.7094
再次	-9.70966
刷	-9.71021
最佳	-9.71033
作者	-9.71046
多了	-9.71077
rate	-9.71184
爱你	-9.7128
降低	-9.71298
um	-9.71366
one	-9.71378
年轻	-9.71405
诗	-9.71431
MM	-9.71458
责任	-9.71516
许	-9.71545
说的	-9.71585
戰	-9.7162
侧	-9.71634
还能	-9.71649
结束	-9.71708
懂	-9.7175
设	-9.71888
有个	-9.71911
ca	-9.71928
右	-9.71943
电子	-9.71978
恢复	-9.71996
文章	-9.72002
for	-9.72003
▁It	-9.72011
則	-9.72018
佳	-9.72034
刻	-9.72036
那我	-9.7206
教授	-9.72064
功	-9.722
約	-9.72216
你不	-9.7233
系列	-9.72375
谈	-9.72412
展	-9.72474
▁available	-9.72482
秋	-9.72536
眼睛	-9.72537
蓝	-9.72593
ma	-9.72696
浪	-9.72768
我看	-9.72777
喂	-9.72808
兄弟	-9.72828
都没有	-9.72829
。“	-9.72853
在家	-9.72868
必	-9.72941
厉害	-9.72961
菲	-9.72968
现场	-9.72989
后面	-9.73042
嘴	-9.73076
struct	-9.73176
控	-9.73271
est	-9.73282
from	-9.73451
父母	-9.73476
中央	-9.73487
旧	-9.73541
可惜	-9.73595
尽管	-9.73595
Retrieves	-9.73655
直到	-9.73681
RE	-9.73732
征	-9.73799
胸	-9.7383
保证	-9.73877
距离	-9.73956
在哪里	-9.74042
原来	-9.74067
》，	-9.74074
抢	-9.74079
虫	-9.7414
尚	-9.74217
▁access	-9.74258
永远	-9.74332
运行	-9.74378
礼	-9.74395
十分	-9.74506
我家	-9.7452
頭	-9.74542
耐	-9.7456
攻击	-9.74563
items	-9.74624
独	-9.7464
以为	-9.74659
区域	-9.74666
▁used	-9.7467
婚	-9.74744
阴	-9.74769
韩	-9.74831
麦	-9.74848
咱们	-9.7497
暴	-9.75029
▁provided	-9.75044
ir	-9.75084
对象	-9.75089
▁request	-9.75229
预	-9.75257
ba	-9.75264
曰	-9.75267
電影	-9.75306
支付	-9.75356
过程	-9.75376
mm	-9.75406
哈哈哈哈哈	-9.75437
噢	-9.75559
善	-9.75603
硬	-9.75663
▁page	-9.75685
论	-9.75747
下去	-9.75833
▁||	-9.7587
張	-9.75947
不敢	-9.75993
每次	-9.75997
了啊	-9.7604
评分是	-9.76083
莉	-9.76155
打开	-9.76168
部门	-9.76171
price	-9.76199
偷	-9.76205
慢	-9.76272
之间的	-9.76297
曾经	-9.76342
你还	-9.76373
床	-9.76392
▁its	-9.76532
literal	-9.76574
；
	-9.76576
单位	-9.76659
缺	-9.7677
团队	-9.76847
死亡	-9.76967
▁so	-9.77042
钢	-9.77083
var	-9.77091
sh	-9.77092
怀	-9.77142
长期	-9.77214
凉	-9.77234
是我	-9.77282
隊	-9.77302
告	-9.77333
动物	-9.77377
回到	-9.77395
key	-9.77432
ice	-9.77503
打算	-9.77521
买了	-9.77528
吴	-9.77546
电视	-9.77578
 	-9.77586
感染	-9.77639
租	-9.77656
List	-9.77798
隔	-9.77838
句	-9.77894
做的	-9.77969
吸	-9.78047
不一样	-9.78098
To	-9.78114
梁	-9.78147
桑	-9.78177
儿子	-9.78261
la	-9.78293


	-9.78304
ies	-9.78331
▁query	-9.78405
居然	-9.78488
差不多	-9.78606
滑	-9.78653
看起来	-9.78663
鸡	-9.7873
飞机	-9.78789
另一	-9.78833
计算	-9.78863
她们	-9.78913
发布	-9.78963
一场	-9.79002
媒体	-9.79055
载	-9.79117
按照	-9.79224
职	-9.7924
動	-9.7926
免费	-9.79319
制作	-9.79323
膜	-9.7934
語	-9.79404
广	-9.79422
class	-9.79447
科技	-9.79577
总统	-9.79613
运动员	-9.79635
成立	-9.79655
自动	-9.79717
弹	-9.7981
我有	-9.79833
表达	-9.79909
等等	-9.79984
委员会	-9.79994
宽	-9.80008
你会	-9.80022
term	-9.80038
獎	-9.80049
类型	-9.80071
谢	-9.80105
要是	-9.80124
day	-9.80125
清楚	-9.80146
ab	-9.802
靠	-9.80219
盛	-9.80239
让人	-9.80316
▁should	-9.80398
洋	-9.8042
汤	-9.80436
获	-9.80444
傻	-9.80476
▁under	-9.80509
嘻嘻	-9.8051
女子	-9.80537
ting	-9.80566
宋	-9.80582
賽	-9.80585
备	-9.80626
主要是	-9.80631
郡	-9.80648
他是	-9.80662
的吗	-9.80694
供	-9.80698
植物	-9.80734
商业	-9.80832
餐馆	-9.8084
start	-9.80875
象	-9.80928
▁const	-9.80995
洞	-9.81039
仁	-9.81056
ie	-9.81075
药物	-9.81222
ER	-9.81268
怎样	-9.81305
車	-9.81518
外部連結	-9.8153
選	-9.81562
ty	-9.8166
虎	-9.81664
抓	-9.81673
mp	-9.81755
境	-9.81759
施	-9.81865
行业	-9.8188
da	-9.81886
势	-9.8193
limit	-9.81972
法院	-9.8202
棒	-9.82027
良	-9.82037
埃	-9.82105
”。
	-9.82165
丹	-9.82185
联赛	-9.82204
app	-9.82204
持续	-9.82257
赵	-9.82331
欧	-9.82344
▁more	-9.82477
遇到	-9.82534
凯	-9.82548
航	-9.82553
父	-9.82572
你有	-9.82615
绝对	-9.82693
▁URL	-9.82719
我已经	-9.82722
休	-9.82735
嘉	-9.82782
广告	-9.82809
调整	-9.82809
置	-9.82812
够	-9.82822
去看	-9.82831
井	-9.82986
出了	-9.83079
确保	-9.83099
去年	-9.83103
羡慕	-9.83133
ure	-9.83157
数字	-9.83194
任务	-9.83265
谷	-9.8337
斗	-9.83389
跟我	-9.83396
皮肤	-9.83421
取得	-9.83449
彩	-9.83451
下降	-9.83544
鸟	-9.83645
广州	-9.83861
都要	-9.83899
玩家	-9.8397
of	-9.83992
美元	-9.83993
隆	-9.84044
当地	-9.84081
减肥	-9.84106
)\	-9.84146
下载	-9.84225
名字	-9.84242
max	-9.84268
敢	-9.84274
line	-9.84287
限制	-9.8429
杜	-9.8429
台灣	-9.84315
鞋	-9.84447
的生活	-9.84448
导演	-9.84553
好啊	-9.84652
负责	-9.84688
ci	-9.84732
指出	-9.84759
助	-9.8477
儿童	-9.84801
绿	-9.84823
components	-9.84873
Here	-9.84918
天气	-9.84941
屋	-9.84973
需	-9.85069
食物	-9.85217
進	-9.85281
禁	-9.85345
▁m	-9.85378
IN	-9.85399
mo	-9.85469
▁stock	-9.8548
暗	-9.85576
品牌	-9.85627
間	-9.85677
骂	-9.85708
有很多	-9.85709
症状	-9.85751
更多的	-9.85776
范围	-9.8579
do	-9.85826
周边	-9.85841
▁also	-9.85855
题	-9.85898
周末	-9.85901
是吗	-9.85915
刚刚	-9.85947
这就是	-9.8599
应该是	-9.86015
协议	-9.86051
華	-9.86057
佩	-9.8606
回复	-9.86062
酷	-9.86065
病毒	-9.86071
command	-9.8608
的方式	-9.86183
税	-9.86199
餐	-9.86223
为啥	-9.86239
▁text	-9.86278
旅游	-9.86302
形式	-9.86308
招	-9.86423
format	-9.8648
log	-9.86488
印	-9.86524
皇	-9.86525
位於	-9.86614
看过	-9.86633
實	-9.86646
DD	-9.86671
答	-9.86829
软	-9.86902
羊	-9.86927
人生	-9.86935
职业	-9.86945
内部	-9.86965
吹	-9.87009
是指	-9.87017
不管	-9.87058
程度	-9.87128
篮球	-9.87151
太多	-9.87152
self	-9.87234
拜	-9.87329
盐	-9.87377
上面	-9.8745
包含	-9.87464
营	-9.87496
ry	-9.87568
消	-9.87578
References	-9.87705
手术	-9.87746
不然	-9.87748
處	-9.87756
不太	-9.87805
上课	-9.87814
警察	-9.87823
雄	-9.87828
惠	-9.8783
▁between	-9.87847
英语	-9.87883
▁Could	-9.87885
并没有	-9.87888
麻	-9.87891
魔	-9.8795
void	-9.87958
▁–	-9.87988
就不	-9.8803
收入	-9.88036
零	-9.88093
安排	-9.88143
▁before	-9.88165
透	-9.88174
充	-9.88228
抱	-9.88234
der	-9.8826
祖	-9.88284
屬	-9.88286
墙	-9.88398
轴	-9.88483
帮我	-9.88491
加拿大	-9.88523
担任	-9.88568
User	-9.88573
依	-9.88595
增长	-9.886
弗	-9.88604
▁}

	-9.88684
os	-9.88815
徒	-9.88926
哦哦	-9.88982
值得	-9.89032
▁language	-9.89054
制造	-9.89057
毕业	-9.89081
明显	-9.89085
资料	-9.89124
赫	-9.89162
例	-9.89183
逃	-9.89226
户	-9.89271
怎么了	-9.893
不客气	-9.89376
摩	-9.89402
就好	-9.89467
漂亮	-9.89528
###	-9.89573
▁country	-9.89575
移	-9.89594
沉	-9.896
ke	-9.89653
泵	-9.89663
ac	-9.89686
移动	-9.89688
經	-9.89744
怎么办	-9.89795
是因为	-9.89843
略	-9.89854
坑	-9.89909
▁please	-9.89913

//	-9.89944
看见	-9.89956
/*	-9.89988
听到	-9.89991
▁out	-9.89997
收到	-9.90035
业务	-9.90074
发表	-9.90088
▁no	-9.901
▁pizza	-9.90143
▁tool	-9.90245
▁New	-9.90276
▁price	-9.90298
▁‎	-9.90403
仙	-9.90436
看你	-9.90446
land	-9.90515
还没有	-9.90527
心里	-9.90559
"]}}]	-9.90619
NBA	-9.90625
注	-9.9066
valid	-9.90675
▁con	-9.90718
霍	-9.90785
UTC	-9.90844
▁other	-9.90862
国内	-9.90985
灰	-9.91022
磨	-9.91028
会有	-9.9107
令人	-9.91072
豆	-9.91145
信号	-9.91154
他們	-9.91159
导	-9.9119
成本	-9.91211
很难	-9.91215
hi	-9.91267
道路	-9.91274
理论	-9.91327
钟	-9.91341
烟	-9.91476
小说	-9.91513
独立	-9.91545
一份	-9.91669
年的	-9.91681
身上	-9.917
来源	-9.91701
的比赛	-9.9179
ance	-9.91824
检测	-9.91833
use	-9.91888
即使	-9.91911
▁find	-9.91913
總	-9.9194
风险	-9.91974
▁who	-9.9215
节目	-9.92161
秦	-9.92166
而是	-9.92172
▁#	-9.92187
師	-9.92212
info	-9.92249
举行	-9.92342
同意	-9.92347
出生	-9.92379
似乎	-9.92446
历	-9.92464
厂	-9.92523
瓜	-9.92527
）。

	-9.92587
现实	-9.92595
全国	-9.92601
在哪	-9.92637
既	-9.92673
知识	-9.92694
▁when	-9.92697
社区	-9.92754
南京	-9.92774
的工作	-9.92793
慢慢	-9.92816
家里	-9.92828
就要	-9.92851
护	-9.92876
含	-9.92922
徐	-9.93009
传统	-9.93023
row	-9.93127
二十	-9.93159
措施	-9.93159
斯特	-9.93174
赶	-9.93229
过了	-9.93255
▁product	-9.93313
刺	-9.93341
成员	-9.93392
危险	-9.93403
驻	-9.93404
销售	-9.9344
静	-9.93453
几乎	-9.93503
认	-9.93517
---	-9.93522
大量	-9.93599
劳	-9.93642
不喜欢	-9.93673
明朝	-9.93684
码	-9.93688
go	-9.93732
推荐您去	-9.93782
mi	-9.93793
op	-9.93812
size	-9.93826
现代	-9.94016
农	-9.94022
闻	-9.94036
费用	-9.94045
快速	-9.94084
▁over	-9.94092
壁	-9.94098
乌	-9.94108
year	-9.94244
完了	-9.94284
幕	-9.94307
担心	-9.94322
enum	-9.94324
敬	-9.94339
沃	-9.94386
探	-9.9439
▁fetch	-9.94435
实际	-9.94471
舞	-9.94558
面积	-9.94593
愛	-9.94598
稳定	-9.94621
引起	-9.94802
的影响	-9.94848
爱情	-9.94947
早上	-9.95026
應	-9.95035
锅	-9.95078
ol	-9.95108
entry	-9.95173
am	-9.95186
);

	-9.95231
西班牙	-9.95317
泡	-9.95323
Check	-9.95354
股票	-9.95378
电话是	-9.95438
▁image	-9.95515
女孩	-9.95526
地球	-9.95584
Data	-9.95619
ts	-9.95679
经验	-9.95706
免	-9.95713
针对	-9.95727
我说	-9.95775
熟	-9.958
观察	-9.95817
普通	-9.95838
排名	-9.95839
中國	-9.95844
的故事	-9.95867
那边	-9.95878
▁tools	-9.95888
//	-9.95888
称为	-9.9589
你怎么	-9.95947
大部分	-9.95994
跟你	-9.95998
稱	-9.96008
意义	-9.96043
萬	-9.96053
test	-9.96063
意大利	-9.96072
试试	-9.96092
会议	-9.96096
的原因	-9.96118
提前	-9.96121
带来	-9.96206
柱	-9.96297
有效	-9.96346
旅行	-9.96368
)

	-9.96459
下面	-9.96505
范	-9.96521
而不是	-9.96529
停止	-9.96568
亲爱的	-9.96575
欢迎	-9.96579
ill	-9.96785
▁may	-9.96831
允许	-9.96875
物质	-9.9693
体验	-9.96958
一直在	-9.96971
島	-9.97032
事实	-9.97063
公共	-9.971
需求	-9.97192
ence	-9.97213
add	-9.97255
胶	-9.97278
)，	-9.97289
吃的	-9.9741
息	-9.97443
放在	-9.9753
改善	-9.97551
生日快乐	-9.97572
▁Default	-9.97578
世界杯	-9.9758
.",	-9.976
银	-9.9761
愿	-9.97639
妹	-9.97641
那么多	-9.97652
享受	-9.97671
父亲	-9.97684
ap	-9.97696
买的	-9.97714
郎	-9.97714
实力	-9.97738
哥哥	-9.97769
付	-9.97772
▁per	-9.97792
．	-9.97796
}
	-9.97884
大學	-9.97958
成绩	-9.97967
▁St	-9.98026
挂	-9.98045
承	-9.98053
便宜	-9.98072
▁some	-9.98084
也没有	-9.98144
不好意思	-9.98153
也很	-9.98228
庄	-9.9825
年龄	-9.98421
▁V	-9.98443
生长	-9.98461
您可以	-9.98463
net	-9.98475
definitions	-9.98517
前往	-9.9853
峰	-9.98585
第四	-9.98658
员工	-9.98676
巨	-9.98686
让我们	-9.98696
当天	-9.98762
抱歉	-9.98763
▁including	-9.98764
习惯	-9.98791
显	-9.988
名称	-9.98813
最高	-9.9886
我没	-9.98939
ary	-9.98951
困难	-9.99046
】	-9.99133
电视剧	-9.99144
男朋友	-9.99175
凡	-9.99237
熊	-9.99291
个月	-9.99296
尤其是	-9.99306
拒绝	-9.99309
▁two	-9.99321
特殊	-9.99368
于是	-9.99372
CA	-9.99407
我們	-9.9943
疼	-9.99462
腰	-9.99545
Event	-9.99587
沒有	-9.99645
最大的	-9.9966
就能	-9.99714
来看	-9.99721
池	-9.99779
丰	-9.99781
成都	-9.99866
颜色	-9.99873
▁For	-9.99925
折	-9.99975
有可能	-9.99976
寺	-10.0006
"},{"	-10.0025
▁None	-10.0025
皆	-10.003
AR	-10.003
轉	-10.0031
一部	-10.0036
就在	-10.0037
你这	-10.0046
回答	-10.0046
女生	-10.0046
符合	-10.0049
尿	-10.0051
pt	-10.0055
麻烦	-10.0056
‑	-10.0059
经历	-10.0061
上了	-10.0061
用的	-10.0068
我很	-10.0075
▁there	-10.0077
he	-10.0078
财	-10.0078
▁version	-10.0079
炮	-10.008
我也想	-10.0088
我可以	-10.0092
port	-10.0097
豪	-10.0101
val	-10.0102
固定	-10.011
背景	-10.0113
交流	-10.0118
这边	-10.0122
兼	-10.013
所有的	-10.013
薄	-10.0132
電	-10.0133
our	-10.0137
伤害	-10.0137
岁的	-10.0139
拖	-10.0152
▁provide	-10.0154
ex	-10.016
▁include	-10.0165
po	-10.0173
真好	-10.0179
动作	-10.0182
话说	-10.0183
喊	-10.0186
烦	-10.0186
也要	-10.0189
角色	-10.0193
this	-10.0195
时候	-10.0205
product	-10.0214
蛮	-10.0221
也没	-10.0223
的新	-10.0227
来的	-10.0229
},"	-10.023
head	-10.0232
const	-10.0233
▁RapidAPI	-10.024
集团	-10.0241
化学	-10.0241
}
{"	-10.0244
接触	-10.025
▁*
	-10.025
众	-10.0254
对了	-10.0257
三年	-10.0263
等我	-10.0264
苏州	-10.0272
明星	-10.0273
一只	-10.0286
昌	-10.0286
黃	-10.029
盆	-10.029
真的很	-10.0291
AS	-10.0295
岸	-10.0302
双方	-10.0302
跨	-10.0306
你能	-10.031
机场	-10.0311
sp	-10.0313
是由	-10.0318
ff	-10.032
ho	-10.0321
▁com	-10.0324
男性	-10.0325
土地	-10.0328
di	-10.0338
稳	-10.0338
潮	-10.034
蘭	-10.0342
狂	-10.0342
淡	-10.0344
赶紧	-10.0345
分子	-10.0348
的情况	-10.0355
link	-10.0356
ha	-10.0361
玛	-10.0368
▁x	-10.0376
▁pro	-10.0379
風	-10.0392
IT	-10.0397
访问	-10.0398
呼	-10.0413
▁unique	-10.0417
Ex	-10.0418
就好了	-10.0419
▁}	-10.0419
这么多	-10.0422
公园	-10.0431
每年	-10.0438
▁i	-10.0439
同样	-10.0439
变得	-10.0443
朗	-10.0444
办法	-10.0448
武器	-10.0454
还会	-10.0461
车辆	-10.0463
祝	-10.0464
领域	-10.0464
夏天	-10.0466
明白	-10.0467
里的	-10.0468
欲	-10.0469
主义	-10.0471
拔	-10.0472
▁La	-10.0476
警方	-10.0479
母亲	-10.0484
▁see	-10.0487
不够	-10.0491
对方	-10.0494
播	-10.0497
相当	-10.0502
注册	-10.0503
讨论	-10.0503
犯罪	-10.0506
赛季	-10.0506
籍	-10.0507
以来	-10.0508
的感觉	-10.051
金融	-10.051
面对	-10.0513
che	-10.0518
创建	-10.0527
▁email	-10.0527
大家都	-10.0536
今晚	-10.0547
另一个	-10.0547
▁been	-10.0549
～	-10.0555
描述	-10.0557
挑战	-10.0558
其它	-10.0561
马上	-10.0572
高度	-10.0578
呈	-10.0581
找个	-10.0581
竹	-10.0583
智	-10.0583
发挥	-10.0585
不再	-10.0587
業	-10.0589
扣	-10.0592
ator	-10.0593
务	-10.0598
告诉你	-10.0605
到达	-10.0607
你想	-10.061
寄	-10.061
粗	-10.061
规则	-10.0611
▁filter	-10.0613
my	-10.0623
航空	-10.0634
回来了	-10.0636
％	-10.0636
相对	-10.0637
英雄	-10.0638
本来	-10.0643
念	-10.0646
才是	-10.0655
签	-10.0663
納	-10.0664
巧	-10.0665
纯	-10.0667
剧情	-10.0682
不知	-10.0685
风格	-10.0686
▁response	-10.0687
杂	-10.0688
赢	-10.0692
心理	-10.0693
瓶	-10.0699
实施	-10.0701
长得	-10.0705
▁You	-10.0705
萌	-10.0709
难道	-10.0718
横	-10.0718
▁~
	-10.0721
祝福	-10.0722
革命	-10.0723
▁My	-10.0725
到底	-10.0736
大概	-10.0737
聊	-10.0738
困	-10.0743
年前	-10.0747
▁valid	-10.0748
fi	-10.0749
醒	-10.0749
卢	-10.0755
生日	-10.0755
能不能	-10.0759
不懂	-10.076
做出	-10.0761
首次	-10.0763
龍	-10.0769
闭	-10.077
我还是	-10.0772
ps	-10.0776
关键	-10.0785
大小	-10.0789
乘	-10.0791
str	-10.0792
批	-10.0793
惨	-10.08
推出	-10.0804
证据	-10.0805
▁into	-10.0808
结合	-10.0813
▁L	-10.0818
变成	-10.082
湿	-10.0822
一张	-10.0823
饼	-10.0825
現	-10.083
De	-10.0836
ga	-10.0836
country	-10.0844
rs	-10.0846
涂	-10.085
▁team	-10.0853
留下	-10.0859
嗯呢	-10.0862
ru	-10.0864
等你	-10.0873
要去	-10.0876
泥	-10.0877
聖	-10.0884
的情况下	-10.0885
item	-10.0885
出口	-10.0886
针	-10.0891
我不知道	-10.0898
num	-10.0898
地理	-10.0899
建设	-10.0909
家族	-10.0912
兹	-10.0913
阅读	-10.0914
害怕	-10.0914
table	-10.0915
计算机	-10.0923
▁values	-10.0927
进去	-10.0927
一项	-10.093
辣	-10.0933
剑	-10.094
进一步	-10.0941
心情	-10.0941
实验	-10.0944
旗	-10.0944
课程	-10.095
几天	-10.0953
特别是	-10.0956
下雨	-10.0959
采取	-10.0967
ST	-10.0968
Search	-10.0968
　	-10.0969
特征	-10.0971
记者	-10.0972
▁match	-10.0973
暖	-10.0973
带着	-10.0982
哎呀	-10.0983
想去	-10.0986
什	-10.0991
教练	-10.0995
old	-10.1
sort	-10.1008
房间	-10.1011
樂	-10.1017
拼	-10.102
佐	-10.1023
成為	-10.1024
都能	-10.1026
评	-10.1038
袋	-10.1038
tic	-10.1039
家人	-10.1046
延	-10.1051
让他	-10.1054
query	-10.1055
車站	-10.1057
不需要	-10.1061
席	-10.1064
那天	-10.1067
fa	-10.1068
恋	-10.1071
女朋友	-10.1077
俗	-10.1078
晒	-10.1079
ja	-10.108
本身	-10.1081
并不是	-10.1082
多久	-10.1083
创造	-10.1088
地铁	-10.109
有机会	-10.1099
珠	-10.11
堡	-10.1108
模型	-10.1111
提升	-10.1112
的主要	-10.1113
专家	-10.1118
是真的	-10.112
委	-10.1122
菌	-10.1123
邦	-10.1135
公布	-10.1135
種	-10.1137
param	-10.1138
爬	-10.1138
无聊	-10.1144
老板	-10.1149
bo	-10.115
败	-10.1157
歌曲	-10.1158
出版	-10.116
冠	-10.116
ations	-10.1164
很少	-10.1165
溪	-10.1166
【	-10.1171
创	-10.1171
资金	-10.1174
symbol	-10.1181
New	-10.1182
检	-10.1183
残	-10.1185
泉	-10.1187
schema	-10.1194
联盟	-10.1195
评论	-10.1196
连续	-10.1196
军事	-10.1201
級	-10.1206
始	-10.1211
逐渐	-10.1223
技能	-10.1225
▁un	-10.1233
公司的	-10.1235
}

	-10.1239
▁==	-10.1241
没人	-10.1243
机械	-10.1246
都可以	-10.1254
昂	-10.1256
金属	-10.1256
青年	-10.126
ization	-10.1262
reservation	-10.1266
医	-10.1267
宜	-10.1268
白色	-10.1274
固	-10.1274
红色	-10.1275
我国	-10.128
竟然	-10.1282
主席	-10.1284
尝试	-10.1285
count	-10.1291
寻找	-10.1295
数量	-10.1295
简直	-10.1296
姓	-10.1298
铁路	-10.1299
皇帝	-10.1306
阀	-10.1308
某些	-10.1312
Service	-10.1312
你又	-10.1315
错误	-10.1322
表明	-10.1324
▁where	-10.1332
▁after	-10.1333
是你	-10.1334
臣	-10.1348
乃	-10.1353
争	-10.1354
测	-10.1355
侯	-10.1363
日期	-10.1368
编辑	-10.1369
垃圾	-10.1369
虾	-10.137
Key	-10.1373
简	-10.1375
base	-10.1375
开放	-10.1376
▁test	-10.1382
了呢	-10.1383
唯一	-10.1392
status	-10.1394
搭	-10.1396
example	-10.1397
杆	-10.1397
吐	-10.1398
杭州	-10.1401
pr	-10.1405
十二	-10.1412
ear	-10.1412
矿	-10.1413
基础	-10.1414
愿意	-10.142
▁self	-10.1421
烤	-10.1421
甘	-10.1425
ms	-10.1444
月份	-10.1444
▁season	-10.1445
很大	-10.1445
庆	-10.1446
人士	-10.1446
基于	-10.145
挺好的	-10.1456
▁group	-10.1457
优势	-10.1457
呆	-10.1457
YYYY	-10.1458
▁status	-10.1465
没什么	-10.1467
民族	-10.1472
light	-10.1475
提供了	-10.1476
销	-10.1477
▁domain	-10.1478
碎	-10.1483
吸引	-10.1486
闲	-10.1486
深圳	-10.1487
组成	-10.1489
女儿	-10.1494
br	-10.1495
通知	-10.1495
Set	-10.1496
red	-10.1496
很有	-10.1511
傳	-10.1513
辛	-10.1515
相比	-10.1515
承认	-10.1515
等着	-10.1516
開始	-10.1517
你不是	-10.1521
分别	-10.1525
图片	-10.1528
耍	-10.153
实际上	-10.1534
童	-10.1537
振	-10.1538
敌	-10.1542
咬	-10.1545
茨	-10.1545
失败	-10.1545
視	-10.1545
爸爸	-10.1546
现象	-10.1547
思想	-10.1552
side	-10.1553
cy	-10.1554
讨厌	-10.1554
":[	-10.1554
多个	-10.1561
'
	-10.1566
魏	-10.1568
我就是	-10.1569
郭	-10.1572
大约	-10.1574
宇	-10.1575
MA	-10.158
……	-10.1584
http	-10.1599
》（	-10.1601
参见	-10.1609
分享	-10.1609
下的	-10.1612
組	-10.1616
ph	-10.1619
选手	-10.1624
連	-10.1625
▁field	-10.1626
食品	-10.1629
岩	-10.1634
壮	-10.1636
出发	-10.1636
Number	-10.1637
冬天	-10.1643
還	-10.1645
逆	-10.1652
的方法	-10.1657
突	-10.166
Filter	-10.1667
%，	-10.1677
ated	-10.1679
▁part	-10.1692
權	-10.1693
咖啡	-10.1694
乙	-10.1695
的样子	-10.1698
输入	-10.1699
vi	-10.1699
舍	-10.1704
恶	-10.1706
真正	-10.1711
▁her	-10.1718
流行	-10.1719
做了	-10.1722
尖	-10.1722
ang	-10.1726
Properties	-10.1727
力量	-10.173
及时	-10.1738
昨晚	-10.174
▁how	-10.1752
狼	-10.1753
仔	-10.1753
摆	-10.1754
平均	-10.1754
娱乐	-10.1756
如今	-10.1761
的大	-10.1762
▁schema	-10.1764
ng	-10.1773
Test	-10.1776
还不错	-10.1779
动力	-10.1782
综合	-10.1784
忍	-10.1786
"}}
{"	-10.1792
有空	-10.1792
高级	-10.1798
这位	-10.1802
上映	-10.1809
維	-10.1815
浮	-10.1816
°	-10.1817
é	-10.1818
▁year	-10.182
博士	-10.182
ig	-10.1832
亿美元	-10.1835
及其	-10.1838
感谢	-10.1842
義	-10.1844
医疗	-10.1847
材	-10.1852
pa	-10.1854
bar	-10.1862
▁result	-10.1863
对不起	-10.1866
围	-10.1867
file	-10.187
处于	-10.1872
把我	-10.1873
寒	-10.1873
optional	-10.1876
出门	-10.1884
ions	-10.1887
编	-10.1887
我今天	-10.1892
嘿	-10.1895
有的	-10.19
??
	-10.1905
少女	-10.1905
庭	-10.1907
map	-10.1907
你去	-10.1908
官方	-10.1912
学会	-10.1917
互	-10.1919
最大	-10.192
ner	-10.192
File	-10.1921
错了	-10.1926
或许	-10.1931
别的	-10.1933
肠	-10.1935
损失	-10.1938
状况	-10.1939
replaceable	-10.1942
答案	-10.1942
移民	-10.1943
想到	-10.1944
参	-10.1963
裡	-10.1965
帶	-10.1969
邊	-10.197
歲	-10.197
▁would	-10.1972
效	-10.1972
乳	-10.1976
应当	-10.198
▁York	-10.1988
闹	-10.1993
郑	-10.1998
论文	-10.1999
它是	-10.2003
平时	-10.2007
输	-10.2012
的名字	-10.2015
中间	-10.2015
真实	-10.2018
USD	-10.2025
晕	-10.2029
宝贝	-10.2036
鲜	-10.2036
▁item	-10.204
适应	-10.2043
术	-10.2053
在线	-10.2059
这不是	-10.2063
ick	-10.2064
积极	-10.2065
有多	-10.2068
紧张	-10.2068
随便	-10.2068
就有	-10.207
基因	-10.2075
方案	-10.2079
篇	-10.208
tal	-10.2087
▁symbol	-10.2088
放假	-10.2093
对手	-10.2094
神经	-10.2095
一旦	-10.2099
阵	-10.2113
声音	-10.2116
看到了	-10.2117
的电影	-10.2125
决	-10.2128
DE	-10.2132
破坏	-10.2135
▁w	-10.214
关心	-10.2145
第一个	-10.2145
序	-10.2146
▁Bo	-10.2147
健	-10.2153
威胁	-10.2158
▁Co	-10.2158
串	-10.2159
因为我	-10.2159
▁final	-10.2159
奧	-10.2159
在这	-10.216
的那个	-10.2163
上次	-10.2163
积	-10.2164
接近	-10.2169
▁De	-10.2178
別	-10.218
表演	-10.2184
申	-10.2184
胃	-10.2187
氣	-10.2188
炸	-10.2189
圖	-10.219
观众	-10.2191
启动	-10.2194
进行了	-10.2196
梅西	-10.2201
殿	-10.2202
早期	-10.2208
我能	-10.2211
宣	-10.2215
刑	-10.2215
夹	-10.2219
依然	-10.2222
命令	-10.2223
ical	-10.2228
陪	-10.2231
没办法	-10.2234
还不	-10.2237
汗	-10.2243
address	-10.2245
奶	-10.2249
扫	-10.2252
紫	-10.2252
妹妹	-10.2254
喔	-10.2255
員	-10.2256
售	-10.2259
");
	-10.2262
▁were	-10.2266
镜	-10.2269
order	-10.2274
踢	-10.2277
壳	-10.2279
ings	-10.2283
參考文獻	-10.2288
随后	-10.2288
正好	-10.2289
大多数	-10.2289
难以	-10.2292
舰	-10.2295
▁v	-10.2301
om	-10.2302
联合	-10.2311
猛	-10.2316
▁next	-10.2318
漢	-10.2318
config	-10.2319
國際	-10.2321
▁String	-10.2325
房子	-10.233
快点	-10.2332
反对	-10.2335
骗	-10.2341
胎	-10.2344
劲	-10.2345
来吧	-10.2347
营养	-10.235
中华人民共和国	-10.2351
往往	-10.2352
数学	-10.2352
将会	-10.2352
装置	-10.2356
姑娘	-10.2356
页面	-10.2359
公开	-10.236
学名	-10.2362
」，	-10.2368
An	-10.2369
弟	-10.2369
好吃的	-10.2371
能源	-10.2371
▁Ho	-10.2376
主演	-10.2384
接下来	-10.2387
很快	-10.2392
妹子	-10.2393
太好了	-10.2411
泽	-10.2411
须	-10.2412
喷	-10.2412
last	-10.2413
：）	-10.2414
复杂	-10.2415
防止	-10.242
就算	-10.2424
你说的	-10.243
洪	-10.2437
▁char	-10.2443
本文	-10.2444
而言	-10.2444
墨	-10.2445
俩	-10.2446
明确	-10.2447
忘了	-10.2447
package	-10.2449
代码	-10.2451
成了	-10.2453
使得	-10.2458
发行	-10.2462
▁each	-10.2466
email	-10.2469
ep	-10.2472
的一种	-10.2474
也在	-10.2474
新加坡	-10.2479
▁they	-10.2479
]}}}]
{"	-10.2481
分为	-10.2483
没想到	-10.2484
low	-10.2487
东北	-10.2497
最好的	-10.2502
染	-10.2504
的位置	-10.2506
纹	-10.2507
AL	-10.251
一致	-10.2515
range	-10.2519
优	-10.2523
午	-10.2525
▁Let	-10.2526
一段	-10.2533
不足	-10.2544
枝	-10.2544
陳	-10.2545
评估	-10.2546
▁rate	-10.2549
▁had	-10.255
设施	-10.2557
image	-10.256
sa	-10.2565
的一部分	-10.2567
附	-10.2567
ative	-10.2571
肝	-10.2575
醉	-10.2576
领导	-10.2576
▁local	-10.2576
刺激	-10.2577
》、《	-10.2577
module	-10.2579
ag	-10.2582
想吃	-10.2586
▁market	-10.259
辛苦	-10.2591
会不会	-10.2598
▁these	-10.2604
報	-10.2609
情绪	-10.261
給	-10.261
勤	-10.2611
su	-10.2612
办公室	-10.2614
失去	-10.2619
年度	-10.262
可以在	-10.2623
把你	-10.2623
阻	-10.2624
认真	-10.2632
▁No	-10.2639
给他	-10.2644
冬	-10.2644
纽约	-10.2646
早就	-10.265
ver	-10.2652
fe	-10.2658
受伤	-10.2659
直播	-10.2661
感受	-10.2663
不可能	-10.2665
想象	-10.2668
鼓	-10.2674
试验	-10.2677
han	-10.2677
老公	-10.2677
)"},"	-10.2682
有时	-10.2684
ub	-10.2686
房屋	-10.2689
大型	-10.2695
地區	-10.2697
购	-10.2702
感情	-10.2703
华为	-10.2705
机器人	-10.2706
呼吸	-10.2706
~",	-10.2707
玻璃	-10.2708
諾	-10.2711
的发展	-10.2711
▁project	-10.2712
word	-10.2713
.",
	-10.2713
资	-10.2715
一半	-10.2716
tion	-10.2718
是为了	-10.2718
是吧	-10.272
黑色	-10.2722
小孩	-10.2722
AT	-10.2724
根本	-10.2736
翻译	-10.2744
和其他	-10.2745
炒	-10.2745
▁same	-10.2747
我没有	-10.2747
au	-10.2752
ea	-10.2757
四个	-10.2759
不少	-10.2764
骑	-10.2768
宿舍	-10.277
晋	-10.2772
响	-10.2772
丈夫	-10.2776
出来的	-10.2776
亚洲	-10.2779
你来	-10.2783
确认	-10.2785
大的	-10.2787
影片	-10.2788
哒	-10.279
制度	-10.2796
▁ride	-10.2796
冒	-10.2805
忠	-10.2807
坡	-10.281
▁must	-10.2813
两人	-10.2813
exp	-10.2817
能量	-10.282
):
	-10.282
國家	-10.2823
但我	-10.2825
斤	-10.2826
临	-10.2831
插	-10.2839
饿	-10.284
res	-10.2841
恐怖	-10.2842
話	-10.2842
扬	-10.2843
好玩	-10.2843
遇	-10.2844
▁var	-10.2845
IP	-10.2846
最新	-10.2847
电池	-10.2849
進行	-10.2851
看的	-10.2852
两种	-10.2856
说了	-10.2858
万元	-10.286
的声音	-10.286
男生	-10.2862
过年	-10.2866
妈	-10.2867
▁start	-10.2869
特定	-10.2872
掌	-10.2876
陵	-10.2877
荷	-10.2877
。
（	-10.2879
游泳	-10.2879
等待	-10.288
抽	-10.2886
发出	-10.2886
心疼	-10.2888
演出	-10.2888
意外	-10.2889
北部	-10.2895
碗	-10.2895
▁application	-10.2895
之中	-10.2899
顾	-10.2899
木有	-10.2903
ud	-10.2907
想想	-10.2909
虚	-10.2909
另	-10.291
饮食	-10.2913
传播	-10.2913
异常	-10.2914
▁found	-10.2915
打球	-10.292
con	-10.292
主题	-10.2928
录	-10.2935
尊	-10.2937
少年	-10.2939
礼物	-10.2939
▁our	-10.2941
state	-10.2942
划	-10.2943
觀	-10.2945
撞	-10.2945
恨	-10.2946
Inquirer	-10.2949
我们可以	-10.2949
遭	-10.2953
角度	-10.2955
声明	-10.296
一块	-10.2971
明年	-10.2973
典	-10.2973
ride	-10.2974
▁range	-10.2975
View	-10.2983
關	-10.2985
Item	-10.2986
运输	-10.2986
桃	-10.2987
因為	-10.2988
tra	-10.2993
print	-10.2993
将其	-10.3
审	-10.3008
旅	-10.3012
▁could	-10.3017
▁make	-10.3026
去世	-10.3027
ect	-10.303
你现在	-10.3032
不住	-10.3034
不起	-10.3042
去看看	-10.3051
冻	-10.3052
洲	-10.3052
的孩子	-10.3055
▁l	-10.3066
重要的	-10.3073
挑	-10.3074
替	-10.3079
妻子	-10.308
精彩	-10.3081
俊	-10.3085
无论	-10.3086
▁through	-10.3086
way	-10.3102
ast	-10.3103
晓	-10.3108
變	-10.3114
▁[
	-10.3115
bit	-10.3117
鹿	-10.3119
•	-10.3119
律师	-10.3119
资格	-10.3121
配置	-10.3122
试图	-10.3124
）。
	-10.3126
不去	-10.3137
在那里	-10.3142
如果您	-10.3142
作业	-10.3142
▁sub	-10.3144
没问题	-10.3144
LE	-10.3144
组合	-10.3145
▁co	-10.3152
贸易	-10.3152
污染	-10.3153
你也是	-10.3154
▁long	-10.3162
中午	-10.317
正是	-10.3179
见到	-10.3182
旁	-10.3187
‘	-10.3187
欠	-10.3188
Code	-10.3188
屏	-10.3188
臭	-10.3189
资产	-10.3189
旁边	-10.3191
协会	-10.3192
混合	-10.3193
nd	-10.3212
裂	-10.3214
墓	-10.3215
▁work	-10.3215
腔	-10.3217
穆	-10.3223
莎	-10.3226
地下	-10.3227
几年	-10.3229
ki	-10.3231
每天都	-10.3242
下了	-10.3246
index	-10.325
哼	-10.3257
讓	-10.3258
伊朗	-10.3259
说我	-10.3262
终	-10.3267
和你	-10.3268
▁within	-10.3269
构成	-10.327
战斗	-10.3273
有时候	-10.329
标志	-10.3296
Object	-10.3296
pos	-10.3297
现在的	-10.3302
收集	-10.3305
▁IP	-10.3307
Time	-10.3314
目的	-10.3315
女神	-10.3316
source	-10.3326
咱	-10.333
咨询	-10.3331
ial	-10.3336
预测	-10.3338
基金	-10.3339
将军	-10.3341
两年	-10.3349
净	-10.3358
孝	-10.3363
Response	-10.3364
琴	-10.3365
職	-10.3365
TO	-10.3366
▁sorry	-10.3368
立即	-10.3374
前面	-10.3374
store	-10.3377
你家	-10.3378
好久	-10.3379
发现了	-10.3388
居民	-10.3389
就去	-10.339
也能	-10.3392
渡	-10.3394
戈	-10.34
准确	-10.3401
穷	-10.3402
乖	-10.3402
博物馆	-10.3403
遍	-10.3404
投票	-10.3405
幼	-10.3405
相同	-10.3411
ish	-10.3415
长的	-10.342
一生	-10.342
）

	-10.3424
所以我	-10.3434
摸	-10.3435
闪	-10.3436
意思	-10.3436
培训	-10.3438
煮	-10.3438
议	-10.3439
激动	-10.3439
案件	-10.3441
currency	-10.3441
小心	-10.3442
多年	-10.3446
▁than	-10.3451
点击	-10.3454
qu	-10.3459
严	-10.3462
▁last	-10.3465
感动	-10.3465
意见	-10.3466
你喜欢	-10.3466
幸	-10.3467
不怕	-10.3469
肖	-10.347
婚姻	-10.3473
"]	-10.3475
都很	-10.3475
工资	-10.3476
官员	-10.3476
肚子	-10.3478
▁null	-10.3479
▁website	-10.3484
]
	-10.3485
益	-10.3485
ay	-10.3489
丢	-10.3501
车站	-10.3502
军队	-10.3504
room	-10.3505
隐	-10.3505
的作用	-10.3507
汇	-10.3508
▁example	-10.351
spec	-10.3512
育	-10.3513
提醒	-10.3514
▁error	-10.3517
中文	-10.3521
高中	-10.353
TV	-10.3533
▁flight	-10.3538
鐵	-10.3539
特朗普	-10.3545
俱乐部	-10.3546
放弃	-10.3547
利益	-10.3548
巴西	-10.3549
察	-10.3552
卫生	-10.3554
hu	-10.3556
腹	-10.3556
ED	-10.3567
财产	-10.3572
ton	-10.3573
鸭	-10.3576
details	-10.3576
▁either	-10.3584
关闭	-10.3585
这部电影	-10.3587
专门	-10.3588
瑟	-10.359
▁Se	-10.3591
上帝	-10.3594
肯	-10.36
获得了	-10.3607
多种	-10.3607
测量	-10.361
并在	-10.3612
ach	-10.3615
妮	-10.3615
粘	-10.3615
team	-10.3622
候	-10.3623
分以上	-10.3628
生平	-10.3637
你了	-10.3639
署	-10.3648
全面	-10.365
一会	-10.365
执	-10.3653
運	-10.3654
澳大利亚	-10.3656
但在	-10.3656
html	-10.3657
聲	-10.3659
俄	-10.366
我也觉得	-10.3661
拍照	-10.3667
我最近	-10.3679
事业	-10.3683
搜	-10.3686
▁Do	-10.3689
身份	-10.369
缘	-10.369
氧化	-10.3691
黨	-10.3692
经典	-10.3694
▁what	-10.3694
四川	-10.3699
要不要	-10.3714
language	-10.3715
加工	-10.3719
介	-10.372
message	-10.3725
缺乏	-10.3725
此时	-10.3726
迅速	-10.3727
肌	-10.3727
毁	-10.3727
芳	-10.3728
胜利	-10.3728
摇	-10.3728
平衡	-10.3729
患	-10.3731
非洲	-10.3736
管道	-10.3741
空调	-10.3745
效率	-10.3745
至今	-10.3747
涉及	-10.3749
成长	-10.3751
ens	-10.3751
先走了	-10.3753
ide	-10.3755
荣	-10.3759
废	-10.376
促进	-10.3769
CO	-10.377
重庆	-10.377
а	-10.3779
一定会	-10.3787
??	-10.3787
部队	-10.379
思考	-10.3791
原则	-10.3793
length	-10.3794
▁historical	-10.3796
更好的	-10.3797
疑	-10.3797
reg	-10.3798
网上	-10.3807
元素	-10.3811
坦	-10.3813
采	-10.3815
在美国	-10.3815
></	-10.3816
Map	-10.3817
叔	-10.3818
上述	-10.3818
阳光	-10.3818
味道	-10.3819
▁Mo	-10.3826
到时候	-10.3829
敏	-10.3831
lu	-10.3831
不久	-10.3832
蛇	-10.3837
art	-10.384
赤	-10.384
补充	-10.3841
拍摄	-10.3842
本人	-10.3844
真正的	-10.3845
▁All	-10.385
我只是	-10.3852
也不会	-10.3853
嫁	-10.3857
的朋友	-10.3861
ka	-10.3861
商品	-10.3863
睡了	-10.3863
医学	-10.3866
头像	-10.3867
球員	-10.3868
据说	-10.387
也就	-10.3877
区别	-10.3879
column	-10.3879
贷款	-10.3881
碰	-10.3881
发动机	-10.3883
律	-10.3888
述	-10.3889
小姐	-10.3889
物理	-10.3905
伴	-10.3905
劳动	-10.3906
',
	-10.3914
查看	-10.3915
饰	-10.3916
自我	-10.3916
搜索	-10.3917
羽	-10.3918
保存	-10.3926
投入	-10.393
▁state	-10.3932
很不错	-10.3934
默	-10.3939
文字	-10.3939
statement	-10.3944
▁else	-10.3945
灭	-10.3949
竞争	-10.3949
掉了	-10.395
成熟	-10.3952
不如	-10.3953
时刻	-10.3955
我自己	-10.3955
▁message	-10.3955
癌	-10.3963
ai	-10.3964
正确	-10.3965
的酒店	-10.3968
▁company	-10.3969
肌肉	-10.3971
▁We	-10.3972
见过	-10.3972
出来了	-10.3972
驱动	-10.3974
Value	-10.3984
ct	-10.3984
ring	-10.3988
▁U	-10.3988
▁An	-10.3992
^	-10.3993
选举	-10.3994
了很多	-10.3995
照顾	-10.3998
大哥	-10.4
時間	-10.401
生气	-10.401
多次	-10.4011
和平	-10.4013
rating	-10.4016
即可	-10.4018
继	-10.4024
怒	-10.4026
避	-10.4027
怀孕	-10.4028
授	-10.4029
愉快	-10.4031
太多了	-10.4034
旋转	-10.4036
一个月	-10.4036
充满	-10.4037
上升	-10.4039
position	-10.404
放心	-10.4044
PC	-10.4053
不在	-10.4053
示	-10.4053
英文	-10.4059
▁plan	-10.4063
乔	-10.4065
展示	-10.4066
肺	-10.4066
有助于	-10.4067
开车	-10.4068
魚	-10.4068
摄氏度	-10.4069
外部链接	-10.4069
伟	-10.4071
上去	-10.4077
ticket	-10.4078
view	-10.4084
氧	-10.4088
tory	-10.4091
添加	-10.4101
孟	-10.4102
類	-10.4105
爷	-10.4106
评价	-10.4108
va	-10.411
▁top	-10.4111
祝你	-10.4112
()
	-10.4121
For	-10.4121
▁city	-10.4124

‎
-	-10.4125
ess	-10.4126
條	-10.4126
ual	-10.413
ok	-10.413
▁Me	-10.4131
窗	-10.4135
我来	-10.4137
問	-10.4138
啥时候	-10.4139
西方	-10.414
蛋白	-10.414
眾	-10.4141
贡献	-10.4144
商标	-10.4144
娃	-10.4145
host	-10.4145
痛苦	-10.4145
作出	-10.4146
之外	-10.415
今日	-10.4152
生存	-10.4152
统	-10.4152
广场	-10.4153
输出	-10.4154
comp	-10.4159
国外	-10.416
category	-10.416
在此	-10.416
IC	-10.4173
呐	-10.4174
定义	-10.4174
奉	-10.4177
为何	-10.4179
設	-10.4182
裝	-10.4183
陆	-10.4185
▁dis	-10.4187
还挺	-10.4187
inter	-10.4189
ight	-10.4189
▁Le	-10.4191
体系	-10.4196
ak	-10.4203
偶	-10.4204
');
	-10.4205
表情	-10.4207
星期	-10.4207
他家	-10.4207
轻松	-10.421
less	-10.4212
意味着	-10.4212
擊	-10.4219
斑	-10.422
锻炼	-10.4221
gi	-10.4224
取消	-10.4224
foo	-10.4226
整体	-10.4228
▁maximum	-10.423
共有	-10.4235
ny	-10.4235
ven	-10.4235
▁Mar	-10.4237
美食	-10.4239
好像是	-10.4242
病人	-10.425
经营	-10.425
也不是	-10.4253
節	-10.4257
柔	-10.4258
没关系	-10.4259
面前	-10.4263
夫人	-10.4265
帮你	-10.4266
▁Ma	-10.4266
not	-10.4269
ling	-10.4272
态	-10.4273
▁app	-10.4274
你自己	-10.4277
果然	-10.428
要不	-10.428
优秀	-10.429
同事	-10.429
schedule	-10.4292
韦	-10.4294
埋	-10.4297
請	-10.4297
鄉	-10.4298
又是	-10.43
amount	-10.43
维护	-10.4301
mode	-10.4301
小行星	-10.4302
青春	-10.4304
沿	-10.4307
▁post	-10.4313
投资者	-10.4316
bi	-10.4318
页	-10.432
距	-10.4323
ong	-10.4324
我一直	-10.4332
戒	-10.4336
民主	-10.4337
蔡	-10.4337
联邦	-10.4337
眉	-10.4337
▁org	-10.4339
聪明	-10.434
命名	-10.4352
含有	-10.4355
path	-10.4356
锁	-10.4362
球迷	-10.4362
夸	-10.4363
重点	-10.4364
有了	-10.4366
转换	-10.4367
指导	-10.4369
city	-10.4369
事故	-10.4372
迁	-10.4373
缝	-10.4375
丘	-10.4376
寫	-10.4377
強	-10.4377
藤	-10.4378
后的	-10.4381
的行为	-10.4382
周围	-10.4387
女士	-10.439
完美	-10.4396
国家的	-10.4399
一段时间	-10.4402
遗	-10.4407
机器	-10.4408
粒	-10.4409
主任	-10.4411
▁Al	-10.4412
current	-10.4413
重大	-10.4414
宿	-10.4415
榜	-10.4415
ee	-10.4416
老婆	-10.4418
禁止	-10.4419
培养	-10.4419
必须的	-10.442
有所	-10.4422
Comp	-10.4422
演的	-10.4425
滤	-10.4436
od	-10.444
我感觉	-10.4444
赢了	-10.4446
Th	-10.4454
si	-10.4454
赖	-10.4455
schemas	-10.4455
互相	-10.4455
AM	-10.4456
修改	-10.4456
一句	-10.4456
Fetch	-10.4457
勝	-10.4457
私人	-10.4459
▁endpoint	-10.4463
很多人	-10.4465
有哪些	-10.4466
做什么	-10.447
创作	-10.447
▁without	-10.4471
流量	-10.4474
一周	-10.4478
来到	-10.4479
可以通过	-10.448
你觉得	-10.448
SE	-10.448
这么说	-10.4481
选项	-10.4485
模	-10.4487
單	-10.4488
己	-10.4492
荒	-10.4495
ris	-10.4497
男孩	-10.4501
尽量	-10.4501
中国的	-10.4504
如下	-10.4505
英國	-10.4506
饱	-10.4511
PS	-10.4513
有钱	-10.4514
act	-10.4514
他人	-10.4518
▁news	-10.452
五年	-10.4524
链	-10.4526
鼻	-10.4528
調	-10.4534
行政区划	-10.4538
ize	-10.4539
抱抱	-10.4539
▁Pa	-10.454
▁items	-10.454
歷史	-10.454
Text	-10.4541
进步	-10.4543
当年	-10.4543
和我	-10.4545
的所有	-10.4546
擔任	-10.455
街道	-10.4552
打电话	-10.4553
囊	-10.4554
qui	-10.4555
相互	-10.4558
node	-10.4558
ob	-10.4559
St	-10.4559
sum	-10.456
▁path	-10.4562
文学	-10.4563
统计	-10.4565
](	-10.4566
亡	-10.4567
歌手	-10.4569
py	-10.4572
障碍	-10.4574
領	-10.4575
再说	-10.4577
伦敦	-10.4578
衛	-10.4578
弟弟	-10.4579
返回	-10.4582
阿尔	-10.4583
一把	-10.4586
mon	-10.4592
的机会	-10.4592
GB	-10.4596
App	-10.4599
厅	-10.4601
不容易	-10.4604
)
{
	-10.4607
eg	-10.4607
什么的	-10.4615
妇女	-10.4626
);	-10.4628
▁require	-10.4631
黄金	-10.4634
pi	-10.4635
▁random	-10.4637
▁ex	-10.4638
兄	-10.4645
展开	-10.4646
▁she	-10.4648
天下	-10.465
仪	-10.465
将在	-10.465
▁options	-10.4652
遂	-10.4653
柏	-10.4654
币	-10.4656
復	-10.4657
專	-10.4657
旺	-10.4657
农业	-10.4659
决赛	-10.466
有限公司	-10.4662
不来	-10.4663
db	-10.4666
充分	-10.4666
ue	-10.4669
身边	-10.4671
ized	-10.4672
▁category	-10.4685
sch	-10.4685
妃	-10.4694
奔	-10.4694
稀	-10.4697
du	-10.4699
close	-10.4702
猜	-10.4705
忘记	-10.4708
集中	-10.4708
gen	-10.4718
更好	-10.4721
保留	-10.4723
小时候	-10.4723
的重要	-10.4725
甚	-10.4727
瘦了	-10.4733
':	-10.4735
消费	-10.4735
湾	-10.4738
感兴趣	-10.4741
难受	-10.4742
维持	-10.4742
});
	-10.4743
公主	-10.4744
暴力	-10.4745
一件	-10.4747
第五	-10.4747
加强	-10.4752
CH	-10.4755
迟	-10.4759
真心	-10.4759
特性	-10.476
的表现	-10.4762
烈	-10.4762
PA	-10.4762
两次	-10.4765
▁private	-10.477
坚	-10.4773
雲	-10.4777
内心	-10.4777
興	-10.4778
記	-10.478
循环	-10.4781
危机	-10.4781
▁'#/	-10.4782
body	-10.4782
;
	-10.4784
暂时	-10.4785
裤	-10.4785
找不到	-10.4786
几点	-10.4789
相关的	-10.479
很喜欢	-10.4793
震	-10.4793
哪些	-10.4794
好想	-10.4795
def	-10.4797
▁Ro	-10.4798
提到	-10.4801
><	-10.4807
世界上	-10.4809
▁Li	-10.481
tri	-10.4812
播放	-10.4816
宾	-10.482
诊断	-10.482
咸	-10.4822
so	-10.4822
很棒	-10.4822
屆	-10.4823
ni	-10.4826
的价格	-10.4827
武汉	-10.4827
美丽	-10.4827
▁Use	-10.4831
满意	-10.4831
石油	-10.4833
的信息	-10.4835
一步	-10.4836
的照片	-10.4837
离婚	-10.4841
居住	-10.4844
劇	-10.4848
不得不	-10.485
多少钱	-10.4851
▁Con	-10.4851
开了	-10.4854
很容易	-10.4858
air	-10.4859
卻	-10.4859
我得	-10.4859
用来	-10.486
槽	-10.4862
▁during	-10.4865
战略	-10.4865
一系列	-10.4867
相似	-10.4877
\",	-10.4879
||	-10.488
科学家	-10.4881
▁To	-10.4881
OS	-10.4882
了么	-10.4889
堆	-10.4897
拆	-10.4898
楚	-10.4898
焦	-10.4898
ina	-10.4899
才会	-10.49
驾驶	-10.49
浅	-10.4903
预防	-10.4905
回忆	-10.4905
destination	-10.4906
feature	-10.4906
面積	-10.4909
This	-10.491
工艺	-10.491
清朝	-10.4911
分手	-10.4917
门票	-10.4918
By	-10.4919
最初	-10.4919
domain	-10.492
教堂	-10.4922
教师	-10.4929
bin	-10.4931


#	-10.4933
State	-10.4935
绕	-10.4936
地位	-10.494
详细	-10.4944
燕	-10.4945
我这	-10.4946
这件事	-10.4956
ret	-10.4958
把它	-10.4959
也就是	-10.4959
有着	-10.4962
调节	-10.4971
獲	-10.4977
難	-10.4985
▁OR	-10.4985
诉	-10.4987
site	-10.4987
mark	-10.4993
men	-10.4997
做到	-10.4998
请求	-10.5005
刚才	-10.5005
吓	-10.5007
挡	-10.5009
飞行	-10.5012
▁ticket	-10.5013
cl	-10.5014
ral	-10.5024
聯	-10.5027
詹姆斯	-10.5029
记忆	-10.503
互联网	-10.503
新年快乐	-10.5032
航班	-10.5033
不见	-10.5041
合适的	-10.5043
▁account	-10.5044
这部剧	-10.5045
广泛	-10.5049
图像	-10.5052
定位	-10.5053
十年	-10.5054
off	-10.5055
late	-10.5057
随时	-10.5061
娘	-10.5064
主动	-10.5064
批准	-10.5064
親	-10.5069
以便	-10.507
保障	-10.5071
飘	-10.5072
width	-10.5074
台湾	-10.5075
忘	-10.5077
升级	-10.5077
我怎么	-10.5078
我不是	-10.508
叫我	-10.508
比賽	-10.5083
Windows	-10.5086
高速	-10.5087
read	-10.5087
找我	-10.5093
gu	-10.5094
▁amount	-10.5094
ten	-10.5095
地点	-10.5107
似	-10.511
一百	-10.5112
稿	-10.5113
calculate	-10.5115
Exception	-10.5116
巴黎	-10.5116
Reservation	-10.5116
即将	-10.5119
或是	-10.5124
朝鲜	-10.5125
大脑	-10.5126
point	-10.5131
沟	-10.5137
作家	-10.5139
[]	-10.514
帝国	-10.514
▁table	-10.514
被告	-10.5141
的研究	-10.5142
其他人	-10.5145
▁years	-10.5145
就行	-10.5149
欢	-10.5151
宮	-10.5153
殺	-10.5154
魂	-10.5154
宅	-10.5155
贤	-10.5155
崇	-10.5156
繁	-10.5156
宇宙	-10.5156
谱	-10.5156
尺寸	-10.5157
预计	-10.5157
▁such	-10.5159
Class	-10.5159
举办	-10.5159
username	-10.5165
创新	-10.5166
被称为	-10.5175
去哪	-10.5176
▁room	-10.5177
知道了	-10.5178
ger	-10.5181
制定	-10.5182
爆炸	-10.5189
妇	-10.5189
葬	-10.5197
劉	-10.5198
掌握	-10.5198
承担	-10.5199
尴尬	-10.52
货币	-10.5201
percentage	-10.5201
CD	-10.5204
offset	-10.5205
你这个	-10.5209
太空	-10.5212
load	-10.5215
判	-10.5216
有一	-10.5221
帮忙	-10.5224
IS	-10.5226
SS	-10.5229
▁def	-10.523
分布	-10.5231
▁related	-10.5232
此前	-10.5233
我真的	-10.5233
强度	-10.5235
拳	-10.5241
珍	-10.5241
酒吧	-10.5243
免疫	-10.5244
获取	-10.5246
浪费	-10.5247
首都	-10.525
人均消费	-10.5251
森林	-10.5253
脏	-10.5256
住宿	-10.5262
正确的	-10.5262
write	-10.5263
▁area	-10.5268
很厉害	-10.5271
務	-10.5272
尤	-10.5276
她说	-10.5276
廣	-10.5277
Per	-10.528
▁Amazon	-10.528
薩	-10.5285
寶	-10.5286
Error	-10.5287
transfer	-10.5288
指标	-10.5289
over	-10.5291
难过	-10.5293
▁following	-10.5294
识别	-10.5294
▁See	-10.5298
additional	-10.5299
form	-10.5302
▁Public	-10.5303
进球	-10.5304
ave	-10.5304
配合	-10.5307
分类	-10.5309
津	-10.5314
西安	-10.5314
外面	-10.5318
订	-10.5323
奈	-10.5324
秘密	-10.5324
砂	-10.5329
迈	-10.5329
tr	-10.5329
err	-10.5329
ow	-10.533
存储	-10.5331
python	-10.5331
想法	-10.5331
dev	-10.5331
group	-10.5334
顺利	-10.5336
▁both	-10.5336
\",\	-10.5345
▁link	-10.5348
的意思	-10.535
上午	-10.5353
ya	-10.5359
▁Pro	-10.536
▁show	-10.5365
▁art	-10.5365
據	-10.5372
巡	-10.5372
胖了	-10.5378
OK	-10.5378
艺	-10.5379
的呢	-10.5382
音樂	-10.5383
万美元	-10.5385
▁level	-10.5385
实在	-10.5386
**\	-10.539
你应该	-10.5395
基地	-10.5396
刊	-10.5404
▁returns	-10.5405
},{"	-10.5405
聽	-10.5411
柳	-10.5414
卧	-10.5414
这两个	-10.5415
▁profile	-10.5415
▁create	-10.5416
挖	-10.5416
ard	-10.5416
屁	-10.5417
 	-10.5418
孕	-10.5418
節目	-10.5421
av	-10.5421
电机	-10.5422
).","	-10.5423
你都	-10.5431
▁index	-10.5431
▁Br	-10.5433
af	-10.5435
不上	-10.5438
ft	-10.5439
▁program	-10.5441
司机	-10.5441
什么都	-10.5444
事实上	-10.5445
古代	-10.5445
▁provides	-10.5454
凶	-10.5454
肿	-10.5456
迎	-10.5456
用了	-10.5456
长大	-10.5458
北方	-10.5459
的吧	-10.546
阻止	-10.5461
▁capability	-10.5462
Al	-10.5467
泰国	-10.5468
可怜	-10.5468
巨大的	-10.5471
ah	-10.5473
遭到	-10.5475
我记得	-10.5482
dy	-10.5489
total	-10.5491
主持	-10.5493
He	-10.5499
晨	-10.5501
彭	-10.5504
Google	-10.5506
探索	-10.5506
释放	-10.5506
蓝色	-10.5507
笑声	-10.5512
情况下	-10.5513
水果	-10.5516
hy	-10.5526
ON	-10.5529
指定	-10.5534
类似	-10.5535
['	-10.5537
济	-10.5538
强大	-10.5545
尘	-10.5546
▁payment	-10.5547
肾	-10.5547
瞎	-10.555
印象	-10.555
场比赛	-10.5552
人体	-10.5552
这个景点	-10.5558
打击	-10.5564
king	-10.5568
喝酒	-10.5568
▁pre	-10.5573
ana	-10.5574
Me	-10.5579
費	-10.5592
橋	-10.5593
搬	-10.5594
timestamp	-10.5594
Transfer	-10.5595
算了	-10.5596
增强	-10.5596
▁him	-10.5596
收购	-10.5597
飾演	-10.5597
跑步	-10.5599
▁analysis	-10.56
操	-10.5603
同年	-10.5604
城区	-10.5604
ward	-10.5608
ities	-10.5609
看到你	-10.561
记住	-10.5623
这家	-10.5624
origin	-10.5626
日子	-10.5628
的日子	-10.5632
桶	-10.5633
翼	-10.5633
ite	-10.5634
贼	-10.5636
判断	-10.5637
运用	-10.5638
ass	-10.5638
下班	-10.5639
每一个	-10.5639
▁total	-10.564
des	-10.5641
偶尔	-10.5641
What	-10.5642
));
	-10.5643
为什么要	-10.5645
去吧	-10.5647
獲得	-10.5649
尚未	-10.5652
过的	-10.5656
的好	-10.5658
CT	-10.566
使用的	-10.5662
拍的	-10.5663
霸	-10.5664
我之前	-10.5665
喜欢你	-10.568
斜	-10.5681
漏	-10.5682
雙	-10.5682
纪念	-10.5683
这款	-10.5685
ran	-10.5686
就没	-10.5687
▁static	-10.5688
work	-10.5689
ec	-10.5689
地址是	-10.5691
触	-10.5691
▁target	-10.5693
扩大	-10.5694
性格	-10.5697
代理	-10.5697
概念	-10.5702
lic	-10.5704
特色	-10.5705
詩	-10.5723
苗	-10.5724
▁seat	-10.5726
▁currency	-10.5726
都被	-10.5726
的心	-10.5727
小组	-10.5728
夫妻	-10.5729
幅	-10.5729
追求	-10.5733
Com	-10.5733
fs	-10.5733
那就是	-10.5735
说过	-10.5739
梦想	-10.5742
vo	-10.5743
三十	-10.5743
AI	-10.5744
mber	-10.5746
Add	-10.5756
les	-10.5757
污	-10.576
他还	-10.5761
险	-10.5765
磁	-10.5767
规划	-10.5771
渣	-10.5772
Calculate	-10.5772
鼓励	-10.5773
否则	-10.5774
▁map	-10.5774
：

	-10.5775
会被	-10.5779
尊重	-10.578
▁Time	-10.5782
▁Instagram	-10.5782
真的好	-10.5787
凝	-10.579
舒服	-10.579
明明	-10.5795
▁process	-10.5797
四年	-10.5799
这样啊	-10.58
邀请	-10.5805
加上	-10.5806
两天	-10.5806
。。。。	-10.5807
的第一	-10.5812
访	-10.5814
游玩	-10.5815
赚	-10.5816
琳	-10.5817
蘇	-10.5818
为主	-10.5819
我只	-10.582
因而	-10.5821
但他	-10.5823
false	-10.5823
是最	-10.5824
payment	-10.5824
形状	-10.5827
lat	-10.5828
▁]
	-10.5829
Val	-10.5831
ES	-10.5831
在中国	-10.5832
识	-10.5833
？”	-10.5834
▁case	-10.5849
给了	-10.5852
▁people	-10.5852
▁players	-10.5854
理由	-10.5855
机关	-10.5857
并非	-10.5859
鎮	-10.586
聊天	-10.5861
洁	-10.5862
之後	-10.5862
喜欢看	-10.5864
post	-10.5864
演技	-10.5864
遗憾	-10.5864
error	-10.5865
这项	-10.5866
部长	-10.5867
进攻	-10.5868
删除	-10.5869
oc	-10.587
临床	-10.5874
que	-10.5876
这是一个	-10.5879
想看	-10.588
rm	-10.5885
wi	-10.5894
填	-10.5898
账	-10.5901
但是我	-10.5903
差点	-10.5904
ell	-10.5906
扶	-10.5907
凭	-10.5908
柜	-10.5909
俺	-10.5909
摔	-10.591
amp	-10.591
的确	-10.5911
彼此	-10.5911
不良	-10.5912
')	-10.5912
粉丝	-10.5913
档	-10.5916
▁policy	-10.5917
跟着	-10.592
是不	-10.5921
消失	-10.5921
可怕	-10.5922
适用于	-10.5923
論	-10.5924
▁booking	-10.5929
AD	-10.593
曹	-10.5934
者的	-10.5937
站在	-10.594
干净	-10.5944
看完	-10.5945
恐	-10.5947
▁Ar	-10.5947
裁	-10.5947
▁General	-10.5948
的嘛	-10.5949
铺	-10.5952
引发	-10.5952
..
	-10.5953
tor	-10.5954
依据	-10.5954
戶	-10.5955
á	-10.5957
▁place	-10.5957
present	-10.5958
▁most	-10.5958
▁username	-10.596
left	-10.5961
method	-10.5971
No	-10.5972
field	-10.5973
▁media	-10.5976
该公司	-10.5978
合法	-10.5979
一遍	-10.598
绿色	-10.5982
電視	-10.5987
▁=>	-10.5989
饮	-10.5995
诚	-10.5995
土壤	-10.5998
祥	-10.5999
'.	-10.5999
RA	-10.6001
酱	-10.6001
挤	-10.6001
柯	-10.6002
睡不着	-10.6004
网球	-10.6009
mar	-10.6013
SA	-10.6013
len	-10.6015
强大的	-10.6015
元的	-10.6015
.

	-10.6017
误	-10.602
敌人	-10.6038
径	-10.6039
物品	-10.6044
玄	-10.6046
诉讼	-10.6047
彻底	-10.6048
發現	-10.605
海军	-10.6052
倒是	-10.6054
▁while	-10.6071
}},"	-10.6072
我又	-10.6074
公路	-10.6078
connect	-10.6078
在这个	-10.6078
▁tier	-10.6079
学家	-10.608
疾	-10.6082
比我	-10.6083
说什么	-10.6083
高兴	-10.6084
rt	-10.6086
车型	-10.6088
是有	-10.6089
缓	-10.6091
紅	-10.6092
`,	-10.6094
冲突	-10.6096
varlistentry	-10.6097
细节	-10.6101
ning	-10.6103
Mo	-10.6105
由於	-10.6107
外国	-10.6107
智能	-10.6108
稍	-10.6118
判决	-10.6118
懒	-10.6122
Co	-10.6124
体现	-10.6127
事物	-10.6136
脂	-10.6139
疫情	-10.614
逼	-10.6141
一篇	-10.6141
怎么会	-10.6141
怀疑	-10.6143
历史上	-10.6144
":{},"	-10.6144
家伙	-10.6146
卫星	-10.6146
狗狗	-10.6151
参数	-10.6152
上下	-10.6154
对我	-10.6154
我们都	-10.6154
工厂	-10.6159
了个	-10.6162
一边	-10.6164
好处	-10.6165
tu	-10.6166
▁car	-10.6167
▁Ra	-10.6167
哪有	-10.6167
很好的	-10.6176
一片	-10.6177
所在	-10.6177
▁OF	-10.6181
成就	-10.6181
Request	-10.6184
芬	-10.6186
纵	-10.6187
敲	-10.6189
简单的	-10.619
・	-10.619
队伍	-10.6192
回家了	-10.6192
严格	-10.6192
幸运	-10.6192
实验室	-10.6193
▁section	-10.6194
lock	-10.6194
我给你	-10.6196
比例	-10.6196
建造	-10.6196
专利	-10.6198
乎	-10.6201
西部	-10.6201
找你	-10.6203
您好	-10.6204
genre	-10.6204
重量	-10.6204
你是不是	-10.6206
我朋友	-10.6206
出现了	-10.6207
tag	-10.6208
还是要	-10.6209
文明	-10.622
author	-10.6223
parameter	-10.6225
伏	-10.6225
返	-10.6226
">	-10.6228
他也	-10.6228
国王	-10.623
鼠	-10.6231
年轻人	-10.6231
一路	-10.6232
欧盟	-10.6236
框	-10.6236
普遍	-10.6236
???	-10.6237
▁just	-10.6237
既然	-10.6239
！
‎	-10.6239
差异	-10.6244
▁links	-10.6248
我不想	-10.6252
enter	-10.6253
den	-10.6262
不清楚	-10.6263
▁support	-10.6263
創	-10.6264
char	-10.6264

《	-10.6271
做好	-10.6271
这也是	-10.6273
百度	-10.6275
火箭	-10.628
陶	-10.628
屈	-10.6282
泪	-10.6283
常见的	-10.6284
宣传	-10.6286
修复	-10.6288
应用程序	-10.6288
這個	-10.6294
电压	-10.6294
').	-10.6294
Ro	-10.6295
这句话	-10.6297
認為	-10.6298
ship	-10.6299
box	-10.63
OR	-10.6305
?
-	-10.6307
住在	-10.6309
议员	-10.631
top	-10.6311
Pre	-10.6312
地图	-10.6318
Se	-10.6321
铜	-10.6327
的学生	-10.6327
兴趣	-10.6331
赔偿	-10.6333
拿到	-10.6333
确实是	-10.6334
瑞士	-10.6336
地铁站	-10.6338
bb	-10.6338
常常	-10.6339
▁Must	-10.6339
电源	-10.6342
出售	-10.6345
tt	-10.6347
MP	-10.6349
▁add	-10.6355
逛	-10.6358
早安	-10.6365
面临	-10.6366
▁look	-10.6368
汁	-10.637
的要求	-10.6371
不算	-10.6372
棉	-10.6375
policy	-10.6376
什麼	-10.638
贾	-10.638
见面	-10.6381
ber	-10.6381
图书馆	-10.6381
latitude	-10.6382
▁end	-10.6382
longitude	-10.6382
长度	-10.6383
有时间	-10.6383
老人	-10.6384
cent	-10.6387
链接	-10.6392
▁read	-10.6394
附近的	-10.6399
在一个	-10.64
发育	-10.6403
zh	-10.6404
克斯	-10.6407
没有人	-10.641
ments	-10.6414
兒	-10.6414
試	-10.6417
create	-10.6417
旋	-10.6419
)、	-10.6419
感冒	-10.6422
book	-10.6423
ME	-10.6424
盗	-10.6424
域	-10.6425
译	-10.6426
赏	-10.6426
疯狂	-10.6429
虐	-10.6429
Description	-10.6433
后悔	-10.6434
At	-10.6434
广东	-10.6434
吸收	-10.6435
ness	-10.6435
我要去	-10.6436
胆	-10.6438
的能力	-10.6439
发射	-10.6442
天津	-10.6442
想知道	-10.6443
符	-10.6443
哭了	-10.6444
▁di	-10.6445
激	-10.6446
寻	-10.6449
Jo	-10.645
vin	-10.6455
▁confirm	-10.6458
周六	-10.6458
Dis	-10.6459
生活中	-10.6461
{
	-10.6464
不出	-10.6466
一看	-10.6468
谋	-10.647
的世界	-10.647
營	-10.6471
▁size	-10.6471
▁back	-10.6472
}}}]}
{"	-10.6472
吾	-10.6473
團	-10.6474
合理	-10.6475
牧	-10.6475
舒	-10.6476
人都	-10.6476
AN	-10.6476
宗教	-10.6477
学术	-10.6479
ck	-10.6479
ction	-10.648
得很	-10.6481
贝尔	-10.6485
是我的	-10.6487
强调	-10.6487
公民	-10.649
原理	-10.6494
▁Sa	-10.6498
▁copy	-10.6503
地面	-10.6505
十五	-10.6508
web	-10.6509
特点	-10.651
▁then	-10.6517
chi	-10.6521
虽	-10.6521
奏	-10.6522
持有	-10.6524
館	-10.6524
塑料	-10.6524
比赛中	-10.6525
策略	-10.6526
灌	-10.6526
運動員	-10.6527
we	-10.6527
蛋糕	-10.6528
▁distributed	-10.6528
基本上	-10.6531
cover	-10.6532
Image	-10.6533
Ma	-10.6533
开展	-10.6534
教学	-10.6534
长时间	-10.6537
血液	-10.6538
你最近	-10.654
缩	-10.6543
读书	-10.6544
解放	-10.6546
ture	-10.6548
拉斯	-10.655
成分	-10.6552
方面的	-10.6554
Pro	-10.6556
分配	-10.6557
接着	-10.6558
西北	-10.6559
躺	-10.6565
▁community	-10.6566
丰富	-10.6567
很重要	-10.6571
▁days	-10.6571
▁availability	-10.6571
绳	-10.6574
扔	-10.6575
澳洲	-10.6575
约翰	-10.6576
蟹	-10.6576
服務	-10.6576
妙	-10.6577
比你	-10.6578
▁Ha	-10.6578
清洁	-10.6578
为您推荐	-10.6578
失望	-10.6579
ping	-10.6579
发生了	-10.6581
大大	-10.6586
ally	-10.659
说是	-10.6603
當時	-10.6605
▁World	-10.6608
LI	-10.661
▁report	-10.6612
十八	-10.6614
发明	-10.6616
很久	-10.6617
其实我	-10.6619
辞	-10.6621
纤维	-10.6622
实践	-10.6623
覆盖	-10.6623
build	-10.6624
就知道	-10.6625
根據	-10.6625
杂志	-10.6626
各个	-10.6629
▁generate	-10.6629
打了	-10.663
她是	-10.6633
对话	-10.6645
SO	-10.6649
沒	-10.6649
???
	-10.665
phone	-10.665
路上	-10.6654
);
	-10.6654
？」	-10.6663
陽	-10.6668
較	-10.6669
卿	-10.667
不是很	-10.667
你咋	-10.667
坎	-10.6674
町	-10.6675
牛奶	-10.6676
().	-10.6677
技巧	-10.6677
阿姨	-10.6677
火车	-10.6678
情感	-10.6682
▁Go	-10.6683
bor	-10.6687
这也	-10.669
临时	-10.6691
出的	-10.6694
"]}	-10.6705
悲	-10.6705
NO	-10.6706
颗	-10.6706
Fi	-10.6708
看电影	-10.6709
年人口	-10.6711
讯	-10.6712
）：	-10.6716
疼痛	-10.6721
岳	-10.6721
sport	-10.6722
沈	-10.6722
×	-10.6722
更换	-10.6723
▁game	-10.6723
练习	-10.6724
惹	-10.6724
熬夜	-10.6726
oo	-10.6726
适	-10.6727
屏幕	-10.6729
官网	-10.673
有一些	-10.673
爆发	-10.6732
心态	-10.6735
范围内	-10.6737
wa	-10.6737
提交	-10.6739
js	-10.674
own	-10.6745
形象	-10.6748
本地	-10.6752
▁input	-10.6753
剩	-10.6754
的餐馆	-10.6756
▁database	-10.6759
浓	-10.6766
的新闻	-10.6767
邪	-10.6772
und	-10.6772
承诺	-10.6775
文艺	-10.6775
▁minutes	-10.6777
美好	-10.6778
ins	-10.6778
消费者	-10.678
裔	-10.6781
昭	-10.6784
一样的	-10.6786
▁import	-10.6786
分离	-10.6789
核心	-10.679
肯定是	-10.6794
平安	-10.6795
通道	-10.6799
樓	-10.6803
Min	-10.6805
会员	-10.6805
：
-	-10.6808
▁method	-10.681
listite	-10.6815
飛	-10.6815
盒	-10.6817
兽	-10.6821
碳	-10.6822
欣	-10.6823
撑	-10.6824
曼联	-10.6826
这个问题	-10.6826
▁ANY	-10.6827
每个人都	-10.6827
▁source	-10.6831
一切都	-10.6831
故意	-10.6832
iz	-10.6833
cr	-10.6836
发送	-10.6838
透露	-10.6838
ley	-10.684
团体	-10.6843
促	-10.6844
家长	-10.6845
客人	-10.6846
▁go	-10.685
山东	-10.6851
白天	-10.6856
不吃	-10.6861
妻	-10.6864
sta	-10.6866
▁Ba	-10.6868
▁run	-10.6869
▁convert	-10.687
▁line	-10.6871
是要	-10.6872
婴儿	-10.6872
侍	-10.6872
層	-10.6873
guest	-10.6874
偶像	-10.6879
ron	-10.6892
纪	-10.6892
名单	-10.6895
本站	-10.6899
南部	-10.69
好听	-10.69
),
	-10.6901
Air	-10.6902
util	-10.6902
男女	-10.6906
find	-10.6908
▁__	-10.6909
予	-10.691
All	-10.6911
ef	-10.6914
}}
{"	-10.6915
督	-10.692
宴	-10.6921
液体	-10.6921
歇	-10.6923
腾	-10.6924
筒	-10.6924
complete	-10.6925
火锅	-10.6925
显然	-10.6925
步骤	-10.6925
好看的	-10.6925
臺灣	-10.6926
早餐	-10.6931
算是	-10.6933
▁fee	-10.6934
找到了	-10.6935
国足	-10.6936
Con	-10.6936
tro	-10.6942
相反	-10.6942
我才	-10.6944
相机	-10.6952
两个人	-10.6954
名为	-10.6955
南方	-10.6956
▁Z	-10.6959
意识	-10.696
荡	-10.6963
窝	-10.6966
sur	-10.6969
危	-10.697
▁period	-10.697
可见	-10.6971
著名	-10.6971
滚	-10.6972
愈	-10.6973
撤	-10.6973
結	-10.6973
▁now	-10.6974
極	-10.6975
堵	-10.6975
▁events	-10.6975
▁Ch	-10.6976
▁standard	-10.6977
cursor	-10.6977
tournament	-10.6978
▁travel	-10.6978
罚	-10.6978
▁So	-10.6979
外部	-10.698
漫	-10.698
common	-10.6984
包装	-10.6992
某个	-10.6992
深度	-10.6994
全世界	-10.6995
大人	-10.6997
恒	-10.6999
属性	-10.7003
他们在	-10.7003
当前	-10.7011
的数据	-10.7015
你这是	-10.7021
的消息	-10.7022
▁open	-10.7022
):	-10.7025
吨	-10.7026
▁numbers	-10.7026
改革	-10.7027
悦	-10.7028
电路	-10.7029
и	-10.7029
break	-10.7029
小学	-10.7029
▁!=	-10.7034
厦门	-10.7034
Hi	-10.7035
把他	-10.7039
室内	-10.7039
搞笑	-10.7043
网友	-10.7044
ool	-10.7046
的呀	-10.7052
let	-10.7052
不大	-10.7054
我们在	-10.7055
▁server	-10.7055
▁allow	-10.7058
西南	-10.7059
进口	-10.7066
大陆	-10.7066
截	-10.7071
FC	-10.7071
走吧	-10.7075
ash	-10.7075
疫苗	-10.7076
潘	-10.7078
凌	-10.7079
装备	-10.7081
想你	-10.7082
标签	-10.7082
得到了	-10.7085
顺便	-10.7086
放松	-10.7088
等级	-10.7088
疯	-10.7089
我刚	-10.7094
action	-10.7099
的想法	-10.7101
队的	-10.7101
我们要	-10.7102
密封	-10.7103
好友	-10.7105
SC	-10.7109
气体	-10.711
规模	-10.7111
aw	-10.7111
lr	-10.7114
pl	-10.7115
验	-10.7119
▁parameter	-10.7121
ker	-10.7122
我也要	-10.7122
▁latest	-10.7122
勇	-10.7123
園	-10.7124
陷	-10.7124
height	-10.7127
static	-10.7128
我认为	-10.713
以色列	-10.713
我对	-10.7131
扩展	-10.7131
template	-10.7133
袭击	-10.7133
驾	-10.7136
par	-10.7136
轨道	-10.7138
的需求	-10.7141
的那种	-10.7141
的内容	-10.7144
uc	-10.7148
？
‪	-10.715
version	-10.715
深入	-10.715
她在	-10.7151
▁exchange	-10.7153
这场	-10.7153
press	-10.7155
日常	-10.7155
研	-10.7156
很强	-10.7163
一大	-10.7165
突破	-10.7166
主人	-10.7172
▁let	-10.7173
lin	-10.7175
观点	-10.7175
耗	-10.7181
遮	-10.7182
異	-10.7182
質	-10.7183
梨	-10.7184
荷兰	-10.7186
同時	-10.7187
cat	-10.7187
途	-10.7188
体重	-10.719
sign	-10.7203
最早	-10.7212
这就	-10.7217
ition	-10.7219
非法	-10.7223
盟	-10.7223
伸	-10.7224
▁London	-10.7226
▁second	-10.7226
MO	-10.7226
的一些	-10.7226
參	-10.7228
NT	-10.7228
隨	-10.7231
筹	-10.7233
疏	-10.7233
萧	-10.7233
倫	-10.7233
厉害了	-10.7234
預	-10.7234
▁GNU	-10.7237
float	-10.7237
▁detailed	-10.7237
常见	-10.7238
为人	-10.7242
EC	-10.7243
当你	-10.7243
辰	-10.7245
此次	-10.7246
校园	-10.7248
续	-10.725
')
	-10.725
我希望	-10.7253
假期	-10.7264
ake	-10.7273
又要	-10.7277
meters	-10.7285
廷	-10.7285
等人	-10.7287
趋势	-10.7287
吻	-10.7288
ack	-10.7288
损坏	-10.7289
恭喜	-10.7289
ster	-10.7289
萊	-10.7289
么么哒	-10.7289
ot	-10.729
对你	-10.7291
open	-10.7292
▁real	-10.7296
Qu	-10.7296
了嘛	-10.7297
▁etc	-10.7297
一方	-10.7299
tin	-10.73
刘海	-10.7301
Node	-10.7304
这一点	-10.7304
az	-10.7307
越南	-10.7312
▁here	-10.7313
產	-10.7317
一座	-10.732
巨大	-10.732
ks	-10.7321
癫痫	-10.7323
一款	-10.7328
MI	-10.733
葡萄	-10.733
熟悉	-10.733
事儿	-10.733
不信	-10.7333
pattern	-10.7339
tain	-10.734
干燥	-10.734
嗎	-10.734
遗传	-10.7341
一起去	-10.7341
说你	-10.7341
reason	-10.7342
gr	-10.7343
反映	-10.7343
rain	-10.7346
▁City	-10.7347
HO	-10.7349
栏	-10.735
put	-10.735
内的	-10.7354
这样做	-10.7356
議	-10.7357
皇后	-10.736
可用	-10.7361
的关系	-10.7361
应对	-10.7362
著名的	-10.7366
())	-10.7367
gra	-10.7372
Dr	-10.7375
我妈	-10.7379
来着	-10.7382
)。",	-10.7382
揭	-10.7384
晶	-10.7384
信任	-10.7385
原本	-10.7385
使其	-10.7387
起来了	-10.7387
不像	-10.7389
伐	-10.739
对此	-10.739
畫	-10.7392
浆	-10.7392
℃	-10.7392
覆	-10.7392
妖	-10.7392
▁tags	-10.7392
灣	-10.7394
查询	-10.7395
捏	-10.7395
Unique	-10.7396
赢得	-10.7396
之下	-10.7397
arg	-10.7397
za	-10.7397
说得	-10.7397
身材	-10.7399
海洋	-10.7401
],	-10.7407
云南	-10.7408
summary	-10.7409
画面	-10.7415
▁confirmation	-10.7419
给我们	-10.7437
right	-10.7439
恋爱	-10.7442
厘米	-10.7444
哀	-10.7444
矮	-10.7445
希腊	-10.7447
酶	-10.7447
锦	-10.7448
采访	-10.7448
苏联	-10.7448
暑假	-10.7449
label	-10.745
Of	-10.7451
▁cannot	-10.7452
人工	-10.7452
ular	-10.7452
用途	-10.7456
从事	-10.7459
不过我	-10.746
到现在	-10.7461
单身	-10.7465
pp	-10.7466
对他	-10.7467
ov	-10.7468
TH	-10.7469
自身	-10.7474
不多	-10.7475
▁color	-10.7481
▁matches	-10.7482
精子	-10.7482
理想	-10.7484
▁them	-10.7485
周期	-10.7487
Col	-10.7489
策	-10.7491
监	-10.7492
fu	-10.7493
在于	-10.7494
留在	-10.7498
猎	-10.7498
故障	-10.7499
犬	-10.75
宏	-10.75
会出现	-10.75
躲	-10.75
葛	-10.7502
公众	-10.7502
运营	-10.7503
推动	-10.7511
系統	-10.7515
真的吗	-10.7518
严重的	-10.7519
cancel	-10.752
这部	-10.7521
有限	-10.7521
列车	-10.7522
的作品	-10.7522
坐在	-10.7525
捕	-10.7526
你没	-10.7527
罗马	-10.7531
bet	-10.7533
ute	-10.7536
我以为	-10.7536
一人	-10.7537
是这样	-10.7541
钻	-10.7542
lib	-10.7543
薪	-10.7547
得了	-10.7548
逗	-10.7551
原始	-10.7551
的历史	-10.7553
…	-10.7554
摘	-10.7554
让他们	-10.7556
马来西亚	-10.7557
True	-10.7557
国际机场	-10.7559
这个人	-10.7561
Cl	-10.7561
饿了	-10.7563
▁movie	-10.7564
不动	-10.7565
cing	-10.7566
sub	-10.7567
发生在	-10.7568
加班	-10.7571
开学	-10.7573
手段	-10.7574
哲	-10.7577
就行了	-10.7578
龄	-10.7579
EN	-10.7585
▁password	-10.7586
每日	-10.7588
地区的	-10.7589
一颗	-10.7589
低于	-10.7596
我们会	-10.7596
颜	-10.7601
频	-10.7602
關係	-10.7608
滿	-10.7608
吊	-10.7609
糊	-10.7609
欣赏	-10.761
从未	-10.7613
还得	-10.7614
不对	-10.7615
姐妹	-10.7616
gg	-10.7616
食堂	-10.7616
temp	-10.7619
dd	-10.7626
有道理	-10.7626
则是	-10.7632
住了	-10.7638
有些人	-10.764
token	-10.7641
random	-10.7642
cm	-10.7642
的电话	-10.7644
倾	-10.7648
涨	-10.7649
ics	-10.7651
还是很	-10.7652
stock	-10.7654
还真	-10.7655
键	-10.7659
的力量	-10.7659
董	-10.766
押	-10.7661
▁model	-10.7661
妞	-10.7663
出現	-10.7664
浩	-10.7665
channel	-10.7666
貌似	-10.7666
安慰	-10.7666
▁agent	-10.7669
La	-10.7669
巴萨	-10.767
埃及	-10.7675
PL	-10.7677
ix	-10.7678
house	-10.7679
MS	-10.7679
我不会	-10.7685
▁List	-10.7688
性和	-10.7691
我们将	-10.7693
美洲	-10.7697
线路	-10.7701
日在	-10.7709
results	-10.7709
快来	-10.7713
舉	-10.7714
離	-10.7715
葉	-10.7717
month	-10.7718
氢	-10.7718
禮	-10.7719
孤独	-10.7719
Create	-10.772
cu	-10.772
External	-10.7721
曾在	-10.7722
十六	-10.7723
时光	-10.7727
浙江	-10.7727
remove	-10.773
comment	-10.7735
而在	-10.7736
ever	-10.7736
▁length	-10.7736
权利	-10.7737
法案	-10.7739
对的	-10.7741
PT	-10.7745
发作	-10.7747
收费	-10.7747
▁distance	-10.7748
ko	-10.775
cor	-10.7752
EX	-10.7755
weight	-10.7759
ors	-10.7759
with	-10.7763
债务	-10.7771
gl	-10.7772
『	-10.7772
导弹	-10.7772
阿根廷	-10.7773
▁dialog	-10.7776
发型	-10.7778
▁definition	-10.7778
版权	-10.7779
%。	-10.7781
我好	-10.7782
▁Po	-10.7785
最多	-10.7786
Path	-10.7786
▁tickets	-10.7787
那时候	-10.7796
门口	-10.7798
▁min	-10.7799
可以用	-10.7807
成为了	-10.7808
”（	-10.7815
这个电影	-10.7817
ert	-10.7818
';
	-10.782
第六	-10.7824
袭	-10.7825
当中	-10.7826
钙	-10.7827
杀了	-10.7828
凤	-10.7829
證	-10.7829
呈现	-10.783
细菌	-10.783
頓	-10.783
击败	-10.783
功率	-10.783
太平洋	-10.783
蔬菜	-10.783
▁option	-10.7831
平方千米	-10.7831
民众	-10.7831
Open	-10.7833
舞台	-10.7834
！"]}	-10.7835
▁change	-10.7842
dir	-10.7844
?!
	-10.7846
相同的	-10.7846
听起来	-10.7848
服务器	-10.7853
动画	-10.7853
div	-10.7856
外观	-10.7857
最後	-10.7871
']	-10.7872
物种	-10.7877
▁returned	-10.7878
弯	-10.7882
兆	-10.7883
姜	-10.7883
遠	-10.7885
干什么	-10.7885
詞	-10.7885
init	-10.7886
具备	-10.7886
艇	-10.7886
▁County	-10.7888
坏了	-10.7888
紧急	-10.7888
提示	-10.7889
Guest	-10.789
含量	-10.789
函数	-10.789
cer	-10.7892
桌	-10.7894
总人口	-10.7895
ire	-10.7896
锋	-10.7904
饭店	-10.7904
flow	-10.7905
发生的	-10.7905
总店	-10.7911
的女人	-10.7911
▁Di	-10.7916
不开心	-10.7918
е	-10.7929
any	-10.793
▁str	-10.7934
幾	-10.7937
NE	-10.7937
每个人	-10.7938
统一	-10.7938
▁Be	-10.7938
颗粒	-10.7941
肩	-10.7942
乒乓球	-10.7943
power	-10.7943
警告	-10.7943
▁pagination	-10.7943
Override	-10.7944
radius	-10.7944
股份	-10.7944
对吧	-10.7945
Count	-10.7945
周五	-10.7954
bill	-10.7957
关节	-10.7958
命运	-10.7962
半年	-10.7966
法官	-10.797
这是我	-10.7971
就不会	-10.7974
学者	-10.7978
round	-10.7982
▁res	-10.7984
格式	-10.7986
一部分	-10.7987
tent	-10.7991
充电	-10.7992
是怎么	-10.7994
耳朵	-10.7996
邓	-10.7997
浦	-10.7998
腻	-10.7998
Group	-10.7998
土耳其	-10.7998
翔	-10.7999
太大	-10.7999
吖	-10.8
浪漫	-10.8002
ham	-10.8005
踏	-10.8007
型号	-10.8009
很高兴	-10.8011
一直都	-10.8013
生涯	-10.8014
Web	-10.8019
其他的	-10.802
体内	-10.8021
用餐	-10.8026
出现在	-10.8028
最重要的	-10.8034
离子	-10.8034
SD	-10.8036
臂	-10.8039
▁business	-10.8045
抵	-10.8049
三天	-10.8053
很好看	-10.8053
▁trip	-10.8054
当事人	-10.8054
仲	-10.8054
呦	-10.8055
侠	-10.8055
接收	-10.8055
organ	-10.8056
security	-10.8057

|	-10.8057
這些	-10.8058
部位	-10.8061
皇马	-10.8063
Model	-10.8063
背后	-10.8064
叫做	-10.8064
BS	-10.8065
parent	-10.8069
设有	-10.8069
抓住	-10.807
RO	-10.8072
▁First	-10.8075
我也喜欢	-10.8076
问问	-10.8086
▁Inc	-10.8092
德國	-10.8097
融	-10.8099
孩子们	-10.81
mer	-10.8101
蜜	-10.8101
好久没	-10.8102
挺好	-10.8104
是他	-10.8105
权力	-10.8105
况	-10.8108
乌克兰	-10.8108
桂	-10.8109
性别	-10.811
亏	-10.8112
公寓	-10.8113
的目标	-10.8113
Whether	-10.8114
寻求	-10.8114
▁points	-10.8114
签证	-10.8115
資料	-10.8115
妳	-10.8116
气候	-10.8116
race	-10.8117
付出	-10.8117
除非	-10.8121
奥运会	-10.8122
裤子	-10.8122
下雪	-10.8125
back	-10.8126
很大的	-10.8126
退出	-10.8129
研究所	-10.813
植	-10.8132
col	-10.8141
工人	-10.8146
UI	-10.8146
产生的	-10.8147
case	-10.8155
上学	-10.8155
否	-10.8157
仅仅	-10.8159
自从	-10.8159
真相	-10.816
region	-10.8162
SP	-10.8163
昆	-10.8163
垂	-10.8166
))	-10.8167
穿着	-10.8168
卸	-10.8168
▁Would	-10.8171
冠軍	-10.8173
中共	-10.8175
是多少	-10.8178
▁‎
-	-10.8183
国民	-10.8185
因为你	-10.8187
▁pa	-10.8187
fl	-10.8193
良好	-10.8197
你呢	-10.8205
ld	-10.8212
美丽的	-10.8217
als	-10.8219
早点	-10.8219
You	-10.822
蒸	-10.8222
▁right	-10.8222
箭	-10.8223
仰	-10.8224
▁take	-10.8224
汪	-10.8225
芝	-10.8225
寿	-10.8226
舊	-10.8226
漂	-10.8226
智慧	-10.8226
碧	-10.8227
|\	-10.8227
指挥	-10.8227
简介	-10.8228
依赖	-10.8228
神秘	-10.8229
в	-10.8229
崔	-10.8229
Version	-10.8229
▁However	-10.8229
ted	-10.8232
这类	-10.8232
单独	-10.8233
健身	-10.8233
的衣服	-10.8234
的风险	-10.8237
▁word	-10.824
为你	-10.824
的球员	-10.8245
現在	-10.8246
private	-10.8246
道理	-10.8247
新鲜	-10.8255
伤心	-10.8255
流程	-10.8257
队员	-10.8261
ek	-10.8265
▁names	-10.8266
潜在	-10.8267
你需要	-10.8268
venue	-10.827
▁region	-10.8273
年至	-10.8275
邮	-10.8281
你太	-10.8282
袁	-10.8283
慧	-10.8284
妆	-10.8284
我们需要	-10.8284
嫩	-10.8285
睡眠	-10.8285
標	-10.8286
▁assist	-10.8286
电子邮件	-10.8287
▁Data	-10.8288
农村	-10.8288
解决方案	-10.8288
好不好	-10.8293
["	-10.8295
而不	-10.8303
起床	-10.8303
带我	-10.8304
tip	-10.8307
lt	-10.8309
记载	-10.8314
一群	-10.8317
不必	-10.8321
ons	-10.8324
有机	-10.8325
▁document	-10.8329
Le	-10.833
又不是	-10.8332
最喜欢	-10.8332
>
#	-10.8333
矣	-10.8338
扑	-10.8341
垫	-10.8342
牵	-10.8342
赔	-10.8344
争议	-10.8344
仔细	-10.8345
嫉妒	-10.8345
▁human	-10.8345
High	-10.8346
魯	-10.8346
▁another	-10.8347
大街	-10.8354
验证	-10.8355
字母	-10.8357
可以的	-10.8358
没看	-10.8359
▁User	-10.836
bool	-10.8361
dr	-10.8361
知名	-10.8362
Not	-10.8363
Ca	-10.8364
就开始	-10.8366
不认识	-10.8372
取代	-10.8373
赛事	-10.8373
))
	-10.8375
lect	-10.8376
加速	-10.838
个小时	-10.8383
还行	-10.8386
▁Returns	-10.8387
河流	-10.8388
生成	-10.8389
ous	-10.8389
自信	-10.8393
小米	-10.8395
里面的	-10.8396
看不到	-10.8397
责	-10.8398
▁free	-10.8399
▁http	-10.84
逊	-10.8401
』	-10.8401
孫	-10.8402
圍	-10.8402
脂肪	-10.8403
收益	-10.8404
Payment	-10.8405
其次	-10.8406
勇气	-10.8407
制造商	-10.8407
func	-10.841
奥运	-10.8414
一共	-10.8414
领先	-10.8415
">
	-10.8415
镜头	-10.8415
就这样	-10.8416
重复	-10.8416
▁being	-10.8421
增加了	-10.8421
▁video	-10.8426
GA	-10.8426
sk	-10.8427
只会	-10.8427
脑子	-10.8432
会在	-10.8433
distance	-10.8434
的结果	-10.8436
良好的	-10.8436
请你	-10.8437
ful	-10.8444
吃完	-10.8445
诸	-10.8445
網	-10.8446
▁Ca	-10.8447
溜	-10.8447
迹	-10.8448
未能	-10.8451
ica	-10.8451
▁array	-10.8451
忽	-10.8452
态度	-10.8455
帐	-10.8456
劫	-10.8459
陸	-10.846
hot	-10.846
斷	-10.8461
刮	-10.8462
錢	-10.8462
施工	-10.8462
毫米	-10.8463
失眠	-10.8464
蛋白质	-10.8464
是啥	-10.8464
With	-10.8465
Price	-10.8466
号码	-10.8467
AC	-10.8468
有效的	-10.8471
match	-10.8472
好呀	-10.8473
▁sure	-10.8474
身高	-10.8476
如果是	-10.8478
▁credit	-10.8478
我把	-10.848
过滤	-10.8481
cha	-10.8483
DI	-10.8484
ju	-10.8485
led	-10.8486
社會	-10.8488
启	-10.8489
As	-10.8492
CP	-10.8497
cept	-10.8497
心脏	-10.8499
哪儿	-10.8499
二年	-10.8503
心中	-10.8504
带你	-10.8505
这两	-10.8506
vis	-10.8506
▁users	-10.8508
了一下	-10.8512
Date	-10.8513
释	-10.8513
这条	-10.8514
▁single	-10.8515
辆	-10.8517
下周	-10.8517
棋	-10.8519
讨	-10.8519
RS	-10.852
地址在	-10.8522
primary	-10.8523
珍惜	-10.8523
interface	-10.8524
去哪里	-10.8524
不一定	-10.8526
共享	-10.8526
ew	-10.8526
ung	-10.8527
公斤	-10.8527
预期	-10.8527
显得	-10.8527
传奇	-10.8528
还记得	-10.8528
总面积	-10.8529
想起	-10.8532
英超	-10.8532
可不	-10.8535
上市	-10.8543
ros	-10.8543
电流	-10.8544
model	-10.8544
成員	-10.8548
PE	-10.855
沟通	-10.855
▁financial	-10.8553
▁NULL	-10.8555
ile	-10.8555
得多	-10.856
media	-10.856
ler	-10.8562
ability	-10.8567
▁services	-10.8571
晴	-10.8571
王子	-10.8573
役	-10.8576
▁property	-10.8577
順	-10.8577
构	-10.8578
烂	-10.8581
翁	-10.8581
眼镜	-10.8581
cc	-10.8581
薇	-10.8582
写的	-10.8583
财务	-10.8583
unsigned	-10.8583
Token	-10.8583
海拔高度	-10.8584
rit	-10.8584
未知	-10.8585
黑暗	-10.8585
大师	-10.8592
冷却	-10.8593
有用	-10.8601
时尚	-10.8602
的歌	-10.8603
定期	-10.8606
去找	-10.8607
阴道	-10.8608
cap	-10.8611
以外	-10.8611
最后一	-10.8613
ome	-10.8616
的一個	-10.8617
▁week	-10.8625
space	-10.8629
御	-10.8638
客气	-10.864
炉	-10.864
asc	-10.8641
舒适	-10.8641
得分	-10.8641
熬	-10.8641
▁point	-10.8643
Ticket	-10.8643
的游戏	-10.8644
给予	-10.8645
开玩笑	-10.8645
火星	-10.8648
始终	-10.8649
因为他	-10.8649
维奇	-10.865
level	-10.8651
----------------	-10.8652
小型	-10.8654
这意味着	-10.8656
鸡蛋	-10.8658
PR	-10.866
延长	-10.8662
▁history	-10.8664
去吃	-10.8665
▁author	-10.8666
奇怪	-10.8669

　　	-10.867
▁configuration	-10.8672
See	-10.8674
又有	-10.8674
机制	-10.8674
的天气	-10.8683
video	-10.8691
兔	-10.8693
割	-10.8693
target	-10.8694
cre	-10.8695
慈	-10.8699
吳	-10.8702
义务	-10.8702
玲	-10.8703
伞	-10.8704
羽毛球	-10.8704
▁pricing	-10.8704
春天	-10.8705
Book	-10.8706
学姐	-10.8706
element	-10.8707
▁via	-10.8707
夺	-10.8708
办理	-10.8709
裙子	-10.871
Or	-10.871
规	-10.8711
牛肉	-10.8712
围绕	-10.8716
很高	-10.8718
face	-10.8721
听着	-10.8721
▁flights	-10.8722
年间	-10.8727
.
-	-10.8728
我先	-10.8731
▁token	-10.8732
喜欢的	-10.8733
本来就	-10.8735
是一名	-10.8736
▁reservation	-10.8739
rn	-10.874
▁weather	-10.8748
脉	-10.8754
枚	-10.8754
这几天	-10.8758
弃	-10.8759
driver	-10.8759
履行	-10.876
忌	-10.8761
趁	-10.8762
▁National	-10.8762
姑	-10.8763
塘	-10.8763
烫	-10.8764
清晰	-10.8764
愁	-10.8764
translation	-10.8765
陪你	-10.8765
發展	-10.8765
善良	-10.8766
快递	-10.8767
起诉	-10.8769
就很	-10.8772
lay	-10.8774
承受	-10.8775
▁discount	-10.8776
一套	-10.8779
少数	-10.878
道德	-10.8784
没有啊	-10.8787
进来	-10.8789
消除	-10.879
面包	-10.8791
Te	-10.8792
ating	-10.8795
布拉	-10.8798
无数	-10.8799
为您	-10.8802
同时也	-10.8802
为什么不	-10.8805
▁main	-10.8807
（，），	-10.8811
婆	-10.8812
dia	-10.8813
**,	-10.8813
result	-10.8815
罐	-10.8819
銀	-10.882
带有	-10.882
脸上	-10.882
肿瘤	-10.8823
澳	-10.8824
噶	-10.8824
慶	-10.8824
坊	-10.8825
逻辑	-10.8825
砸	-10.8825
扯	-10.8825
（，）	-10.8826
的技术	-10.8826
依旧	-10.8826
纠结	-10.8826
替代	-10.8826
陷入	-10.8827
停车场	-10.8829
开启	-10.8829
section	-10.8829
般	-10.883
播出	-10.8832
Be	-10.8832
第二天	-10.8836
又不	-10.8839
立法	-10.8844
被人	-10.8845
完整	-10.8847
暴露	-10.8848
众多	-10.8849
改进	-10.8849
四十	-10.885
也不能	-10.8852
可爱的	-10.8853
要么	-10.8853
复制	-10.8853
强制	-10.8857
利亚	-10.8859
CON	-10.886
全身	-10.8861
Info	-10.8861
打的	-10.8863
":{	-10.8867
艺术家	-10.8867
一辆	-10.8867
工作人员	-10.8873
房产	-10.8873
润	-10.8873
址	-10.8874
有啥	-10.8874
貌	-10.8876
伍	-10.8876
就没有	-10.8883
mit	-10.8883
ail	-10.8883
僧	-10.8883
畅	-10.8883
卑	-10.8884
丫	-10.8886
威廉	-10.8886
靈	-10.8886
笨	-10.8887
是否有	-10.8887
边缘	-10.8887
活動	-10.8888
信仰	-10.8889
青岛	-10.8893
Int	-10.8897
群体	-10.8899
血管	-10.89
,,,	-10.8902
研究人员	-10.8903
重视	-10.8904
ging	-10.8904
没有什么	-10.8907
▁She	-10.8909
稱為	-10.8914
意识到	-10.8917
Action	-10.8918
▁Date	-10.892
的产品	-10.8922
过得	-10.8924
地震	-10.8924
像是	-10.8926
时间是	-10.8929
伙	-10.8943
由此	-10.8943
終	-10.8943
莲	-10.8946
▁non	-10.8946
危害	-10.8947
建築	-10.8948
勾	-10.8948
逢	-10.8948
最爱	-10.8949
胎儿	-10.8949
叔叔	-10.8949
奶奶	-10.8949
▁football	-10.8949
新西兰	-10.895
Index	-10.895
呃	-10.895
爪	-10.8951
天啊	-10.8951
DNA	-10.8953
atch	-10.8954
▁driver	-10.8959
消防	-10.896
司法	-10.8961
▁card	-10.8967
老了	-10.8969
cH	-10.897
得好	-10.8971
什么是	-10.8972
wait	-10.8972
年纪	-10.8978
没有任何	-10.8979
后天	-10.898
现有	-10.8982
%。
	-10.8984
不错的	-10.8984
TS	-10.8986
】
	-10.8988
ding	-10.8989
你还是	-10.899
队长	-10.8996
失去了	-10.8996
储	-10.8997
許	-10.9
河南	-10.9003
违	-10.9003
mod	-10.9004
对自己	-10.9005
大量的	-10.9006
楊	-10.9009
”、“	-10.9009
维生素	-10.9009
弦	-10.9009
傷	-10.901
慌	-10.901
跪	-10.9011
術	-10.9011
收拾	-10.9012
频率	-10.9012
默默	-10.9013
扮演	-10.9013
screen	-10.9013
瑞典	-10.9013
人民法院	-10.9013
super	-10.9014
▁might	-10.9014
invest	-10.9015
我看到	-10.9016
收藏	-10.9017
▁count	-10.9019
score	-10.902
怎么说	-10.9024
service	-10.9024
profile	-10.9025
作战	-10.9028
通信	-10.9028
可以指	-10.9032
各国	-10.9032
作為	-10.9032
Start	-10.9033
驱	-10.9034
结束了	-10.9034
遭遇	-10.9035
服用	-10.9036
输了	-10.9037
▁JSON	-10.9037
主要功能	-10.9039
lot	-10.9041
旨在	-10.9041
多大	-10.9048
們	-10.9049
▁hours	-10.9049
的变化	-10.9049
▁quote	-10.9049
少了	-10.9056
``	-10.9057
cell	-10.9058
什么样的	-10.9061
将于	-10.9063
不应该	-10.9064
狱	-10.9066
几次	-10.9067
等到	-10.9067
▁calculate	-10.9068
辈	-10.907
神奇	-10.9071
貴	-10.9072
损害	-10.9072
辖	-10.9072
問題	-10.9072
丧	-10.9073
决策	-10.9073
财富	-10.9074
缓解	-10.9074
缸	-10.9074
ano	-10.9075
撩	-10.9075
防守	-10.9077
对对对	-10.9077
微软	-10.9078
密码	-10.9078
尤其	-10.9078
温暖	-10.9078
ath	-10.9081
必要	-10.9082
ati	-10.9083
有趣的	-10.9084
股东	-10.9085
王朝	-10.9087
六年	-10.9088
一会儿	-10.9088
慢性	-10.9095
在看	-10.9096
▁Su	-10.91
▁interest	-10.9103
当初	-10.9104
uck	-10.9108
着急	-10.911
重建	-10.911
年底	-10.9111
万人	-10.9111
ney	-10.9114
ther	-10.9116
生病	-10.9121
▁files	-10.9122
而成	-10.9125
最低	-10.9125
合适	-10.9125
系统的	-10.9127
LA	-10.9128
营业	-10.913
艘	-10.9131
細	-10.9131
CC	-10.9132
扇	-10.9134
Note	-10.9136
国会	-10.9136
朴	-10.9136
夢	-10.9136
周边有	-10.9137
Port	-10.9137
退役	-10.9137
同一	-10.9139
▁Park	-10.914
思维	-10.9141
它家	-10.9141
场景	-10.9141
比分	-10.9143
▁THE	-10.9143
什么事	-10.9143
他会	-10.9144
习	-10.9144
总结	-10.9145
还说	-10.9145
Un	-10.9146
are	-10.9148
▁contact	-10.9152
每周	-10.9154
ingredients	-10.9154
继承	-10.9158
ls	-10.9159
ans	-10.9159
的国家	-10.9167
找一个	-10.917
road	-10.9171
topic	-10.9172
Do	-10.9174
癌症	-10.9174
ust	-10.9176
客房	-10.9177
Mar	-10.9187
▁even	-10.9189
NS	-10.919
我还没	-10.9191
的儿子	-10.9192
玩的	-10.9193
统治	-10.9193
▁analyze	-10.9195
天空	-10.9195
献	-10.9196
叛	-10.9198
仇	-10.9199
牢	-10.9199
强烈	-10.92
抹	-10.92
瞬间	-10.9201
抑制	-10.9202
н	-10.9202
Point	-10.9202
利物浦	-10.9203
д	-10.9203
▁software	-10.9203
达成	-10.9203
认证	-10.9204
▁food	-10.9204
注射	-10.9205
差距	-10.9206
zip	-10.9207
透明	-10.9209
一支	-10.9213
pro	-10.9213
映	-10.9213
前几天	-10.9214
打篮球	-10.9217
队友	-10.9218
诊	-10.9218
的城市	-10.922
回头	-10.922
?!	-10.9222
▁series	-10.9223
太太	-10.9224
最近的	-10.9224
→	-10.9226
议会	-10.9227
更是	-10.9228
▁https	-10.9232
产业	-10.9233
我相信	-10.9234
▁Mi	-10.9235
review	-10.9237
發行	-10.9239
商店	-10.9241
▁task	-10.9244
▁follows	-10.9245
竟	-10.9246
场所	-10.9252
▁share	-10.9253
是从	-10.9253
fact	-10.9253
无限	-10.9257
逸	-10.9259
孤	-10.9259
事务	-10.926
匹	-10.926
忧	-10.9262
勿	-10.9262
绵	-10.9263
笼	-10.9263
鹰	-10.9263
Exp	-10.9264
拯救	-10.9264
歸	-10.9265
讀	-10.9266
召	-10.9267
Current	-10.9267
▁Software	-10.9267
▁three	-10.9267
授权	-10.9267
▁external	-10.9268
▁Group	-10.9268
优化	-10.9272
武装	-10.9272
▁Response	-10.9273
整理	-10.9274
可以使用	-10.9275
优点	-10.9277
海外	-10.9278
签名	-10.9278
厨房	-10.9278
花园	-10.9279
後來	-10.9279
ISO	-10.9279
停车	-10.928
博主	-10.9281
Sc	-10.9282
已經	-10.9284
▁Art	-10.9285
一定是	-10.9289
湖南	-10.9292
人数	-10.9294
▁verify	-10.9297
df	-10.9299
回去了	-10.9299
发的	-10.931
跌	-10.9311
身份证	-10.9312
物体	-10.9313
主体	-10.9314
只需	-10.9316
吵	-10.9322
Bo	-10.9322
合并	-10.9323
仓	-10.9324
石头	-10.9325
吕	-10.9326
协调	-10.9328
炭	-10.9329
闷	-10.9329
option	-10.9331
变成了	-10.9331
duration	-10.9331
▁associated	-10.9332
商务	-10.9334
▁&&	-10.9334
够了	-10.9337
▁rating	-10.9337
告知	-10.9338
毫无	-10.9338
社交	-10.9338
▁route	-10.9339
ped	-10.9339
公交	-10.934
▁member	-10.934
Ch	-10.934
那时	-10.9342
SI	-10.9346
男神	-10.9346
对比	-10.9349
要做	-10.9353
法國	-10.9354
塑	-10.9361
秘	-10.9361
Ar	-10.9363
反而	-10.9364
▁Type	-10.9367
BA	-10.9369
是非常	-10.9369
];
	-10.937
这种情况	-10.9376
▁person	-10.9377
ric	-10.9381
的目的	-10.9382
涉	-10.9384
怎	-10.9389
歷	-10.939
把自己	-10.9391
努	-10.9391
泄	-10.9393
養	-10.9393
寧	-10.9393
砖	-10.9394
醇	-10.9395
modify	-10.9397
>>	-10.9397
咱俩	-10.9397
营销	-10.9397
这家餐馆	-10.9397
开关	-10.9398
Sp	-10.94
高温	-10.94
登记	-10.94
容量	-10.9402
帽子	-10.9402
大多	-10.9404
潜	-10.9405
quote	-10.9406
问你	-10.9406
messages	-10.9407
kg	-10.9415
fr	-10.942
ify	-10.9424
script	-10.9427
DO	-10.9432
看我	-10.9434
便是	-10.9434
scan	-10.9435
色彩	-10.9436
工作的	-10.9438
我们就	-10.944
当我	-10.9444
MC	-10.9447
tw	-10.9447
:"	-10.9449
就是这样	-10.9452
▁performance	-10.9453
锡	-10.9454
抛	-10.9456
培	-10.9456
铝	-10.9458
僅	-10.9459
validate	-10.946
亭	-10.946
激烈	-10.946
模拟	-10.9461
匹配	-10.9461
temperature	-10.9461
葡萄牙	-10.9462
供应	-10.9464
偷偷	-10.9465
指控	-10.9465
对其	-10.9467
OP	-10.9468
交换	-10.9469
hr	-10.9475
ui	-10.9475
观看	-10.9478
使用说明	-10.948
制成	-10.9484
天然	-10.9485
这么好	-10.9488
表白	-10.9491
人均消费是	-10.9492
tle	-10.9492
▁ordering	-10.9492
].	-10.9492
转移	-10.9494
我们是	-10.9495
足够	-10.9498
有趣	-10.9499
过度	-10.9499
造成的	-10.9504
辩	-10.9508
现金	-10.9508
stop	-10.9508
肚	-10.9512
编码	-10.9513
人群	-10.9516
▁session	-10.9519
气质	-10.9522
計	-10.9523
▁term	-10.9523
赴	-10.9524
涌	-10.9524
发病	-10.9524
是一位	-10.9525
uint	-10.9525
玫瑰	-10.9526
监督	-10.9526
庫	-10.9526
违反	-10.9526
师傅	-10.9527
共和国	-10.9527
糟糕	-10.9527
++	-10.9528
浏览器	-10.9529
▁recent	-10.953
一眼	-10.9534
和他	-10.9538
")
	-10.9539
Apple	-10.9542
發生	-10.9544
他就	-10.9546
spi	-10.9551
Up	-10.9553
热情	-10.9554
人才	-10.9557
▁Car	-10.9563
ord	-10.9571
比较好	-10.9575
generate	-10.9577
draw	-10.9578
好奇	-10.958
▁United	-10.9581
实行	-10.9581
town	-10.9582
希望你	-10.9585
种植	-10.9586
粮	-10.9586
Log	-10.9587
卓	-10.9587
辅	-10.9588
貝	-10.9589
阔	-10.9591
▁block	-10.9591
霜	-10.9592
狠	-10.9592
补偿	-10.9592
success	-10.9593
і	-10.9594
Status	-10.9594
稍微	-10.9594
某种	-10.9599
上有	-10.9599
进程	-10.96
pin	-10.96
一点点	-10.9601
更好地	-10.9604
也被	-10.9604
恐惧	-10.9606
广播	-10.9607
买个	-10.9612
没钱	-10.9614
损伤	-10.9615
export	-10.9616
番	-10.9616
▁Man	-10.9619
出去玩	-10.9621
带来了	-10.9621
适当	-10.9622
學校	-10.9622
这儿	-10.9624
食用	-10.9624
)}	-10.9626
Resource	-10.9632
Def	-10.9637
born	-10.9639
▁does	-10.9642
紀	-10.965
束	-10.9655
叉	-10.9655
怨	-10.9656
項	-10.9657
泛	-10.9657
step	-10.9657
的过程	-10.9658
珊	-10.9659
歐	-10.9659
葱	-10.9659
后期	-10.9661
谷歌	-10.9663
▁day	-10.9663
TE	-10.9664
出差	-10.9664
Wi	-10.9666
的一个市镇	-10.9667
逮捕	-10.967
▁throw	-10.9671
写作	-10.9671
cla	-10.9674
消化	-10.9674
来看看	-10.9674
还需要	-10.9677
恩恩	-10.968
rest	-10.9681
▁resource	-10.9681
刚好	-10.9684
van	-10.9687
所有人	-10.9694
天使	-10.9702
的身体	-10.9703
舉行	-10.9704
合成	-10.9704
我们一起	-10.9708
▁additional	-10.9712
五个	-10.9712
校长	-10.9716
client	-10.972
custom	-10.9721
о	-10.9722
卒	-10.9722
梗	-10.9722
溫	-10.9723
规范	-10.9724
eng	-10.9724
▁American	-10.9724
取决于	-10.9725
輕	-10.9725
巢	-10.9725
装饰	-10.9727
Microsoft	-10.9727
ー	-10.9728
TikTok	-10.9728
密切	-10.9729
设立	-10.9731
之类的	-10.9732
期望	-10.9735
货物	-10.9736
"],
	-10.9736
▁la	-10.9739
动漫	-10.974
。"}]}	-10.9741
顾问	-10.9742
利率	-10.9743
▁player	-10.9746
中有	-10.9746
山西	-10.975
"""	-10.9755
iv	-10.9755
CHA	-10.9756
drop	-10.9757
"
"	-10.9762
了一些	-10.9765
能在	-10.9769
cur	-10.977
hash	-10.9771
core	-10.9775
rep	-10.9775
唱歌	-10.9777
我还想	-10.9779
一声	-10.9779
request	-10.9787
媒	-10.9787
認	-10.9788
赐	-10.9789
轴承	-10.9789
仿	-10.979
湖人	-10.979
爽	-10.9791
苑	-10.9793
框架	-10.9794
骄傲	-10.9794
麗	-10.9794
批评	-10.9794
release	-10.9794
蹭	-10.9795
github	-10.9795
嫌弃	-10.9795
recipient	-10.9795
Maximum	-10.9795
▁different	-10.9795
▁those	-10.9795
▁Historical	-10.9795
▁planning	-10.9795
新疆	-10.9798
article	-10.9799
啊啊啊	-10.9801
屬於	-10.9802
皇家	-10.9802
▁original	-10.9802
素质	-10.9804
har	-10.9804
rc	-10.9805
不不不	-10.9806
结局	-10.9806
城镇	-10.9809
回归	-10.981
上涨	-10.9812
時期	-10.9814
cast	-10.9814
▁live	-10.9816
高铁	-10.9817
趣	-10.9819
rel	-10.9819
can	-10.982
容器	-10.9821
進士	-10.9825
Your	-10.9831
我昨天	-10.9832
进了	-10.9835
docs	-10.9836
上周	-10.9837
lang	-10.9838
你猜	-10.9839
ier	-10.9843
才有	-10.9843
」。	-10.9848
援	-10.9854
最好是	-10.9854
冯	-10.9857
豐	-10.9858
廳	-10.9859
operation	-10.986
就业	-10.986
芯	-10.986
燃料	-10.9861
荣誉	-10.9862
▁lost	-10.9862
啤酒	-10.9862
Component	-10.9863
DATA	-10.9863
欺负	-10.9863
青少年	-10.9864
▁limited	-10.9864
说说	-10.9865
的食物	-10.9866
Find	-10.9866
许可	-10.9867
法庭	-10.9867
期货	-10.9869
mil	-10.987
配音	-10.987
km	-10.9871
▁client	-10.9871
带领	-10.9872
▁full	-10.9874
风景	-10.9876
动态	-10.9877
next	-10.9878
player	-10.9881
他们会	-10.9881
优秀的	-10.9882
唯一的	-10.9883
日至	-10.9886
去过	-10.9886
created	-10.9886
研发	-10.9887
！”	-10.9887
game	-10.989
约定	-10.989
},
	-10.9893
价格是	-10.9895
中学	-10.9897
票价	-10.9899
Out	-10.9901
级别	-10.9901
▁music	-10.9903
▁IS	-10.9905
▁phone	-10.9906
win	-10.9907
是法国	-10.991
这将	-10.9911
爱吃	-10.9911
med	-10.9911
好嘛	-10.9912
次数	-10.9913
给她	-10.9916
话题	-10.9917
在其	-10.9926
瘤	-10.9926
編	-10.9926
${	-10.9926
餘	-10.9927
不锈钢	-10.9927
蜂	-10.9928
对应	-10.993
ze	-10.993
環	-10.993
账户	-10.993
粥	-10.9931
英尺	-10.9931
传递	-10.9931
獎牌得主	-10.9931
类型的	-10.9931
Support	-10.9931
Order	-10.9932
board	-10.9932
传输	-10.9937
布鲁	-10.9938
property	-10.9939
availability	-10.9939
可以看到	-10.994
學院	-10.9941
SU	-10.9942
賽事	-10.9942
低调	-10.9944
▁Ka	-10.9947
Format	-10.9951
一定的	-10.9952
的成绩	-10.9953
第二次	-10.9953
。
　　	-10.9954
？
‎
-	-10.996
不停	-10.9961
这么大	-10.9965
五月	-10.9966
豆瓣评分	-10.9966
眼神	-10.9969
cle	-10.9971
▁assert	-10.9973
快去	-10.9975
ull	-10.9976
雾	-10.9977
都说	-10.9982
gan	-10.9985
燃	-10.9986
性质	-10.9987
{}	-10.9987
专业的	-10.9991
不出来	-10.9992
龟	-10.9994
纪录	-10.9995
证实	-10.9995
祭	-10.9997
崎	-10.9998
详情	-10.9998
財	-10.9999
活性	-11
农民	-11
▁WITHOUT	-11
stream	-11
寝室	-11.0001
通讯	-11.0002
认定	-11.0003
▁existing	-11.0004
惊喜	-11.0004
Room	-11.0004
▁base	-11.0004
软件介绍	-11.0007
ug	-11.0008
福建	-11.0008
捉	-11.0008
三分	-11.001
丰富的	-11.001
超越	-11.0015
月经	-11.0015
部件	-11.0015
听说过	-11.002
是中国	-11.0022
迫	-11.0024
());
	-11.0025
ugh	-11.0025
夏季	-11.0026
▁chart	-11.003
可以帮助	-11.0033
FF	-11.0036
如果我	-11.004
适用	-11.0043
▁off	-11.0044
至于	-11.0049
一开始	-11.0053
胖子	-11.0054
TR	-11.0055
也不知道	-11.0055
卵	-11.0057
单纯	-11.0059
裙	-11.0062
一面	-11.0063
藝	-11.0065
updated	-11.0065
洛杉矶	-11.0068
糟	-11.0069
涅	-11.0069
Location	-11.007
▁{
	-11.007
一辈子	-11.007
▁difference	-11.007
显著	-11.007
饮料	-11.0071
颜值	-11.0072
形容	-11.0072
维修	-11.0076
Link	-11.0076
士兵	-11.0077
演員	-11.0078
大众	-11.0079
ike	-11.008
受不了	-11.0082
第二个	-11.0091
ari	-11.0091
各自	-11.0094
ore	-11.0094
清理	-11.0097
美国的	-11.0097
的效果	-11.0097
大学的	-11.0103
ves	-11.0106
这家酒店	-11.0111
自行	-11.0114
二人	-11.0118
它们的	-11.012
不怎么	-11.0121
ado	-11.0124
疯了	-11.0126
际	-11.0127
...
-	-11.013
設有	-11.0132
信心	-11.0132
算法	-11.0136
based	-11.0136
監	-11.0136
财政	-11.0137
蠢	-11.0138
捐	-11.0138
墨西哥	-11.0138
你真	-11.0139
跟踪	-11.0139
▁retrieved	-11.014
Facebook	-11.014
温柔	-11.014
Server	-11.014
庆祝	-11.014
hotel	-11.0141
这场比赛	-11.0141
登录	-11.0142
Driver	-11.0142
婚礼	-11.0144
无论是	-11.0145
安静	-11.0145
letter	-11.0145
shop	-11.0145
分裂	-11.0147
预算	-11.015
};

	-11.0151
ble	-11.0151
葡萄酒	-11.0152
"]
	-11.0153
认可	-11.0156
问我	-11.0157
II	-11.0159
争取	-11.016
graph	-11.016
经理	-11.0162
看到的	-11.0165
我看了	-11.0166
▁},	-11.0168
好几	-11.0168
era	-11.0171
相应的	-11.0173
▁League	-11.0175
哪天	-11.0178
七年	-11.018
都不会	-11.0183
你好呀	-11.0186
享	-11.0189
樣	-11.019
加州	-11.0193
没看到	-11.0196
轨	-11.0196
每次都	-11.0196
衰	-11.0201
的角色	-11.0203
SL	-11.0204
慕	-11.0207
宠	-11.0207
茂	-11.0207
組織	-11.0208
transaction	-11.0209
の	-11.021
▁implied	-11.021
虚拟	-11.021
”“
	-11.021
人口密度	-11.0211
▁QR	-11.0212
angle	-11.0214
万一	-11.0214
排水	-11.0218
在北京	-11.0218
分以上的	-11.0218
全是	-11.0219
演讲	-11.0219
订阅	-11.0224
乘坐	-11.0226
▁currently	-11.0226
高考	-11.023
main	-11.0234
周日	-11.0236
▁style	-11.0236
▁Gi	-11.0238
ING	-11.0238
\"\	-11.0238
filter	-11.0239
块钱	-11.0244
task	-11.0245
的基本	-11.0248
PO	-11.0248
color	-11.0248
lower	-11.0249
ank	-11.0249
没见过	-11.0252
▁饰	-11.0257
密度	-11.0257
▁java	-11.0262
总会	-11.0263
缴	-11.0265
江西	-11.0268
地址在哪	-11.0268
part	-11.0269
uri	-11.0271
env	-11.0271
ware	-11.0274
雕	-11.0274
▁District	-11.0277
矛盾	-11.0277
絲	-11.0278
備	-11.0278
敗	-11.0279
謝	-11.0279
娶	-11.028
踩	-11.028
灵魂	-11.0281
▁center	-11.0281
Message	-11.0281
说不定	-11.0282
▁solutions	-11.0283
抗议	-11.0283
故宫	-11.0284
"]},"	-11.0285
我们也	-11.0287
设定	-11.0288
主角	-11.0289
製作	-11.0289
见你	-11.029
▁ok	-11.0291
bu	-11.0292
月底	-11.0295
自行车	-11.0299
省级	-11.03
风机	-11.0301
UN	-11.0304
最美	-11.0304
注意到	-11.0305
走到	-11.0306
。
《	-11.0307
让她	-11.0308
▁vs	-11.0308
ada	-11.0313
議員	-11.0314
cal	-11.0315
(),	-11.0316
不是我	-11.0335
不止	-11.0335
短发	-11.0336
期間	-11.0338
ENT	-11.0343
ries	-11.0343
可以吗	-11.0345
品种	-11.0347
昏	-11.0348
聘	-11.0348
颇	-11.0348
叠	-11.0349
server	-11.035
凌晨	-11.035
遊戲	-11.035
冒险	-11.0351
淘汰	-11.0352
行驶	-11.0352
週	-11.0352
car	-11.0352
Process	-11.0353
Element	-11.0353
mission	-11.0353
引起的	-11.0354
鎮區	-11.0355
佩服	-11.0356
▁FOR	-11.0356
每一	-11.0357
▁won	-11.0359
也不错	-11.036
所以你	-11.0361
ae	-11.0362
ey	-11.0362
mg	-11.0363
▁score	-11.0366
▁Cha	-11.0369
但它	-11.0369
}}	-11.037
很开心	-11.037
选区	-11.0376
球星	-11.0377
在外面	-11.0381
回收	-11.0382
路线	-11.0382
Ho	-11.0383
读者	-11.0385
下一个	-11.0385
▁short	-11.0386
我明天	-11.0388
这不	-11.0389
外交	-11.0392
application	-11.0393
不让	-11.0393
FT	-11.0396
一件事	-11.0397
季节	-11.0399
company	-11.0399
溶	-11.0403
这个酒店	-11.0404
你为什么	-11.0408
▁down	-11.041
唯	-11.041
lean	-11.041
摄	-11.041
才知道	-11.0413
▁And	-11.0414
▁album	-11.0415
▁terms	-11.0415
挥	-11.0415
换了	-11.0418
臺	-11.0419
是什么意思	-11.0419
不清	-11.0419
jo	-11.042
出场	-11.042
就是啊	-11.042
齿	-11.0421
character	-11.0421
在网上	-11.0422
懷	-11.0422
note	-11.0422
耀	-11.0422
协助	-11.0422
熱	-11.0423
减轻	-11.0423
杠	-11.0424
hal	-11.0424
地板	-11.0424
專輯	-11.0425
入侵	-11.0425
好久不见	-11.0425
可以说	-11.0425
宠物	-11.0425
▁std	-11.0428
乘客	-11.0428
智商	-11.0428
咋样	-11.043
年后	-11.0431
你才	-11.0433
sc	-11.0435
没啥	-11.0436
中山	-11.0439
天主教	-11.0441
依法	-11.0442
伟大的	-11.0443
之間	-11.0443
好可爱	-11.0446
tar	-11.0447
▁refund	-11.045
没法	-11.045
你已经	-11.0451
周一	-11.0452
▁follow	-11.0452
会影响	-11.0453
report	-11.0456
电气	-11.0459
Run	-11.0463
>\	-11.0467
实习	-11.0469
回应	-11.047
EL	-11.0471
▁refer	-11.0472
確	-11.0474
input	-11.0474
并将	-11.0477
IE	-11.0478
厕所	-11.048
arm	-11.0481
不适合	-11.0486
rick	-11.0486
辦	-11.0492
擦	-11.0492
吞	-11.0493
纱	-11.0493
跟你说	-11.0493
藝術	-11.0494
清洗	-11.0494
砍	-11.0494
燃烧	-11.0494
浏览	-11.0494
勢	-11.0494
馀	-11.0495
硅	-11.0496
勇敢	-11.0497
兴奋	-11.0497
也好	-11.0498
芯片	-11.0499
是这样的	-11.0499
ou	-11.0499
Context	-11.0499
AB	-11.0501
助理	-11.0501
大会	-11.0502
的状态	-11.0503
hour	-11.0505
再来	-11.0505
走向	-11.0505
篮	-11.0506
相当于	-11.0514
ev	-11.0515
CL	-11.0523
▁league	-11.0524
斯坦	-11.0524
specific	-11.0525
口味	-11.0525
▁social	-11.0526
送你	-11.053
式的	-11.0532
主管	-11.0533
电力	-11.0536
这时	-11.0537
传统的	-11.0539
▁Da	-11.054
单元	-11.054
我也不知道	-11.055
auto	-11.0551
IF	-11.0551
ident	-11.0556
学科	-11.0556
lon	-11.0557
成功的	-11.0557
的安全	-11.0557
keywords	-11.0557
样子	-11.0561
放置	-11.0564
灾	-11.0564
抚	-11.0564
獨	-11.0566
稻	-11.0567
負責管轄	-11.0567
厄	-11.0567
幽	-11.0568
奥巴马	-11.0568
隐藏	-11.0568
聯盟	-11.0569
trans	-11.0569
蓋	-11.0569
职业生涯	-11.0569
盃	-11.0569
阵容	-11.057
邮件	-11.057
▁proceed	-11.057
所属的	-11.057
巴基斯坦	-11.057
洗澡	-11.057
退休	-11.057
refsect	-11.0571
▁made	-11.0571
说实话	-11.0571
赚钱	-11.0573
窗口	-11.0573
Str	-11.0574
评分在	-11.0575
▁well	-11.0576
src	-11.0577
腐蚀	-11.0578
建筑物	-11.0578
女的	-11.0578
就想	-11.0579
来找我	-11.058
那个人	-11.058
交给	-11.0581
线上	-11.0583
▁along	-11.0583
玉米	-11.0583
肯定会	-11.0584
各位	-11.0584
▁home	-11.0586
desc	-11.0591
第八	-11.0594
make	-11.0597
的速度	-11.06
Sh	-11.0601
night	-11.0602
更有	-11.0603
的男人	-11.0604
国家队	-11.0605
ple	-11.0607
第十	-11.0608
We	-11.0613
IA	-11.0614
效力	-11.0615
几个月	-11.0617
帅哥	-11.0619
先后	-11.0627
bl	-11.0628
vision	-11.0629
损	-11.0632
看好	-11.0632
▁near	-11.0634
her	-11.0634
一口	-11.0635
扭	-11.0636
灵活	-11.0639
摊	-11.064
喝了	-11.0641
咒	-11.0641
劝	-11.0642
非常好	-11.0642
支撑	-11.0643
按钮	-11.0644
```	-11.0649
▁Free	-11.0649
▁As	-11.065
转载	-11.0651
gar	-11.0652
斯克	-11.0652
初期	-11.0653
总理	-11.0655
起了	-11.0658
提名	-11.0658
报名	-11.066
都不知道	-11.0663
是以	-11.0663
▁form	-11.0665
送到	-11.0669
pg	-11.0674
总之	-11.0675
缺点	-11.0677
不准	-11.0677
之前的	-11.0678
病例	-11.0683
种子	-11.0684
或其他	-11.0688
TA	-11.069
所需的	-11.0691
▁ticker	-11.0691
？”
	-11.0692
只不过	-11.0692
期限	-11.0693
"}]}	-11.0697
中等	-11.0698
技	-11.07
place	-11.07
金额	-11.0702
discount	-11.0706
现在是	-11.0706
公平	-11.0709
盲	-11.071
淋	-11.071
ming	-11.071
資	-11.0711
遭受	-11.0714
評	-11.0714
Pa	-11.0716
传感器	-11.0716
牺牲	-11.0716
巧克力	-11.0717
消耗	-11.0717
的支持	-11.0717
年夏季奥林匹克运动会	-11.0717
compensation	-11.0718
world	-11.0718
▁received	-11.0718
Copyright	-11.0718
▁exact	-11.0718
失误	-11.0718
reference	-11.0719
callback	-11.072
无需	-11.072
！"}]}	-11.0721
靠近	-11.0721
护理	-11.0721
指令	-11.0722
室友	-11.0722
sen	-11.0723
唱片	-11.0727
."
	-11.0728
的功能	-11.0728
液压	-11.0729
separated	-11.0729
深深	-11.0729
了呀	-11.073
已有	-11.0732
都市	-11.0733
度假	-11.0733
太子	-11.0734
假设	-11.0734
▁English	-11.0735
known	-11.0736
mes	-11.0737
不爱	-11.0739
因为它	-11.0739
想着	-11.074
){
	-11.0742
中国大陆	-11.0742
完整的	-11.0743
片子	-11.0743
license	-11.0745
会导致	-11.0746
通過	-11.0746
跟我说	-11.0748
有一天	-11.0749
复合	-11.075
还不是	-11.0752
改编	-11.0754
oke	-11.0755
生意	-11.0757
你给我	-11.0757
独特的	-11.0758
第七	-11.0762
高达	-11.0762
ology	-11.0763
大道	-11.0764
的手机	-11.0764
老大	-11.0765
空中	-11.0766
免费的	-11.0767
捷	-11.0768
女友	-11.077
在学校	-11.077
不确定	-11.0772
▁special	-11.0772
一对	-11.0774
法规	-11.0775
sql	-11.0776
▁issue	-11.0778
人心	-11.0779
photo	-11.0779
美好的	-11.078
负责人	-11.0782
丸	-11.0784
男的	-11.0784
唇	-11.0787
黏	-11.0787
跃	-11.0788
炎症	-11.0788
耕	-11.0788
郁	-11.0789
看书	-11.0789
撤销	-11.079
唐朝	-11.0792
interval	-11.0793
Size	-11.0794
Content	-11.0794
加盟	-11.0795
网页	-11.0796
▁later	-11.0797
有问题	-11.0799
插入	-11.08
PDF	-11.0801
跟他	-11.0802
本赛季	-11.0802
▁miles	-11.0802
传说	-11.0802
zone	-11.0806
穿过	-11.0806
巴士	-11.0806
不成	-11.0806
得以	-11.0808
▁starting	-11.081
();

	-11.0815
病情	-11.0816
生活的	-11.0818
打破	-11.0818
ace	-11.082
ku	-11.0822
平等	-11.0827
Post	-11.0827
Li	-11.0834
▁high	-11.0836
▁War	-11.0838
十一	-11.0838
ball	-11.0841
小姐姐	-11.0844
我从	-11.0845
说他	-11.0846
突出	-11.0846
other	-11.0848
通风	-11.0852
AA	-11.0852
▁San	-11.0853
更高	-11.0854
经历了	-11.0855
AP	-11.0856
浴	-11.0858
▁customer	-11.0861
排卵	-11.0862
拟	-11.0863
伊拉克	-11.0863
夕	-11.0864
適	-11.0865
SET	-11.0866
魅力	-11.0867
监控	-11.0867
Example	-11.0867
▁consider	-11.0867
▁methods	-11.0868
Work	-11.0868
vector	-11.0868
道歉	-11.0869
愿望	-11.0869
﹐	-11.0869
宾馆	-11.0869
优先	-11.0871
太棒了	-11.0871
踢球	-11.0873
游客	-11.0873
浓度	-11.0874
一台	-11.0875
处罚	-11.0875
影像	-11.0876
▁recipe	-11.0878
月球	-11.0878
我不能	-11.0879
种类	-11.0881
情节	-11.0882
▁view	-11.0885
以前的	-11.0887
通用	-11.0891
的实力	-11.0891
▁weight	-11.0892
校友	-11.0894
obj	-11.0896
▁requests	-11.0899
...
‎	-11.09
说法	-11.0903
不存在	-11.0903
附近有	-11.0904
fo	-11.0904
西亚	-11.0906
所谓	-11.0907
▁Gu	-11.0907
运气	-11.0908
同样的	-11.0908
进展	-11.091
▁did	-11.0912
女孩子	-11.0914
著作	-11.0917
Line	-11.0919
一点都不	-11.092
黎	-11.092
要注意	-11.092
icon	-11.0921
这里的	-11.0925
德里	-11.0928
主演的	-11.0929
▁ISO	-11.0929
估	-11.093
隔离	-11.0931
会计	-11.0933
▁Pi	-11.0934
不可以	-11.0934
等地	-11.0935
所以说	-11.0936
发了	-11.0937
▁design	-11.0938
尋	-11.0938
袖	-11.0939
鸣	-11.094
激励	-11.094
岭	-11.0941
巷	-11.0941
鲍	-11.0942
麻烦你	-11.0942
文物保护单位	-11.0943
有事	-11.0943
激素	-11.0943
tests	-11.0943
設計	-11.0944
冲击	-11.0944
利润	-11.0945
▁Vi	-11.0946
fn	-11.0947
Manager	-11.0947
无奈	-11.0948
Parameter	-11.0949
转发	-11.0951
block	-11.0953
演唱会	-11.0955
也太	-11.0958
委員會	-11.0958
路过	-11.0959
带上	-11.096
许多人	-11.0963
更大的	-11.0968
}-	-11.097
選舉	-11.0972
▁University	-11.0972
后卫	-11.0974
可以啊	-11.0976
ich	-11.0979
的规定	-11.098
到处	-11.0983
▁records	-11.0986
大使	-11.0989
▁output	-11.0992
东方	-11.0997
ik	-11.0998
怎么做	-11.0998
Gen	-11.1
我还以为	-11.1002
中部	-11.1003
的部分	-11.1006
对待	-11.1009
製	-11.1009
过去了	-11.101
懂得	-11.101
run	-11.1012
geo	-11.1013
五十	-11.1013
柴	-11.1015
催	-11.1015
浸	-11.1015
傅	-11.1015
辽	-11.1017
复杂的	-11.1018
▁Please	-11.1018
糕	-11.1018
挨	-11.1018
／	-11.1019
喵	-11.1019
balance	-11.102
漫画	-11.102
ville	-11.1021
coin	-11.1021
都知道	-11.1022
工程师	-11.1023
大佬	-11.1023
立刻	-11.1023
旧市镇	-11.1023
HE	-11.1023
微博	-11.1026
主義	-11.1026
hashtag	-11.1027
scope	-11.1028
指数	-11.1032
买卖	-11.1034
储存	-11.1034
平常	-11.1036
的景点	-11.1037
If	-11.1037
境内	-11.1038
namespace	-11.1041
网红	-11.1041
去买	-11.1043
相關	-11.1045
我爱	-11.1046
urs	-11.1047
我的天	-11.1051
BO	-11.1052
作为一个	-11.1056
like	-11.1059
我以前	-11.1061
▁job	-11.1062
住房	-11.1066
十字	-11.1066
后果	-11.1072
也可	-11.1073
十九	-11.1076
做饭	-11.1076
ctor	-11.1078
专辑	-11.1083
std	-11.1085
▁align	-11.1089
庙	-11.109
dec	-11.1091
亨	-11.1091
奴	-11.1094
昔	-11.1094
呵	-11.1094
负担	-11.1095
forecast	-11.1096
activity	-11.1097
Config	-11.1097
奖励	-11.1097
Team	-11.1097
违法	-11.1099
lan	-11.1099
pic	-11.11
生育	-11.1102
▁States	-11.1103
進入	-11.1103
中华	-11.1107
mb	-11.1108
Color	-11.1109
意思是	-11.1109
MB	-11.1109
ption	-11.1111
罢	-11.1111
实体	-11.1113
校区	-11.1116
处理器	-11.1119
能否	-11.112
大规模	-11.1122
亲自	-11.1124
你先	-11.1125
FL	-11.113
lines	-11.1132
遇见	-11.1144
不说	-11.1145
年初	-11.1145
尽快	-11.1146
的精神	-11.1149
的女儿	-11.115
DB	-11.1152
▁average	-11.1152
dis	-11.1155
碰到	-11.1157
引用	-11.1159
▁Lo	-11.1161
月台	-11.1164
lf	-11.1166
醒了	-11.1167
好啦	-11.1169
now	-11.1169
靖	-11.1169
續	-11.117
藥	-11.1171
规律	-11.1172
舟	-11.1172
杀死	-11.1172
roll	-11.1173
叙利亚	-11.1173
▁capabilities	-11.1174
▁family	-11.1174
Source	-11.1174
之处	-11.1175
坚强	-11.1176
电话号码	-11.1177
完成了	-11.1177
最終	-11.1177
鐵路	-11.1178
给自己	-11.1182
▁Pe	-11.1183
积分	-11.1184
迟到	-11.1185
价位	-11.1191
假如	-11.1192
的生命	-11.1194
"
#	-11.1195
十三	-11.1196
related	-11.1196
似的	-11.1197
诱	-11.1199
":[]}},	-11.12
So	-11.1205
过去的	-11.1206
Net	-11.1207
里有	-11.121
else	-11.1212
而且还	-11.1214
得知	-11.1214
证书	-11.1215
吃货	-11.1218
▁surge	-11.1218
发起	-11.1218
Page	-11.1219
成果	-11.1219
])	-11.1224
SH	-11.1225
任何人	-11.1227
水中	-11.1228
▁summary	-11.1233
▁Lu	-11.1233
日起	-11.1233
Ga	-11.1236
节奏	-11.1237
排除	-11.1238
CBA	-11.1239
unt	-11.1241
逐	-11.1243
襄	-11.1245
可以去	-11.1246
早上好	-11.1246
碑	-11.1247
回国	-11.1247
錄	-11.1249
護	-11.1249
悟	-11.1249
凑	-11.1249
我发现	-11.1249
栋	-11.125
億	-11.125
娇	-11.1251
裁判	-11.1251
慎	-11.1251
▁games	-11.1252
也挺	-11.1252
с	-11.1252
聯賽	-11.1252
罗斯	-11.1255
互动	-11.1257
▁supported	-11.1263
mat	-11.1265
▁useful	-11.1266
active	-11.1267
难得	-11.1267
学期	-11.1269
一顿	-11.127
民间	-11.1271
没得	-11.1271
Rate	-11.1274
bt	-11.1276
叫你	-11.1277
doc	-11.1283
这方面	-11.1284
CR	-11.1285
NY	-11.1289
海岸	-11.129
过于	-11.1291
以确保	-11.1292
TP	-11.1297
vers	-11.1301
AND	-11.1304
汽	-11.1305
有两个	-11.1305
好好看	-11.1306
行星	-11.1306
竞	-11.1306
将来	-11.1307
初中	-11.1308
出血	-11.1312
握	-11.1313
打造	-11.1316
Cu	-11.132
帽	-11.1322
願	-11.1325
導	-11.1325
姬	-11.1327
英格兰	-11.1328
竞技	-11.1328
筋	-11.1328
麥	-11.1328
它可以	-11.1329
影響	-11.1329
牙齿	-11.1329
依靠	-11.133
HTML	-11.1331
purchase	-11.1331
wood	-11.1331
年夏季奧林匹克運動會	-11.1331
▁always	-11.1331
此后	-11.1331
park	-11.1332
哈喽	-11.1333
花了	-11.1333
拜托	-11.1334
▁articles	-11.1335
control	-11.1335
环保	-11.1335
前锋	-11.1337
随意	-11.1337
爱我	-11.1339
内存	-11.134
兩個	-11.1341
。”
“	-11.1342
逝世	-11.1343
鼻子	-11.1343
趟	-11.1344
究竟	-11.1346
车牌	-11.1346
讲述	-11.1347
过敏	-11.1347
下列	-11.1355
PG	-11.1355
▁PM	-11.1356
好美	-11.136
fer	-11.1362
/**
	-11.1362
▁pickup	-11.1365
lor	-11.1367
了好多	-11.1367
sil	-11.1367
较低	-11.1375
累了	-11.1377
▁integers	-11.138
更改	-11.138
▁Then	-11.1381
try	-11.1381
不是说	-11.1382
▁way	-11.1383
也就是说	-11.1383
什么意思	-11.1385
▁handle	-11.1386
不错啊	-11.1388
我先走了	-11.139
▁delivery	-11.1391
的压力	-11.1392
什么呢	-11.1395
▁double	-11.1395
LO	-11.1396
Returns	-11.1399
▁pass	-11.14
造型	-11.14
政党	-11.1403
英里	-11.1403
拓	-11.1404
契	-11.1405
痕	-11.1407
耶稣	-11.1407
淮	-11.1407
優	-11.1407
敷	-11.1408
熔	-11.1408
佔	-11.1408
泳	-11.1409
绑	-11.1409
友好	-11.1409
的任何	-11.1409
总体	-11.1409
遵	-11.1409
抄	-11.1409
歐洲	-11.1409
抵达	-11.141
split	-11.141
AAPL	-11.141
韓國	-11.1411
住宅	-11.1411
娃娃	-11.1411
化妆	-11.1412
rd	-11.1412
eb	-11.1413
截至	-11.1414
深刻	-11.1414
Ru	-11.1414
高于	-11.1415
▁sports	-11.1415
长了	-11.1417
brand	-11.1418
发展的	-11.1423
append	-11.1424
活着	-11.1426
报警	-11.1427
Only	-11.1429
合格	-11.1429
Ver	-11.1434
batch	-11.1434
月初	-11.1436
的关键	-11.1437
的父亲	-11.1439
两者	-11.1439
一度	-11.1442
被你	-11.1444
▁metadata	-11.1444
各地	-11.1445
vol	-11.1449
嗯呐	-11.1449
oth	-11.1449
如果我们	-11.1454
代价	-11.1455
uni	-11.1455
Sub	-11.1455
热门	-11.1456
这么做	-11.1458
手指	-11.1461
产品的	-11.1461
itch	-11.1462
▁population	-11.1464
漂亮的	-11.1464
;
}

	-11.1472
了他的	-11.1474
▁codes	-11.1477
克莱	-11.148
便利	-11.1483
生活在	-11.1484
##	-11.1485
梯	-11.1487
漆	-11.1487
膏	-11.1487
受害者	-11.1488
辉	-11.1489
瞧	-11.1489
致力于	-11.149
脖子	-11.149
东南	-11.149
特斯拉	-11.149
Language	-11.149
settings	-11.149
Array	-11.149
▁against	-11.1491
跳舞	-11.1493
參加	-11.1494
影视	-11.1494
条款	-11.1495
resolve	-11.1496
变形	-11.1497
兔子	-11.1498
黄色	-11.1501
要看	-11.1501
▁height	-11.1501
村落	-11.1502
▁coordinates	-11.1505
到底是	-11.1505
unit	-11.1506
你就是	-11.1506
仪式	-11.1508
▁large	-11.1508
一句话	-11.1512
战胜	-11.1512
小于	-11.1515
='	-11.1518
数据库	-11.1518
因为他们	-11.1518
DA	-11.1521
约为	-11.1522
名叫	-11.1523
都快	-11.1523
window	-11.1524
ony	-11.1525
NA	-11.1527
season	-11.1528
八年	-11.153
州市	-11.1539
東京	-11.154
球场	-11.1541
滋	-11.1541
夺冠	-11.1542
放下	-11.1544
ium	-11.1546
爱国	-11.1547
ji	-11.1549
Max	-11.1549
对抗	-11.1552
答应	-11.1554
sl	-11.1554
ches	-11.1554
被迫	-11.1557
惜	-11.1559
看一下	-11.1559
近日	-11.1561
統	-11.1561
有多少	-11.1564
大夫	-11.1565
表格	-11.1565
煤	-11.1566
尉	-11.1566
焦虑	-11.1567
condition	-11.1568
前后	-11.1568
槍	-11.1568
渔	-11.1568
途径	-11.1568
华盛顿	-11.1568
嫌	-11.1569
輪	-11.1569
撕	-11.157
锦标赛	-11.157
铃	-11.157
Field	-11.1571
指示	-11.1571
橡胶	-11.1572
Tri	-11.1572
thread	-11.1574
柏林	-11.1575
夫妇	-11.1575
growth	-11.1576
▁played	-11.1577
让自己	-11.1579
生理	-11.1579
特別	-11.1579
尼亞	-11.1581
一道	-11.1583
的态度	-11.1585
▁send	-11.1589
下车	-11.159
cho	-11.1591
面试	-11.1592
Sa	-11.1593
根本不	-11.1599
美国人	-11.1604
很小	-11.1604
▁attribute	-11.1605
▁IN	-11.1606
▁cost	-11.1607
接壤的	-11.161
看得	-11.1614
的温度	-11.1615
集体	-11.1616
join	-11.1621
style	-11.1623
说道	-11.1623
ax	-11.1623
球隊	-11.1628
火山	-11.1631
女排	-11.1635
观念	-11.164
赌	-11.164
聞	-11.1641
Hey	-11.1642
猴	-11.1642
save	-11.1643
去做	-11.1645
FI	-11.1645
不看	-11.1645
協	-11.1646
毕	-11.1646
弓	-11.1648
乾	-11.1648
缺陷	-11.1649
扁	-11.165
传染	-11.1652
烏	-11.1652
你知道吗	-11.1652
airport	-11.1653
怀念	-11.1653
▁Foundation	-11.1654
案例	-11.1654
Domain	-11.1655
佛教	-11.1655
在家里	-11.1656
xml	-11.1659
摄影	-11.166
资本	-11.1661
援助	-11.1661
同感	-11.1662
联合国	-11.1662
▁note	-11.1666
EUR	-11.1668
怎么回事	-11.1674
高压	-11.1678
{\	-11.1678
输送	-11.168
Ju	-11.1684
SM	-11.1685
错过	-11.1685
大于	-11.1686
▁types	-11.1689
上来	-11.1689
個人	-11.1689
▁express	-11.1691
超市	-11.1691
****************	-11.1692
▁answers	-11.1693
▁song	-11.1697
对面	-11.17
!!!!
	-11.1701
老年人	-11.1702
多谢	-11.1702
现在已经	-11.1704
有意思	-11.1705
文本	-11.1707
想念	-11.1707
卡尔	-11.171
stats	-11.1714
研究生	-11.172
iti	-11.172
什么啊	-11.1722
准备好	-11.1727
就觉得	-11.1727
▁apply	-11.1729
遺	-11.1731
艳	-11.1731
渐	-11.1731
贡	-11.1732
比特币	-11.1733
歪	-11.1733
辅助	-11.1733
咧	-11.1734
天安门广场	-11.1734
Policy	-11.1734

|-
|	-11.1734
Hello	-11.1734
Power	-11.1734
侵犯	-11.1734
民主党	-11.1735
审查	-11.1735
结论	-11.1736
彩票	-11.1737
完善	-11.1738
出色	-11.1739
推广	-11.174
团结	-11.174
出演	-11.174
NG	-11.174
▁{\	-11.1743
不太好	-11.1745
元年	-11.1746
arr	-11.1748
可以说是	-11.1749
南非	-11.1752
▁keyword	-11.1754
携带	-11.1754
Tools	-11.1756
auth	-11.1757
并未	-11.1757
标记	-11.1763
▁One	-11.1766
结婚了	-11.1768
热量	-11.1771
同一个	-11.1772
echo	-11.1774
晚了	-11.1775
nes	-11.1785
▁May	-11.1788
晓得	-11.1788
aa	-11.1791
冬季	-11.1792
小孩子	-11.1793
马尔	-11.1793
子宫	-11.1794
我想要	-11.1796
没时间	-11.18
有一种	-11.1801
好运	-11.1801
IO	-11.1802
í	-11.1804
ound	-11.1806
小镇	-11.1808
券	-11.1808
齊	-11.1809
庞	-11.1811
详	-11.1812
樹	-11.1812
ib	-11.1813
腺	-11.1813
熙	-11.1813
顧	-11.1813
彈	-11.1814
遵守	-11.1815
鉴定	-11.1816
▁fla	-11.1816
邮政编码为	-11.1817
storage	-11.1817
陕西	-11.1817
供应商	-11.1817
▁stay	-11.1817
鞋子	-11.1819
未来的	-11.1819
eather	-11.1819
的可能性	-11.1822
酒精	-11.1822
公分	-11.1826
组件	-11.1826
你真的	-11.1827
必要的	-11.1828
不开	-11.1829
rows	-11.1829
景区	-11.1829
推荐菜	-11.1829
同志	-11.183
老子	-11.183
的存在	-11.1831
情报	-11.1832
▁Ta	-11.1834
污水	-11.1834
金牌	-11.1837
周边还有	-11.1838
ml	-11.1839
取得了	-11.184
VIP	-11.1843
例子	-11.1843
狗粮	-11.1846
小编	-11.1847
ele	-11.1847
多么	-11.185
arch	-11.1855
你这样	-11.1856
{\"	-11.1857
广泛的	-11.1857
▁Ko	-11.1862
不说了	-11.1862
大幅	-11.1864
如果有	-11.1866
品质	-11.1867
▁context	-11.1869
三种	-11.1869
本科	-11.1871
三次	-11.1872
ET	-11.1875
东京	-11.1879
Ti	-11.1883
加热	-11.1884
pm	-11.1885
：《	-11.1885
暂	-11.1886
侵	-11.1888
ara	-11.1891
args	-11.1891
市长	-11.1891
纽	-11.1893
▁requested	-11.1894
改名	-11.1895
监测	-11.1895
还是有	-11.1896
霞	-11.1896
雖然	-11.1896
锤	-11.1897
盤	-11.1897
织	-11.1897
靴	-11.1897
傑	-11.1897
雀	-11.1897
鼎	-11.1898
奎	-11.1898
格林	-11.1898
前段时间	-11.1899
▁further	-11.19
点儿	-11.1901
的电话是多少	-11.1901
乔治	-11.1901
吃完饭	-11.1901
搭配	-11.1901
另一方面	-11.1902
正常的	-11.1903
土豪	-11.1904
顺序	-11.1904
metric	-11.1905
报纸	-11.1905
较大	-11.1906
单词	-11.1907
指甲	-11.1908
COM	-11.1909
▁products	-11.191
频道	-11.191
单击	-11.191
当选	-11.1913
已被	-11.1914
ism	-11.1916
路口	-11.192
▁track	-11.192
国庆	-11.1921
的设计	-11.1924
比较喜欢	-11.1924
▁love	-11.1926
GE	-11.1928
eo	-11.1929
现在都	-11.193
-{	-11.1931
起來	-11.1932
zz	-11.1934
connection	-11.1934
CS	-11.1935
王国	-11.1938
▁manage	-11.1939
毒品	-11.1943
步行	-11.1945
问题是	-11.1945
▁try	-11.1946
游戏中	-11.1946
季度	-11.1953
拿着	-11.1953
不舒服	-11.1954
明显的	-11.1957
概	-11.1958
仍在	-11.1958
不满	-11.1959
别说	-11.196
马上就	-11.1964
▁win	-11.197
dam	-11.1973
革	-11.1974
奖项	-11.1975
改造	-11.1975
How	-11.1975
臨	-11.1981
柄	-11.1982
艦	-11.1983
怡	-11.1984
global	-11.1984
Premium	-11.1984
▁until	-11.1984
▁directly	-11.1984
PM	-11.1985
▁good	-11.1985
杀人	-11.1986
clear	-11.1987
ified	-11.1987
监管	-11.1987
的时区	-11.1988
肿么	-11.199
还是挺	-11.199
微生物	-11.199
导航	-11.199
冷静	-11.199
极端	-11.1991
Base	-11.1993
世紀	-11.1993
我需要	-11.1993
中国人	-11.1994
Main	-11.1994
特别的	-11.2001
额外的	-11.2003
一同	-11.2005
Ni	-11.2005
觉得自己	-11.2005
raw	-11.2005
)**	-11.2006
螺	-11.2006
▁Bi	-11.2008
在过去	-11.2008
难度	-11.2009
▁night	-11.2011
拿了	-11.2011
罚款	-11.2013
无人	-11.2013
梦见	-11.2019
但这	-11.203
大叔	-11.2032
CK	-11.2032
黑人	-11.2035
所得	-11.2035
转让	-11.2039
rl	-11.204
▁Har	-11.2041
米兰	-11.2042
亿元	-11.2043
正如	-11.2044
分别是	-11.205
签订	-11.2051
主场	-11.2051
我怕	-11.2052
Part	-11.2052
▁tax	-11.2057
两位	-11.2059
极大	-11.206
▁En	-11.206
祖父	-11.2061
寨	-11.2063
胀	-11.2064
經濟	-11.2064
我用	-11.2065
面上	-11.2065
罩	-11.2065
垂直	-11.2066
蹲	-11.2066
process	-11.2066
艰难	-11.2067
挖掘	-11.2068
決定	-11.2068
辞职	-11.2068
茅	-11.2068
以上的	-11.2069
google	-11.2069
展览	-11.2069
empty	-11.2069
sequence	-11.2069
daily	-11.2069
盧	-11.2069
When	-11.2069
轄	-11.2069
speed	-11.2069
脾气	-11.2069
結果	-11.2069
categories	-11.2069
玛丽	-11.207
饺子	-11.207
混乱	-11.207
平方米	-11.2071
不应	-11.2071
夏令时	-11.2072
压缩	-11.2072
永久	-11.2072
地说	-11.2072
Updated	-11.2075
human	-11.2075
改为	-11.2075
▁Fa	-11.2076
End	-11.2076
就被	-11.2076
地上	-11.2078
▁got	-11.2079
▁am	-11.2081
和谐	-11.2081
半夜	-11.2082
更为	-11.2083
▁safety	-11.2084
缺少	-11.2085
声称	-11.2086
Ride	-11.2087
Wal	-11.209
▁meet	-11.2091
上传	-11.2092
姓名	-11.2093
cn	-11.2094
▁platform	-11.2095
ION	-11.2098
umb	-11.2101
▁dates	-11.2102
北京市	-11.2107
如果不	-11.2108
Mi	-11.2109
醒来	-11.2113
manager	-11.2115
";
	-11.2115
就可以了	-11.2116
学长	-11.2117
设计的	-11.2119
法定	-11.2121
辛苦了	-11.2124
Play	-11.2126

【	-11.2133
转变	-11.2135
Car	-11.214
tter	-11.2141
frame	-11.2142
一本	-11.2146
IR	-11.2146
更容易	-11.2149
姨	-11.215
数十	-11.2151
▁reviews	-11.2151
湘	-11.2151
當地	-11.2152
不明白	-11.2153
候选人	-11.2153
骑士	-11.2154
INSEE	-11.2154
ABILITY	-11.2154
▁Communicates	-11.2154
▁inquirer	-11.2154
▁whether	-11.2154
♫	-11.2154
的人口数量	-11.2154
憋	-11.2154
▁species	-11.2154
视觉	-11.2155
From	-11.2155
參見	-11.2156
绝望	-11.2156
guide	-11.2158
▁law	-11.2158
John	-11.216
电视台	-11.216
集成	-11.216
On	-11.2161
rec	-11.2162
改变了	-11.2163
bound	-11.2164
▁below	-11.2164
四月	-11.2164
▁Chi	-11.2165
我打算	-11.2166
endif	-11.2166
港口	-11.2167
lookup	-11.2167
车上	-11.2169
安娜	-11.2169
其实是	-11.2171
贯	-11.2174
ston	-11.2175
反复	-11.2177
推进	-11.2177
精力	-11.2179
看新闻	-11.218
对阵	-11.218
抬	-11.2181
穿越	-11.2182
Require	-11.2182
sec	-11.2184
本质	-11.2184
Inter	-11.2186
三角	-11.2187
前进	-11.219
局部	-11.2193
覺	-11.2195
做梦	-11.2197
真爱	-11.2197
发达	-11.2199
Top	-11.2204
我看你	-11.2204
跑了	-11.2204
回事	-11.2208
▁→	-11.2209
哪家	-11.221
▁June	-11.2212
南北	-11.2216
国产	-11.222
真实的	-11.2223
▁Sha	-11.2223
ama	-11.2223
chat	-11.2223
还有一个	-11.2224
这对	-11.2227
吃过	-11.2227
一千	-11.2228
可怜的	-11.223
受欢迎	-11.2231
遣	-11.2231
可是我	-11.2232
册	-11.2233
")	-11.2233
我们家	-11.2233
热水	-11.2233
徽	-11.2235
痴	-11.2235
电缆	-11.2236
披	-11.2237
我还在	-11.2237
lies	-11.2238
側	-11.2238
盾	-11.2238
干扰	-11.2238
鹅	-11.2239
long	-11.2239
茲	-11.2239
斗争	-11.2239
捡	-11.2239
藻	-11.224
人口密度每平方公里	-11.224
quantity	-11.224
▁inquiry	-11.2241
Profile	-11.2241
竞赛	-11.2241
亚马逊	-11.2241
目录	-11.2242
▁instead	-11.2243
与其他	-11.2243
▁tell	-11.2244
配备	-11.2244
本书	-11.2245
出租车	-11.2245
change	-11.2246
出道	-11.2246
▁comments	-11.2247
▁\\	-11.2248
許多	-11.2251
WA	-11.2251
外卖	-11.2252
打败	-11.2253
period	-11.2254
replace	-11.2254
tax	-11.2254
利亞	-11.2255
小仙女	-11.2257
▁Du	-11.2258
编码为	-11.2258
运动会	-11.226
反正我	-11.2263
刚开始	-11.2264
点半	-11.2267
委员	-11.2267
台北	-11.2268
是你的	-11.2269
一首	-11.2269
考虑到	-11.227
好用	-11.2272
》《	-11.2272
好漂亮	-11.2275
你今天	-11.2276
为此	-11.2277
component	-11.228
來自	-11.2283
以下是	-11.2283
旗下	-11.2288
最小	-11.2288
Ra	-11.229
好喜欢	-11.2291
ale	-11.2292
AV	-11.2293
每月	-11.2297
美军	-11.2298
▁active	-11.23
!!!!	-11.2302
分解	-11.2306
适当的	-11.2306
bra	-11.2306
req	-11.2309
形成的	-11.231
的标准	-11.2311
filename	-11.2312
彼	-11.2314
军人	-11.2314
该死	-11.2315
分开	-11.2315
带来的	-11.2318
祸	-11.2319
消毒	-11.2321
勇士	-11.2322
▁initial	-11.2322
愤怒	-11.2324
惡	-11.2324
敦	-11.2325
腳	-11.2325
氮	-11.2325
钥匙	-11.2325
会儿	-11.2326
陣	-11.2327
薯	-11.2327
噗	-11.2327
Method	-11.2327
protocol	-11.2328
SQL	-11.2328
欧冠	-11.2328
TYPE	-11.2328
敏感	-11.2328
Market	-11.2328
income	-11.233
最高温度	-11.233
大事	-11.2331
占据	-11.2332
舍不得	-11.2332
Stock	-11.2332
好滴	-11.2333
十几	-11.2333
发布了	-11.2333
模特	-11.2335
我最喜欢	-11.2336
向上	-11.2336
桌子	-11.2337
解除	-11.2338
gender	-11.2339
开始了	-11.2339
引入	-11.2341
的节奏	-11.2343
精度	-11.2344
体会	-11.2346
下跌	-11.2347
scheduled	-11.2348
away	-11.2348
这点	-11.2349
写了	-11.2349
Options	-11.235
教会	-11.2352
提取	-11.2354
▁network	-11.2356
艾特	-11.2357
不過	-11.2357
乐队	-11.2358
ters	-11.2359
这是什么	-11.236
接口	-11.2364
不愿意	-11.2364
曾任	-11.2365
▁vehicle	-11.2367
wal	-11.2368
特别喜欢	-11.2373
杰克	-11.2373
的同时	-11.2375
▁play	-11.2375
从来不	-11.2377
幻	-11.2378
着呢	-11.238
当局	-11.2383
三月	-11.2385
和朋友	-11.2389
rail	-11.2389
ult	-11.239
在他的	-11.239
OD	-11.2392
CE	-11.2392
。

	-11.2392
大学生	-11.2393
。。。。
	-11.2394
可不是	-11.2398
二世	-11.2398
Send	-11.2399
tree	-11.24
Day	-11.2404
衡	-11.2405
象征	-11.2407
前提	-11.2407
▁John	-11.2409
恭	-11.2409
▁pair	-11.241
你不会	-11.241
俱	-11.241
喽	-11.2412
薛	-11.2412
勞	-11.2412
克里斯	-11.2412
丛	-11.2413
捧	-11.2413
惊讶	-11.2414
中華民國	-11.2414
晃	-11.2414
apache	-11.2415
▁small	-11.2415
隐私	-11.2416
▁raises	-11.2417
键盘	-11.2417
刑事	-11.242
言论	-11.242
恐怕	-11.2421
gre	-11.2421
▁say	-11.2424
Store	-11.2426
That	-11.2428
无关	-11.2429
一堆	-11.243
名人	-11.243
met	-11.2431
振动	-11.2431
Url	-11.2432
镜子	-11.2432
北美	-11.2433
短信	-11.2433
啊哈哈	-11.2433
被认为是	-11.2434
必须要	-11.2434
号线	-11.2436
日前	-11.2437
定制	-11.244
high	-11.2441
：

。

	-11.2442
▁annual	-11.2442
ense	-11.2442
助攻	-11.2446
仙女	-11.2447
你这么	-11.2448
马克	-11.2449
gram	-11.2449
发动	-11.2449
再去	-11.245
的权利	-11.245
我很喜欢	-11.2452
领域的	-11.2453
玩了	-11.2455
要不然	-11.2457
啊啊啊啊	-11.2457
大臣	-11.2458
看来你	-11.2461
符号	-11.2461
ending	-11.2462
陪我	-11.2463
换个	-11.2466
安全性	-11.2467
正面	-11.2468
eth	-11.2469
▁rates	-11.247
pre	-11.2471
手中	-11.2472
主力	-11.2475
他家的	-11.2481
三个月	-11.2482
）；	-11.2484
LED	-11.2489
怎么可能	-11.249
查到	-11.2496
伪	-11.2497
过多	-11.2498
狀	-11.2498
炼	-11.2499
譯	-11.25
贸	-11.25
多数	-11.2501
賣	-11.2501
宰	-11.2501
淑	-11.2501
含义	-11.2502
侵权	-11.2502
寂寞	-11.2503
瑪	-11.2503
痘	-11.2503
tab	-11.2503
API	-11.2503
豆腐	-11.2504
集團	-11.2507
通常是	-11.2507
▁characters	-11.2508
天生	-11.251
保守	-11.2511
parse	-11.2512
▁unit	-11.2512
直至	-11.2513
在哪儿	-11.2513
哇塞	-11.2515
魔法	-11.2516
你不知道	-11.2518
direct	-11.2519
却是	-11.2519
伯特	-11.2521
America	-11.2522
的妻子	-11.2522
It	-11.2524
▁since	-11.2524
Full	-11.253
▁auto	-11.2531
rot	-11.2532
output	-11.2537
任意	-11.2539
斯基	-11.254
OT	-11.2541
出任	-11.2542
ticker	-11.2547
▁<<	-11.2548
There	-11.2551
opt	-11.2552
微笑	-11.2552
手里	-11.2556
小哥哥	-11.2559
这两天	-11.2565
添	-11.2566
于时	-11.2566
CI	-11.2571
學生	-11.2572
）
（	-11.2576
▁artist	-11.2577
verse	-11.2577
笑了	-11.2577
舌	-11.2582
決	-11.2583
递	-11.2585
Generate	-11.2586
儒	-11.2586
电动	-11.2586
掩	-11.2587
患者的	-11.2588
铸	-11.2588
講	-11.2588
短期	-11.2588
星球	-11.2589
涉嫌	-11.2589
办公	-11.259
琪	-11.2591
坠	-11.2591
奋斗	-11.2592
莫斯科	-11.2592
沉积	-11.2593
л	-11.2593
资讯	-11.2593
Stream	-11.2593
International	-11.2593
TABLE	-11.2593
唧	-11.2593
付款	-11.2594
一层	-11.2594
multi	-11.2594
三人	-11.2594
Project	-11.2595
条件下	-11.2596
▁metrics	-11.2596
▁many	-11.2596
江苏	-11.2597
ask	-11.2599
我想去	-11.2599
Report	-11.26
star	-11.26
没用	-11.2603
公告	-11.2604
厚度	-11.2605
▁Your	-11.2608
塞尔	-11.2608
▁prices	-11.2611
小伙伴	-11.2611
维尔	-11.2613
饰演	-11.2614
他俩	-11.2614
ane	-11.2616
子女	-11.2617
而来	-11.2619
die	-11.262
吃点	-11.2621
首相	-11.2621
BE	-11.2632
当他	-11.2632
你居然	-11.2634
▁Bu	-11.2635
interest	-11.2635
看他	-11.2635
Result	-11.2636
征收	-11.2638
轻轻	-11.2638
你什么时候	-11.2645
要吃	-11.2648
很美	-11.2649
extract	-11.265
▁statistics	-11.2651
就已经	-11.2654
申请人	-11.2658
那儿	-11.2659
▁health	-11.266
了解一下	-11.2661
sw	-11.2662
家中	-11.2664
▁teams	-11.2664
▁verification	-11.2671
嘞	-11.2671
尺	-11.2672
肢	-11.2674
确	-11.2675
与其	-11.2676
屯	-11.2677
威尔	-11.2677
悬	-11.2678
惟	-11.2678
遊	-11.2678
贺	-11.2678
Gra	-11.2679
▁turn	-11.268
換	-11.268
痒	-11.2681
惩罚	-11.2681
反馈	-11.2681
拐	-11.2682
虹	-11.2682
支援	-11.2682
化合物	-11.2682
伊斯兰	-11.2683
给我推荐一家	-11.2683
CREATE	-11.2683
ン	-11.2683
▁described	-11.2683
最低温度	-11.2684
海上	-11.2684
交叉	-11.2684
alpha	-11.2684
科比	-11.2685
仪器	-11.2685
▁``	-11.2685
打扰	-11.2686
敬业	-11.2686
delete	-11.2687
感受到	-11.2687
收获	-11.2687
冰箱	-11.2688
ria	-11.2688
AG	-11.2689
部署	-11.2691
人民政府	-11.2692
▁Role	-11.2693
一日	-11.2695
很好吃	-11.2698
情形	-11.2698
说的是	-11.2699
政权	-11.27
流动	-11.2704
▁collection	-11.2704
msg	-11.2705
我们应该	-11.2708
这家酒店的	-11.2708
幸福的	-11.2709
所谓的	-11.2713
IL	-11.2713
花费	-11.2716
颈	-11.2719
Card	-11.2721
恒大	-11.2726
非常重要	-11.2726
麦克	-11.2727
▁film	-11.2727
拿下	-11.2728
的身份	-11.2729
device	-11.273
天哪	-11.273
ign	-11.2734
二级	-11.2735
\\	-11.2737
分数	-11.2737
phy	-11.2738
在内的	-11.2739
▁On	-11.2739
十七	-11.274
▁],
	-11.2744
创造了	-11.2745
▁update	-11.2752
的颜色	-11.2752
▁responses	-11.2752
还好吧	-11.2755
down	-11.2757
疗	-11.2758
ye	-11.2761
过分	-11.2762
拘	-11.2765
想买	-11.2767
疫	-11.2769
ico	-11.2769
識	-11.2769
绘	-11.277
溢	-11.277
莊	-11.277
捞	-11.2771
菲律宾	-11.2772
頂	-11.2772
钉	-11.2772
澤	-11.2772
进化	-11.2773
volume	-11.2774
minute	-11.2774
签署	-11.2774
extension	-11.2774
Standard	-11.2774
吸烟	-11.2775
Cr	-11.2775
哎呦	-11.2776
▁district	-11.2776
iPhone	-11.2777
參考	-11.2777
首席	-11.2777
澳门	-11.2778
彼得	-11.2779
detect	-11.2779
机动车	-11.2781
举报	-11.2781
▁October	-11.2782
待遇	-11.2782
的数量	-11.2783
职位	-11.2784
远离	-11.2784
不给	-11.2787
用作	-11.2788
起飞	-11.2788
qua	-11.2789
当我们	-11.2791
打印	-11.2792
一杯	-11.2794
無法	-11.2794
▁IDs	-11.2794
女主	-11.2794
Table	-11.2795
你以为	-11.28
動物	-11.2801
活力	-11.2803
老家	-11.2805
早已	-11.2805
的说法	-11.2807
fund	-11.2808
units	-11.2809
經過	-11.2809
▁included	-11.2809
提起	-11.281
▁record	-11.2813
！
-	-11.2814
欧元	-11.2814
的一切	-11.2815
|
|	-11.2817
拨	-11.282
好点	-11.2824
Non	-11.2824
玩耍	-11.2826
不行了	-11.2826
两名	-11.2828
Gr	-11.2829
推荐您	-11.283
接到	-11.2831
帅气	-11.2831
朵	-11.2832
为止	-11.2837
后者	-11.2839
不受	-11.284
不好看	-11.2846
▁criteria	-11.2846
坛	-11.2851
以此	-11.2852
ole	-11.2852
度过	-11.2853
爸	-11.2857
稳定性	-11.2858
);
}

	-11.2859
價	-11.2859
巫	-11.2859
涛	-11.2861
岗	-11.2861
均匀	-11.2861
父親	-11.2861
拒	-11.2862
expected	-11.2863
韵	-11.2863
裕	-11.2863
儀	-11.2863
舱	-11.2864
标题	-11.2864
煎	-11.2864
冈	-11.2864
授予	-11.2865
▁relevant	-11.2866
folder	-11.2866
OL	-11.2866
悲伤	-11.2866
扩展阅读	-11.2866
辽宁	-11.2867
獨立	-11.2867
Track	-11.2867
負責	-11.2867
.*	-11.2867
CPU	-11.2868
科學	-11.2872
factor	-11.2872
热闹	-11.2873
患有	-11.2873
社会主义	-11.2874
未经	-11.2874
也对	-11.2875
予以	-11.2877
▁飾	-11.2878
市场上	-11.288
坦克	-11.288
你确定	-11.2881
广西	-11.2881
第三方	-11.2881
人民币	-11.2881
▁loan	-11.2882
render	-11.2882
结束后	-11.2884
▁suggest	-11.2887
西藏	-11.2889
ration	-11.2894
在日本	-11.2895
其中包括	-11.2896
▁System	-11.2896
FA	-11.2896
下面的	-11.2898
指的是	-11.2898
的具体	-11.2902
ALL	-11.2905
排出	-11.2909
即便	-11.2912
视为	-11.2912
打包	-11.2912
嫁给	-11.2914
参加了	-11.2914
acc	-11.2918
▁YouTube	-11.2919
IV	-11.2919
件事	-11.2919
las	-11.2921
排放	-11.2922
底部	-11.2923
年起	-11.2923
▁needed	-11.2926
▁El	-11.2927
▁NOT	-11.2927
是滴	-11.2928
帮我查一下	-11.2931
▁functions	-11.2931
的家庭	-11.2932
本次	-11.2934
出席	-11.2935
真的太	-11.2937
▁/**
	-11.2939
场地	-11.2943
怪不得	-11.2944
我当时	-11.2948
珀	-11.2949
运作	-11.2949
locale	-11.295
汝	-11.2952
百姓	-11.2952
IM	-11.2952
咽	-11.2954
搅拌	-11.2954
崩	-11.2954
保健	-11.2955
治愈	-11.2956
凸	-11.2957
新人	-11.2957
与此同时	-11.2957
陪伴	-11.2958
German	-11.2958
т	-11.2958
cultural	-11.2958
Cloud	-11.2958
Module	-11.2958
北京天伦王朝酒店	-11.2958
virtual	-11.2958
解析	-11.2959
创业	-11.2959
男篮	-11.2959
公尺	-11.2959
▁structure	-11.296
环境中	-11.2961
missing	-11.2961
恶意	-11.2961
stack	-11.2962
认知	-11.2962
ux	-11.2962
构建	-11.2963
另一种	-11.2963
這是	-11.2965
為了	-11.2969
预约	-11.2969
Plan	-11.297
啥子	-11.297
Trans	-11.2971
▁across	-11.2972
图形	-11.2974
是如何	-11.2975
Cy	-11.2977
一次性	-11.2978
到位	-11.2979
▁multiple	-11.2987
百万	-11.2987
这段	-11.299
实在是	-11.3
旨	-11.3002
好好休息	-11.3004
赛车	-11.3004
▁root	-11.3005


..	-11.3012
神马	-11.3016
微信	-11.3016
吃饱	-11.3017
。”“	-11.3018
等于	-11.3024
水分	-11.3028
伙伴	-11.303
厨	-11.303
LC	-11.3033
files	-11.3033
旦	-11.3035
▁display	-11.3035
Par	-11.3037
悔	-11.3039
ola	-11.3041
域名	-11.3043
姚	-11.3044
阁	-11.3045
一阵	-11.3045
的母亲	-11.3046
硫	-11.3046
肤	-11.3047
總統	-11.3048
壓	-11.3048
悠	-11.3048
足够的	-11.3048
监狱	-11.3049
補	-11.3049
遥	-11.3049
谜	-11.3051
酿	-11.3051
羞	-11.3051
悄悄	-11.3051
萝	-11.3051
仿佛	-11.3051
将被	-11.3051
至关重要	-11.3051
貨	-11.3051
升高	-11.3051
舞蹈	-11.3051
寿命	-11.3051
ü	-11.3052
非建制地區	-11.3052
phrase	-11.3052
protected	-11.3052
▁WARRANTIES	-11.3052
♪	-11.3052
模块	-11.3052
▁ensure	-11.3052
必然	-11.3053
▁appear	-11.3053
玩游戏	-11.3053
权益	-11.3054
▁reference	-11.3054
眉毛	-11.3054
參與	-11.3054
交付	-11.3055
康复	-11.3055
一个小	-11.3056
夸张	-11.3056
North	-11.3058
原告	-11.3058
就不能	-11.3059
分布于	-11.3062
有毒	-11.3062
不明	-11.3062
west	-11.3066
尽可能	-11.3068
同步	-11.307
爱上	-11.3073
ces	-11.3074
报导	-11.3075
▁around	-11.3076
代替	-11.3079
高清	-11.3086
EST	-11.3086
主张	-11.309
外表	-11.3094
目的是	-11.3099
但是他	-11.31
是美国	-11.31
常规	-11.3105
....	-11.3108
的过程中	-11.311
花钱	-11.311
以往	-11.311
转向	-11.3111
了自己的	-11.3112
好哒	-11.3114
以免	-11.3114
原来是	-11.3114
赠	-11.3116
斯塔	-11.3117
给出	-11.3119
And	-11.3123
DR	-11.3125
玩具	-11.3131
看不见	-11.3132
再也	-11.3132
个小	-11.3132
成年人	-11.3132
给他们	-11.3135
送给	-11.3136
函	-11.3136
我再	-11.3138
明白了	-11.3138
焊	-11.3138
酸奶	-11.3139
阶	-11.3139
长江	-11.314
市中心	-11.3141
用品	-11.3141
纲	-11.3142
絕	-11.3142
卜	-11.3142
长城	-11.3143
晉	-11.3143
枕	-11.3144
阿拉伯	-11.3144
烦恼	-11.3144
載	-11.3145
粤	-11.3145
▁restaurant	-11.3145
胚胎	-11.3145
大厦	-11.3145
谈判	-11.3145
蕾	-11.3145
藍	-11.3146
▁applicable	-11.3146
▁garden	-11.3146
▁village	-11.3146
console	-11.3146
perfect	-11.3146
▁every	-11.3147
subject	-11.3149
▁documentation	-11.3149
布朗	-11.315
年开始	-11.315
大气	-11.3151
uk	-11.3154
谢谢啦	-11.3155
一枚	-11.3156
动车	-11.3157
好嘞	-11.3158
一代	-11.316
山峰	-11.3161
曼城	-11.3161
早点睡	-11.3162
富有	-11.3163
原料	-11.3163
see	-11.3164
这份	-11.3166
抱着	-11.3167
选用	-11.3169
▁loyalty	-11.3175
ible	-11.3175
ita	-11.3176
▁hear	-11.3177
電視劇	-11.3177
出身	-11.318
Optional	-11.318
▁locations	-11.3188
回报	-11.3192
▁device	-11.3193
rule	-11.3197
▁Bar	-11.32
堪	-11.3201
▁systems	-11.3205
周年	-11.3209
碱	-11.321
阅	-11.3214
偿	-11.3215
原因是	-11.3216
不安	-11.3217
眼前	-11.3224
cross	-11.323
较为	-11.3231
共产党	-11.3231
企	-11.3235
领导人	-11.3235
update	-11.3236
走路	-11.3236
外援	-11.3236
廉	-11.3236
誰	-11.3237
繁殖	-11.3238
徵	-11.3238
逾	-11.3239
采购	-11.3239
创始人	-11.3239
英寸	-11.3239
裸	-11.3239
追踪	-11.3239
发言人	-11.324
巴斯	-11.324
领袖	-11.324
沙漠	-11.3241
芝加哥	-11.3241
к	-11.3241
ö	-11.3241
Address	-11.3241
French	-11.3241
爷爷	-11.3242
擅长	-11.3242
保護	-11.3242
灾难	-11.3242
参观	-11.3243
▁extends	-11.3243
网址	-11.3243
规格	-11.3243
信用卡	-11.3244
豪华	-11.3245
狮子	-11.3246
表现出	-11.3246
joke	-11.3247
部份	-11.3248
哎哟	-11.3248
祖国	-11.3249
live	-11.3255
的形式	-11.3255
chain	-11.3256
这些人	-11.3256
的重要性	-11.3258
你俩	-11.3258
考完	-11.3259
BC	-11.3259
Po	-11.326
外套	-11.3261
丢了	-11.3261
何时	-11.3262
成语	-11.3263
这样说	-11.3263
使命	-11.3264
两个月	-11.3265
Ab	-11.3268
乐观	-11.3269
reach	-11.3271
作曲	-11.3273
交易所	-11.3274
簡	-11.3276
信用	-11.3277
喜剧	-11.3277
je	-11.3278
玩儿	-11.3279
我爸	-11.3281
因子	-11.3283
布雷	-11.3283
)
#	-11.3283
Shi	-11.3284
GT	-11.3287
可以选择	-11.329
care	-11.3291
听听	-11.3294
周围的	-11.3295
做过	-11.3296
约会	-11.3299
ject	-11.33
俄羅斯	-11.33
tical	-11.3303
大战	-11.3303
影响力	-11.3308
我们去	-11.3308
挺好看的	-11.3314
那我就	-11.3314
lar	-11.3317
大楼	-11.3317
erry	-11.3318
聚集	-11.332
En	-11.3322
很长	-11.3322
NC	-11.3324
滞	-11.3328
我比较喜欢	-11.333
证券	-11.333
▁answer	-11.3331
盡	-11.3333
圣诞	-11.3334
锐	-11.3334
遷	-11.3335
鹏	-11.3335
彰	-11.3335
摩擦	-11.3335
忽略	-11.3335
谨慎	-11.3335
這樣	-11.3335
翠	-11.3336
姿势	-11.3336
遵循	-11.3336
劍	-11.3337
揍	-11.3337
馋	-11.3337
April	-11.3337
operator	-11.3337
Summary	-11.3338
群众	-11.3338
吐槽	-11.3338
transform	-11.3338
依照	-11.3338
▁early	-11.3338
安徽	-11.3338
直径	-11.3338
找一家	-11.3339
亞洲	-11.334
旅客	-11.3342
highlight	-11.3343
▁places	-11.3344
睡吧	-11.3345
淡定	-11.3346
反射	-11.3347
句话	-11.3348
怪物	-11.3348
band	-11.3348
显卡	-11.3349
timezone	-11.3351
ame	-11.3353
设计师	-11.3354
税务	-11.3356
溶液	-11.3357
参赛	-11.3357
movie	-11.3357
：。

	-11.3357
loc	-11.3361
脱发	-11.3361
指南	-11.3361
陆军	-11.3362
的人都	-11.3362
幻想	-11.3363
cp	-11.3365
alt	-11.3365
法兰	-11.3366
路線	-11.3366
出名	-11.3366
专用	-11.337
一组	-11.3371
后续	-11.3372
购物	-11.3372
ement	-11.3372
想问	-11.3373
好棒	-11.3374
更大	-11.3376
之所以	-11.3379
descrip	-11.3379
干啥	-11.3379
物流	-11.3379
▁invalid	-11.3384
▁*/

	-11.3389
聚会	-11.3389
编剧	-11.3393
公元	-11.3394
八十	-11.3395
该国	-11.3395
公安	-11.3396
licenses	-11.3399
我应该	-11.34
▁India	-11.34
market	-11.3406
east	-11.3406
手上	-11.3406
！」	-11.3411
额外	-11.3411
ox	-11.3412
排球	-11.3414
你别	-11.342
▁library	-11.3421
之上	-11.3422
RT	-11.3425
好巧	-11.3425
戏剧	-11.3426
tur	-11.3427
▁Cor	-11.3428
尸	-11.343
１	-11.343
磨损	-11.3431
keyword	-11.3431
variable	-11.3431
裏	-11.3431
鄭	-11.3432
床上	-11.3433
否认	-11.3433
贪	-11.3433
大致	-11.3434
隧道	-11.3434
Command	-11.3434
钢琴	-11.3434
▁‪	-11.3434
cuisine	-11.3435
Community	-11.3435
Mexico	-11.3435
plugin	-11.3435
▁actual	-11.3435
Python	-11.3435
well	-11.3435
乐趣	-11.3435
出版社	-11.3435
欢乐	-11.3436
田径	-11.3436
的时候就	-11.3437
skip	-11.3438
內容	-11.3441
你们都	-11.3441
润滑	-11.3441
▁upgrade	-11.3443
能看到	-11.3444
final	-11.3445

{
	-11.3451
Step	-11.3451
Mark	-11.3453
很抱歉	-11.3454
电磁	-11.3454
离心	-11.3461
artist	-11.3462
span	-11.3462
节日	-11.3464
西甲	-11.3464
wr	-11.3466
从此	-11.3467
喜爱	-11.3467
tail	-11.3468
Bar	-11.3469
的眼睛	-11.3469
建成	-11.3469
场上	-11.3473
then	-11.3474
导师	-11.3476
一世	-11.348
弹性	-11.3481
▁past	-11.3483
cont	-11.3485
cd	-11.349
西瓜	-11.3491
就得	-11.3491
detail	-11.3492
pot	-11.3493
中毒	-11.3494
ez	-11.3496
最新的	-11.3496
高效	-11.3497
小区	-11.3497
》

	-11.3497
打游戏	-11.35
的房子	-11.35
长春	-11.3502
buf	-11.3502
sound	-11.3503
dict	-11.3505
棒球	-11.3506
抑郁	-11.3506
上网	-11.3507
不仅仅是	-11.3508
options	-11.351
!",	-11.351
挺喜欢	-11.3515
晚上好	-11.3515
小朋友	-11.3519
歌词	-11.3519
▁Na	-11.352
▁changes	-11.352
][	-11.3521
年轻的	-11.3522
列出	-11.3522
０	-11.3524
好人	-11.3525
symbols	-11.3525
Ha	-11.3526
长沙	-11.3526
债券	-11.3526
++)	-11.3527
奴隶	-11.3529
鄰	-11.3529
棚	-11.353
埔	-11.353
蓄	-11.353
渴望	-11.353
崩溃	-11.3531
联络	-11.3531
情況	-11.3532
摆脱	-11.3532
挪威	-11.3532
register	-11.3532
amazon	-11.3532
扫描	-11.3533
Android	-11.3533
撸	-11.3533
After	-11.3533
Linux	-11.3533
▁think	-11.3533
project	-11.3533
buffer	-11.3533
▁life	-11.3533
乾隆	-11.3533
平面	-11.3534
股权	-11.3534
烧烤	-11.3535
fresh	-11.3535
▁building	-11.3536
天赋	-11.3536
天才	-11.3536
。
【	-11.3536
掌声	-11.3537
pu	-11.354
free	-11.3543
得出	-11.3544
任命	-11.3545
职务	-11.3546
ora	-11.3547
大连	-11.3548
产物	-11.3548
▁minimum	-11.3548
pose	-11.3552
随机	-11.3552
Har	-11.3554
种族	-11.3555
保险公司	-11.3557
谈恋爱	-11.3558
近期	-11.3558
shape	-11.3559
注意安全	-11.3563
不带	-11.3566
立场	-11.3567
不服	-11.3568
更快	-11.3571
serv	-11.3572
这个地方	-11.3573
眼光	-11.3576
news	-11.3577
独自	-11.3577
ock	-11.3578
其余	-11.3579
新型	-11.3582
▁best	-11.3583
bus	-11.3585
世界上最	-11.3587
行程	-11.359
好么	-11.359
我们已经	-11.3593
vert	-11.36
不是你	-11.3601
筑	-11.3609
的特点	-11.3611
提出了	-11.3615
董事	-11.3619
辨	-11.362
rg	-11.362
之子	-11.362
▁South	-11.3621
你想要	-11.3622
老是	-11.3623
▁water	-11.3623
句子	-11.3624
毅	-11.3625
枣	-11.3626
彬	-11.3626
蜀	-11.3627
瓣	-11.3628
彦	-11.3628
橙	-11.3629
实用	-11.3629
巾	-11.3629
生态	-11.3629
螺旋	-11.3629
用心	-11.3629
娅	-11.3629
清除	-11.363
抵抗	-11.363
防御	-11.363
丙	-11.363
演奏	-11.3631
引擎	-11.3631
抛弃	-11.3631
活跃	-11.3631
截止	-11.3631
汀	-11.3631
▁due	-11.3631
媳妇	-11.3631
Australia	-11.3632
tan	-11.3632
▁specify	-11.3632
股价	-11.3632
learn	-11.3632
▁conversion	-11.3633
委托	-11.3633
题材	-11.3633
战术	-11.3633
indexterm	-11.3633
电台	-11.3635
海域	-11.3635
▁whose	-11.3636
打得	-11.3637
一级	-11.364
▁research	-11.3641
头上	-11.3642
尼克	-11.3643
九年	-11.3644
见证	-11.3644
don	-11.3644
税收	-11.3645
Requested	-11.3646
"/>	-11.3646
▁install	-11.3647
COL	-11.3648
交往	-11.3651
人间	-11.3653
耐心	-11.3654
出生于	-11.3656
航天	-11.3658
一所	-11.366
参与者	-11.3662
只需要	-11.3666
你不要	-11.3668
就喜欢	-11.367
但我们	-11.3671
?",	-11.3673
的女孩	-11.3673
就是一个	-11.3673
':
	-11.3678
plan	-11.3682
我也很	-11.3683
看出来	-11.3685
時候	-11.3685
卡拉	-11.3686
contains	-11.369
VA	-11.369
太大了	-11.3691
去玩	-11.3696
二次	-11.3696
东部	-11.37
特殊的	-11.37
三星	-11.3701
bat	-11.3703
特里	-11.3704
▁But	-11.3704
问一下	-11.3705
INT	-11.3708
推荐一个	-11.371
▁give	-11.3711
就这么	-11.3715
叹	-11.3715
eff	-11.3717
白人	-11.3718
留学	-11.3719
models	-11.372
滑雪	-11.3722
罷	-11.3724
勃	-11.3724
穴	-11.3726
仗	-11.3726
LL	-11.3726
栗	-11.3727
房地产	-11.3728
纠纷	-11.3728
硕	-11.3728
梳	-11.3729
频繁	-11.3729
惯	-11.3729
渐渐	-11.3729
逐步	-11.3729
攀	-11.3729
兑	-11.3729
賓	-11.3729
缓慢	-11.373
ao	-11.373
暗示	-11.373
司令	-11.373
呼吁	-11.373
创办	-11.373
海南	-11.3731
大西洋	-11.3732
▁writing	-11.3732
deviation	-11.3732
▁still	-11.3732
的核心	-11.3733
口红	-11.3733
听过	-11.3734
鼓楼	-11.3734
晋级	-11.3734
▁located	-11.3734
Meta	-11.3735
录音	-11.3736
米尔	-11.3736
push	-11.3736
也可能	-11.3738
现在还	-11.3742
肠道	-11.3742
▁Cup	-11.3742
mean	-11.3745
quality	-11.3748
诗人	-11.3748
require	-11.3748
填写	-11.375
耳机	-11.3751
主帅	-11.3751
一身	-11.3751
可用于	-11.3752
play	-11.3753
在意	-11.3753
发烧	-11.3754
被捕	-11.3756
也行	-11.3756
entity	-11.3757
春秋	-11.3761
▁Fe	-11.3761
转会	-11.3761
dra	-11.3764
▁instance	-11.3765
Over	-11.3766
朋友圈	-11.3768
亿美元的	-11.3769
公交车	-11.3769
里亚	-11.3771
然后就	-11.3771
会对	-11.3773
关联	-11.3774
服装	-11.3774
十四	-11.3775
是一家	-11.3776
show	-11.3778
落后	-11.3778
"}}]	-11.378
牌子	-11.3784
有意	-11.3785
伟大	-11.3786
Unit	-11.3789
建立了	-11.3792
provider	-11.3795
遇到了	-11.3796
还以为	-11.3797
iter	-11.3799
的建议	-11.3812
比较多	-11.3815
上场	-11.3815
ade	-11.3818
GS	-11.3819
哈里	-11.3819
wo	-11.382
吉他	-11.3822
小子	-11.3822
眠	-11.3828
錯	-11.3828
不小心	-11.3828
▁great	-11.3828
弥	-11.3829
抖	-11.383
買	-11.383
韋	-11.383
顯	-11.383
圓	-11.383
苏格兰	-11.383
芽	-11.383
昆虫	-11.383
消灭	-11.383
脊	-11.383
气氛	-11.3831
雌	-11.3831
据悉	-11.3831
序列	-11.3831
談	-11.3832
勋	-11.3832
审理	-11.3832
驴	-11.3832
凭借	-11.3832
©	-11.3832
▁restrictions	-11.3833
▁desired	-11.3833
digit	-11.3833
形态	-11.3833
嘉靖	-11.3833
蒙古	-11.3833
公元前	-11.3834
History	-11.3834
拳击	-11.3835
general	-11.3835
透过	-11.3835
有利于	-11.3835
美味	-11.3836
客观	-11.3836
圆形	-11.3836
Bal	-11.3838
▁called	-11.3839
Total	-11.3839
城堡	-11.384
中期	-11.384
如果没有	-11.3841
知道你	-11.3843
冲动	-11.3844
济南	-11.3847
奇怪的	-11.3848
行走	-11.3849
曲线	-11.3851
▁generated	-11.3852
los	-11.3854
(&	-11.3854
明治	-11.3855
」（	-11.3856
华人	-11.3857
我们现在	-11.3859
集合	-11.3861
想说	-11.3862
sha	-11.3864
Hol	-11.3866
巴尔	-11.3869
的看法	-11.387
我帮你	-11.387
TI	-11.3874
产量	-11.3874
恰	-11.3875
▁Mac	-11.3879
没看过	-11.388
rum	-11.3881
Sha	-11.3882
它会	-11.3885
不易	-11.3893
为自己	-11.3895
早起	-11.3896
Lake	-11.3897
书籍	-11.3901
我平时	-11.3902
选中	-11.3908
gal	-11.3908
空军	-11.3912
制品	-11.3915
气温	-11.3915
此事	-11.3919
RC	-11.3919
My	-11.392
中国队	-11.3921
像我	-11.3926
崖	-11.3926
rank	-11.3929
亩	-11.393
侄	-11.393
弧	-11.3931
愚蠢	-11.3931
这么晚	-11.3931
窃	-11.3931
Hy	-11.3931
绣	-11.3932
潭	-11.3932
仕	-11.3933
鹤	-11.3933
衬	-11.3933
BTC	-11.3934
北京全聚德	-11.3935
▁continue	-11.3935
Details	-11.3935
Property	-11.3935
芒果	-11.3935
强迫	-11.3935
▁published	-11.3935
成績	-11.3935
沈阳	-11.3936
忍不住	-11.3936
吃什么	-11.3936
單曲	-11.3937
喜欢他	-11.3937
坚定	-11.3937
考研	-11.3938
总裁	-11.3938
Media	-11.394
埃尔	-11.3945
波兰	-11.3946
加油加油	-11.3946
座位	-11.3947
TM	-11.3948
大海	-11.3949
ious	-11.3949
缴纳	-11.3952
allOf	-11.3952
片段	-11.3955
force	-11.3956
Back	-11.3959
▁September	-11.3964
GET	-11.3968
还不知道	-11.3973
master	-11.3973
assert	-11.3975
会使	-11.3976
保罗	-11.398
URL	-11.3981
NULL	-11.3983
剧院	-11.3983
向前	-11.3984
毕竟是	-11.3984
典型	-11.3986
是一部	-11.3988
公正	-11.3994
训	-11.3995
ray	-11.3996
holder	-11.4001
mail	-11.4001
ried	-11.4001
一万	-11.4002
FO	-11.4004
这个时候	-11.4004
LD	-11.4012
edu	-11.4013
ists	-11.4016
Geo	-11.4018
原子	-11.4019
serve	-11.4021
的任务	-11.4029
十大	-11.4029
loss	-11.4029
理性	-11.4029
乏	-11.4031
拥	-11.4031
生殖	-11.4031
▁perform	-11.4032
card	-11.4032
弘	-11.4033
芒	-11.4033
胞	-11.4033
叙	-11.4034
斥	-11.4034
輸	-11.4035
廠	-11.4035
招聘	-11.4035
混凝土	-11.4035
模糊	-11.4036
闯	-11.4036
短暂	-11.4036
茄	-11.4037
▁official	-11.4037
轩	-11.4037
人工智能	-11.4037
兜	-11.4038
SELECT	-11.4038
大床房	-11.4038
▁previous	-11.4038
sample	-11.4038
團體	-11.4038
Record	-11.4038
蓬	-11.4039
Auto	-11.404
礼拜	-11.4041
延伸	-11.4041
硬盘	-11.4041
"}	-11.4041
我好像	-11.4044
ery	-11.4044
很想	-11.4045
]
[	-11.4045
尼亚	-11.4046
Show	-11.4048
他们都	-11.4049
拆除	-11.4051
布里	-11.4054
vel	-11.4055
一根	-11.4055
自杀	-11.406
这种事	-11.4062
器官	-11.4063
UC	-11.4069
几十	-11.407
我爱你	-11.4071
激活	-11.4072
报道称	-11.4075
safe	-11.4079
从来没有	-11.408
选民	-11.4082
password	-11.4087
response	-11.4087
再也不	-11.4088
周三	-11.4088
Bl	-11.409
og	-11.4091
任性	-11.4093
expression	-11.4093
行李	-11.4094
我刚刚	-11.4097
赛场	-11.41
不晓得	-11.4104
cut	-11.4105
sco	-11.4106
担	-11.4107
matic	-11.4108
被告人	-11.4108
希望他	-11.4109
热爱	-11.4111
怎么能	-11.4114
我懂	-11.4117
我可是	-11.4118
还想	-11.412
的最大	-11.412
你懂	-11.4121
pet	-11.4122
我们还	-11.4122
▁offer	-11.4124
meta	-11.4127
;

	-11.4127
普通的	-11.4128
大雨	-11.413
放大	-11.4132
月至	-11.4132
玩玩	-11.4133
廟	-11.4136
poli	-11.4136
咪	-11.4136
蒋	-11.4137
我说的	-11.4137
渊	-11.4138
遗址	-11.4139
已经被	-11.4139
韓	-11.4139
绒	-11.4139
暑	-11.414
廢	-11.414
蜘蛛	-11.414
糖尿病	-11.414
战役	-11.4141
尸体	-11.4141
●	-11.4141
ura	-11.4141
是位於美國	-11.4142
▁much	-11.4142
▁authentication	-11.4142
情侣	-11.4142
Credit	-11.4142
▁club	-11.4142
质疑	-11.4142
小說	-11.4143
HD	-11.4146
嗯啊	-11.4146
▁conditions	-11.4146
monthly	-11.4147
的症状	-11.4148
strong	-11.4148
新生	-11.4148
嗯哼	-11.415
超過	-11.4152
alert	-11.4152
把握	-11.4152
保养	-11.4152
列車	-11.4153
接种	-11.4155
你平时	-11.416
檢	-11.4163
move	-11.4164
当然可以	-11.4166
怎么不	-11.4167
rap	-11.4168
买到	-11.417
独特	-11.4171
周边的餐馆有	-11.4171
bility	-11.4171
晚餐	-11.4174
常用	-11.4178
这么久	-11.4178
太阳能	-11.418
福州	-11.4181
ani	-11.4182
发布的	-11.4184
下课	-11.4184
ties	-11.4187
RM	-11.4188
感觉到	-11.4188
眼里	-11.4189
}/	-11.4194
一夜	-11.4195
一直是	-11.4198
怎么这么	-11.42
好事	-11.4202
windows	-11.4203
Mode	-11.4203
百年	-11.4206
APP	-11.4207
不论	-11.4207
原创	-11.4208
女王	-11.421
天地	-11.421
的经验	-11.421
审判	-11.4211
EV	-11.4213
体积	-11.4213
要把	-11.4214
建于	-11.4217
宪法	-11.4219
或者是	-11.4219
yo	-11.4219
也将	-11.4219
八月	-11.4221
完毕	-11.4221
对称	-11.4221
总部	-11.4222
▁objects	-11.4224
▁Make	-11.4226
AU	-11.4227
bur	-11.4228
select	-11.4229
尝	-11.4231
▁Sch	-11.4231
sources	-11.4234
下方	-11.4236
爵	-11.4238
題	-11.424
wel	-11.424
组成的	-11.424
氯	-11.424
贫	-11.4241
驚	-11.4242
賢	-11.4242
苍	-11.4242
奪	-11.4243
粪	-11.4244
不适	-11.4244
榮	-11.4245
颠	-11.4245
錦標賽	-11.4245
年以来	-11.4246
日常生活	-11.4246
盼	-11.4246
焊接	-11.4246
投诉	-11.4246
感觉你	-11.4247
圭	-11.4247
论坛	-11.4247
护国寺	-11.4247
护国寺小吃店	-11.4247
▁FITNESS	-11.4247
▁cryptocurrency	-11.4247
▁identify	-11.4247
Client	-11.4247
slug	-11.4248
programlistin	-11.4248
Green	-11.4248
吉祥	-11.4248
決賽	-11.4248
ignore	-11.4248
融合	-11.4248
负载	-11.4248
ART	-11.4248
KEY	-11.4249
基础设施	-11.4249
cf	-11.425
给我推荐一个	-11.425
熊猫	-11.425
項目	-11.425
最高的	-11.425
countries	-11.425
record	-11.4251
▁orders	-11.4254
老鼠	-11.4255
原谅	-11.4256
▁again	-11.4256
嘴巴	-11.4256
我知道了	-11.4259
▁listing	-11.426
查理	-11.4261
星星	-11.4264
必需	-11.4271
GL	-11.4273
停留	-11.4273
基督	-11.4274
较高	-11.4274
溜达	-11.4274
召开	-11.4277
这只	-11.428
有种	-11.4281

‪
-	-11.4282
ava	-11.4282
我们必须	-11.4284
小可爱	-11.4287
upload	-11.4289
养老	-11.4289
穿了	-11.429
雷斯	-11.4291
').","	-11.4293
ago	-11.4293
ender	-11.4295
的梦想	-11.4295
讲话	-11.4297
又名	-11.4297
公子	-11.4297
nal	-11.4299
不利	-11.4301
去北京	-11.4302
当然了	-11.4305
部落	-11.4306
为其	-11.4306
坐车	-11.4307
JSON	-11.4312
exchange	-11.4312
做得	-11.4314
EP	-11.4315
起到	-11.4317
是嘛	-11.4322
几种	-11.4322
途中	-11.4323
Vo	-11.4324
基督教	-11.4324
飾	-11.433
”。

	-11.4332
ory	-11.4335
Sy	-11.4338
FR	-11.4338
▁They	-11.4338
那么大	-11.4341
这里有	-11.4341
你必须	-11.4341
出色的	-11.4342
男友	-11.4342
撰	-11.4342
態	-11.4345
Ben	-11.4345
没去	-11.4346
奋	-11.4347
})	-11.4347
birth	-11.4349
岁时	-11.4349
调用	-11.435
Select	-11.435
妥	-11.435
泊	-11.435
戰爭	-11.435
蜡	-11.4352
震惊	-11.4352
湯	-11.4352
酮	-11.4352
可真	-11.4352
看出	-11.4352
投降	-11.4353
趴	-11.4353
游泳池	-11.4353
Application	-11.4354
️	-11.4354
▁above	-11.4354
▁Street	-11.4354
榴莲	-11.4354
Feature	-11.4354
来来来	-11.4355
好朋友	-11.4355
精确	-11.4356
引导	-11.4356
给您推荐	-11.4356
選區	-11.4356
德尔	-11.4356
获胜	-11.4356
混蛋	-11.4357
政治人物	-11.4359
和他的	-11.4359
零食	-11.4359
admin	-11.4361
所述	-11.4362
也是很	-11.4364
起源	-11.4365
票房	-11.4365
之路	-11.4366
fast	-11.4368
入口	-11.4368
分別	-11.4369
],
	-11.437
意甲	-11.4373
cache	-11.4373
移植	-11.4376
这一次	-11.438
帮我推荐一个	-11.4382
▁posts	-11.4383
has	-11.4383
合理的	-11.4384
▁once	-11.4385
的第一个	-11.4387
输给	-11.4387
悲剧	-11.4388
类似的	-11.439
此刻	-11.4391
更高的	-11.4392
Game	-11.4393
从小	-11.4395
给你们	-11.4398
奖金	-11.4399
可能导致	-11.4405
特别好	-11.4405
Her	-11.4406
ates	-11.4408
bro	-11.4408
形成了	-11.4409
看不懂	-11.4413
很快就	-11.4415
这座	-11.4418
ient	-11.4419
告诉我一下	-11.4422
不要太	-11.4422
你也可以	-11.4424
里斯	-11.4425
track	-11.4427
network	-11.4427
罢了	-11.4432
说到	-11.4435
你有没有	-11.4436
Tu	-11.4436
上班了	-11.4441
大赛	-11.4442
自主	-11.4443
哥们	-11.4443
人員	-11.4447
真理	-11.4451
某人	-11.4453
在上海	-11.4453
喉	-11.4454
逝	-11.4455
亂	-11.4455
枯	-11.4455
尹	-11.4456
我是说	-11.4457
整合	-11.4458
豹	-11.4458
い	-11.4459
雕塑	-11.4459
繼	-11.4459
喘	-11.4459
extern	-11.446
弯曲	-11.446
可以从	-11.4461
高速公路	-11.4461
publish	-11.4461
溶解	-11.4461
潇洒	-11.4461
协商	-11.4461
eligibility	-11.4461
战绩	-11.4461
Integer	-11.4461
LICENSE	-11.4461
quarter	-11.4461
▁something	-11.4461
是下辖的一个乡镇级行政单位	-11.4461
衝	-11.4461
ä	-11.4461
▁Germany	-11.4461
Query	-11.4462
岗位	-11.4462
▁includes	-11.4462
Agent	-11.4462
轻易	-11.4463
体力	-11.4463
实时	-11.4464
谁知道	-11.4464
scale	-11.4467
反抗	-11.4469
尾巴	-11.447
Op	-11.4471
这么早	-11.4479
睡觉了	-11.4481
防护	-11.4483
接受了	-11.4485
tier	-11.4485
他将	-11.4486
票价是	-11.4487
像你	-11.4487
▁working	-11.4487
小白	-11.4488
光线	-11.4494
应该会	-11.4499
合约	-11.4499
完美的	-11.4502
这个餐馆	-11.4505
war	-11.4505
的一座	-11.4507
hat	-11.4507
天堂	-11.4509
去医院	-11.4509
▁named	-11.4511
布置	-11.4515
得起	-11.4519
aries	-11.4521
外界	-11.4525
抗日	-11.4527
那就好	-11.4527
eigh	-11.4531
几百	-11.4532
卡车	-11.4532
评分是多少	-11.4533
屋顶	-11.4536
params	-11.4536
展现	-11.4544
有什么好	-11.455
面部	-11.4555
的味道	-11.4555
允	-11.4561
爺	-11.4562
远远	-11.4562
蓮	-11.4565
斩	-11.4565
傲	-11.4565
耻	-11.4566
被子	-11.4566
放弃了	-11.4567
修建	-11.4567
塌	-11.4567
訊	-11.4568
拱	-11.4569
吼	-11.4569
怎麼	-11.4569
都不能	-11.4569
剛	-11.4569
诱惑	-11.4569
environment	-11.457
ifndef	-11.457
nWould	-11.457
typically	-11.457
verified	-11.457
Twitter	-11.457
numeric	-11.457
生于	-11.4571
谈论	-11.4571
害羞	-11.4571
Country	-11.4571
NAME	-11.4571
jpg	-11.4572
縣的一個	-11.4572
gy	-11.4572
中最	-11.4573
分泌	-11.4573
▁rules	-11.4574
predict	-11.4574
初步	-11.4574
流浪	-11.4574
静脉	-11.4576
擁有	-11.4576
失业	-11.4578
watch	-11.4579
Los	-11.458
agents	-11.458
友善	-11.4584
势力	-11.4584
清新	-11.4585
button	-11.4588
很帅	-11.4589
defs	-11.4589
出行	-11.459
▁requires	-11.4592
的基础	-11.4592
名稱	-11.4593
lm	-11.4593
注意力	-11.4595
认同	-11.4595
头部	-11.4601
pay	-11.4603
……
	-11.4604
默认	-11.4605
的路上	-11.4608
酒店住宿	-11.4609
源于	-11.4609
急性	-11.4615
预定	-11.4622
conf	-11.4622
PIN	-11.4625
但他们	-11.4628
一分	-11.4629
通行	-11.463
常用的	-11.4632
文物	-11.4633
的概念	-11.4635
都不是	-11.4636
找了	-11.4638
Match	-11.4642
什么鬼	-11.4642
burg	-11.4642
Ag	-11.4643
主流	-11.4647
最多的	-11.4649
平民	-11.4651
手动	-11.4651
心灵	-11.4652
issue	-11.4655
谓	-11.4655
室外	-11.4657
越大	-11.466
真人	-11.466
我觉得你	-11.4663
童年	-11.4664
▁words	-11.467
Men	-11.4672
邻	-11.4672
说出	-11.4673
ata	-11.4673
負	-11.4673
趋	-11.4674
庸	-11.4675
額	-11.4675
藩	-11.4675
彻	-11.4676
cri	-11.4676
腐	-11.4676
凹	-11.4677
膨胀	-11.4678
英格蘭	-11.4678
技術	-11.4678
忽视	-11.4678
友谊	-11.4678
企業	-11.4679
Compensation	-11.468
budget	-11.468
attempt	-11.468
▁estimated	-11.468
▁least	-11.4681
电梯	-11.4681
是一個	-11.4681
印刷	-11.4681
澳門	-11.4681
初始	-11.4682
光緒	-11.4682
▁permissions	-11.4682
Suite	-11.4683
这话	-11.4684
转子	-11.4684
"}],"	-11.4684
Year	-11.4686
湖人队	-11.4687
Music	-11.4687
银河	-11.4688
般的	-11.4689
▁failure	-11.469
天坛	-11.4691
的秘密	-11.4691
nearby	-11.4692
无力	-11.4692
loan	-11.4692
PV	-11.4693
吃火锅	-11.4693
fuel	-11.4698
市場	-11.4698
ures	-11.4698
▁interact	-11.4699
UK	-11.4699
????	-11.47
那您	-11.4701
菜单	-11.4704
个体	-11.4704
green	-11.4707
死者	-11.4708
自治	-11.471
简称	-11.471
▁fetched	-11.471
怕是	-11.4712
Gold	-11.4718
mac	-11.4719
睡得	-11.4719
Last	-11.4719
系统中	-11.4721
points	-11.4722
！”
	-11.4725
会让	-11.4728
传动	-11.4728
前任	-11.473
male	-11.4734
典型的	-11.4735
Ka	-11.4735
我俩	-11.4737
留着	-11.4738
爱好	-11.474
放入	-11.4743
月亮	-11.4747
不幸	-11.4747
睡着了	-11.475
在香港	-11.4751
书记	-11.4754
能吃	-11.4758
▁come	-11.4761
有许多	-11.4763
不好吃	-11.4764
PI	-11.4766
谈谈	-11.4767
你不能	-11.4769
充满了	-11.477
这么厉害	-11.4771
flu	-11.4773
」。

	-11.4777
uel	-11.4778
那么好	-11.4781
满了	-11.4782
悉	-11.4783
平静	-11.4785
盈	-11.4785
七月	-11.4786
計劃	-11.4786
①	-11.4787
用药	-11.4788
橫	-11.4789
隻	-11.4789
甩	-11.4789
哄	-11.479
繼續	-11.479
有害	-11.479
大神	-11.479
▁FROM	-11.4791
▁PARTICULAR	-11.4791
▁geographic	-11.4791
Cancellation	-11.4791
检验	-11.4791
Foot	-11.4791
关键是	-11.4791
优惠	-11.4791
ATION	-11.4792
多多	-11.4792
鹽	-11.4792
▁occur	-11.4792
被发现	-11.4792
登陆	-11.4793
▁said	-11.4793
Provide	-11.4793
這種	-11.4794
相遇	-11.4794
边境	-11.4794
Function	-11.4795
潜力	-11.4796
三大	-11.4796
去除	-11.4797
首播	-11.4797
蚊子	-11.4797
窗户	-11.4799
宁波	-11.4799
吸引力	-11.4801
这个世界	-11.4803
一般来说	-11.4805
的最佳	-11.4806
激光	-11.4809
男主	-11.4809
Block	-11.4812
的平均	-11.4812
你看过	-11.4816
福利	-11.4818
rie	-11.4818
日语	-11.4819
要好好	-11.4823
▁though	-11.4827
半岛	-11.4828
Wil	-11.4832
海滩	-11.4834
这事	-11.4835
家具	-11.4838
Cam	-11.4844
我想吃	-11.4844
我只想	-11.4847
演唱	-11.4847
HR	-11.4853
我都没	-11.4857
过几天	-11.4861
足以	-11.4861
听见	-11.4865
ella	-11.4869
喝点	-11.4877
尽力	-11.4877
Di	-11.4879
▁far	-11.4881
捕捉	-11.4883
找出	-11.4887
想起来	-11.4888
看上去	-11.489
据报道	-11.4892
我就不	-11.4894
挺不错的	-11.4896
日报	-11.4896
跟随	-11.4897
我也在	-11.4898
爹	-11.4898
钩	-11.4898
運動	-11.4899
諸	-11.4899
緊	-11.4899
戲	-11.49
近年来	-11.49
好累	-11.49
細胞	-11.49
睁	-11.49
桩	-11.4901
翅	-11.4901
淘	-11.4901
喀	-11.4901
約翰	-11.4901
卵巢	-11.4901
匈牙利	-11.4902
咦	-11.4902
凱	-11.4903
颖	-11.4903
攒	-11.4903
芙	-11.4903
担忧	-11.4903
street	-11.4903
收缩	-11.4903
individual	-11.4903
▁PURPOSE	-11.4903
▁hope	-11.4903
Blue	-11.4904
動畫	-11.4904
minLength	-11.4905
姓氏	-11.4905
將軍	-11.4906
HK	-11.4907
科研	-11.4907
散步	-11.4908
Author	-11.4908
足球运动员	-11.4908
忽然	-11.491
会长	-11.491
印尼	-11.4912
MAX	-11.4912
UP	-11.4913
这家店	-11.4914
热刺	-11.4914
无效	-11.4915
開發	-11.4915
一種	-11.4916
无敌	-11.4918
文档	-11.4918
盒子	-11.4919
自助	-11.4921
我想知道	-11.4921
中断	-11.4923
出租	-11.4923
Char	-11.4923
力气	-11.4927
良心	-11.4928
不下去	-11.4929
格拉	-11.493
小時	-11.4932
江南	-11.4932
我还有事	-11.4932
起码	-11.4932
朋友们	-11.4933
del	-11.4935
小时的景点	-11.4941
之内	-11.4943
sky	-11.4944
太平	-11.4947
主意	-11.4947
Api	-11.4948
Tag	-11.4951
实话	-11.4953
resource	-11.4953
注重	-11.4955
艺人	-11.4956
变量	-11.4958
大卫	-11.4958
Sam	-11.4959
主持人	-11.496
双手	-11.4961
的例子	-11.4961
剩下的	-11.4963
哲学	-11.4963
接壤	-11.4966
Rule	-11.4967
有必要	-11.4969
ground	-11.4969
director	-11.4975
你好你好	-11.4975
大奖	-11.498
什么类型的	-11.4982
ptr	-11.4983
天文	-11.4984
出于	-11.4984
好喝	-11.4985
不允许	-11.4988
bank	-11.499
RI	-11.4992
也得	-11.4992
概率	-11.4994
在同一	-11.4995
来源于	-11.4997
的理由	-11.4998
咋了	-11.5005
四大	-11.5005
附属	-11.5005
剪了	-11.5008
棘	-11.501
冥	-11.5011
工作室	-11.5011
坪	-11.5012
矩	-11.5012
寸	-11.5013
融资	-11.5013
question	-11.5014
走出	-11.5014
蒸汽	-11.5014
驗	-11.5015
幹	-11.5015
沾	-11.5015
银屑病	-11.5015
幼儿园	-11.5016
毯	-11.5016
钢筋	-11.5016
迈克尔	-11.5016
御史	-11.5016
Sun	-11.5016
铭	-11.5017
Target	-11.5017
对她	-11.5017
▁compare	-11.5017
▁compliance	-11.5017
合作伙伴	-11.5018
盯着	-11.5018
▁comma	-11.5018
ito	-11.5018
吵架	-11.5018
Convert	-11.5018
询问	-11.5019
vt	-11.5019
紧密	-11.5019
古典	-11.5019
Core	-11.5022
拿出	-11.5022
並且	-11.5024
draft	-11.5025
巴拉	-11.5026
是个好	-11.5029
假装	-11.503
说出来	-11.5031
推迟	-11.5031
好几个	-11.5032
但她	-11.5034
熟悉的	-11.5034
理事	-11.5036
▁USA	-11.5036
在这儿	-11.5036
千万	-11.5037
pull	-11.5038
平板	-11.5038
一批	-11.5038
这么快	-11.5039
KE	-11.504
很简单	-11.5045
意志	-11.5046
先进	-11.5046
边界	-11.5046
巨人	-11.5048
贵州	-11.5051
梦到	-11.5052
试着	-11.5054
Low	-11.5058
醋	-11.5064
周四	-11.5065
元之间	-11.5071
很高的	-11.5074
▁+=	-11.5074
相应	-11.5074
pon	-11.5078
第九	-11.5079
Mac	-11.508
老年	-11.5083
只好	-11.5087
我也没	-11.5095
吓人	-11.5095
train	-11.5096
上车	-11.5104
委員	-11.5105
普及	-11.5106
Uni	-11.5108
BR	-11.5111
rust	-11.5112
American	-11.5113
組成	-11.5115
就不要	-11.5116
板上	-11.5122
mov	-11.5123
帖	-11.5123
誓	-11.5123
再度	-11.5125
２	-11.5126
陰	-11.5128
罕	-11.5128
动脉	-11.5128
有木有	-11.5128
習	-11.5128
沛	-11.5128
屑	-11.5128
敵	-11.5129
犹豫	-11.5129
靶	-11.5129
購	-11.5129
忠诚	-11.5129
腊	-11.513
阿富汗	-11.513
探讨	-11.5131
弹簧	-11.5131
填充	-11.5132
currencies	-11.5132
False	-11.5132
у	-11.5132
合併	-11.5132
机票	-11.5133
研制	-11.5133
圣诞节	-11.5133
虚假	-11.5133
漏洞	-11.5133
▁births	-11.5135
代谢	-11.5135
handle	-11.5136
聯合	-11.5136
中国共产党	-11.5136
猜测	-11.5137
岩石	-11.5137
就是这个	-11.5138
non	-11.514
printf	-11.5141
分割	-11.5141
智利	-11.5141
正能量	-11.5141
三百	-11.5142
带到	-11.5143
户口	-11.5143
platform	-11.5144
美术	-11.5145
Word	-11.5145
白宫	-11.5145
诞生	-11.5146
session	-11.5146
留言	-11.5146
route	-11.5146
推理	-11.5147
库尔	-11.5147
甲基	-11.5149
物业	-11.5149
Light	-11.515
在英国	-11.515
见到你	-11.5151
吃完了	-11.5151
那位	-11.5154
dog	-11.5154
agent	-11.5157
他自己	-11.5157
这张	-11.5157
shi	-11.5161
bot	-11.5163
赢得了	-11.5163
一下吧	-11.5164
杆菌	-11.5165
我们学校	-11.5167
不胖	-11.5168
ature	-11.5168
元的餐馆	-11.5169
手表	-11.517
support	-11.5171
两条	-11.5171
前列腺	-11.5172
开口	-11.5172
一波	-11.5172
bil	-11.5175
才发现	-11.5179
本土	-11.5181
治理	-11.5182
懒得	-11.5184
越来越好	-11.5184
dataset	-11.5186
极其	-11.5187
ua	-11.5187
个国家	-11.519
享有	-11.519
}\	-11.5191
ó	-11.5192
没那么	-11.5195
那不是	-11.5196
到期	-11.5196
▁Tra	-11.5198
钱包	-11.5199
onic	-11.52
山区	-11.5201
字体	-11.5203
高峰	-11.5205
做个	-11.5206
Player	-11.5208
loo	-11.521
要素	-11.5217
hrs	-11.5218
大胆	-11.5221
*************	-11.5222
老实	-11.5225
方言	-11.5228
有一定的	-11.5235
贷	-11.524
运转	-11.5241
疗法	-11.5242
翰	-11.5243
轰	-11.5243
蠕	-11.5244
benefits	-11.5245
劣	-11.5245
切割	-11.5245
拦	-11.5245
氛围	-11.5245
坤	-11.5246
棵	-11.5246
坝	-11.5247
邪恶	-11.5247
失踪	-11.5248
體長可達	-11.5248
▁calculation	-11.5248
Custom	-11.5248
James	-11.5248
Europe	-11.5248
square	-11.5248
介质	-11.5248
衡量	-11.5249
一脸	-11.5249
不用客气	-11.525
臺北	-11.5251
战场	-11.5251
渠道	-11.5251
足球運動員	-11.5251
这首歌	-11.5251
六月	-11.5251
精灵	-11.5252
Next	-11.5252
四川省	-11.5253
创立	-11.5254
八卦	-11.5254
爱好者	-11.5254
▁elements	-11.5254
电动机	-11.5254
路径	-11.5255
称呼	-11.5255
gate	-11.5255
展示了	-11.5255
南昌	-11.5255
安逸	-11.5257
当然是	-11.5259
utter	-11.5261
市民	-11.5262
國立	-11.5264
我知道你	-11.5264
下巴	-11.5264
不理	-11.5265
分成	-11.5267
战士	-11.5269
包括以下	-11.527
double	-11.527
竞选	-11.5272
可怕的	-11.5274
烤肉	-11.5274
离开了	-11.5274
美人	-11.5276
宪	-11.5277
星系	-11.5279
latest	-11.5279
但愿	-11.528
有效地	-11.5281
的感情	-11.5282
攝影	-11.5282
目的地	-11.5284
nam	-11.5288
attr	-11.5288
那张	-11.5291
执法	-11.5294
删	-11.5295
还有很多	-11.5296
的心情	-11.5297
Star	-11.53
走进	-11.5303
这一切	-11.5304
pop	-11.5307
是哪个	-11.5308
去哪儿	-11.5308
dom	-11.531
rated	-11.5313
美女	-11.5313
很漂亮	-11.5315
download	-11.5317
错误的	-11.532
路段	-11.5322
长官	-11.5323
DC	-11.5324
UM	-11.5328
exports	-11.5331
昭和	-11.5332
书中	-11.5333
日报道	-11.5333
md	-11.5334
谁都	-11.5335
台风	-11.5339
较大的	-11.5339
在今年	-11.5343
你們	-11.5343
上诉	-11.5346
剧本	-11.5346
鉴	-11.5355
')","	-11.5357
债	-11.5358
氨	-11.5358
Handle	-11.5359
郊	-11.536
禄	-11.5361
寡	-11.5362
麟	-11.5362
不起来	-11.5362
摧毁	-11.5362
肋	-11.5363
厌	-11.5363
泄漏	-11.5363
祈祷	-11.5364
番茄	-11.5364
仇恨	-11.5364
庚	-11.5364
鸿	-11.5364
欺骗	-11.5365
職業	-11.5365
遗产	-11.5366
registration	-11.5366
Session	-11.5366
Document	-11.5366
sentiment	-11.5366
狐	-11.5366
菊	-11.5366
齒	-11.5366
达到了	-11.5366
我以为你	-11.5367
优质	-11.5367
child	-11.5367
spring	-11.5367
盈利	-11.5367
然後	-11.5368
闭嘴	-11.5368
充足	-11.5368
background	-11.5368
大阪	-11.537
总监	-11.537
土豆	-11.537
张照片	-11.537
响应	-11.5371
可不是嘛	-11.5372
edge	-11.5373
情人	-11.5373
但如果	-11.5373
:`	-11.5374
破产	-11.5374
El	-11.5375
把她	-11.5376
现代化	-11.5377
Task	-11.5378
playlist	-11.5378
角落	-11.5379
usage	-11.538
地狱	-11.538
周边的景点有	-11.5381
Art	-11.5381
无所谓	-11.5381
你怎么知道	-11.5381
正义	-11.5383
借口	-11.5384
▁News	-11.5384
ram	-11.5385
可以让	-11.5386
地名	-11.5387
晴天	-11.5388
考古	-11.5388
local	-11.5388
缘分	-11.539
used	-11.5391
骗子	-11.5391
first	-11.5393
车队	-11.5393
全國	-11.5393
不变	-11.5393
控制器	-11.5394
的最高	-11.5395
伤口	-11.5396
距離	-11.5397
克服	-11.5398
的电视剧	-11.5399
Cancel	-11.5402
equal	-11.5402
玩意	-11.5403
真好看	-11.5403
十二年	-11.5404
我猜	-11.5405
不會	-11.5406
嫌疑人	-11.5409
福德	-11.541
都已经	-11.5413
景点吗	-11.5413
很多人都	-11.5415
你看看	-11.5417
▁Sal	-11.5419
公式	-11.5421
大选	-11.5421
▁[]
	-11.5422
还有什么	-11.5422
好厉害	-11.5426
很可爱	-11.5428
九月	-11.5431
rect	-11.5431
goal	-11.5431
客场	-11.5432
國王	-11.5433
一番	-11.5433
一般是	-11.5434
PH	-11.5436
此类	-11.5436
学到	-11.5439
瓦尔	-11.544
照明	-11.5441
流通	-11.5442
引进	-11.5445
君主	-11.5446
滨	-11.5452
ford	-11.5453
脚本	-11.5458
排名第	-11.5458
吃东西	-11.5458
长安	-11.5461
这是个	-11.5462
bad	-11.5466
顾客	-11.5466
採	-11.5467
She	-11.5467
手工	-11.5474
和社会	-11.5476
tech	-11.5477
康熙	-11.548
高端	-11.548
秩序	-11.5481
駐	-11.5482
辭	-11.5483
韧	-11.5483
阿森纳	-11.5483
必須	-11.5483
沉默	-11.5483
碼	-11.5483
苯	-11.5483
咳嗽	-11.5484
狄	-11.5484
试管婴儿	-11.5484
策划	-11.5484
香蕉	-11.5484
首席执行官	-11.5484
estimate	-11.5484
综艺	-11.5484
哈尔滨	-11.5485
存款	-11.5485
不管是	-11.5485
written	-11.5485
▁Museum	-11.5485
▁impact	-11.5485
▁potential	-11.5485
痘痘	-11.5485
不稳定	-11.5485
尝尝	-11.5485
Change	-11.5485
Verify	-11.5485
注释	-11.5486
脉冲	-11.5486
▁Once	-11.5486
卢瓦尔省	-11.5486
认识你	-11.5486
Product	-11.5487
Garden	-11.5487
昆明	-11.5487
里奥	-11.5488
Hotel	-11.5488
郑州	-11.5488
Hash	-11.549
化石	-11.5491
贵族	-11.5492
硬件	-11.5492
kit	-11.5497
resolution	-11.5499
告诉我们	-11.5499
生效	-11.55
都喜欢	-11.5501
Some	-11.5502
;

/**
	-11.5502
ski	-11.5508
海軍	-11.5508
管理局	-11.5509
节省	-11.5509
成人	-11.5511
暖和	-11.5514
脑袋	-11.5514
基金会	-11.5517
衍	-11.5517
▁filtering	-11.5517
喜欢吃	-11.5518
wan	-11.5519
▁Mat	-11.5521
Che	-11.5521
那个时候	-11.5522
曹操	-11.5527
希望能	-11.5529
回学校	-11.5531
怎么看	-11.5532
层次	-11.5539
若是	-11.554
长大了	-11.5542
ona	-11.5542
叶子	-11.5544
......	-11.5545
游玩时间	-11.5546
顶部	-11.5551
▁feel	-11.5553
啥都	-11.5553
帮我找一个	-11.5555
原来你	-11.5555
能找到	-11.5556
(*	-11.5556
格雷	-11.5557
比亚	-11.5557
學家	-11.5559
▁recipes	-11.5563
在路上	-11.5565
mun	-11.5568
夸我	-11.5569
不该	-11.557
GO	-11.5571
wards	-11.5571
很久了	-11.5579
就是要	-11.5584
出去了	-11.5586
心动	-11.5589
ault	-11.559
▁rights	-11.559
蚊	-11.5595
琼	-11.5595
奸	-11.5596
狮	-11.5596
▁Ya	-11.5596
然后再	-11.5598
上线	-11.5598
削	-11.56
负面	-11.56
bc	-11.56
贞	-11.56
鞭	-11.5602
Pri	-11.5602
钦	-11.5602
莹	-11.5602
称之为	-11.5603
匪	-11.5603
蟲	-11.5603
甲状腺	-11.5603
包裹	-11.5603
合肥	-11.5604
蝴蝶	-11.5604
蒲	-11.5604
構	-11.5604
缠	-11.5604
呆了	-11.5605
ISBN	-11.5605
David	-11.5605
algorithm	-11.5605
提议	-11.5605
campaign	-11.5605
迎接	-11.5605
Health	-11.5605
指责	-11.5605
framework	-11.5606
medium	-11.5606
Output	-11.5606
è	-11.5606
Network	-11.5606
炫	-11.5606
®	-11.5606
这部电视剧	-11.5606
kind	-11.5607
▁death	-11.5607
健身房	-11.5607
攻略	-11.5608
ORD	-11.5609
uff	-11.5609
普京	-11.5609
破碎	-11.5609
订单	-11.5609
转化	-11.561
过滤器	-11.561
城鎮	-11.5611
固体	-11.5614
Place	-11.5615
▁gas	-11.5616
左边	-11.5617
OC	-11.5617
兒子	-11.5618
注入	-11.5618
表现为	-11.5619
还将	-11.5619
鐵道	-11.5619
就是个	-11.562
世界各地	-11.5621
师兄	-11.5621
长达	-11.5623
学霸	-11.5624
切换	-11.5625
商人	-11.5625
最为	-11.5627
...
...
	-11.5628
END	-11.5632
tx	-11.5636
Case	-11.5638
层面	-11.564
產生	-11.5641
废水	-11.5643
shad	-11.5643
tric	-11.5644
周二	-11.5645
同情	-11.5646
五一	-11.5648
▁Ban	-11.5649
无可	-11.5649
没必要	-11.565
▁**$	-11.5651
fig	-11.5653
mag	-11.5654
大门	-11.5654
context	-11.5657
非常感谢	-11.5661
▁Mon	-11.5661
▁paint	-11.5665
豆瓣	-11.5666
requested	-11.5667
協會	-11.5667
奶茶	-11.5669
岁月	-11.5669
整天	-11.567
的形象	-11.5673
byte	-11.5677
转动	-11.5678
说服	-11.5682
间接	-11.5686
管制	-11.5686
的人生	-11.5688
又称	-11.569
wind	-11.569
售价	-11.5692
死后	-11.5693
携	-11.5694
還有	-11.5696
洛克	-11.5698
开门	-11.5699
毫	-11.5702
单一	-11.5702
带走	-11.5706
ready	-11.5709
大声	-11.5711
之地	-11.5712
▁fail	-11.5713
啟	-11.5715
电阻	-11.5715
仅有	-11.5715
扰	-11.5718
同名	-11.5719
響	-11.572
谁说	-11.572
▁obtain	-11.5721
階	-11.5721
魁	-11.5722
新增	-11.5722
抗生素	-11.5723
滅	-11.5723
纷纷	-11.5723
掠	-11.5723
須	-11.5724
循	-11.5724
肆	-11.5724
凤凰	-11.5724
騎	-11.5724
淹	-11.5724
險	-11.5724
委书记	-11.5725
綠	-11.5725
owner	-11.5725
郵	-11.5725
膝盖	-11.5725
弊	-11.5726
辐射	-11.5726
仆	-11.5726
托马斯	-11.5726
拌	-11.5726
William	-11.5727
湖泊	-11.5727
鸽	-11.5727
Edit	-11.5727
chapter	-11.5727
王府井	-11.5727
KIND	-11.5727
怼	-11.5727
▁School	-11.5727
屏蔽	-11.5728
武帝	-11.5728
闺蜜	-11.5728
有益	-11.5728
Local	-11.5729
voice	-11.5729
专注于	-11.573
占领	-11.5731
无人机	-11.5731
contract	-11.5732
Refund	-11.5732
创意	-11.5733
Input	-11.5733
▁obtained	-11.5734
不用担心	-11.5734
Handler	-11.5734
安妮	-11.5735
复活	-11.5735
ala	-11.5736
当今	-11.5737
机智	-11.5737
活塞	-11.5738
沿着	-11.5741
明智	-11.5741
特效	-11.5741
莫雷	-11.5742
入境	-11.5744
Win	-11.5745
风水	-11.5747
夺得	-11.5747
口水	-11.5748
湿度	-11.5749
还有其他	-11.575
风雨	-11.575
民事	-11.5752
pack	-11.5752
each	-11.5753
偶遇	-11.5755
那只	-11.5755
拍卖	-11.5759
▁matching	-11.576
迷人	-11.5761
事務	-11.5761
電子	-11.5761
mix	-11.5765
returns	-11.5767
confirmed	-11.5769
Sw	-11.5769
有一次	-11.5776
这才是	-11.5776
孔子	-11.5777

//
//	-11.5781
istic	-11.5782
这么想	-11.5783
不远	-11.5783
科尔	-11.5788
好帅	-11.5788
还不如	-11.5788
▁films	-11.5791
教室	-11.5792
场均	-11.5795
會議	-11.5796
仍是	-11.5797
吃药	-11.5797
这可能	-11.5798
才行	-11.5798
北极	-11.5801
的家人	-11.5801
自身的	-11.5802
Who	-11.5806
一圈	-11.5808
改天	-11.5811
书面	-11.5813
来玩	-11.5814
已经开始	-11.5821
变得更	-11.5822
小姑娘	-11.5823
大多数人	-11.5824
两国	-11.5826
谁能	-11.5826
让它	-11.5828
LS	-11.583
所以我们	-11.5832
一方面	-11.5834
只有一个	-11.5834
易于	-11.584
▁Dec	-11.584
可能需要	-11.584
他已经	-11.584
受到了	-11.5841
辅导班	-11.5843
蹄	-11.5844
討	-11.5846
爲	-11.5846
龜	-11.5846
小伙子	-11.5847
饶	-11.5847
incident	-11.5847
歡	-11.5848
fight	-11.5848
掏	-11.5848
赶快	-11.5849
共和党	-11.585
黛	-11.585
produce	-11.585
偶然	-11.585
紐約	-11.585
sentence	-11.5851
Http	-11.5851
北京贵都大酒店	-11.5851
Configuration	-11.5851
Column	-11.5851
annotation	-11.5851
basic	-11.5851
▁blockchain	-11.5851
绑架	-11.5851
cluster	-11.5851
▁visit	-11.5851
black	-11.5851
征服	-11.5851
▁Also	-11.5852
乖乖	-11.5852
折磨	-11.5852
他妈的	-11.5852
調查	-11.5852
爸妈	-11.5853
導演	-11.5854
區域	-11.5854
持久	-11.5854
VR	-11.5856
▁four	-11.5856
交互	-11.5857
actions	-11.5857
神父	-11.5858
省市镇	-11.5859
春节	-11.586
方形	-11.5861
威爾	-11.5863
海拔	-11.5863
ette	-11.5865
帮我找个	-11.5866
路易斯	-11.5866
zero	-11.587
完工	-11.5871
特拉	-11.5872
保安	-11.5872
了不少	-11.5872
Sci	-11.5875
足球比赛	-11.5875
sheet	-11.5876
神话	-11.5876
好一点	-11.5877
同乐	-11.5879
手臂	-11.5882
主导	-11.5882
Route	-11.5883
您将	-11.5887
fc	-11.5888
给您	-11.589
我看到了	-11.5892
mem	-11.5893
SW	-11.5896
在里面	-11.5897
前景	-11.5898
较高的	-11.5901
創作	-11.5901
我一个人	-11.5902
upper	-11.5905
二战	-11.5907
不要再	-11.5911
我听说	-11.5917
逛街	-11.5921
我在看	-11.5922
脱离	-11.5925
的观点	-11.5927
LT	-11.5928
地形	-11.5928
stat	-11.5928
骂人	-11.5929
周边餐馆有	-11.593
zy	-11.5934
是哪	-11.5934
还蛮	-11.5936
▁needs	-11.5936
一起玩	-11.5937
对着	-11.5944
EG	-11.5944
穿上	-11.595
不过他	-11.595
因为我们	-11.595
融入	-11.5954
一趟	-11.5954
▁videos	-11.5957
网站上	-11.5958
膝	-11.5959
有利	-11.5961
fall	-11.5962
地球上	-11.5963
積	-11.5964
院长	-11.5965
屠	-11.5967
株	-11.5968
茎	-11.5969
Update	-11.5969
欺	-11.597
勘	-11.5972
合金	-11.5972
燈	-11.5972
壽	-11.5972
ino	-11.5972
泡沫	-11.5972
---------------	-11.5973
乞	-11.5973
挠	-11.5973
延续	-11.5973
藉	-11.5973
顯示	-11.5974
獻	-11.5974
澡	-11.5974
舉辦	-11.5975
邻居	-11.5975
暂停	-11.5975
engine	-11.5975
蚂蚁	-11.5975
資訊	-11.5975
Collection	-11.5975
认真的	-11.5975
cloud	-11.5976
前门大街	-11.5976
▁Toolbench	-11.5976
▁anything	-11.5976
母親	-11.5976
normal	-11.5976
ス	-11.5976
▁various	-11.5976
抽象	-11.5977
如同	-11.5978
▁reserve	-11.5979
早晨	-11.5979
足球俱乐部	-11.598
园区	-11.5981
终身	-11.5981
▁containing	-11.5982
新聞	-11.5983
帮我看看	-11.5985
过期	-11.5985
▁===	-11.5986
潜水	-11.5987
處於	-11.599
总冠军	-11.5991
千米	-11.5991
Paul	-11.5992
考生	-11.5995
▁Cap	-11.5995
涂层	-11.5996
两只	-11.5997
二手	-11.5999
加密	-11.6
超声	-11.6001
前两天	-11.6002
坐等	-11.6003
我经常	-11.601
yan	-11.601
关键词	-11.601
付费	-11.6012
你啥时候	-11.6014
party	-11.6016
一副	-11.6017
发生了什么	-11.6019
你是在	-11.6019
pc	-11.6022
少量	-11.6022
▁uses	-11.6023
其後	-11.6024
无语	-11.6027
入住	-11.6029
lip	-11.6029
社长	-11.6034
全新的	-11.6035
类别	-11.6037
人造	-11.6039
Read	-11.604
Cal	-11.604
个别	-11.6041
京都	-11.6041
强行	-11.6045
王者	-11.6046
就是因为	-11.6049
可乐	-11.605
明明是	-11.605
宫颈	-11.6055
league	-11.6055
==	-11.6058
找工作	-11.606
积累	-11.6064
那你就	-11.6066
離開	-11.6066
白白	-11.6066
谈话	-11.6067
黑客	-11.6067
▁checking	-11.6067
所有人都	-11.607
注意身体	-11.6071
沃尔	-11.6071
Pl	-11.6072
克里	-11.6073
产生了	-11.6073
Bel	-11.6075
他们说	-11.6075
的地位	-11.6076
img	-11.6076
你是谁	-11.6076
史上	-11.6076
外地	-11.6077
长发	-11.608
ference	-11.608
uf	-11.6083
▁March	-11.6083
所说的	-11.6084
VM	-11.6088
这款车	-11.609
area	-11.6091
扮	-11.6091
執	-11.6092
对外	-11.6095
理想的	-11.6095
关税	-11.6096
趙	-11.6097
果断	-11.6097
派遣	-11.6097
禽	-11.6098
两家	-11.6098
筆	-11.6098
焉	-11.6098
螺丝	-11.6098
殘	-11.6099
姿	-11.6099
緣	-11.6099
比利时	-11.6099
聪	-11.6099
稅	-11.61
戴维斯	-11.61
噪音	-11.61
河北	-11.61
±	-11.61
坂	-11.6101
範圍	-11.6101
訪	-11.6101
抚养	-11.6101
爱尔兰	-11.6101
炖	-11.6101
註	-11.6101
雾霾	-11.6101
当代	-11.6101
感慨	-11.6102
瑶	-11.6102
Instance	-11.6102
holiday	-11.6102
sensitive	-11.6102
British	-11.6102
century	-11.6102
菇	-11.6102
relationship	-11.6102
▁making	-11.6102
memory	-11.6102
曝光	-11.6103
望远镜	-11.6103
卧室	-11.6103
摄影师	-11.6104
birthdate	-11.6104
摄入	-11.6104
Accept	-11.6104
这家餐厅	-11.6104
Robert	-11.6104
连锁	-11.6105
拥抱	-11.6105
对我来说	-11.6105
桥梁	-11.6106
没睡	-11.6106
这个新闻	-11.6106
孙杨	-11.6107
降温	-11.6107
补贴	-11.6107
尖叫	-11.6109
pass	-11.6109
突变	-11.611
环节	-11.6111
加以	-11.6111
真棒	-11.6111
朝阳	-11.6112
远程	-11.6113
阀门	-11.6114
顶级	-11.6116
权限	-11.6117
TL	-11.6119
一樣	-11.6121
老虎	-11.6122
里面有	-11.6133
感恩	-11.6134
毕业了	-11.6135
难道你	-11.6137
▁Mc	-11.6137
prop	-11.6138
DF	-11.614
已经很	-11.6144
Yes	-11.615
有關	-11.6152
高手	-11.6157
cia	-11.6159
电影院	-11.6167
入选	-11.6168
TX	-11.617
来这里	-11.6172
等方面	-11.6175
={	-11.6177
场合	-11.6178
Da	-11.618
些什么	-11.6183
▁coordinate	-11.6183
▁done	-11.6184
为什么会	-11.6184
nThis	-11.6184
mous	-11.6186
loyalty	-11.6191
using	-11.6192
工商	-11.6193
金钱	-11.6194
elli	-11.6195
赶上	-11.6195
是一颗	-11.6196
前方	-11.6196
Ly	-11.6199
credit	-11.62
出來	-11.6202
你也喜欢	-11.6203
oul	-11.6204
并于	-11.6205
多名	-11.6207
推荐一下	-11.6208
支球队	-11.6209
浇	-11.621
犹	-11.6212
必定	-11.6212
最重要	-11.6213
下次再	-11.6214
UR	-11.6215
从小就	-11.6216
海水	-11.6218
誉	-11.6219
准备好了	-11.6222
能把	-11.6224
旱	-11.6225
蜂蜜	-11.6225
皱	-11.6226
帆	-11.6226
飯	-11.6226
②	-11.6226
妾	-11.6226
賞	-11.6227
]]	-11.6228
困扰	-11.6228
措	-11.6228
剥	-11.6228
国务院	-11.6228
暫	-11.6228
哩	-11.6229
設施	-11.6229
衫	-11.6229
芭	-11.6229
簿	-11.6229
氟	-11.6229
严肃	-11.6229
救援	-11.6229
婉	-11.623
喜歡	-11.623
鹿晗	-11.623
Spanish	-11.623
Flexible	-11.623
INSERT	-11.623
▁WARRANTY	-11.623
built	-11.623
营业时间是周一至周日	-11.623
缺席	-11.6231
好不容易	-11.6231
體育	-11.6231
Factory	-11.6231
休闲	-11.6232
观测	-11.6233
登上	-11.6234
钢铁	-11.6234
在未来	-11.6234
带你去	-11.6234
寒假	-11.6235
轻微	-11.6235
Java	-11.6236
Calculates	-11.6236
婆婆	-11.6236
马恩省	-11.6236
單位	-11.6236
行吗	-11.6238
条例	-11.6238
彩色	-11.6239
局势	-11.624
Builder	-11.6242
注定	-11.6243
类似于	-11.6243
黑洞	-11.6244
制动	-11.6244
这个词	-11.6244
各类	-11.6245
上方	-11.6245
HC	-11.6246
剂量	-11.6246
公開	-11.6246
png	-11.6246
星座	-11.6247
睡着	-11.6249
当地时间	-11.6249
NFT	-11.6249
装修	-11.6249
两周	-11.6251
标准间	-11.6253
赞同	-11.6253
很正常	-11.6253
cus	-11.6254
德斯	-11.6255
》
《	-11.6255
体育场	-11.6258
餐馆吗	-11.6259
强烈的	-11.626
师姐	-11.6261
头痛	-11.6261
ister	-11.6263
\"*	-11.6264
难怪	-11.6265
就是为了	-11.6267
打入	-11.6267
秋天	-11.6268
珠海	-11.6269
联想	-11.6269
词汇	-11.627
毫不	-11.627
哪里有	-11.627
por	-11.6276
获奖	-11.6277
):**	-11.6277
供给	-11.6279
▁too	-11.628
这道菜	-11.6281
CB	-11.6282
setup	-11.6289
推出了	-11.6293
哪种	-11.6294
都不敢	-11.6294
qr	-11.6296
stage	-11.6298
差别	-11.6298
Song	-11.6303
筛	-11.6303
六个	-11.6304
.....	-11.6306
沿海	-11.6307
店里	-11.6309
you	-11.631
我们不能	-11.6313
是的呀	-11.6317
Now	-11.6318
exit	-11.632
划分	-11.6321
▁correct	-11.6321
出国	-11.6324
加快	-11.6325
聊聊	-11.6326
法令	-11.6335
给力	-11.634
合唱	-11.6344
人死亡	-11.6344
呜呜	-11.6345
街上	-11.6346
袍	-11.6349
婦	-11.6349
hard	-11.635
户外	-11.6351
毛泽东	-11.6352
ink	-11.6354
秤	-11.6355
渴	-11.6355
拾	-11.6355
丈	-11.6355
TT	-11.6356
〉	-11.6356
爭	-11.6356
丧失	-11.6356
淳	-11.6357
纤	-11.6357
傳統	-11.6358
杏	-11.6358
髓	-11.6358
钠	-11.6358
鳳	-11.6358
贈	-11.6358
洒	-11.6358
而且他	-11.6358
訴	-11.6359
XX	-11.6359
伴侣	-11.6359
崇拜	-11.6359
漠	-11.6359
業務	-11.636
嵌	-11.636
‬
‪	-11.636
少吃	-11.636
邨	-11.636
徑	-11.636
Reason	-11.636
companies	-11.636
畢業	-11.636
children	-11.636
competition	-11.636
expectation	-11.636
Include	-11.636
Buffer	-11.636
报价	-11.636
shipping	-11.6361
社交媒体	-11.6361
气候变化	-11.6361
明朝政治人物	-11.6361
編曲	-11.6361
篮板	-11.6361
右边	-11.6362
管辖	-11.6362
獎項	-11.6362
王某	-11.6362
▁very	-11.6363
拘留	-11.6363
▁few	-11.6363
包围	-11.6364
家乡	-11.6364
merge	-11.6364
天然气	-11.6365
总决赛	-11.6365
极限	-11.6365
殖民地	-11.6366
原住民	-11.6366
客服	-11.6367
最长	-11.6367
区分	-11.6367
木材	-11.6367
公益	-11.6368
▁months	-11.6368
Provider	-11.637
nearest	-11.6372
智力	-11.6373
教練	-11.6374
叶片	-11.6376
home	-11.6377
决心	-11.6378
难民	-11.6379
eur	-11.6382
构造	-11.6382
only	-11.6385
排队	-11.6385
做法	-11.6385
解答	-11.6386
mate	-11.6386
有人说	-11.639
列入	-11.6391
名义	-11.6391
元件	-11.6394
東南	-11.6396
方法是	-11.6396
局面	-11.6397
lab	-11.6399
量子	-11.6399
该省份为法国	-11.6403
最后一个	-11.6405
能玩	-11.6408
rent	-11.641
太久	-11.6411
PRO	-11.6412
MD	-11.6417
实现了	-11.6423
DJ	-11.6429
一场比赛	-11.6431
流感	-11.6432
縣人	-11.644
楼上	-11.644
*/

#	-11.6445
▁lead	-11.6446
中药	-11.6449
发电	-11.6449
个赛季	-11.6451
在乎	-11.6452
手续	-11.6455
国防部	-11.6455
edit	-11.6455
yl	-11.6456
MT	-11.646
讲述了	-11.6464
不愿	-11.6466
蒜	-11.6466
addr	-11.6466
孕妇	-11.6467
lie	-11.6469
minimum	-11.6471
多吃	-11.6472
增大	-11.6473
的那一	-11.6474
嘻嘻嘻	-11.6481
但由于	-11.6484
亚军	-11.6486
遗嘱	-11.6486
偉	-11.6487
口罩	-11.6487
銷	-11.6487
枢	-11.6487
脆	-11.6488
斌	-11.6488
審	-11.6488
濟	-11.6489
潜艇	-11.6489
披露	-11.6489
解决了	-11.6489
農	-11.6489
沉淀	-11.6489
纠正	-11.6489
Final	-11.649
秃	-11.649
戀	-11.649
纯粹	-11.6491
幽默	-11.6491
如果他	-11.6491
烘	-11.6491
讷	-11.6491
寬	-11.6491
奧林匹克運動會	-11.6492
杉	-11.6492
calendar	-11.6492
▁little	-11.6492
硕士	-11.6492
ALTER	-11.6492
micro	-11.6492
Black	-11.6492
中華人民共和國	-11.6492
鳥	-11.6492
自治区	-11.6493
优雅	-11.6493
不聊了	-11.6493
邮箱	-11.6493
编译	-11.6493
click	-11.6493
」、「	-11.6493
blue	-11.6493
情人节	-11.6494
轮胎	-11.6495
某一	-11.6495
监视	-11.6496
截图	-11.6497
Range	-11.6497
oma	-11.6498
个性	-11.6498
视角	-11.6498
的做法	-11.65
分散	-11.6502
在床上	-11.6502
先进的	-11.6503
简直是	-11.6503
凶手	-11.6504
富强	-11.6505
MX	-11.6508
什么叫	-11.6508
Form	-11.6509
两侧	-11.6509
的基础上	-11.651
可以直接	-11.6511
这段时间	-11.6512
星夜	-11.6513
洗衣	-11.6513
主教练	-11.6514
这里是	-11.6514
线索	-11.6518
descr	-11.652
踢足球	-11.6523
邀	-11.6527
请问你	-11.6527
市区	-11.6528
总共	-11.6528
支出	-11.6529
挑选	-11.6529
QU	-11.653
岂不是	-11.653
被视为	-11.6535
错过了	-11.6536
Access	-11.654
昨	-11.6542
最低价格	-11.6544
死我了	-11.6546
操作系统	-11.6546
相处	-11.6547
纳德	-11.6547
前身	-11.6548
缩小	-11.6551
git	-11.6557
一碗	-11.6558
电信	-11.656
死去	-11.6562
六十	-11.6562
是最好的	-11.6562
好的好的	-11.6563
考虑一下	-11.6563
▁focus	-11.6564
成这样	-11.6565
还不睡	-11.6566
淡水	-11.6568
时机	-11.6569
源自	-11.657
对他们	-11.6572
真是太	-11.6573
汉子	-11.6574
timeout	-11.6579
Long	-11.6579
走开	-11.6579
动手	-11.6583
好羡慕	-11.6585
postal	-11.6588
还真是	-11.6588
出战	-11.6591
▁resources	-11.6592
超出	-11.6592
么么	-11.6592
看比赛	-11.6594
▁Gar	-11.6595
到这里	-11.6595
好难	-11.6596
理念	-11.6599
Big	-11.66
这只是	-11.66
海报	-11.6608
海底	-11.6608
杯子	-11.6611
我身边	-11.6611
時代	-11.6615
Free	-11.6616
死于	-11.6617
索尼	-11.6618
省的一个市镇	-11.6619
陀	-11.6619
下令	-11.662
邵	-11.662
拿来	-11.662
可以吃	-11.6622
橡	-11.6622
法语	-11.6623
剃	-11.6623
inner	-11.6623
茫	-11.6623
栖	-11.6624
；
（	-11.6624
convert	-11.6624
壶	-11.6624
潮湿	-11.6624
模仿	-11.6624
燒	-11.6624
资助	-11.6625
PostgreSQL	-11.6625
August	-11.6625
emergency	-11.6625
Japan	-11.6625
▁Province	-11.6625
▁Since	-11.6625
▁July	-11.6626
终结	-11.6626
外科	-11.6626
驾照	-11.6626
奇迹	-11.6626
中国人民解放军	-11.6626
馅	-11.6626
機構	-11.6626
Authentication	-11.6626
帐户	-11.6626
恶魔	-11.6626
過去	-11.6626
等一下	-11.6627
午餐	-11.6627
辣椒	-11.6627
麻麻	-11.6627
simple	-11.6628
你竟然	-11.6629
Series	-11.663
妹纸	-11.663
令吉	-11.663
pending	-11.663
公園	-11.663
受益	-11.6631
頻道	-11.6631
Load	-11.6631
語言	-11.6631
业绩	-11.6632
切除	-11.6632
argv	-11.6633
Ed	-11.6633
▁validation	-11.6635
Super	-11.6636
再加上	-11.6637
了不起	-11.6637
而非	-11.6638
宽度	-11.6639
css	-11.6639
▁shows	-11.664
自豪	-11.6642
examples	-11.6642
}"}}]}	-11.6643
以为是	-11.6644
Just	-11.6646
住院	-11.6647
SK	-11.665
ima	-11.6651
收到了	-11.6653
乐器	-11.6654
seat	-11.6655
選手	-11.6658
多吃点	-11.6662
Home	-11.6663
发给我	-11.6664
比尔	-11.6666
不了解	-11.6669
委会	-11.667
进而	-11.667
好好好	-11.6672
graphic	-11.6674
ography	-11.6674
你要是	-11.6677
什么样	-11.6678
都觉得	-11.6682
莱斯	-11.6683
拿走	-11.6683
平方	-11.6683
影院	-11.6685
如果你想	-11.6687
就是那个	-11.6691
怎么样啊	-11.6691
将成为	-11.6691
生物学	-11.6692
曾經	-11.67
its	-11.6701
谢谢您	-11.6702
Bur	-11.6707
你肯定	-11.6708
其他国家	-11.6709
那场	-11.671
PP	-11.6712
丹尼	-11.6713
吸入	-11.6721
这些都是	-11.6726
这个名字	-11.6727
container	-11.6729
三名	-11.673
总觉得	-11.6731
GH	-11.6736
比如说	-11.6738
面向	-11.6738
不去了	-11.6739
是一样的	-11.674
國民	-11.6742
做一个	-11.6742
施加	-11.6742
({
	-11.6743
Any	-11.6743
您需要	-11.6744
人類	-11.6747
名為	-11.6747
出自	-11.6748
所需	-11.6753
疲	-11.6754
隙	-11.6755
愤	-11.6756
担保	-11.6756
〈	-11.6756
谦	-11.6757
吟	-11.6757
結束	-11.6757
畏	-11.6757
陛下	-11.6758
扩张	-11.6758
栽培	-11.6758
阶级	-11.6758
数百	-11.6758
壹	-11.6758
莽	-11.6759
旧金山	-11.6759
邱	-11.6759
狭	-11.6759
準	-11.6759
婷	-11.6759
沸	-11.6759
顏	-11.676
栓	-11.676
决议	-11.676
加密货币	-11.676
委屈	-11.676
楷	-11.676
comparison	-11.676
杜兰特	-11.676
Specifies	-11.676
▁representing	-11.676
▁warranty	-11.676
北京首都宾馆	-11.676
positive	-11.676
嗷	-11.676
Operation	-11.676
烷	-11.6761
flags	-11.6761
好消息	-11.6761
三角形	-11.6761
Label	-11.6761
▁INTO	-11.6761
紀念	-11.6761
robot	-11.6761
乳房	-11.6761
archive	-11.6762
预订	-11.6762
duct	-11.6762
隔壁	-11.6763
防晒	-11.6763
年建立的	-11.6764
小吃	-11.6765
录制	-11.6765
样品	-11.6766
作詞	-11.6766
实例	-11.6766
refund	-11.6767
▁River	-11.6767
腹部	-11.6768
附加	-11.6771
txt	-11.6771
不通	-11.6772
Lock	-11.6772
十三年	-11.6773
第一位	-11.6774
水晶	-11.6774
首府	-11.6775
感觉很	-11.6776
对战	-11.6777
这本书	-11.6777
体质	-11.6779
深夜	-11.678
阳台	-11.678
加载	-11.678
之旅	-11.678
很可能	-11.678
可分为	-11.6781
RK	-11.6781
TOR	-11.6781
最强	-11.6784
晚期	-11.6784
每一天	-11.6789
厂家	-11.679
看见了	-11.6792
();	-11.6794
东临	-11.6794
静静	-11.6796
职工	-11.6796
十月	-11.6799
睡醒	-11.6799
保重	-11.68
清单	-11.68
全都	-11.6807
跟她	-11.6808
clu	-11.681
桃花	-11.6811
是的呢	-11.6812
促使	-11.682
人权	-11.682
VT	-11.6824
上海市	-11.683
应用于	-11.683
EE	-11.6833
一点也不	-11.6833
这名	-11.6834
。。。。。	-11.6846
成为一个	-11.6847
节点	-11.6848
直达	-11.6852
语音	-11.6858
孩	-11.6859
转速	-11.6859
via	-11.686
分為	-11.686
州长	-11.6863
变更	-11.6863
Lib	-11.6869
放到	-11.6869
SF	-11.687
可以根据	-11.6871
帮我找	-11.6872
全体	-11.6873
有点像	-11.6875
現代	-11.6875
界面	-11.6878
打进	-11.6881
但还是	-11.6882
不宜	-11.6883
这是一种	-11.6883
嚴	-11.689
zo	-11.6891
Go	-11.6891
織	-11.6891
accept	-11.6891
寇	-11.6893
驰	-11.6893
排行榜	-11.6895
臀	-11.6895
顽	-11.6895
詹	-11.6896
缔	-11.6896
违规	-11.6896
职责	-11.6896
酬	-11.6897
歧视	-11.6897
南至	-11.6897
奖牌得主	-11.6897
抱怨	-11.6897
甄	-11.6897
Michael	-11.6897
Video	-11.6897
employee	-11.6897
▁possible	-11.6897
Official	-11.6897
}
	-11.6897
П	-11.6898
紀錄	-11.6898
滚动	-11.6898
乔丹	-11.6898
結構	-11.6898
卓越	-11.6899
爵士	-11.6899
内涵	-11.69
风扇	-11.69
副主席	-11.69
学费	-11.69
眼泪	-11.69
激情	-11.6901
阴影	-11.6901
赞助	-11.6902
零件	-11.6903
科幻	-11.6903
▁operations	-11.6904
瘾	-11.6906
分布於	-11.6906
▁'./	-11.6907
之际	-11.6907
阻力	-11.6909
Draw	-11.6909
你可以去	-11.691
还是不错的	-11.691
请假	-11.6914
地域	-11.6917
摩托车	-11.6917
换成	-11.6918
Why	-11.6918
▁added	-11.6919
Cho	-11.692
价钱	-11.6921
大半夜	-11.6921
original	-11.6924
att	-11.6924
价值观	-11.6925
你在看	-11.6935
對於	-11.6935
布局	-11.6935
productid	-11.6936
首位	-11.6938
北京大学	-11.6941
民国	-11.6943
center	-11.6943
").	-11.6946
nhttps	-11.6949
语法	-11.6949
笑话	-11.695
尼斯	-11.6952
pool	-11.6958
杀手	-11.6961
样本	-11.6961
迷你	-11.6965
分区	-11.6966
).

	-11.6967
告诉他	-11.6967
商场	-11.6968
特意	-11.697
写道	-11.6971
;
}	-11.6974
所在地	-11.6976
门店	-11.6978
零售	-11.698
你在哪	-11.6982
底下	-11.6984
非要	-11.6986
心理学	-11.6986
看见你	-11.6991
yes	-11.6993
立马	-11.6996
忍受	-11.7001
reviews	-11.7002
還是	-11.7005
迫使	-11.7012
变革	-11.7013
赋	-11.7017
很有可能	-11.7019
挺多的	-11.702
▁movies	-11.7023
cam	-11.7024
有钱人	-11.7024
邑	-11.7025
member	-11.7025
椒	-11.703
測	-11.7031
align	-11.7031
衔	-11.7031
愚	-11.7031
tags	-11.7032
朝廷	-11.7032
纷	-11.7032
棄	-11.7033
搏	-11.7033
祈	-11.7033
在这种情况下	-11.7033
恭王府	-11.7033
愧	-11.7033
人身	-11.7034
Sir	-11.7034
二氧化碳	-11.7035
靜	-11.7035
镁	-11.7035
研讨	-11.7035
碟	-11.7035
翘	-11.7035
р	-11.7035
扩散	-11.7036
恐龙	-11.7036
嗣	-11.7036
冰淇淋	-11.7036
confidence	-11.7036
农历	-11.7036
染色	-11.7036
Available	-11.7036
equity	-11.7036
traditional	-11.7036
▁functionality	-11.7036
▁Angeles	-11.7036
Bitcoin	-11.7036
Information	-11.7036
彩虹	-11.7036
宣告	-11.7036
▁already	-11.7036
终端	-11.7036
Special	-11.7037
穗	-11.7037
▁suggestions	-11.7037
交通事故	-11.7037
终止	-11.7037
超喜欢	-11.7038
温泉	-11.7038
uring	-11.7039
汤姆	-11.704
群島	-11.7041
像个	-11.7041
一个新的	-11.7041
冷冻	-11.7041
解锁	-11.7041
叫什么	-11.7043
碎片	-11.7043
笔记本	-11.7044
楼下	-11.7044
半个月	-11.7044
厉害啊	-11.7044
bind	-11.7045
Gui	-11.7048
毛衣	-11.7049
指纹	-11.705
浴室	-11.705
转化为	-11.705
▁cup	-11.7051
socket	-11.7055
马刺	-11.7055
会产生	-11.7057
工伤	-11.7058
vent	-11.7058
球衣	-11.7059
pair	-11.706
还行吧	-11.7062
弟子	-11.7064
什么东西	-11.7068
发热	-11.7069
連接	-11.7073
照相	-11.7073
apply	-11.7074
做不到	-11.7074
多项	-11.7075
开花	-11.7075
attend	-11.7077
SEC	-11.7077
谈到	-11.7078
推特	-11.708
复发	-11.7083
星期一	-11.7083
ional	-11.7085
不堪	-11.7085
ban	-11.7087
动机	-11.7088
GR	-11.7092
RNA	-11.7093
精心	-11.7095
格里	-11.7097
又没	-11.7101
相连	-11.7103
ón	-11.7103
协	-11.7108
夜晚	-11.7109
好开心	-11.7111
tru	-11.7119
还没睡	-11.7121
▁Ber	-11.7121
不会吧	-11.7124
MIT	-11.7125
越来越多的	-11.7125
相信我	-11.713
layer	-11.7136
这样子	-11.7137
只要你	-11.7137
利斯	-11.7139
成交	-11.7141
ABC	-11.7142
▁exist	-11.7143
gue	-11.7143
首发	-11.7144
alter	-11.7144
wide	-11.7145
什么情况	-11.7149
我跟你	-11.7149
水库	-11.715
▁ratings	-11.7151
另有	-11.7154
啥意思	-11.7157
到最后	-11.7157
物料	-11.716
大桥	-11.7162
析	-11.7166
在全球	-11.7166
忘记了	-11.7168
iga	-11.7168
慰	-11.717
佈	-11.717
牆	-11.7171
but	-11.7172
直升机	-11.7172
虛	-11.7172
揭示	-11.7174
窄	-11.7175
赋予	-11.7175
幼稚	-11.7175
伴有	-11.7176
锥	-11.7176
伤病	-11.7176
鄂	-11.7176
哨	-11.7176
堵塞	-11.7176
磅	-11.7176
奢侈	-11.7176
★	-11.7176
蹦	-11.7176
嘎	-11.7177
波动	-11.7177
な	-11.7177
摄像头	-11.7177
exclude	-11.7177
▁because	-11.7177
祝您生活愉快	-11.7177
这辈子	-11.7177
慈善	-11.7177
progress	-11.7177
▁limitations	-11.7177
斐	-11.7177
▁directory	-11.7177
HTTP	-11.7178
奧運	-11.7178
男主角	-11.7178
效应	-11.7178
制裁	-11.7178
通宵	-11.7178
泄露	-11.7178
prime	-11.7178
预告	-11.7179
鏡	-11.7179
寻常	-11.7179
折叠	-11.7179
insert	-11.7179
考验	-11.7179
▁remain	-11.7181
透過	-11.7181
grant	-11.7181
執行	-11.7182
BBC	-11.7182
杀害	-11.7183
羊肉	-11.7184
accepted	-11.7184
肥胖	-11.7185
▁river	-11.7186
客户端	-11.7186
外婆	-11.7187
平行	-11.7188
我一直都	-11.7189
所示	-11.719
不记得	-11.719
经纪人	-11.7191
Lu	-11.7191
航行	-11.7192
流传	-11.7194
借助	-11.7196
yu	-11.7198
村民	-11.7198
终点	-11.72
全程	-11.7203
Doc	-11.7204
吉林	-11.7204
请客	-11.7205
定居	-11.7205
说的对	-11.7205
recipe	-11.7207
羡慕你	-11.7207
direction	-11.7208
启用	-11.7209
露出	-11.7211
java	-11.7211
钻石	-11.7214
开头	-11.7216
职员	-11.7217
年夜	-11.7219
Na	-11.7221
加重	-11.7221
lam	-11.7222
幸好	-11.7223
早年	-11.7223
但是还是	-11.7225
***************	-11.7226
没怎么	-11.7229
罗德	-11.7229
守护	-11.7233
mile	-11.7233
一股	-11.7233
下个月	-11.7234
}
}	-11.7235
中国人民	-11.724
中医	-11.7241
theme	-11.7245
但却	-11.7246
用力	-11.7246
留学生	-11.7247
一瓶	-11.7249
有权	-11.7249
的最后一	-11.725
Roman	-11.725
比起	-11.7251
清醒	-11.7254
XXX	-11.7255
斯顿	-11.7258
一般人	-11.7261
微微	-11.7262
現時	-11.7264
hl	-11.7268
光明	-11.7268
更喜欢	-11.7271
凉快	-11.7272
Return	-11.7273
护士	-11.7275
外国人	-11.7281
大象	-11.7282
就应该	-11.7283
库里	-11.7287
女主角	-11.729
电容	-11.7291
早晚	-11.7295
站点	-11.7299
感谢你	-11.7299
prom	-11.7299
感人	-11.7305
一般都	-11.7305
明天去	-11.7307
只想	-11.7308
access	-11.7309
有两种	-11.731
履	-11.7311
波斯	-11.7312
有很大的	-11.7313
引起了	-11.7314
飲	-11.7316
HH	-11.7316
兮	-11.7316
屡	-11.7317
谭	-11.7317
趕	-11.7317
萍	-11.7317
摸摸	-11.7317
锈	-11.7318
哥伦比亚	-11.7318
淫	-11.7318
oy	-11.7318
隱	-11.7318
咳	-11.7318
朕	-11.7318
喃	-11.7318
除此之外	-11.7318
贫困	-11.7318
罕见	-11.7318
蓉	-11.7319
屠杀	-11.7319
獸	-11.7319
阴阳	-11.7319
缩短	-11.7319
侮辱	-11.7319
靓	-11.732
Historic	-11.732
座標為	-11.732
white	-11.732
Security	-11.732
traffic	-11.732
friendly	-11.732
▁CONDITIONS	-11.732
坐着	-11.732
照顾好自己	-11.732
Southern	-11.732
標準	-11.732
switch	-11.732
百分之	-11.732
wallet	-11.7321
suite	-11.7321
山脈	-11.7321
早点休息	-11.7322
音频	-11.7322
丹麦	-11.7322
军训	-11.7323
来得及	-11.7324
debug	-11.7325
吏	-11.7325
兼容	-11.7325
村庄	-11.7325
機場	-11.7325
紫色	-11.7326
代购	-11.7326
巨星	-11.7327
助手	-11.7327
▁Sta	-11.7327
Body	-11.733
权威	-11.733
胃口	-11.733
理事会	-11.733
排列	-11.733
密集	-11.7333
准备去	-11.7334
LOG	-11.7335
传达	-11.7338
硬度	-11.7339
产权	-11.734
/{	-11.7341
金斯	-11.7342
DP	-11.7342
logo	-11.7343
Row	-11.7344
你到底	-11.7344
抗原	-11.7345
UV	-11.7346
这个游戏	-11.7347
我不喜欢	-11.7348
美国总统	-11.7349
OB	-11.7349
水泥	-11.735
咋办	-11.7353
色情	-11.7358
已知	-11.7358
refname	-11.7358
三国	-11.736
average	-11.7361
week	-11.7362
锁定	-11.7363
本来就是	-11.7364
weather	-11.7365
同盟	-11.7366
最后一次	-11.7367
vil	-11.7368
我都不知道	-11.7372
recommendation	-11.7374
当作	-11.7376
来回	-11.7377
个星期	-11.7381
只能说	-11.7381
不超过	-11.7381
可能性	-11.7381
Tom	-11.7383
学位	-11.7383
{{	-11.7384
球場	-11.7385
说起	-11.7385
Call	-11.7387
走过	-11.739
job	-11.7396
一下子	-11.7406
▁Ac	-11.7406
小小的	-11.7407
不会再	-11.7408
别客气	-11.7408
营业时间	-11.7412
under	-11.7418
ero	-11.7419
地质	-11.7422
IG	-11.7423
就够了	-11.7426
hex	-11.7427
Asia	-11.7428
我们知道	-11.7429
拉黑	-11.7433
无线	-11.7437
foot	-11.7438
买家	-11.7439
Spa	-11.7442
solution	-11.7444
之战	-11.7444
mass	-11.7445
▁seconds	-11.7452
誤	-11.7459
▁similar	-11.7459
禅	-11.746
脫	-11.746
侵略	-11.746
安东尼	-11.7461
蕭	-11.7461
谴责	-11.7461
衷	-11.7462
铲	-11.7462
疮	-11.7462
新冠肺炎	-11.7462
劃	-11.7462
堅	-11.7462
翅膀	-11.7462
疹	-11.7462
有兴趣	-11.7462
痕迹	-11.7462
巴塞罗那	-11.7462
争夺	-11.7462
脆弱	-11.7462
甫	-11.7463
扳	-11.7463
蛙	-11.7463
噪声	-11.7464
讽刺	-11.7464
戊	-11.7464
崽	-11.7464
胺	-11.7464
遜	-11.7464
remote	-11.7465
幫	-11.7465
▁applied	-11.7465
Azure	-11.7465
Global	-11.7465
Second	-11.7465
▁professional	-11.7465
Register	-11.7465
industry	-11.7465
奥地利	-11.7465
▁operationId	-11.7465
Button	-11.7465
degree	-11.7465
secret	-11.7465
比喻	-11.7465
▁Africa	-11.7465
大學校友	-11.7466
這裡	-11.7466
▁completed	-11.7467
人均消费在	-11.7467
▁sorted	-11.7467
鉴于	-11.7467
自带	-11.7468
剧烈	-11.7468
產品	-11.7468
对不对	-11.7468
▁Games	-11.7469
舒适型	-11.747
Section	-11.747
汉语	-11.7471
撰写	-11.7471
到北京	-11.7471
([	-11.7471
按摩	-11.7472
銀行	-11.7472
洛阳	-11.7473
主页	-11.7473
别这样	-11.7473
fit	-11.7474
north	-11.7474
我看过	-11.7475
干预	-11.7475
灵感	-11.7476
坐标	-11.7476
！"},	-11.7476
圣经	-11.7477
Manage	-11.7477
即使是	-11.7477
博客	-11.7477
猴子	-11.7478
右手	-11.7478
富含	-11.7481
享用	-11.7481
男票	-11.7482
妈呀	-11.7482
明亮	-11.7482
經營	-11.7482
安置	-11.7483
partial	-11.7483
科目	-11.7483
平凡	-11.7484
现任	-11.7485
RD	-11.7485
清水	-11.7485
院士	-11.7486
北京时间	-11.7489
收取	-11.749
躺着	-11.7492
日讯	-11.7493
被窝	-11.7493
北起	-11.7494
马丁	-11.7494
草原	-11.7496
买房	-11.7497
打工	-11.7497
四周	-11.7498
左手	-11.7499
SMS	-11.7499
术语	-11.75
兩人	-11.7501
SN	-11.7501
不过现在	-11.7502
米饭	-11.7503
份额	-11.7503
了好久	-11.7506
special	-11.7506
水印	-11.7506
画家	-11.7506
位于中国	-11.7507
想找	-11.7507
一架	-11.7508
主教	-11.7508
我咋	-11.751
原油	-11.7511
外出	-11.7516
我还要	-11.7517
时间内	-11.7518
World	-11.7518
Love	-11.7519
should	-11.752
街头	-11.7525
多长时间	-11.7526
本周	-11.7526
kes	-11.7527
不相信	-11.7531
辣么	-11.7533
里奇	-11.7533
。

　　	-11.7539
重要的是	-11.7542
前途	-11.7549
滩	-11.755
打出	-11.755
支持者	-11.7554
野生	-11.7555
拿到了	-11.7555
None	-11.7555
业主	-11.7558
VER	-11.7559
一双	-11.7559
▁refunds	-11.7564
大麻	-11.7566
中场	-11.757
新建	-11.7571
可靠的	-11.7572
部門	-11.7574
大概是	-11.7577
是假的	-11.7579
全新	-11.7579
存活	-11.7584
浙	-11.7584
▁listed	-11.759
你懂的	-11.7592
看电视	-11.7594
金刚	-11.7594
USB	-11.7596
窟	-11.7599
疆	-11.7601
麼	-11.7602
齋	-11.7604
抵押	-11.7605
跡	-11.7607
棍	-11.7607
铅	-11.7607
ONE	-11.7608
選擇	-11.7608
謀	-11.7608
material	-11.7609
purpose	-11.7609
皂	-11.761
劑	-11.7611
沦	-11.7611
怂	-11.7611
岡	-11.7611
辅导	-11.7611
养殖	-11.7611
英联邦运动会	-11.7611
啃	-11.7611
execute	-11.7611
ETH	-11.7611
绘画	-11.7612
弥补	-11.7612
呸	-11.7612
Living	-11.7612
▁VALUES	-11.7612
Specify	-11.7612
▁requirements	-11.7613
较多	-11.7613
古老的	-11.7613
有所不同	-11.7615
Good	-11.7617
Direct	-11.7618
灰色	-11.7618
hook	-11.7618
富贵	-11.7619
林肯	-11.7619
重返	-11.7619
外交部	-11.762
Apply	-11.7622
▁*/
#	-11.7624
祖先	-11.7625
tract	-11.7625
▁tracking	-11.7625
粉色	-11.7626
越野	-11.7626
联系方式	-11.7626
OUT	-11.7627
▁steps	-11.7627
诸多	-11.7629
走起	-11.7631
头脑	-11.7632
湖北	-11.7634
tweets	-11.7634
欧文	-11.7635
MVP	-11.7636
可靠	-11.7638
大城市	-11.7639
墓地	-11.7639
几率	-11.7639
加油啊	-11.764
病因	-11.7641
找找	-11.7641
不介意	-11.7643
这周	-11.7644
吉尔	-11.7646
身体健康	-11.7647
Values	-11.7649
重点是	-11.7651
fun	-11.7652
得很好	-11.7653
听力	-11.7657
哇哦	-11.7659
玩过	-11.766
语气	-11.7663
tel	-11.7663
Box	-11.7669
英镑	-11.767
逆转	-11.7672
▁thing	-11.7674
误会	-11.7675
并通过	-11.7675
YouTube	-11.7676
surge	-11.7678
抢到	-11.7679
岛上	-11.7679
Well	-11.7681
意为	-11.7681
南路	-11.7682
成型	-11.7683
美国政府	-11.7686
processing	-11.7689
une	-11.7691
全家	-11.7691
restaurants	-11.7693
mount	-11.7694
▁understand	-11.7695
称号	-11.7696
▁platforms	-11.7699
▁contain	-11.7702
改成	-11.7702
络	-11.7703
防水	-11.7704
投手	-11.7708
条规定	-11.7709
就是这么	-11.771
FE	-11.7713
在地上	-11.7714
ease	-11.7715
SG	-11.7717
AY	-11.7718
才开始	-11.7721
间隔	-11.7721
某某	-11.7722
有好多	-11.7725
查找	-11.7727
有能力	-11.7736
full	-11.7736
reset	-11.7737
fd	-11.774
成立于	-11.774
中學	-11.7746
绪	-11.7748
朱元璋	-11.7749
实质	-11.7749
唤	-11.775
锅炉	-11.7752
荆	-11.7754
typ	-11.7755
火焰	-11.7755
醫	-11.7755
殷	-11.7755
Connect	-11.7756
渠	-11.7756
贩	-11.7756
閣	-11.7756
史密斯	-11.7757
恕	-11.7757
巅峰	-11.7758
检察	-11.7758
滕	-11.7759
好多人	-11.7759
蝶	-11.7759
外星人	-11.776
▁cook	-11.776
他认为	-11.776
芦	-11.776
服役	-11.776
困境	-11.776
枫	-11.776
Mexican	-11.7761
Business	-11.7761
я	-11.7761
basketball	-11.7761
student	-11.7761
▁BASIS	-11.7761
✅	-11.7761
Entity	-11.7761
front	-11.7761
п	-11.7761
座椅	-11.7761
墩	-11.7761
Chrome	-11.7762
撞击	-11.7762
android	-11.7762
内陆省份	-11.7762
注意事项	-11.7762
熱帶	-11.7762
Limit	-11.7762
节日快乐	-11.7763
炒肝	-11.7763
Account	-11.7763
亨利	-11.7764
封闭	-11.7764
ASIN	-11.7764
食欲	-11.7765
鸡汤	-11.7765
单身狗	-11.7765
流域	-11.7765
▁nullable	-11.7766
老爸	-11.7766
套餐	-11.7766
疑问	-11.7766
鸟类	-11.7767
车祸	-11.7767
商業	-11.7768
谋杀	-11.7769
英語	-11.7769
permission	-11.7769
enabled	-11.7769
霸气	-11.777
Write	-11.7771
外汇	-11.7772
!!!!!	-11.7772
hours	-11.7773
何必	-11.7776
水面	-11.7776
太可爱了	-11.7777
跑到	-11.7777
"}}	-11.7777
地铁直达	-11.7778
请不要	-11.7778
Other	-11.7779
数额	-11.7779
太快了	-11.7779
也算是	-11.778
▁allowed	-11.7781
车道	-11.7782
恶心	-11.7782
帮助您	-11.7782
自愿	-11.7782
尿道	-11.7783
login	-11.7783
取出	-11.7784
劳动者	-11.7784
▁languages	-11.7785
将继续	-11.7785
五百	-11.7786
爱心	-11.7786
下周三	-11.7787
领导者	-11.7789
学妹	-11.7789
配有	-11.7789
派出	-11.779
sync	-11.7793
加油吧	-11.7795
exists	-11.7797
坐下	-11.7797
当成	-11.7799
}

	-11.7802
ii	-11.7806
斯科	-11.7807
晚饭	-11.7807
放假了	-11.781
TER	-11.7812
more	-11.7813
首要	-11.7816
Que	-11.7817
元首	-11.7819
还原	-11.7821
bytes	-11.7821
影响到	-11.7828
向往	-11.7829
pk	-11.783
满分	-11.7831
extra	-11.7834
对付	-11.7834
ones	-11.7839
root	-11.7839
来不及	-11.7844
copy	-11.7845
xref	-11.7845
▁*\"	-11.7852
直线	-11.7856
ACT	-11.7857
不仅是	-11.786
我倒是	-11.786
▁issues	-11.7861
同期	-11.7862
一类	-11.7862
也很好	-11.7864
眼中	-11.7866
stone	-11.7868
ique	-11.7868
很明显	-11.7875
下周日	-11.7877
是谁啊	-11.7878
没吃过	-11.7878
提及	-11.7879
坏人	-11.788
commit	-11.7882
老天	-11.7888
只是一个	-11.7892
病变	-11.7896
迎来	-11.7901
涵	-11.7905
斯堡	-11.7905
绍	-11.7906
dot	-11.7906
婴	-11.7907
哉	-11.7907
无疑	-11.7907
侦	-11.7907
佑	-11.7907
绞	-11.7907
语文	-11.7907
妊娠	-11.7908
阻碍	-11.7908
杖	-11.7909
庶	-11.7909
刃	-11.791
柔软	-11.791
广大	-11.7911
謂	-11.7911
勳	-11.7911
旭	-11.7911
Vector	-11.7911
悠久	-11.7911
潛	-11.7912
农产品	-11.7912
卡塔尔	-11.7912
嘘	-11.7912
茜	-11.7912
‧	-11.7912
Platinum	-11.7913
栈	-11.7913
preferences	-11.7913
patient	-11.7913
▁governing	-11.7913
mobile	-11.7913
濱	-11.7913
涵盖	-11.7913
廣場	-11.7913
DVD	-11.7913
acceptance	-11.7913
Water	-11.7913
▁workshop	-11.7913
驾驶证	-11.7914
虐待	-11.7914
▁released	-11.7914
Tech	-11.7915
coding	-11.7916
心脏病	-11.7916
孤单	-11.7916
apikey	-11.7918
补助	-11.7918
headers	-11.7918
兰州	-11.7918
Region	-11.7918
没毛病	-11.7919
无线电	-11.792
致命	-11.792
升降	-11.792
GDP	-11.7921
销量	-11.7921
▁tips	-11.7921
骗人	-11.7923
高血压	-11.7923
萨尔	-11.7924
Email	-11.7925
休假	-11.7926
精英	-11.7926
乐团	-11.7927
董事会	-11.7927
Render	-11.7927
丸子	-11.7927
触发	-11.7929
请你吃	-11.793
洛夫	-11.7931
比较适合	-11.7931
Equal	-11.7933
言语	-11.7937
四季	-11.7938
同款	-11.7938
毛病	-11.7939
西北部	-11.794
▁trade	-11.7941
一起来	-11.7941
甜蜜	-11.7941
抑郁症	-11.7943
可恶	-11.7945
图案	-11.7945
$$	-11.7945
西蒙	-11.7945
来我家	-11.7946
文學	-11.7946
touch	-11.7946
cons	-11.7946
trending	-11.795
对啊对啊	-11.7951
码头	-11.7952
網路	-11.7953
快快	-11.7954
手法	-11.7954
▁trends	-11.7956
ensis	-11.7956
感冒了	-11.7963
":"{\	-11.7965
不肯	-11.7965
家属	-11.7965
大樓	-11.7967
東北	-11.7971
买东西	-11.7972
document	-11.7977
都一样	-11.7978
还款	-11.7978
好评	-11.7979
支流	-11.798
逛逛	-11.7983
pal	-11.7984
ika	-11.7984
Bit	-11.7985
该地区	-11.7986
不能吃	-11.7987
德语	-11.7988
hin	-11.7991
精密	-11.7992
满满的	-11.7992
oli	-11.7995
prefix	-11.7998
attribute	-11.8001
我买了	-11.8002
下半	-11.8002
議會	-11.8002
USE	-11.8003
metadata	-11.8003
新款	-11.8004
RP	-11.8005
一间	-11.8006
UST	-11.8012
瘫	-11.8015
岂	-11.8015
uan	-11.8017
想起了	-11.802
Thank	-11.802
历任	-11.802
Pol	-11.8021
fill	-11.8022
放开	-11.8024
Pi	-11.8025
改編	-11.8031
消失了	-11.8032
第一天	-11.8034
感应	-11.8037
八个	-11.8038
半天	-11.8038
幅度	-11.8041
我还真	-11.8041
研究表明	-11.8042
诗歌	-11.8043
hold	-11.805
气味	-11.805
护照	-11.8052
雖	-11.8061
▁popular	-11.8061
蚁	-11.8061
③	-11.8062
脾	-11.8062
冕	-11.8062
躯	-11.8063
猶	-11.8063
悼	-11.8063
地址是在	-11.8063
嘲笑	-11.8063
确诊	-11.8063
繁荣	-11.8063
岛屿	-11.8064
水量	-11.8064
魄	-11.8064
矢	-11.8064
啸	-11.8064
揉	-11.8064
迭	-11.8065
ridge	-11.8065
礼貌	-11.8065
笔记	-11.8065
搜索引擎	-11.8066
斋	-11.8066
勉强	-11.8066
茵	-11.8066
≥	-11.8066
维多利亚	-11.8066
Control	-11.8066
鹃	-11.8066
约翰逊	-11.8066
principal	-11.8066
尊敬	-11.8066
Protocol	-11.8067
▁explicit	-11.8067
ого	-11.8067
worth	-11.8067
楼梯	-11.8067
純	-11.8067
Food	-11.8067
残酷	-11.8067
電腦	-11.8067
HL	-11.8067
二等座	-11.8067
锂	-11.8067
菲尔德	-11.8067
火灾	-11.8068
伙计	-11.8068
Space	-11.8068
挣钱	-11.8068
Under	-11.8068
麻醉	-11.8069
樱花	-11.8069
丢失	-11.807
▁medal	-11.807
插件	-11.807
compile	-11.807
生活方式	-11.807
感激	-11.8071
正规	-11.8072
中国女排	-11.8073
电话是多少	-11.8074
原来如此	-11.8075
推翻	-11.8076
帖子	-11.8076
利息	-11.8076
超級	-11.8077
甚么	-11.8077
解散	-11.8077
你这是在看	-11.8078
会让你	-11.8078
星期五	-11.8078
anti	-11.8078
逗比	-11.808
报复	-11.808
欢迎你	-11.8081
Master	-11.8083
曲目	-11.8084
占有	-11.8086
星期六	-11.8087
属下的一个种	-11.8088
若干	-11.8088
带动	-11.8091
Maria	-11.8094
发布时间	-11.8094
东路	-11.8094
處理	-11.8095
八字	-11.8095
官方网站	-11.8099
套路	-11.81
在哪个	-11.81
>.
	-11.8104
日益	-11.8104
商量	-11.8105
炸弹	-11.8107
handler	-11.8108
道具	-11.8108
购房	-11.8108
是什么时候	-11.8109
部电影	-11.8114
rough	-11.8123
AK	-11.8127


　　	-11.8127
berg	-11.8127
aka	-11.8135
事先	-11.8135
那好吧	-11.8137
几分钟	-11.8142
UL	-11.8142
受伤了	-11.8146
牛排	-11.8147
北约	-11.8148
都挺	-11.815
conn	-11.8151
做出了	-11.8153
在宿舍	-11.8154
走走	-11.8157
lash	-11.8157
漫长	-11.8157
事项	-11.816
开心就好	-11.8161
看球	-11.8164
paths	-11.8164
擔	-11.8167
否定	-11.8169
confirmation	-11.8169
一轮	-11.8169
有缘	-11.8169
▁checked	-11.817
mot	-11.8178
Job	-11.8178
高档	-11.8179
都不想	-11.818
Reference	-11.8182
▁finding	-11.8187
制冷	-11.8187
辆车	-11.8188
编程	-11.8195
被判	-11.8197
bits	-11.8197
小学生	-11.8199
会造成	-11.8204
rch	-11.8208
日上午	-11.8208
行使	-11.8213
collect	-11.8213
耶穌	-11.8215
虑	-11.8215
喻	-11.8217
廊	-11.8217
紫外线	-11.8217
賴	-11.8218
毁灭	-11.8219
操纵	-11.8219
身后	-11.8219
倩	-11.8219
躁	-11.822
僵	-11.822
實際	-11.822
黑龙江	-11.822
国民党	-11.8221
生化	-11.8221
Confirm	-11.8221
裴	-11.8221
禾	-11.8222
磊	-11.8222
镀	-11.8222
協助	-11.8222
と	-11.8222
monitor	-11.8222
清华大学	-11.8222
導致	-11.8222
发酵	-11.8222
▁Smith	-11.8223
烏克蘭	-11.8223
派出所	-11.8223
integration	-11.8223
谨	-11.8223
Brazil	-11.8223
▁hockey	-11.8223
▁explore	-11.8223
周边的酒店有	-11.8223
剩余	-11.8223
颁发	-11.8223
culture	-11.8223
descending	-11.8223
强奸	-11.8223
古城	-11.8223
英特尔	-11.8223
恭喜恭喜	-11.8223
▁Useful	-11.8224
translate	-11.8224
迁移	-11.8224
折腾	-11.8224
荣幸	-11.8224
Level	-11.8224
前期	-11.8224
阮	-11.8224
姚记	-11.8224
齿轮	-11.8225
anyOf	-11.8225
真空	-11.8226
▁sales	-11.8226
收錄	-11.8226
配偶	-11.8226
题目	-11.8226
袜子	-11.8227
地主	-11.8228
nYou	-11.8229
女篮	-11.8231
其中男性	-11.8232
领土	-11.8235
买不起	-11.8236
那次	-11.8236
太原	-11.8236
阿拉	-11.8237
反击	-11.8238
raise	-11.8238
stri	-11.8238
pur	-11.8238
骑车	-11.824
notification	-11.824
适宜	-11.8246
留意	-11.8246
怎么没	-11.8247
门票价格	-11.8247
过渡	-11.825
RGB	-11.825
太郎	-11.8254
无所	-11.8255
期刊	-11.8256
毕业于	-11.8258
LP	-11.8259
词语	-11.826
feed	-11.8261
tho	-11.8262
Mill	-11.8262
科普	-11.8264
罪行	-11.8264
patch	-11.827
那条	-11.8271
字符	-11.8272
梦里	-11.8272
还是比较	-11.8273
纳入	-11.8273
cil	-11.8275
确切	-11.8276
ML	-11.8276
BD	-11.8276
一九	-11.8279
ase	-11.8282
();
	-11.8282
强化	-11.8283
沙拉	-11.8286
众人	-11.8299
流体	-11.8299
学历	-11.8303
原名	-11.8303
卡特	-11.8308
不公平	-11.831
天体	-11.8314
十五年	-11.8314
系数	-11.8316
Sur	-11.8316
gain	-11.8317
嘿嘿嘿	-11.8318
数据显示	-11.832
我第一次	-11.8323
读取	-11.8326
Window	-11.8334
astro	-11.8334
MU	-11.8335
在做什么	-11.8337
不能再	-11.8338
available	-11.834
下辖以下	-11.8346
ongo	-11.8347
意义上	-11.8349
几十年	-11.8349
也一样	-11.8351
日记	-11.8353
去吃饭	-11.8353
天线	-11.8362
平原	-11.8365
你也来	-11.8366
發表	-11.8368
试过	-11.837
江湖	-11.8371
殊	-11.8371
Schedule	-11.8372
有名的	-11.8373
祂	-11.8375
雯	-11.8376
硝	-11.8376
览	-11.8376
PD	-11.8376
葵	-11.8377
畢	-11.8377
規	-11.8377
媽	-11.8378
冤	-11.8378
ATE	-11.8379
谣	-11.8379
揚	-11.8379
繼承	-11.8379
乌龟	-11.8379
胳膊	-11.8379
侦探	-11.8379
卯	-11.838
竭	-11.838
刘备	-11.838
综合征	-11.838
别墅	-11.838
畜	-11.838
環境	-11.8381
残忍	-11.8381
鑫	-11.8381
季后赛	-11.8381
奖学金	-11.8381
大使馆	-11.8381
訂	-11.8381
生活習性不明	-11.8381
ā	-11.8381
遥远	-11.8381
淋巴	-11.8381
▁became	-11.8381
示威	-11.8382
操控	-11.8382
副主任	-11.8382
Title	-11.8382
谎言	-11.8382
裁决	-11.8382
劳动合同	-11.8382
²	-11.8382
wiki	-11.8382
輔	-11.8382
Package	-11.8382
河畔	-11.8382
).\	-11.8383
▁successfully	-11.8383
化妆品	-11.8384
pytest	-11.8384
经济舱	-11.8384
ivity	-11.8384
▁helpful	-11.8384
旅程	-11.8384
围观	-11.8385
鼠标	-11.8385
舍友	-11.8385
半决赛	-11.8385
文件夹	-11.8386
▁questions	-11.8386
欲望	-11.8386
汉堡	-11.8386
采集	-11.8387
▁unable	-11.8387
卫视	-11.8388
不要脸	-11.8388
闪电	-11.8389
开枪	-11.8389
发光	-11.8389
性生活	-11.839
结尾	-11.839
可以考虑	-11.8391
降落	-11.8392
热搜	-11.8392
生态系统	-11.8393
扭转	-11.8393
可达	-11.8394
黑白	-11.8394
Jane	-11.8395
datasource	-11.8396
组建	-11.8396
希望他们	-11.8397
BL	-11.8397
ETF	-11.8397
▁notice	-11.8398
Pat	-11.8398
感觉自己	-11.84
各大	-11.8401
防火	-11.8401
tick	-11.8401
avi	-11.8402
soft	-11.8402
纳斯	-11.8402
光滑	-11.8404
本属	-11.8407
lim	-11.8409
iOS	-11.8411
体制	-11.8411
可以看出	-11.8413
司马	-11.8415
▁These	-11.8416
▁np	-11.842
州府	-11.8424
好梦	-11.8424
並於	-11.8424
肉肉	-11.8425
回合	-11.8427
快船	-11.843
eck	-11.8434
阿爾	-11.8438
▁Ros	-11.8442
根本就	-11.8443
玩手机	-11.8444
even	-11.8447
"><	-11.8447
Real	-11.8449
长肉	-11.845
一处	-11.8452
稍等	-11.8454
▁offers	-11.8457
那么久	-11.8459
删了	-11.8462
nums	-11.8462
AO	-11.8466
十点	-11.8467
aster	-11.8473
打电话给	-11.8483
喝水	-11.8484
我错了	-11.8484
想问一下	-11.8485
Man	-11.8487
代表着	-11.8488
所有权	-11.8489
拍攝	-11.8491
笑死	-11.8494
占用	-11.8494
秋裤	-11.8495
你是说	-11.8497
account	-11.8498
纳税	-11.8498
也是一种	-11.8499
假日	-11.8502
deep	-11.8506
任职	-11.8506
从来没	-11.8507
德拉	-11.8507
contact	-11.8511
impl	-11.8514
一起加油	-11.8519
mz	-11.8527
丞相	-11.8529
没看见	-11.853
減	-11.8536
alloc	-11.8536
不许	-11.8536
阴茎	-11.8537
竖	-11.8537
釋	-11.8538
不在乎	-11.8538
drive	-11.8538
为基础	-11.8538
３	-11.8539
醫學	-11.8539
丞	-11.8539
恶劣	-11.8539
溶剂	-11.8539
厉	-11.854
襲	-11.854
渗透	-11.854
軌	-11.854
饲料	-11.854
骚	-11.854
雕刻	-11.854
描绘	-11.854
倾斜	-11.8541
鳞	-11.8541
倦	-11.8542
curr	-11.8542
浸泡	-11.8542
柠檬	-11.8542
礦	-11.8542
刹车	-11.8542
染色体	-11.8542
亲戚	-11.8542
dietary	-11.8542
sleep	-11.8543
ル	-11.8543
trigger	-11.8543
▁France	-11.8543
▁Summer	-11.8543
encoded	-11.8543
major	-11.8543
▁indicate	-11.8543
魔术	-11.8543
browser	-11.8543
▁visual	-11.8543
工会	-11.8543
勒布朗	-11.8543
人口普查	-11.8543
俱樂部	-11.8543
珍珠	-11.8543
Activity	-11.8543
骑兵	-11.8543
封锁	-11.8544
计量	-11.8544
Thread	-11.8544
绝缘	-11.8544
铁路车站	-11.8544
示例	-11.8544
我就知道	-11.8545
explain	-11.8545
軌道	-11.8545
不用谢	-11.8546
倾向	-11.8546
Close	-11.8547
盆友	-11.8547
噢噢	-11.8548
▁corresponding	-11.8548
飞行员	-11.8548
過程	-11.8549
好意思	-11.8549
考察	-11.8549
太厉害了	-11.8549
射击	-11.855
安卓	-11.8551
精液	-11.8551
配套	-11.8552
月饼	-11.8552
仓库	-11.8552
单个	-11.8553
农场	-11.8554
生產	-11.8555
Design	-11.8555
editor	-11.8555
舰队	-11.8555
气流	-11.8556
身亡	-11.8556
liver	-11.8557
Chris	-11.8558
▁trying	-11.8558
无缘	-11.8558
网易	-11.8559
HT	-11.8559
Va	-11.8559
晚点	-11.856
▁heard	-11.8561
很冷	-11.8562
情景	-11.8562
样式	-11.8563
Down	-11.8565
ini	-11.8566
LG	-11.8566
南宁	-11.8567
雷达	-11.8568
是一件	-11.8569
粒子	-11.8571
外形	-11.8571
ulation	-11.8572
Utils	-11.8573
hol	-11.8575
路边	-11.8576
事宜	-11.858
山東	-11.8581
shared	-11.8581
是一種	-11.8582
通往	-11.8582
好冷	-11.8583
快回来	-11.8597
ranking	-11.8601
越好	-11.8605
指向	-11.8605
iro	-11.8608
脱落	-11.8611
进度	-11.8615
asa	-11.8617
卖出	-11.8617
墙上	-11.8619
fully	-11.8619
桌上	-11.862
▁took	-11.862
并不能	-11.8622
上演	-11.8625
是的是的	-11.8628
Pla	-11.8629
这样的话	-11.8631
▁updates	-11.8634
出手	-11.8636
begin	-11.8638
其中一个	-11.864
开通	-11.8641
要知道	-11.8642
夸你	-11.8642
中途	-11.8645
aya	-11.8647
▁avoid	-11.8648
一直很	-11.8648
主义者	-11.866
力学	-11.8661
分以上的餐馆	-11.8661
ula	-11.8661
今后	-11.8664
最重要的是	-11.8666
math	-11.8666
scape	-11.8667
fix	-11.8667
不符合	-11.8671
坐地铁	-11.8674
花花	-11.8675
Bet	-11.8675
忙着	-11.8684
性疾病	-11.8686
analysis	-11.8687
正当	-11.8687
enable	-11.8689
SY	-11.8689
体温	-11.8692
menu	-11.8695
鐘	-11.8695
一直没	-11.8696
椅	-11.8697
请注意	-11.8699
将近	-11.8699
Tw	-11.8699
桓	-11.87
霉素	-11.87
resale	-11.8701
Auth	-11.8701
焚	-11.8701
妨	-11.8702
real	-11.8702
螺纹	-11.8702
哑	-11.8703
腦	-11.8703
诸葛亮	-11.8703
船上	-11.8703
災	-11.8703
矫正	-11.8703
捐赠	-11.8704
萝卜	-11.8704
Length	-11.8704
貝爾	-11.8704
廖	-11.8705
醫生	-11.8705
捣	-11.8705
し	-11.8706
倉	-11.8706
切尔西	-11.8706
倒霉	-11.8706
变压器	-11.8706
▁facility	-11.8707
修理	-11.8707
Digital	-11.8707
exception	-11.8707
▁together	-11.8707
年美國人口普查	-11.8707
George	-11.8707
▁agreed	-11.8707
縣知縣	-11.8707
BASE	-11.8707
Graph	-11.8707
汽油	-11.8708
破裂	-11.8708
复仇	-11.8708
Alpha	-11.8708
cookie	-11.8709
复习	-11.8709
建議	-11.8709
拜仁	-11.8709
走廊	-11.8709
档案	-11.871
help	-11.871
profit	-11.871
我想找一个	-11.8711
短裤	-11.8711
恒星	-11.8711
anth	-11.8712
奖杯	-11.8712
建築物	-11.8712
篮球运动员	-11.8713
猫咪	-11.8713
充实	-11.8713
死刑	-11.8714
滴滴	-11.8714
战斗机	-11.8715
光泽	-11.8716
CN	-11.8717
精致	-11.8717
笑容	-11.8717
abc	-11.8719
意味	-11.8719
该怎么办	-11.8719
这可是	-11.872
Alex	-11.872
Spec	-11.8722
禁区	-11.8723
火箭队	-11.8726
气象	-11.8728
干细胞	-11.8728
回聊	-11.8729
视图	-11.8729
群岛	-11.873
▁looking	-11.8732
文帝	-11.8732
Jack	-11.8732
搞定	-11.8732
这么多年	-11.8734
extend	-11.8736
目光	-11.8741
crop	-11.8741
可供	-11.8742
以及其他	-11.8744
disable	-11.8745
下属	-11.8745
development	-11.8748
协作	-11.8751
Rating	-11.8752
西接	-11.8755
是一款	-11.8756
借款	-11.8756
PF	-11.8757
Ku	-11.8759
房间里	-11.8759
花生	-11.8761
打卡	-11.8768
那肯定	-11.8768
流水	-11.8768
种种	-11.877
站台	-11.8772
MR	-11.8773
年成立	-11.8774
我说的是	-11.8774
背着	-11.8775
已经成为	-11.8775
假发	-11.8777
所有这些	-11.8777
bert	-11.8777
安心	-11.8779
十一年	-11.8779
hk	-11.8782
分别为	-11.8783
屋里	-11.8786
卖家	-11.8788
rand	-11.8793
阻挡	-11.8793
开设	-11.8795
大衣	-11.8795
上赛季	-11.8796
打车	-11.8797
Mod	-11.8798
▁artists	-11.88
同行	-11.8801
Ko	-11.8808
最棒	-11.8811
died	-11.8813
Yu	-11.8813
重力	-11.8818
ification	-11.882
好好吃	-11.8825
第一季	-11.8825
Host	-11.8827
One	-11.8829
PAC	-11.8831
Math	-11.8831
Indi	-11.8832
这是因为	-11.8835
...
...	-11.8838
Desc	-11.8839
想不到	-11.8841
每年都	-11.8843
izer	-11.8848
omb	-11.8851
被抓	-11.8856
说啥	-11.8857
是一座	-11.8858
比较少	-11.8859
eye	-11.8859
diff	-11.886
utils	-11.8862
犹太	-11.8863
({	-11.8863
伽	-11.8865
License	-11.8866
雍	-11.8868
窥	-11.8869
朋	-11.8869
贬	-11.8869
轰炸	-11.887
挫	-11.887
募	-11.887
擴	-11.887
堤	-11.8871
贫血	-11.8871
塞尔维亚	-11.8871
る	-11.8871
对身体	-11.8871
翡翠	-11.8871
雜誌	-11.8872
荣耀	-11.8872
批判	-11.8872
误差	-11.8872
熏	-11.8872
夏威夷	-11.8872
賈	-11.8872
沮丧	-11.8872
て	-11.8872
烯	-11.8872
酥	-11.8872
泼	-11.8873
加利福尼亞州	-11.8873
瀑布	-11.8873
棋牌	-11.8873
始建於	-11.8873
м	-11.8873
Minimum	-11.8873
小行星带天体	-11.8873
Schema	-11.8873
▁trading	-11.8873
Great	-11.8873
沁	-11.8873
Position	-11.8874
检察官	-11.8874
[...]
