<pad>	0
</s>	0
<s>	0
<unk>	0
<|im_start|>	0
<|im_end|>	0
<think>	0
</think>	0
<tools>	0
</tools>	0
<tool_call>	0
</tool_call>	0
<tool_result>	0
</tool_result>	0
<act_execute>	0
<act_refuse>	0
<act_expand>	0
<act_shape>	0
<act_escalate>	0
<act_stop>	0
<0x00>	0
<0x01>	0
<0x02>	0
<0x03>	0
<0x04>	0
<0x05>	0
<0x06>	0
<0x07>	0
<0x08>	0
<0x09>	0
<0x0A>	0
<0x0B>	0
<0x0C>	0
<0x0D>	0
<0x0E>	0
<0x0F>	0
<0x10>	0
<0x11>	0
<0x12>	0
<0x13>	0
<0x14>	0
<0x15>	0
<0x16>	0
<0x17>	0
<0x18>	0
<0x19>	0
<0x1A>	0
<0x1B>	0
<0x1C>	0
<0x1D>	0
<0x1E>	0
<0x1F>	0
<0x20>	0
<0x21>	0
<0x22>	0
<0x23>	0
<0x24>	0
<0x25>	0
<0x26>	0
<0x27>	0
<0x28>	0
<0x29>	0
<0x2A>	0
<0x2B>	0
<0x2C>	0
<0x2D>	0
<0x2E>	0
<0x2F>	0
<0x30>	0
<0x31>	0
<0x32>	0
<0x33>	0
<0x34>	0
<0x35>	0
<0x36>	0
<0x37>	0
<0x38>	0
<0x39>	0
<0x3A>	0
<0x3B>	0
<0x3C>	0
<0x3D>	0
<0x3E>	0
<0x3F>	0
<0x40>	0
<0x41>	0
<0x42>	0
<0x43>	0
<0x44>	0
<0x45>	0
<0x46>	0
<0x47>	0
<0x48>	0
<0x49>	0
<0x4A>	0
<0x4B>	0
<0x4C>	0
<0x4D>	0
<0x4E>	0
<0x4F>	0
<0x50>	0
<0x51>	0
<0x52>	0
<0x53>	0
<0x54>	0
<0x55>	0
<0x56>	0
<0x57>	0
<0x58>	0
<0x59>	0
<0x5A>	0
<0x5B>	0
<0x5C>	0
<0x5D>	0
<0x5E>	0
<0x5F>	0
<0x60>	0
<0x61>	0
<0x62>	0
<0x63>	0
<0x64>	0
<0x65>	0
<0x66>	0
<0x67>	0
<0x68>	0
<0x69>	0
<0x6A>	0
<0x6B>	0
<0x6C>	0
<0x6D>	0
<0x6E>	0
<0x6F>	0
<0x70>	0
<0x71>	0
<0x72>	0
<0x73>	0
<0x74>	0
<0x75>	0
<0x76>	0
<0x77>	0
<0x78>	0
<0x79>	0
<0x7A>	0
<0x7B>	0
<0x7C>	0
<0x7D>	0
<0x7E>	0
<0x7F>	0
<0x80>	0
<0x81>	0
<0x82>	0
<0x83>	0
<0x84>	0
<0x85>	0
<0x86>	0
<0x87>	0
<0x88>	0
<0x89>	0
<0x8A>	0
<0x8B>	0
<0x8C>	0
<0x8D>	0
<0x8E>	0
<0x8F>	0
<0x90>	0
<0x91>	0
<0x92>	0
<0x93>	0
<0x94>	0
<0x95>	0
<0x96>	0
<0x97>	0
<0x98>	0
<0x99>	0
<0x9A>	0
<0x9B>	0
<0x9C>	0
<0x9D>	0
<0x9E>	0
<0x9F>	0
<0xA0>	0
<0xA1>	0
<0xA2>	0
<0xA3>	0
<0xA4>	0
<0xA5>	0
<0xA6>	0
<0xA7>	0
<0xA8>	0
<0xA9>	0
<0xAA>	0
<0xAB>	0
<0xAC>	0
<0xAD>	0
<0xAE>	0
<0xAF>	0
<0xB0>	0
<0xB1>	0
<0xB2>	0
<0xB3>	0
<0xB4>	0
<0xB5>	0
<0xB6>	0
<0xB7>	0
<0xB8>	0
<0xB9>	0
<0xBA>	0
<0xBB>	0
<0xBC>	0
<0xBD>	0
<0xBE>	0
<0xBF>	0
<0xC0>	0
<0xC1>	0
<0xC2>	0
<0xC3>	0
<0xC4>	0
<0xC5>	0
<0xC6>	0
<0xC7>	0
<0xC8>	0
<0xC9>	0
<0xCA>	0
<0xCB>	0
<0xCC>	0
<0xCD>	0
<0xCE>	0
<0xCF>	0
<0xD0>	0
<0xD1>	0
<0xD2>	0
<0xD3>	0
<0xD4>	0
<0xD5>	0
<0xD6>	0
<0xD7>	0
<0xD8>	0
<0xD9>	0
<0xDA>	0
<0xDB>	0
<0xDC>	0
<0xDD>	0
<0xDE>	0
<0xDF>	0
<0xE0>	0
<0xE1>	0
<0xE2>	0
<0xE3>	0
<0xE4>	0
<0xE5>	0
<0xE6>	0
<0xE7>	0
<0xE8>	0
<0xE9>	0
<0xEA>	0
<0xEB>	0
<0xEC>	0
<0xED>	0
<0xEE>	0
<0xEF>	0
<0xF0>	0
<0xF1>	0
<0xF2>	0
<0xF3>	0
<0xF4>	0
<0xF5>	0
<0xF6>	0
<0xF7>	0
<0xF8>	0
<0xF9>	0
<0xFA>	0
<0xFB>	0
<0xFC>	0
<0xFD>	0
<0xFE>	0
<0xFF>	0
▁	-2.76751
，	-3.56001

	-3.72829
的	-4.04316
,	-4.52116
。	-4.66188
0	-4.74549
1	-4.782
▁"	-4.84351
2	-5.01002
":"	-5.06624
.	-5.09489
了	-5.10921
_	-5.28894
在	-5.40279
s	-5.4072
","	-5.445
我	-5.46613
。
	-5.47087
、	-5.55649
是	-5.60153
和	-5.62835
":	-5.63207
-	-5.72498
5	-5.72655
你	-5.74309
3	-5.74597
9	-5.762
。",	-5.82945
▁the	-5.85683
4	-5.88071
年	-5.91693
":{"	-5.92796
n	-6.00911
type	-6.01266
有	-6.01751
8	-6.01914
6	-6.07073
不	-6.08168
啊	-6.13368
人	-6.14274
7	-6.18641
:	-6.26892
他	-6.28148
description	-6.34217
中	-6.34771
（	-6.37663
上	-6.44928
▁to	-6.44932
(	-6.45404
大	-6.48168
▁of	-6.53922
一	-6.5829
content	-6.60235
/	-6.60733
role	-6.62335
：	-6.63569
!	-6.64328
▁a	-6.65089
就	-6.66129
好	-6.66271
)	-6.66535
吗	-6.67626
为	-6.68928
月	-6.71181
到	-6.73266
▁for	-6.73995
?
	-6.75391
▁(	-6.76677
对	-6.77701
也	-6.79091
吧	-6.80031
？
	-6.80224
都	-6.83644
被	-6.84763
那	-6.85019
要	-6.85567
“	-6.85924
'	-6.86201
）	-6.86373
日	-6.87271
▁{"	-6.87741
来	-6.88376
呢	-6.88704
我们	-6.89487
小	-6.90136
string	-6.9258
▁and	-6.94625
?	-6.96393
▁in	-6.98932
。

	-7.00371
可以	-7.00489
去	-7.00538
下	-7.01212
The	-7.01961
这	-7.01989
与	-7.02148
d	-7.02856
function	-7.02967
她	-7.03592
多	-7.05149
会	-7.05301
name	-7.07991
而	-7.08508
以	-7.08583
e	-7.0862
说	-7.09005
地	-7.11067
时	-7.11426
等	-7.12183
子	-7.13411
但	-7.13653
!
	-7.13914
这个	-7.14407
后	-7.14762
”	-7.14822
用	-7.16122
·	-7.16944
没有	-7.17339
\	-7.19313
utterance	-7.19808
看	-7.20358
一个	-7.20428
将	-7.23121
user	-7.23157
或	-7.23326
出	-7.23398
ing	-7.23769
"},	-7.23918
《	-7.24269
能	-7.26157
~	-7.26864
就是	-7.30109
t	-7.303
之	-7.315

-	-7.31968
▁\	-7.31987
？",	-7.32126
水	-7.32561

‎	-7.32835
id	-7.33014
可	-7.34868
高	-7.35251
个	-7.36023
ed	-7.36429
他们	-7.3695
"	-7.373
还	-7.37366
从	-7.39398
里	-7.39681
天	-7.39932
前	-7.40088
required	-7.40393
过	-7.40515
.","	-7.40567
parameters	-7.41609
得	-7.42211
》	-7.42371
想	-7.42671
...
	-7.42682
很	-7.44192
▁{
	-7.44488
家	-7.44677
為	-7.44947
object	-7.45332
性	-7.46009
新	-7.46118
点	-7.47399
g	-7.47718
properties	-7.48713
没	-7.49143
着	-7.494
▁is	-7.50207
哈哈	-7.50962
吃	-7.51331
自己	-7.51403
"},"	-7.51884
打	-7.52846
▁=	-7.54322
system	-7.54457
三	-7.555
斯	-7.55532
分	-7.56218
m	-7.5622
又	-7.56936
并	-7.57762
太	-7.58399
者	-7.58642
其	-7.58775
？	-7.59581
由	-7.60888
还是	-7.61856
心	-7.6194
把	-7.62026
名	-7.6222
比	-7.63125
它	-7.63135
现在	-7.63869
呀	-7.63971
啦	-7.64971
不是	-7.65377
但是	-7.65946
手	-7.66
及	-7.66367
A	-7.66689
▁-	-7.66845
生	-7.67213
▁'	-7.67456
拉	-7.67616
于	-7.68488
▁you	-7.68807
做	-7.6887
什么	-7.70987
再	-7.71102
长	-7.71375
B	-7.71469
所	-7.71642
C	-7.72179
行	-7.7249
":["	-7.7332
default	-7.73419
德	-7.73432
本	-7.73618
山	-7.73987
向	-7.74484
；	-7.74655
道	-7.74897
特	-7.7503
▁I	-7.75302
该	-7.75543
"}},"	-7.75688
er	-7.7587
▁*	-7.76793
a	-7.76967
西	-7.78062
哦	-7.78615
使用	-7.78999
i	-7.79082
克	-7.7948
发	-7.80269
.
	-7.80563
▁with	-7.81796
**	-7.8234
T	-7.82392
更	-7.82891
於	-7.84148
美	-7.84263
>	-7.85425
%	-7.86086
金	-7.86172
都是	-7.86196
当	-7.86793
的人	-7.87105
:
	-7.87219
事	-7.8751
最	-7.87542
好的	-7.88172
路	-7.88697
;
	-7.88797
内	-7.88805
自	-7.88844
y	-7.89105
公司	-7.8928
回	-7.89624
所以	-7.89647
开	-7.89697
法	-7.89701
你的	-7.90113
无	-7.90262
！
	-7.90516
车	-7.90764
也是	-7.90913
老	-7.9101
外	-7.91595
快	-7.91605
▁<	-7.91927
▁**	-7.91927
成	-7.9216
h	-7.92187
头	-7.9221
c	-7.92247
力	-7.92515
需要	-7.92584
这些	-7.92763
與	-7.92833
因为	-7.92933
r	-7.93298
真	-7.93677
usr	-7.93702
文	-7.93859
sys	-7.9447
安	-7.95064
走	-7.95839
如果	-7.95876
S	-7.95981
我的	-7.95985
title	-7.96498
",	-7.96869
二	-7.97272
I	-7.97532
号	-7.97706
王	-7.97822
进行	-7.98047
F	-7.98249
D	-7.98525
哈哈哈	-7.98544
▁or	-7.98572
G	-7.99961
你们	-8.00143
x	-8.0016
才	-8.00213
會	-8.00608
海	-8.01363
州	-8.01597
▁on	-8.01784
工作	-8.01888
b	-8.02262
时间	-8.02279
可能	-8.02459
已经	-8.02868
给	-8.03027
▁from	-8.0402
重	-8.04171
阿	-8.04635
面	-8.04784
嘛	-8.05012
米	-8.05074
光	-8.05097
加	-8.05266
中国	-8.05414
美国	-8.05423
！",	-8.05447
化	-8.06427
卡	-8.06732
如	-8.06751
带	-8.07119
▁be	-8.07197
部	-8.07475
花	-8.07681
P	-8.07825
入	-8.07937
;	-8.08454
！	-8.08636
p	-8.08882
後	-8.09125
來	-8.09201
还有	-8.09263
南	-8.09275
马	-8.09485
至	-8.09658
科	-8.09976
不过	-8.10245
的时候	-8.10688
元	-8.10739
机	-8.10739
in	-8.10791
「	-8.11211
市	-8.11738
正	-8.11772
开始	-8.11788
起	-8.12181
四	-8.12258
利	-8.12486
真的	-8.12699
尔	-8.12917
assistant	-8.13163
球	-8.13392
妳	-8.13421
我們	-8.13423
...	-8.13635
口	-8.14621
M	-8.14707
這	-8.14806
您	-8.14832
这是	-8.15227
国	-8.156
",
	-8.15779
白	-8.1685
爱	-8.17442
對	-8.17572
get	-8.17665
这种	-8.17774
跟	-8.17868
哈	-8.18056
那么	-8.18063
两	-8.1814
嗯嗯	-8.18278
N	-8.18363
度	-8.18511
今天	-8.19603
全	-8.1972
不要	-8.19737
使	-8.19818
v	-8.2061
气	-8.21198
别	-8.2135
女	-8.21593
E	-8.21605
位	-8.21899
么	-8.22081
通过	-8.22386
同	-8.22555
是啊	-8.22576
k	-8.22647
提供	-8.22722
次	-8.22862
买	-8.23353
城	-8.23542
死	-8.23639
已	-8.23789
相	-8.2391
ly	-8.24154
K	-8.24721
先	-8.2476
这样	-8.2493
学	-8.24987
站	-8.24994
身	-8.25162
方	-8.25496
al	-8.25729
公	-8.25902
线	-8.26023
那个	-8.26235
▁by	-8.26351
让	-8.26419
主	-8.26453
時	-8.26565
区	-8.26613
tool	-8.2665
知道	-8.26776
嗎	-8.2693
以及	-8.27133
林	-8.27341
▁that	-8.27612
嗯	-8.27648
>
	-8.27717
请	-8.28024
原	-8.28434
一些	-8.28531
一下	-8.28706
只	-8.28838
f	-8.28927
包括	-8.28932
你好	-8.28946
店	-8.28983
门	-8.29217
不能	-8.2981
这么	-8.29969
问题	-8.30203
第	-8.30264
器	-8.30658
明	-8.30802
說	-8.30961
神	-8.31201
然后	-8.31295
"
	-8.3151
五	-8.31709
L	-8.31728
喜欢	-8.32003
此	-8.32056
格	-8.32078
而且	-8.32434
re	-8.32592
R	-8.32864
体	-8.32902
~
	-8.33508
因	-8.34008
叫	-8.34349
定	-8.34351
放	-8.34846
怎么	-8.35287
)
	-8.35414
一起	-8.35447
表示	-8.35657
北	-8.35932
像	-8.36001
约	-8.36111
作	-8.36174
热	-8.36202
谢谢	-8.3654
▁

	-8.36645
世界	-8.36709
黑	-8.37939
？"},	-8.37948
我也	-8.38162
万	-8.3819
李	-8.38219
長	-8.38376
之前	-8.38761
平	-8.38844
爾	-8.38983
u	-8.38997
H	-8.39082
应该	-8.39239
流	-8.39487
o	-8.40418
W	-8.40576
or	-8.40633
著	-8.4089
字	-8.41082
只是	-8.41182
玩	-8.41495
他的	-8.41614
风	-8.41644
非常	-8.41746
感觉	-8.41914
希望	-8.42246
量	-8.42262
不会	-8.42334
式	-8.42566
），	-8.42666
[	-8.4292
"}
{"	-8.42991
酒店	-8.43123
X	-8.43499
物	-8.43624
▁as	-8.43973
最近	-8.43973
=	-8.44211
com	-8.44261
▁},
	-8.44292
钱	-8.44305
石	-8.44542
片	-8.44589
▁if	-8.44696
火	-8.448
书	-8.44939
变	-8.45238
清	-8.46023
我是	-8.46054
其他	-8.46204
省	-8.46235
选择	-8.46251
區	-8.46268
儿	-8.46454
队	-8.46648
期	-8.47373
早	-8.47631
台	-8.47746
只有	-8.48729
军	-8.48855
▁me	-8.4891
管	-8.48981
张	-8.49046
一直	-8.4925
{"	-8.4947
巴	-8.49609
罗	-8.49619
l	-8.49741
河	-8.4976
受	-8.50111
听	-8.50202
▁A	-8.5026
*	-8.50578
恩	-8.50621
看到	-8.50789
integer	-8.51047
局	-8.512
因此	-8.51332
▁ID	-8.5141
孩子	-8.5174
图	-8.51888
谁	-8.51922
政府	-8.52004
▁this	-8.52494
V	-8.52763
▁\"	-8.528
尼	-8.52963
基	-8.53134
场	-8.53144
处	-8.5324
日本	-8.53286
住	-8.53517
进	-8.53561
国家	-8.53596
es	-8.5376
w	-8.53762
见	-8.53883
型	-8.5421
合	-8.54247
,"	-8.54254
北京	-8.54309
布	-8.54309
通	-8.54459
</	-8.54719
接	-8.5488
to	-8.5488
主要	-8.54908
超	-8.54912
穿	-8.55031
研究	-8.55095
」	-8.55373
一般	-8.5544
病	-8.55571
不知道	-8.55696
一样	-8.55946
中的	-8.56141
发现	-8.56197
情	-8.56315
教	-8.5636
);
	-8.56692
少	-8.56944
Q	-8.57097
en	-8.57151
is	-8.57256
Z	-8.57604
▁data	-8.57796
皮	-8.5791
信	-8.58369
应	-8.58615
大学	-8.58622
’	-8.5911
之后	-8.59299
：
	-8.59842
空	-8.59945
自己的	-8.59971
东	-8.6023
）
	-8.60541
該	-8.60979
眼	-8.61049
.

	-8.61139
战	-8.61366
th	-8.61369
曾	-8.61655
所有	-8.61757
低	-8.61799
觉得	-8.62121
我觉得	-8.6214
总	-8.62459
电	-8.62464
或者	-8.62599
系统	-8.6264
▁are	-8.6277
动	-8.62796
回来	-8.62938
单	-8.6295
送	-8.62989
我要	-8.63008
生活	-8.63019
Y	-8.63368
將	-8.63678
▁an	-8.63904
有点	-8.64099
意	-8.64266
他們	-8.64416
夫	-8.64419
哥	-8.64637
称	-8.64796
我想	-8.64894
给我	-8.65218
其实	-8.65324
首	-8.65393
好吧	-8.65425
任	-8.6546
▁The	-8.65484
集	-8.65514
即	-8.65775
]	-8.65808
很多	-8.65918
古	-8.65925

‪	-8.66042
技术	-8.66095
为什么	-8.66159
內	-8.66392
便	-8.66495
要求	-8.66527
過	-8.66608
木	-8.6677
数	-8.66817
：“	-8.66959
立	-8.67092
正在	-8.6728
再见	-8.67734
星	-8.67983
J	-8.68063
服务	-8.6807
▁can	-8.68085
交	-8.68132
一次	-8.68263
on	-8.68283
红	-8.68412
其中	-8.68428
▁$	-8.68703
比较	-8.68749
周	-8.68799
感	-8.6889
手机	-8.68899
國	-8.6895
是的	-8.6895
看看	-8.6896
▁it	-8.69153
求	-8.69191
深	-8.69347
你是	-8.69415
number	-8.69518
第一	-8.69638
伊	-8.69945
给你	-8.70084
代	-8.70117
馬	-8.7028
非	-8.70394
以后	-8.7043
能够	-8.70947
则	-8.70992
如何	-8.71098
问	-8.71151
目前	-8.71184
工	-8.7119
波	-8.71249
常	-8.71304
直接	-8.71433
世	-8.71451
▁was	-8.71498
龙	-8.71577
冷	-8.71583
虽然	-8.71594
▁at	-8.71602
理	-8.71728
的话	-8.71774
近	-8.71916
找	-8.71947
作为	-8.7219
网	-8.72539
根据	-8.72714
表	-8.72753
制	-8.7281
',	-8.73088
必须	-8.73186
取	-8.73186
亚	-8.73195
未	-8.73204
干	-8.73244
雷	-8.73463
▁which	-8.7362
反	-8.73868
代表	-8.73957
U	-8.74136
强	-8.74141
血	-8.74211
影响	-8.74505
条	-8.74737
收	-8.7494
转	-8.74975
://	-8.75111
村	-8.7518
认为	-8.75632
ion	-8.75632
拍	-8.75836
▁C	-8.75854
换	-8.75952
從	-8.75961
级	-8.76014
活动	-8.7634
不同	-8.76532
+	-8.76588
兵	-8.76649
並	-8.76731
O	-8.77289
起来	-8.77391
`	-8.77469
连	-8.77569
每	-8.77596
。。。	-8.77737
出来	-8.778
無	-8.77824
们	-8.78045
第二	-8.78298
田	-8.78432
岁	-8.78547
}	-8.78587
达	-8.78611
▁S	-8.7878
士	-8.79006
▁B	-8.79113
获得	-8.7913
z	-8.79166
落	-8.79186
我就	-8.7922
朋友	-8.79303
個	-8.79305
哇	-8.79319
▁["	-8.79322
六	-8.79655
睡	-8.79695
任何	-8.7974
对于	-8.8006
对啊	-8.80102
油	-8.80302
几	-8.80677
县	-8.80852
半	-8.80874
色	-8.80922
喝	-8.80989
官	-8.80994
脸	-8.81012
民	-8.81404
掉	-8.81417
考	-8.81631
塔	-8.81708
成为	-8.81822
管理	-8.81905
拿	-8.8196
ation	-8.82072
方法	-8.8209
修	-8.82123
那些	-8.82137
派	-8.82415
le	-8.82489
越	-8.82721
为了	-8.82735
比赛	-8.82901
是不是	-8.82975
完	-8.83102
坐	-8.83172
us	-8.83434
食	-8.8361
写	-8.83843
电影	-8.83851
华	-8.83857
好像	-8.83936
班	-8.84164
赛	-8.84416
安全	-8.84419
差	-8.84615
商	-8.84637
结果	-8.84745
具有	-8.84826
肉	-8.84854
▁number	-8.84911
装	-8.84966
線	-8.84974
包	-8.85023
之一	-8.8503
turns	-8.85111
完全	-8.85431
call	-8.85529
亲	-8.85678
社会	-8.85711
到了	-8.86
▁}
	-8.86087
远	-8.86121
音	-8.86129
江	-8.86191
了吗	-8.86248
直	-8.86333
▁not	-8.86498
两个	-8.86603
啥	-8.86639
可是	-8.86736
设计	-8.86747
支持	-8.86776
改	-8.86895
ref	-8.86936
酒	-8.86946
一点	-8.87201
▁API	-8.87225
言	-8.87226
控制	-8.87252
▁list	-8.87482
縣	-8.87677
沙	-8.88041
选	-8.88359
由于	-8.88412
解	-8.88485
▁re	-8.88639
？
‎	-8.88659
▁using	-8.88798
发生	-8.88915
狗	-8.89011
八	-8.89045
功能	-8.89053
却	-8.89101
七	-8.89318
),	-8.89355
各	-8.89423
▁your	-8.89462
知	-8.89469
报	-8.89566
st	-8.89681
种	-8.90068
an	-8.90081
院	-8.90229
出现	-8.9058
组织	-8.90684
率	-8.90727
游戏	-8.90784
计划	-8.90928
信息	-8.90996
经济	-8.91039
▁have	-8.91093
香港	-8.9125
大家	-8.9132
()	-8.91358
普	-8.9144
史	-8.91695
at	-8.91796
夜	-8.91823
品	-8.91874
瓦	-8.9195
真是	-8.92002
雪	-8.92188
倒	-8.92233
语	-8.92329
同时	-8.92385
短	-8.92446
▁information	-8.92451
了解	-8.92517
菜	-8.92689
继续	-8.92842
迪	-8.9285
无法	-8.92902
點	-8.92975
双	-8.93078
東	-8.93255
飞	-8.93272
关注	-8.93316
跑	-8.93417
纳	-8.93668
”，	-8.93791
date	-8.93866
（）	-8.93896
黄	-8.94064
特别	-8.94158
奇	-8.94194
准备	-8.94748
軍	-8.94777
处理	-8.9503
指	-8.95127
中心	-8.95133
明天	-8.95261
j	-8.95292
声	-8.95369
肯定	-8.95404
运动	-8.95421
開	-8.95487
治疗	-8.95564
学校	-8.95593
地方	-8.95647
共	-8.95683
車	-8.95806
讲	-8.95849
\"	-8.95877
▁return	-8.95906
▁|	-8.95919
我们的	-8.95922
晚上	-8.95957
森	-8.95963
當	-8.96075
武	-8.96316
鱼	-8.96385
板	-8.96446
一個	-8.96791
建	-8.96814
往	-8.96936
calls	-8.96995
香	-8.97216
毛	-8.97235
关	-8.9729
笑	-8.97527
土	-8.97538
男	-8.97594
。”	-8.97636
个人	-8.97729
配	-8.97799
——	-8.97873
剧	-8.97971
边	-8.98291
部分	-8.98322
房	-8.98416
加油	-8.98501
氏	-8.98523
頭	-8.98731
发展	-8.98983
最后	-8.99118
奥	-8.99157
el	-8.99345
节	-8.99466
<	-8.9948
照	-8.99726
提	-8.99895
段	-8.99992
沒有	-9.00116
▁~	-9.00136
上的	-9.00162
话	-9.00244
？
-	-9.0052
类	-9.00626
是一个	-9.00643
挺	-9.00766
哈哈哈哈	-9.00901
值	-9.00988
**:	-9.00989
费	-9.01234
决定	-9.01241
好了	-9.01356
time	-9.01374
养	-9.0138
吉	-9.0164
留	-9.01759
先生	-9.01882
人们	-9.01922
国际	-9.02054
福	-9.02104
层	-9.0213
市场	-9.02176
经	-9.02365
甲	-9.02412
刚	-9.02487
data	-9.02549
":[{"	-9.02736
按	-9.02766
数据	-9.02876
兩	-9.02878
體	-9.03084
方式	-9.03122
难	-9.03126
云	-9.03338
版	-9.03475
别人	-9.03602
算	-9.0371
设备	-9.03758
甚至	-9.04026
q	-9.04051
青	-9.04161
确实	-9.04193
组	-9.04284
维	-9.04294
活	-9.04411
精	-9.04476
脚	-9.04567
角	-9.04587
它们	-9.04594
亞	-9.04669
端	-9.04696
形	-9.04711
查	-9.0478
洛	-9.04911
努力	-9.04992
▁time	-9.05074
案	-9.05141
系	-9.05323
羅	-9.05333
当时	-9.05334
什麼	-9.05353
传	-9.05439
▁name	-9.05581
https	-9.05627
票	-9.0571
小时	-9.0572
间	-9.05779
博	-9.05824
有人	-9.05891
教育	-9.05899
晚	-9.05916
托	-9.06122
!!	-9.06152
回家	-9.06176
#	-9.06187
找到	-9.0619
若	-9.06268
▁`	-9.06328
▁retrieve	-9.0637
东西	-9.06563
室	-9.06573
存在	-9.06724
千	-9.06728
ro	-9.06817
这里	-9.06821
文化	-9.06939
学生	-9.07133
是什么	-9.07147
號	-9.07171
保	-9.07214
帮助	-9.07265
我也是	-9.07407
牛	-9.07448
城市	-9.07475
何	-9.07607
li	-9.07691
得到	-9.07799
船	-9.08038
根	-9.0804
code	-9.08161
end	-9.08258
族	-9.08268
切	-9.08407
不好	-9.08442
▁like	-9.0848
进入	-9.08666
歌	-9.08672
这次	-9.08708
▁need	-9.08854
完成	-9.0894
并且	-9.08944
勒	-9.09055
百	-9.0907
ar	-9.09094
那你	-9.09283
能力	-9.09459
她的	-9.09471
地区	-9.09597
座	-9.09673
实	-9.09844
arguments	-9.09867
失	-9.10126
我在	-9.10245
場	-9.10252
還	-9.10344
这一	-9.10403
是否	-9.10516
关系	-9.10564
美國	-9.106
列	-9.1077
好看	-9.1085
命	-9.1101
环境	-9.11014
封	-9.1103
某	-9.11075
当然	-9.11085
true	-9.11093
街	-9.11133
哪	-9.11195
).	-9.11286
那是	-9.11298
只能	-9.1141
十	-9.11423
以前	-9.11434
的地方	-9.11455
跳	-9.11602
极	-9.11745
各种	-9.1175
成功	-9.1177
莫	-9.11781
ic	-9.11831
梅	-9.11955
停	-9.12105
":[]}}},{"	-9.12108
草	-9.1224
还没	-9.124
治	-9.12418
权	-9.12477
拜拜	-9.12494
▁+	-9.12571
自然	-9.12615
如此	-9.1265
今年	-9.1276
冰	-9.12829
▁F	-9.12854
雨	-9.12978
镇	-9.13035
保护	-9.13048
"]}}},{"	-9.13068
画	-9.13103
足球	-9.13211
別	-9.13291
过去	-9.1338
件	-9.13428
if	-9.13564
贵	-9.13658
英	-9.1366
增加	-9.13685
九	-9.13795
et	-9.13866
推	-9.13917
学习	-9.13926
—	-9.14001
老师	-9.14062
服	-9.14117
项目	-9.14128
调	-9.14146
。”
	-9.14149
一种	-9.14363
▁de	-9.14453
不错	-9.14529
姐	-9.14584
网络	-9.1464
结	-9.14644
你要	-9.14711
且	-9.14721
药	-9.15239
校	-9.15425
健康	-9.15469
府	-9.15511
正常	-9.15569
這個	-9.15569
英国	-9.15637
兰	-9.15748
乐	-9.15752
▁</	-9.15774
▁[	-9.15802
企业	-9.1588
用户	-9.16
投	-9.1606
▁f	-9.16093
塞	-9.16215
接受	-9.16254
压	-9.16286
動	-9.1629
的是	-9.16299
怕	-9.16337
产品	-9.16495
好好	-9.16638
游	-9.16716
洗	-9.16783
）。	-9.16802
通常	-9.16918
让我	-9.16928
参考文献	-9.16998
关于	-9.17032
▁P	-9.17321
import	-9.17337
记	-9.17442
排	-9.17532
政治	-9.17539
步	-9.17548
今	-9.17854
也不	-9.17869
底	-9.1798
保持	-9.17994
哎	-9.18051
數	-9.18068
导致	-9.18093
女性	-9.18171
副	-9.18183
it	-9.18184
只要	-9.18213
推荐	-9.1827
▁code	-9.18274
▁specific	-9.18595
（），	-9.18664
不用	-9.18682
都有	-9.18714
ri	-9.18908
▁check	-9.1893
居	-9.1902
沒	-9.19129
▁given	-9.19358
：「	-9.19473
登	-9.19491
處	-9.19538
满	-9.19563
政	-9.19751
▁but	-9.19865
才能	-9.19889
門	-9.19908
–	-9.20125
据	-9.20139
均	-9.20241
假	-9.20369
除了	-9.20436
很好	-9.20463
方面	-9.20541
▁new	-9.20738
师	-9.21006
一天	-9.21013
司	-9.21097
然而	-9.21231
团	-9.21357
结构	-9.21397
("	-9.21455
下次	-9.2155
参加	-9.2175
艾	-9.21834
ce	-9.21853
索	-9.21913
质	-9.21961
亦	-9.21992
过来	-9.22047
患者	-9.22255
▁E	-9.22315
ment	-9.22384
界	-9.22433
目	-9.22483
自由	-9.22516
▁M	-9.22535
蒂	-9.22548
想要	-9.22629
新的	-9.22739
母	-9.22804
利用	-9.22834
機	-9.22984
救	-9.23047
料	-9.23061
戰	-9.23208
－	-9.23396
也有	-9.23547
發	-9.2361
然	-9.23679
para	-9.23689
除	-9.23753
卖	-9.23918
▁my	-9.23919
伤	-9.23943
宝	-9.24217
客	-9.2423
牙	-9.24241
語	-9.24309
幸福	-9.24341
酸	-9.24412
('	-9.24469
堂	-9.24548
達	-9.24553
回去	-9.24599
朝	-9.24727
支	-9.24988
耶	-9.25019
合作	-9.25033
微	-9.25106
杀	-9.25158
▁search	-9.25204
防	-9.25252
->	-9.25289
党	-9.25338
腿	-9.25456
源	-9.25457
學	-9.25458
你知道	-9.2549
我都	-9.25516
痛	-9.25619
景	-9.25632
的事	-9.25641
泰	-9.25729
初	-9.25798
一定	-9.25843
多少	-9.26033
:**	-9.2604
ad	-9.26114
社	-9.26119
了吧	-9.26128
例如	-9.2624
汉	-9.26289
追	-9.26327
影	-9.26342
升	-9.26346
de	-9.26477
作品	-9.26483
待	-9.26601
生产	-9.26805
="	-9.26854
情况	-9.26924
男子	-9.26985
曼	-9.27012
::	-9.2703
int	-9.27179
破	-9.27202
ll	-9.27247
楼	-9.2748
盘	-9.27531
价格	-9.27633
阳	-9.27709
人家	-9.27949
章	-9.28071
分钟	-9.28201
書	-9.28207
約	-9.28251
湖	-9.28315
分析	-9.28318
姆	-9.28368
新闻	-9.28443
果	-9.28455
野	-9.28485
产	-9.28517
令	-9.28548
張	-9.28624
饭	-9.28647
足	-9.28769
诺	-9.28776
开心	-9.28811
提高	-9.28824
松	-9.2888
im	-9.28891
以下	-9.29042
秀	-9.29101
退	-9.29133
相关	-9.29259
▁[{"	-9.29276
第三	-9.29276
一个人	-9.29291
事件	-9.2933
卷	-9.29333
ur	-9.29512
树	-9.29544
出去	-9.2969
款	-9.29754
你也	-9.29758
错	-9.29769
▁K	-9.29776
离	-9.29812
忙	-9.29979
历史	-9.30124
检查	-9.30133
拥有	-9.3017
额	-9.30505
"],"	-9.30509
就会	-9.30696
素	-9.30699
材料	-9.30703
员	-9.30711
Get	-9.30713
整	-9.30725
去了	-9.30772
▁Defaults	-9.30827
不了	-9.3087
$	-9.30954
建议	-9.3096
牌	-9.3101
@	-9.31028
快乐	-9.31093
具	-9.31152
你們	-9.31153
有些	-9.31155
胖	-9.31253
来说	-9.31306
程	-9.31367
帅	-9.31384
实现	-9.31409
软件	-9.3141
衣	-9.31428
群	-9.31566
射	-9.3176
密	-9.31763
有什么	-9.31765
宗	-9.31777
見	-9.319
核	-9.3192
罪	-9.31929
▁details	-9.32147
望	-9.32278
man	-9.32347
se	-9.32347
我知道	-9.3237
奖	-9.32371
瘦	-9.32523
ra	-9.32545
▁help	-9.32677
▁about	-9.32708
一年	-9.32787
事情	-9.32798
▁G	-9.32882
開始	-9.32921
突然	-9.32941
胡	-9.33153
雅	-9.333
strict	-9.33337
伯	-9.33416
看了	-9.33452
每天	-9.33474
able	-9.33487
因為	-9.33497
吃饭	-9.33583
显示	-9.33585
轮	-9.33603
补	-9.3361
你可以	-9.33645
他们的	-9.33705
来了	-9.33716
造	-9.33764
价	-9.3384
.,	-9.33855
工程	-9.33866
没事	-9.33887
温	-9.33995
位于	-9.34002
不行	-9.34065
。。。
	-9.34086
造成	-9.34189
细胞	-9.342
我会	-9.34237
守	-9.34258
有关	-9.3432
▁specified	-9.34364
io	-9.34445
重新	-9.34479
"]}},{"	-9.34486
▁will	-9.34488
文件	-9.3454
。"},	-9.34744
威	-9.34758
曲	-9.34823
猫	-9.34828
家庭	-9.35039
Name	-9.35042
领	-9.35181
汽车	-9.35201
思	-9.35222
中國	-9.35279
课	-9.35356
许多	-9.35408
散	-9.35435
lo	-9.35531
搞	-9.35683
志	-9.35686
娜	-9.35748
读	-9.35843
萬	-9.35894
之间	-9.35967
用于	-9.36082
内容	-9.361
春	-9.36128
是在	-9.36171
▁format	-9.36211
▁p	-9.36263
;

	-9.36321
是个	-9.36323
属	-9.36346
▁get	-9.36415
人的	-9.36448
華	-9.36501
ers	-9.36536
進	-9.36539
味	-9.36561
球队	-9.36601
▁{	-9.36688
人口	-9.36708
背	-9.36817
不想	-9.36912
”。	-9.36928
联	-9.3699
我不	-9.37073
它的	-9.37092
翻	-9.37117
全球	-9.37144
较	-9.37221
乱	-9.37238
音乐	-9.37275
電	-9.37378
注意	-9.37433
現在	-9.3744
铁	-9.37457
公里	-9.37676
and	-9.37679
賽	-9.37737
弄	-9.37866
ve	-9.37894
In	-9.37894
受到	-9.38052
产生	-9.38258
现	-9.38305
總	-9.3837
川	-9.38406
▁T	-9.38565
▁true	-9.38569
交易	-9.38574
ent	-9.38807
▁current	-9.38824
急	-9.38894
后来	-9.39387
毕竟	-9.39435
架	-9.39453
业	-9.39495
愛	-9.39523
人员	-9.3971
赞	-9.39713
戴	-9.3973
丁	-9.39737
min	-9.39781
骨	-9.3979
真的是	-9.39801
人类	-9.39837
我去	-9.39953
轉	-9.40165
故事	-9.40198
附近	-9.40264
▁D	-9.40279
季	-9.40302
头发	-9.40479
age	-9.40542
這樣	-9.40626
标准	-9.40652
在一起	-9.40673
位置	-9.40895
身体	-9.40901
▁‎	-9.40955
建立	-9.41024
行政	-9.41122
上海	-9.41199
你在	-9.41226
te	-9.41281
最终	-9.41364
氣	-9.41418
屬	-9.41423
位於	-9.415
."},"	-9.41628
期间	-9.41654
鬼	-9.41715
正式	-9.41716
咯	-9.41787
▁This	-9.418
理解	-9.41803
致	-9.41811
那就	-9.41863
属于	-9.4187
il	-9.41882
陈	-9.41889
原因	-9.42059
露	-9.4206
▁user	-9.42075
set	-9.42079
▁all	-9.42108
叶	-9.42136
聚	-9.42184
港	-9.42198
演	-9.42214
块	-9.42218
整个	-9.42222
則	-9.42224
怎么样	-9.42235
帝	-9.42286
超过	-9.42303
ate	-9.42381
|	-9.42419
嗨	-9.42431
死了	-9.42567
速	-9.42577
。
-	-9.42615
location	-9.42638
水平	-9.42704
介绍	-9.42792
电话	-9.42795
唱	-9.43102
左	-9.43164
证	-9.43169
复	-9.43198
压力	-9.43305
ive	-9.43308
▁c	-9.4331
占	-9.43444
唐	-9.43557
这样的	-9.43674
解决	-9.4369
獎	-9.43712
套	-9.43742
圣	-9.43807
年代	-9.43843
ex	-9.44002
相信	-9.44046
加入	-9.4411
妈妈	-9.44136
讓	-9.44167
list	-9.44229
条件	-9.44245
存	-9.44275
大學	-9.44317
他在	-9.44489
医生	-9.44523
毒	-9.44534
)","	-9.44611
什么时候	-9.44646
藏	-9.44827
调查	-9.44902
医院	-9.44915
刀	-9.45015
期待	-9.45054
▁Re	-9.45099
您的	-9.45233
玉	-9.45385
喂	-9.45436
估计	-9.45585
永	-9.45616
评分	-9.45619
谢谢你	-9.45636
哪里	-9.45864
晚安	-9.45897
经常	-9.45979
故	-9.46095
▁b	-9.46101
圈	-9.46114
隊	-9.46185
弱	-9.4622
電影	-9.46258
久	-9.46273
ch	-9.46317
希	-9.46341
as	-9.46352
帮	-9.46427
环	-9.46434
.\	-9.46495
有没有	-9.46647
by	-9.46707
▁N	-9.47022
▁*/
	-9.47039
断	-9.47117
采用	-9.47219
稱	-9.47263
ge	-9.4727
no	-9.47281
刘	-9.47375
萨	-9.47386
裡	-9.47466
还要	-9.47502
引	-9.47522
偏	-9.47552
联系	-9.47618
ant	-9.47663
下午	-9.47667
来自	-9.47719
最好	-9.47962
银行	-9.47989
都不	-9.48022
降	-9.48032
▁@	-9.48085
可能会	-9.4812
更多	-9.48147
下来	-9.48153
运	-9.48198
你看	-9.48234
货	-9.48234
状态	-9.48235

#	-9.4853
衣服	-9.48586
▁R	-9.48654
呵呵	-9.48701
都会	-9.48757
异	-9.48759
纸	-9.4887
几个	-9.48988
警	-9.48998
胜	-9.49021
反应	-9.49166
喜	-9.49242
不同的	-9.49326
."}},"	-9.494
url	-9.49535
Re	-9.4958
应用	-9.49585
没错	-9.49595
随	-9.49605
网站	-9.49612
球员	-9.4964
投资	-9.49668
苦	-9.49765
改变	-9.49833
重要	-9.4988
走了	-9.499
哭	-9.49938
糖	-9.50061
帶	-9.50089
▁&	-9.50098
减	-9.50127
抗	-9.50134
un	-9.50346
富	-9.50356
苏	-9.50395
級	-9.5048
些	-9.5049
另外	-9.50636
击	-9.50714
害	-9.50828
就像	-9.50831
姐姐	-9.50838
迷	-9.50863
be	-9.50913
"]}}}]
{"	-9.50956
ist	-9.5102
夏	-9.51026
具体	-9.51041
桥	-9.51045
如果你	-9.51238
人物	-9.51281
&	-9.51398
康	-9.51458
。」	-9.51541
朱	-9.51595
。"]}	-9.51611
未来	-9.51654
好多	-9.51684
考虑	-9.51702
成為	-9.51722
!!
	-9.51837
休息	-9.51847
里面	-9.51927
超级	-9.51945
症	-9.51986
认识	-9.51995
专业	-9.52018
哪个	-9.52074
样	-9.52075
!!!	-9.52207
瑞	-9.52209
▁string	-9.52376
{	-9.5242
岛	-9.52458
Retrieve	-9.5247
仍	-9.52482
▁value	-9.5253
給	-9.52639
达到	-9.52766
ity	-9.52788
适合	-9.52852
机构	-9.52926
私	-9.52956
丝	-9.53034
杯	-9.53048
顺	-9.53105
尾	-9.53153
股	-9.53262
:\	-9.53285
全部	-9.5336
ip	-9.53378
累	-9.53511
圆	-9.53606
и	-9.53614
并不	-9.537
每个	-9.53742
客户	-9.53786
冠军	-9.53824
俄罗斯	-9.53903
液	-9.53944
孔	-9.53961
行为	-9.53997
."}
{"	-9.54013
份	-9.54031
茶	-9.54094
間	-9.54096
……	-9.54132
厚	-9.54162
▁based	-9.54237
▁up	-9.54281
out	-9.54383
科学	-9.5441
左右	-9.54424
证明	-9.54533
仅	-9.54622
易	-9.54698
▁identifier	-9.54712
增	-9.54742
男人	-9.54855
一切	-9.54859
鲁	-9.54902
up	-9.54937
聖	-9.55066
▁location	-9.55137
严重	-9.55184
梦	-9.55197
昨天	-9.55246
）、	-9.55311
師	-9.55314
}},{"	-9.55326
納	-9.55371
容	-9.55477
看来	-9.55506
猪	-9.55507
生物	-9.55535
不到	-9.5558
顶	-9.556
此外	-9.55659
▁use	-9.55661
粉	-9.55772
看着	-9.55802
你说	-9.55821
视	-9.55862
成立	-9.56123
平方公里	-9.56126
選	-9.56169
脑	-9.5627
是一种	-9.56369
笔	-9.5648
嘴	-9.56534
世纪	-9.56562
哟	-9.56563
一名	-9.56568
傳	-9.56657
co	-9.5675
>

	-9.56758
。
“	-9.56762
咋	-9.56802
容易	-9.5683
丹	-9.56901
余	-9.56909
父	-9.56956
归	-9.57034
亮	-9.57092
申请	-9.5719
上班	-9.57244
伦	-9.57289
www	-9.57316
\":	-9.5737
尽	-9.57395
▁O	-9.57397
考试	-9.57472
怪	-9.57597
友	-9.57599
女人	-9.57716
可爱	-9.57855
耳	-9.57864
词	-9.57868
以上	-9.57871
睡觉	-9.57899
君	-9.58003
冲	-9.58018
剂	-9.58158
视频	-9.58206
▁int	-9.5826
消息	-9.58301
连接	-9.58326
同学	-9.58387
的小	-9.58508
借	-9.58541
越来越	-9.58546
滴	-9.58621
语言	-9.5863
人民	-9.58672
生命	-9.58677
基本	-9.58691
还好	-9.58714
可能是	-9.5886
第一次	-9.58974
法律	-9.59016
的问题	-9.59071
精神	-9.59212
是我	-9.59218
▁results	-9.5927
一家	-9.59284
减少	-9.59305
▁con	-9.59325
共同	-9.59358
the	-9.59395
盖	-9.59411
限	-9.59434
ut	-9.59533
贝	-9.59536
菲	-9.59548
齐	-9.59571
厉害	-9.59646
安装	-9.59802
台灣	-9.59897
▁book	-9.59993
嘿嘿	-9.60092
学院	-9.60164
組	-9.60177
撒	-9.602
json	-9.60242
好吃	-9.60288
的东西	-9.60303
la	-9.60314
這是	-9.60331
离开	-9.60346
报告	-9.60372
ia	-9.60389
总是	-9.60431
末	-9.60472
最佳	-9.60494
办	-9.60497
丑	-9.60512
▁//	-9.60528
照片	-9.60566
而已	-9.60573
son	-9.60619
攻	-9.6065
▁"#/	-9.60679
▁class	-9.60746
表现	-9.60751
赫	-9.60786
形成	-9.60812
▁want	-9.6084
天天	-9.60903
ID	-9.6093
告诉我	-9.60971
蒙	-9.60989
感到	-9.60995
列表	-9.61001
杰	-9.61047
作用	-9.61111
▁Can	-9.61299
至少	-9.61382
功	-9.61392
▁date	-9.61401
▁we	-9.61403
array	-9.61412
确定	-9.6142
中央	-9.61452
试	-9.61479
终于	-9.61677
参考资料	-9.61771
兴	-9.61795
脱	-9.61815
est	-9.61852
让你	-9.61879
奧	-9.61907
坚持	-9.61917
帕	-9.61939
苹果	-9.61994
一位	-9.62016
建筑	-9.62044
os	-9.6214
混	-9.62183
园	-9.62194
展	-9.62219
交通	-9.62309
犯	-9.62344
ir	-9.62363
教授	-9.62412
不仅	-9.62415
首先	-9.62451
懂	-9.62452
更新	-9.62468
紧	-9.62468
Fetches	-9.62565
听说	-9.62609
等等	-9.62619
工具	-9.62623
平台	-9.62624
直到	-9.62629
专	-9.62632
疾病	-9.62643
請	-9.62659

//	-9.62716
炎	-9.6275
年轻	-9.62776
佛	-9.62785
▁order	-9.62787
null	-9.62881
▁don	-9.6297
印度	-9.63031
空间	-9.63242
细	-9.63292
也会	-9.63297
观	-9.63305
連	-9.6341
温度	-9.63491
▁set	-9.63494
不可	-9.63499
诶	-9.6351
开发	-9.63512
轻	-9.63524
種	-9.63552
甜	-9.63679
打算	-9.63699
風	-9.63704
了一个	-9.63755
ne	-9.63835
举	-9.63857
体育	-9.63949
善	-9.63983
反正	-9.6415
测试	-9.64247
你不	-9.64293
也可以	-9.6437
();
	-9.64396
质量	-9.64519
说话	-9.64618
mo	-9.64656
版本	-9.64661
报道	-9.64682
右	-9.64686
埃	-9.64696
跟我	-9.64743
标	-9.64759
▁W	-9.64763
程序	-9.64814
一定要	-9.64923
define	-9.64982
经过	-9.65034
維	-9.65058
你就	-9.65097
'.","	-9.65164
經	-9.65202
島	-9.65234
蘭	-9.65237
▁any	-9.65347
爆	-9.65374
灯	-9.65386
谷	-9.65406
比如	-9.65495
效果	-9.65539
说明	-9.65577
諾	-9.65593
宝宝	-9.65607
public	-9.65724
德国	-9.65742
记得	-9.65781
更加	-9.65838
我有	-9.65852
再次	-9.65882
置	-9.66006
不得	-9.6601
呗	-9.66097
▁If	-9.66156
--	-9.66291
時間	-9.66314
速度	-9.66394
尚	-9.6642
好吗	-9.66444
三个	-9.66486
的事情	-9.66544
▁void	-9.66565
兄弟	-9.66604
你有	-9.66619
莱	-9.66637
准	-9.66711
龍	-9.66713
欧洲	-9.66729
在这里	-9.66788
的一个	-9.6706
京	-9.67073
莉	-9.671
剪	-9.67304
义	-9.6732
必	-9.67322
乡	-9.67345
仍然	-9.674
參考資料	-9.67414
進行	-9.67449
》，	-9.67451
強	-9.67546
规定	-9.67571
▁only	-9.67589
觉	-9.67608
▁one	-9.67658
对呀	-9.67667
宫	-9.67769
购买	-9.67789
行动	-9.67805
都在	-9.67836
避免	-9.67883
ba	-9.6789
已經	-9.67896
那里	-9.67944
计	-9.67967
变化	-9.67972
地址	-9.68005
per	-9.68016
还在	-9.68089
有一个	-9.68181
绝	-9.68255
蛋	-9.68369
不断	-9.68378
ol	-9.68388
丽	-9.68389
机会	-9.68396
":"","	-9.68497
弗	-9.68505
法国	-9.68511
方向	-9.68513
电脑	-9.68544
训练	-9.68575
▁public	-9.68633
箱	-9.6865
操作	-9.68719
息	-9.68801
馆	-9.68894
boolean	-9.68921
因素	-9.68933
▁In	-9.68943
佩	-9.69058
我现在	-9.69101
權	-9.69145
戏	-9.69161
仁	-9.69209
景点	-9.69309
提出	-9.69325
這些	-9.69442
靠	-9.69454
居然	-9.69456
ian	-9.69558
秒	-9.69575
刷	-9.69586
▁event	-9.6961
目标	-9.69626
ies	-9.69641
耐	-9.69692
ter	-9.69804
value	-9.69838
嘉	-9.69907
系列	-9.69997
應	-9.70007
杨	-9.7006
性的	-9.70077
艺术	-9.70131
回到	-9.70133
浪	-9.70223
隔	-9.70271
include	-9.70304
要是	-9.70341
以为	-9.70369
▁"$	-9.70376
政策	-9.70445
持	-9.70452
text	-9.70488
▁service	-9.70502
宁	-9.70537
US	-9.70542
我还	-9.70565
杜	-9.70591
霍	-9.70598
慢	-9.70611
感染	-9.70616
▁Id	-9.70644
▁per	-9.70683
他是	-9.70685
話	-9.70742
▁first	-9.70774
吃了	-9.70792
发布	-9.70826
ul	-9.70922
告	-9.71015
員	-9.71026
文章	-9.71032
for	-9.71222
就可以	-9.71226
ca	-9.71307
圖	-9.71544
的时间	-9.71604
我看	-9.71613
模式	-9.7166
性能	-9.71694
项	-9.7171
pe	-9.71739
▁License	-9.7178
肥	-9.7178
歲	-9.71796
倍	-9.71801
魔	-9.71851
return	-9.71893
▁he	-9.71922
盛	-9.71969
坏	-9.72094
郡	-9.72151
佳	-9.72158
方便	-9.72287
父母	-9.72374
控	-9.72428
婚	-9.72443
▁false	-9.72475
▁their	-9.72482
聲	-9.72499
▁know	-9.72608
暗	-9.72637
，“	-9.72672
噢	-9.72685
满足	-9.72713
执行	-9.72715
na	-9.72759
还可以	-9.72768
良	-9.72841
all	-9.72962
那样	-9.73004
ci	-9.73009
不管	-9.73015
价值	-9.73028
那种	-9.73042
lrm	-9.73057
眼睛	-9.73144
虎	-9.73158
不會	-9.73328
桑	-9.73356
宣布	-9.73387
缺	-9.73388
ine	-9.73402
保险	-9.73488
me	-9.7356
女子	-9.73575
我喜欢	-9.73639
简单	-9.73715
表面	-9.73804
势	-9.7383
历	-9.7384
扎	-9.73862
状	-9.73928
比賽	-9.73954
是谁	-9.7419
棒	-9.74267
坑	-9.74274
多了	-9.74359
秋	-9.74364
名字	-9.74373
航	-9.74392
是呀	-9.74403
抱歉	-9.7448
灵	-9.74677
ta	-9.74724
api	-9.74769
sh	-9.74772
恢复	-9.74802
结婚	-9.74804
胸	-9.7484
顿	-9.74867
死亡	-9.74973
▁has	-9.74976
解释	-9.74988
在哪里	-9.75033
十分	-9.75069
Can	-9.75084
徒	-9.75109
结束	-9.75164
病毒	-9.75388
獲得	-9.75403
問	-9.75421
韩	-9.7543
做的	-9.75459
漢	-9.75494
距离	-9.75519
库	-9.75553
Type	-9.7556
地區	-9.75568
施	-9.75576
买了	-9.75615
隆	-9.75648
!!!
	-9.75661
贴	-9.75693
征	-9.75702
那我	-9.75764
聽	-9.75792
你还	-9.75821
沃	-9.75824
合同	-9.7588
招	-9.75981
車站	-9.75982
▁key	-9.7599
设置	-9.76073
时代	-9.76095
check	-9.7615
止	-9.76209
惠	-9.76222
枪	-9.76228
礼	-9.76288
症状	-9.76314
也许	-9.76388
餐厅	-9.76439
在家	-9.76472
告诉	-9.76482
硬	-9.76515
String	-9.76564
▁H	-9.76567
说的	-9.76577
练	-9.76585
逃	-9.76647
警察	-9.76762
运动员	-9.76797
出了	-9.76849
户	-9.76852
了啊	-9.76963
Id	-9.77153
随着	-9.77199
下去	-9.77306
"}}}]}
{"	-9.77377
作者	-9.77425
刺	-9.77443
令人	-9.77449
消	-9.77452
战争	-9.77507
邊	-9.77676
空气	-9.77741
卫	-9.77785
资源	-9.77892
暴	-9.77915
屋	-9.77917
有个	-9.77935
租	-9.77959
MM	-9.77977
敢	-9.77985
干嘛	-9.77993
▁m	-9.78021
國家	-9.78023
洋	-9.78029
餐	-9.78058
阶段	-9.7807
one	-9.78098
他说	-9.78118
身上	-9.78127
沉	-9.78201
床	-9.78245
届	-9.78251
供	-9.78284
org	-9.78334
负	-9.78502
韩国	-9.7851
导	-9.78522
宋	-9.78552
惊	-9.78589
豆	-9.78598
请问	-9.78632
降低	-9.78658
mm	-9.787
舞	-9.78753
鸡	-9.78759
太阳	-9.78771
过程中	-9.78772
梁	-9.78802
都没	-9.78805
row	-9.78809
▁his	-9.78844
我家	-9.78998
可惜	-9.79006
你好啊	-9.79011
参考	-9.79014
struct	-9.79018
event	-9.79095
祖	-9.79118
▁file	-9.79124
ti	-9.79127
洞	-9.79144
國際	-9.79195
需	-9.79237
▁He	-9.79272
拜	-9.79305
诗	-9.79313
▁do	-9.79349
烟	-9.79356
谈	-9.79368
参与	-9.79373
记录	-9.7938
page	-9.79488
唉	-9.79575
業	-9.79578
阴	-9.7958
跟你	-9.79597
實	-9.79654
爱你	-9.79656
还能	-9.79674
蓝	-9.79735
麻	-9.79751
search	-9.79826
”。
	-9.79835
工业	-9.7984
偷	-9.79843
钢	-9.79874
刻	-9.79911
演员	-9.79926
滑	-9.79969
休	-9.80079
吸	-9.80176
从而	-9.80287
另一	-9.80307
一条	-9.80379
后面	-9.80415
你会	-9.80448
孙	-9.80463
谢	-9.80484
ice	-9.80599
▁address	-9.80619
时期	-9.80647
職	-9.80664
免费	-9.80714
亿	-9.80742
我不知道	-9.80791
句	-9.80838
都没有	-9.80843
依	-9.80909
支付	-9.80929
取得	-9.80999
固	-9.81006
独	-9.8114
科技	-9.81171
　	-9.81247
new	-9.81255
侧	-9.81256
责任	-9.8132
報	-9.81363
设	-9.81406
▁It	-9.81431
樂	-9.81472
凉	-9.81533
保证	-9.81553
黃	-9.81592
斗	-9.81596
许	-9.81618
现场	-9.81657
斯特	-9.81743
不敢	-9.82011
凯	-9.82024
每次	-9.82119
电子	-9.82189
评分是	-9.82331
ab	-9.82344
卻	-9.82386
井	-9.82401
虫	-9.82415
备	-9.82551
委员会	-9.82561
歷史	-9.82576
看见	-9.82593
怎样	-9.82607
▁available	-9.82609
尽管	-9.82621
ance	-9.8271
key	-9.82714
旗	-9.82815
錢	-9.8298
彩	-9.82989
爸爸	-9.83011
仙	-9.83075
植物	-9.83077
永远	-9.83168
法院	-9.83172
RE	-9.83243
原来	-9.83296
的生活	-9.83319
旧	-9.83361
太多	-9.83382
药物	-9.83533
摩	-9.83544
from	-9.83555
寫	-9.83561
攻击	-9.83574
皇	-9.83583
差不多	-9.83591
承	-9.83669
。“	-9.83716
Retrieves	-9.83815
抢	-9.8387
前往	-9.83882
曰	-9.83902
收到	-9.83922
人生	-9.83989
范	-9.84135
羊	-9.84141
充	-9.84173
按照	-9.84174
我很	-9.84187
区域	-9.84213
之後	-9.84339
▁access	-9.84382
是指	-9.84384
條	-9.84422
徐	-9.8453
我说	-9.84542
▁used	-9.8457
咱们	-9.84571
运行	-9.84572
▁language	-9.8461
助	-9.84619
▁–	-9.84631
例	-9.8465
麦	-9.84663
有很多	-9.8467
对象	-9.84685
▁De	-9.84705
的方式	-9.84729
经验	-9.84783
▁||	-9.84815
To	-9.84828
膜	-9.84881
line	-9.84931
家族	-9.85042
ary	-9.85045
预	-9.85058
幕	-9.85087
就好	-9.85088
程度	-9.85105
辣	-9.8512
辛	-9.85137
意大利	-9.85153
▁provided	-9.85237
▁request	-9.85291
▁page	-9.85306
items	-9.8534
app	-9.85359
职	-9.85405
儿子	-9.85428
营	-9.85442
鞋	-9.85452
打开	-9.85464
▁its	-9.85471
ry	-9.8553
哈哈哈哈哈	-9.85532
Ch	-9.8554
加拿大	-9.85544
论	-9.85545
喔	-9.85556
之间的	-9.85559
▁so	-9.85582
曾经	-9.85629
手术	-9.8569
墙	-9.85741
是因为	-9.85766
▁some	-9.85783
安排	-9.85822
max	-9.85868
抓	-9.85893
她们	-9.85901
过程	-9.85914
似乎	-9.85936
rate	-9.85942
var	-9.86026
羡慕	-9.86049
食物	-9.86195
看起来	-9.86225
。
「	-9.86247
载	-9.86251
单位	-9.8626
吴	-9.86324
擊	-9.86368
去看	-9.86557
团队	-9.86624
普通	-9.86635
log	-9.86644
指出	-9.86668
部门	-9.86688
literal	-9.86767
▁St	-9.86806
总统	-9.86847
不然	-9.86916
怀	-9.86937
price	-9.86945
就要	-9.86982
电视	-9.86998
爱情	-9.87059
抱	-9.87085
象	-9.87121
鸟	-9.8714
黨	-9.87141
怎么了	-9.87146
长期	-9.87179
动物	-9.87212
烧	-9.87217
酷	-9.87218
呼	-9.87266
class	-9.87287
遇到	-9.87352
em	-9.87389
吹	-9.87416
都要	-9.87439
让人	-9.87448
認為	-9.87525
不一样	-9.87529
um	-9.87537
ma	-9.87588
包含	-9.87609
主要是	-9.87609
播	-9.87634
毕业	-9.8765
 	-9.87779
引起	-9.87815
好啊	-9.87882
der	-9.87914
不太	-9.87938
印	-9.87958
就能	-9.88055
同意	-9.8819
▁query	-9.88209
self	-9.88213
飞机	-9.88338
值得	-9.88419

‎
-	-9.88471
List	-9.88487
制作	-9.88531
限制	-9.88577
傻	-9.88582
弹	-9.88625
擔任	-9.88626
周边	-9.88636
的吗	-9.88661
计算	-9.88671
關	-9.88745
个月	-9.88749
汤	-9.88763


	-9.88833
做出	-9.88944
泡	-9.88952
广	-9.89002
境	-9.89007
媒体	-9.89065
南京	-9.89066
一场	-9.89087
mi	-9.89102
银	-9.89144
获	-9.89182
刑	-9.89244
付	-9.89307
形式	-9.89386
ts	-9.89403
ho	-9.89505
类型	-9.89555
form	-9.89558
宽	-9.89564
堡	-9.89586
上面	-9.89652
绝对	-9.89701
电视剧	-9.89748
下降	-9.89754
朗	-9.89771
自动	-9.89776
da	-9.89854
西班牙	-9.9001
玩家	-9.90023
导演	-9.90059
表达	-9.90097
地理	-9.90156
▁com	-9.9019
欧	-9.90206
最高	-9.9022
就在	-9.90226
行业	-9.90264
美元	-9.90268
联赛	-9.90272
ure	-9.90295
嘿	-9.903
▁should	-9.90305
▁const	-9.90368
意义	-9.90492
term	-9.90549
到底	-9.90592
團	-9.90594
赵	-9.90634
▁under	-9.90645
我已经	-9.90656
地球	-9.90705
嘻嘻	-9.90709
商业	-9.9077
)\	-9.90788
皆	-9.90836
即使	-9.90852
外部連結	-9.90878
而是	-9.90949
漂亮	-9.90984
更多的	-9.91006
略	-9.91014
税	-9.9103
單	-9.91073
探	-9.91073
零	-9.91098
禁	-9.91213
敬	-9.91243
哥哥	-9.91244
ay	-9.91323
够	-9.91367
ty	-9.91369
生平	-9.9138
我可以	-9.91448
去年	-9.91457
壁	-9.91468
start	-9.91543
ap	-9.91578
陳	-9.91695
持续	-9.91814
清楚	-9.91837
裝	-9.91874
劇	-9.91915
是吗	-9.9194
ie	-9.91944
ha	-9.92037
任务	-9.9205
醒	-9.92068
；
	-9.92086
旅游	-9.92141
品牌	-9.92146
limit	-9.92167
參加	-9.92172
▁more	-9.92189
弟	-9.92204
帮我	-9.9227
菌	-9.92294
柱	-9.92321
day	-9.92321
透	-9.92391
确保	-9.92409
ting	-9.92501
收入	-9.92565
節	-9.92646
兒	-9.92669
今晚	-9.92675
兼	-9.92714
这就是	-9.92716
拔	-9.92728
的原因	-9.92783
▁URL	-9.92799
跨	-9.92897
▁pro	-9.92966
殺	-9.92992
调整	-9.92993
广告	-9.93
武器	-9.93036
▁fetch	-9.93076
数字	-9.93164
磨	-9.9318
皮肤	-9.93182
的工作	-9.93204
▁J	-9.93213
還有	-9.93223
公共	-9.93258
慢慢	-9.93306
负责	-9.93334
雄	-9.93392
委	-9.93465
绿	-9.93499
传统	-9.9354
含	-9.93551
下载	-9.93553
凡	-9.93562
劳	-9.93579
秦	-9.93607
蘇	-9.93629
注	-9.93679
女孩	-9.93726
刚刚	-9.93748
几乎	-9.93781
巨	-9.93848
放在	-9.93924
use	-9.93947
免	-9.93971
来源	-9.94021
广州	-9.94043
薄	-9.9405
狂	-9.94052
完了	-9.94156
当地	-9.94183
你想	-9.9424
既	-9.94243
减肥	-9.943
护	-9.94426
什	-9.94449
知识	-9.94496
停止	-9.94505
静	-9.94569
听到	-9.94712
淡	-9.94788
不好意思	-9.94807
郎	-9.94867
視	-9.94867
Here	-9.94905
所有的	-9.9494
儿童	-9.94944
天气	-9.94957
在哪	-9.94991
就不	-9.94997
题	-9.95026
是由	-9.95033
明白	-9.95039
components	-9.9506
第四	-9.95069
骂	-9.95077
腰	-9.95147
庄	-9.95149
怎麼	-9.95162
周末	-9.95225
豪	-9.9529
应该是	-9.95322
看过	-9.95532
智	-9.95533
▁stock	-9.95535
of	-9.95551
▁out	-9.95554
問題	-9.95557
小说	-9.95583
移动	-9.95601
销售	-9.9561
現	-9.95642
寺	-9.95802
fe	-9.95804
上课	-9.95814
上了	-9.95823
▁also	-9.95827
▁text	-9.95829
ator	-9.95925
宣	-9.95962
范围	-9.95962
變	-9.95975
协议	-9.96023
大量	-9.96024
command	-9.96052
餐馆	-9.96139
怎么办	-9.96145
▁no	-9.96174
首次	-9.96178
回复	-9.96248
快速	-9.96316
为啥	-9.96322
生日	-9.9636
IN	-9.96405
hi	-9.96424
软	-9.96433
炮	-9.96452
op	-9.96473
CA	-9.96498
sp	-9.96512
發現	-9.96538
基础	-9.96639
format	-9.9664
De	-9.96644
熟	-9.96674
ac	-9.96684
大部分	-9.96712
是你	-9.96723
模	-9.96803
职业	-9.96917
的故事	-9.96976
出生	-9.96985
内部	-9.96992
do	-9.97025
DD	-9.97028
并没有	-9.97053
▁tool	-9.97075
暖	-9.971
莎	-9.97136
回答	-9.97258
我也想	-9.97279
篮球	-9.97279
延	-9.97301
###	-9.97325
一份	-9.97327
呆	-9.97371
看你	-9.97384
UTC	-9.97397
你能	-9.97456
折	-9.97509
乌	-9.97576
盐	-9.97579
旅行	-9.97642
那個	-9.97656
制造	-9.97664
年的	-9.97672
答	-9.97701
大家都	-9.9771
▁between	-9.9778
根本	-9.97787
▁before	-9.97828
有效	-9.97835
英语	-9.97848
灰	-9.97891
References	-9.97894
用的	-9.97975
拼	-9.98011
▁Could	-9.98022
最大的	-9.98131
麻烦	-9.98135
念	-9.98146
成本	-9.98182
愿	-9.98185
你怎么	-9.98195
真的很	-9.98198
void	-9.98223
感谢	-9.98243
还没有	-9.98309
而不是	-9.98322
一直在	-9.98436
轴	-9.98442
哦哦	-9.98485
烦	-9.98493
三年	-9.98505
go	-9.98515
乘	-9.98532
排名	-9.98626
昌	-9.98675
角色	-9.98692
昂	-9.98699
物质	-9.98712
早上	-9.98721
担任	-9.9875
增长	-9.98796
？
‪	-9.98843
邦	-9.98909
搭	-9.98924
不客气	-9.99135
胶	-9.99155
过了	-9.99159
心里	-9.99256
特殊	-9.99268
资料	-9.99299
不再	-9.99302
User	-9.99305
下面	-9.99309
明显	-9.99324
▁country	-9.99324
▁New	-9.99387
義	-9.99425
▁}

	-9.99437
明朝	-9.99438
test	-9.99485
留下	-9.99498
明星	-9.99507
熊	-9.99618
泵	-9.99619
错误	-9.99628
难道	-9.99644
钟	-9.99693
享受	-9.99713
幾	-9.99749
ill	-9.99791
▁pizza	-9.99876
▁please	-9.99876
聊	-9.99877
歌曲	-9.99896
▁price	-9.999
妹	-9.99939
很难	-9.9994
业务	-10.0002
陽	-10.0002
会有	-10.0003
措施	-10.0008
驻	-10.0008
纯	-10.0011
NBA	-10.0013
信号	-10.0019
獲	-10.0019
am	-10.0025
巧	-10.0025
忠	-10.0029
．	-10.0032
发表	-10.0033
全国	-10.0048
▁over	-10.0053
茨	-10.0055
有可能	-10.0058
国内	-10.0067
来看	-10.0077
认	-10.0078
成都	-10.0078
"]}}]	-10.0081
拖	-10.0092
/*	-10.0096
池	-10.0097
▁#	-10.01
锅	-10.01
理论	-10.0105
背景	-10.0106
交流	-10.011
要去	-10.011
▁find	-10.0116
担心	-10.0118
valid	-10.0141
出版	-10.0145
但我	-10.0145
家里	-10.0147
危险	-10.0147
寄	-10.0148
num	-10.015
独立	-10.0151
尤其是	-10.0152
赶	-10.0154
岸	-10.0159
ence	-10.0162
现实	-10.0162
少女	-10.0162
小姐	-10.0162
英雄	-10.0171
众	-10.0179
的比赛	-10.0181
举行	-10.0185
裏	-10.0187
觀	-10.0191
竹	-10.0193
码	-10.0199
info	-10.02
办法	-10.02
面積	-10.0201
检测	-10.0202
节目	-10.0211
父亲	-10.0211
▁when	-10.0215
宮	-10.0216
女生	-10.0217
席	-10.0222
厂	-10.0226
▁who	-10.0231
闻	-10.0234
欲	-10.0235
风险	-10.0235
費	-10.024
移	-10.0241
社区	-10.0247
公园	-10.0249
也很	-10.0258
需求	-10.0259
峰	-10.0259
離	-10.026
調	-10.0261
萌	-10.0265
批	-10.0267
革命	-10.0267
的新	-10.0275
临	-10.0276
股票	-10.0293
音樂	-10.0293
本来	-10.0298
▁product	-10.0305
土地	-10.0306
)，	-10.031
感情	-10.0314
）。

	-10.0314
那边	-10.032
成员	-10.0323
提前	-10.0325
ag	-10.0329
主义	-10.0331
才是	-10.0334
英國	-10.0343
吃的	-10.0345
不喜欢	-10.0346
评	-10.0348
泥	-10.0352
冠	-10.0353
尿	-10.0354
符合	-10.0357
vi	-10.0369
农	-10.0373
等我	-10.0374
溪	-10.0382
害怕	-10.0386
现代	-10.0397
也要	-10.0398
推荐您去	-10.0398
费用	-10.0398
大概	-10.0401
不過	-10.0406
仔	-10.0406
改善	-10.0408
试试	-10.041
化学	-10.0412
男性	-10.0417
实际	-10.0417
不需要	-10.0419
鐵	-10.0421
val	-10.0426
質	-10.043
甘	-10.0431
亲爱的	-10.0433
十二	-10.0435
变得	-10.0441
鎮	-10.0444
二十	-10.0447
enum	-10.045
会议	-10.0455
描述	-10.0456
稳定	-10.0458
犯罪	-10.046
str	-10.0463
面积	-10.0463
就好了	-10.0467
//	-10.0474
滿	-10.0478
魚	-10.048
欢迎	-10.0481
size	-10.0483
year	-10.0496
稳	-10.05
分子	-10.0501
挂	-10.0504
警方	-10.0507
】	-10.0509
称为	-10.0515
电话是	-10.0523
不懂	-10.0525
喊	-10.0529
陪	-10.053
▁image	-10.0531
的影响	-10.0531
bo	-10.0536
entry	-10.0536
赛季	-10.054
出口	-10.0543
平均	-10.0543
AR	-10.0544
Check	-10.0546
層	-10.0551
观察	-10.0551
便宜	-10.0556
真好	-10.0556
带来	-10.0557
事实	-10.0565
始	-10.0565
男朋友	-10.0566
▁La	-10.0575
心理	-10.0593
针对	-10.0593
青年	-10.0603
▁tools	-10.0604
這種	-10.0606
你这	-10.0607
扣	-10.061
我没	-10.0622
乙	-10.0626
生日快乐	-10.0629
影片	-10.063
Data	-10.0636
po	-10.0639
」，	-10.0639
让我们	-10.0645
尖	-10.0645
▁For	-10.0651
▁may	-10.0653
瓜	-10.0656
▁other	-10.0656
也没有	-10.0657
苏州	-10.0658
示	-10.0658
家人	-10.0659
)

	-10.0667
航空	-10.0673
允许	-10.0677
固定	-10.0677
ff	-10.0679
AS	-10.0682
年前	-10.0683
那么多	-10.0684
恋	-10.0694
鄉	-10.0699
粗	-10.0699
復	-10.0703
体验	-10.0706
為什麼	-10.0706
極	-10.0713
疼	-10.0715
每年	-10.0716
呈	-10.0723
.",	-10.0723
篇	-10.0728
▁L	-10.073
成绩	-10.0731
这边	-10.0731
几天	-10.0734
少年	-10.0739
丰	-10.0745
泉	-10.0748
就算	-10.075
發生	-10.0752
);

	-10.0753
多久	-10.0754
我能	-10.0757
姓	-10.0762
授	-10.0766
遠	-10.0771
▁Default	-10.0772
佐	-10.0773
实力	-10.0774
世界杯	-10.0779
珠	-10.079
年龄	-10.079
抽	-10.0795
炸	-10.0798
》、《	-10.0799
务	-10.0801
博士	-10.0802
侯	-10.082
员工	-10.0823
拒绝	-10.0824
买的	-10.0825
應該	-10.0827
您可以	-10.0829
市镇	-10.0832
生长	-10.0842
吐	-10.0848
盆	-10.0848
习惯	-10.0848
籍	-10.085
net	-10.0856
難	-10.0856
恶	-10.0856
的名字	-10.0856
還是	-10.0865
land	-10.0869
无聊	-10.087
definitions	-10.0871
兹	-10.0873
pos	-10.0876
当天	-10.0877
组成	-10.0879
错了	-10.0885
能不能	-10.0888
▁including	-10.089
来的	-10.089
名称	-10.0892
}
	-10.0897
显	-10.0898
于是	-10.0898
某些	-10.09
想到	-10.0901
▁two	-10.0901
一只	-10.0907
伤害	-10.0908
瓶	-10.091
逆	-10.0912
雙	-10.0915
购	-10.0922
困难	-10.0924
舍	-10.0931
▁there	-10.0938
ga	-10.0945
对了	-10.0947
Search	-10.0951
Event	-10.0953
ST	-10.0954
宜	-10.0955
喜歡	-10.0959
di	-10.0965
he	-10.0968
br	-10.0973
宇	-10.0973
经历	-10.0975
add	-10.0978
臣	-10.098
做了	-10.0981
不知	-10.0992
民族	-10.0993
竟然	-10.0994
聯	-10.0994
机场	-10.0996
領	-10.0996
心情	-10.0997
颜色	-10.1021
其它	-10.1023
～	-10.1024
采取	-10.1026
汗	-10.1026
],	-10.1031
▁None	-10.1035
"},{"	-10.1041
表演	-10.1044
玛	-10.1048
高度	-10.105
宿舍	-10.1058
放假	-10.1058
▁i	-10.1059
是真的	-10.1062
人士	-10.1064
动作	-10.1071
碎	-10.1072
力量	-10.1075
财	-10.1076
垃圾	-10.1077
时候	-10.1078
‑	-10.1078
mp	-10.1081
忍	-10.1089
▁provide	-10.1091
▁x	-10.1095
恐怖	-10.1099
那天	-10.1103
（，），	-10.1109
也没	-10.1114
▁include	-10.1118
典	-10.112
薩	-10.1125
橋	-10.1127
马上	-10.113
當時	-10.1131
fi	-10.1137
等你	-10.1146
道路	-10.1146
岁的	-10.1151
潮	-10.1154
桃	-10.1155
话说	-10.1159
针	-10.116
还会	-10.1166
告诉你	-10.1166
母亲	-10.1168
雲	-10.1178
ations	-10.1179
提升	-10.1181
赶紧	-10.1181
闭	-10.1202
▁version	-10.1202
紅	-10.1202
真正	-10.1205
蛮	-10.1219
都能	-10.1222
振	-10.1223
結	-10.1227
接触	-10.1229
祝	-10.1233
金融	-10.1239
this	-10.124
}
{"	-10.1246
▁‎
-	-10.1248
寶	-10.1255
ms	-10.1257
▁RapidAPI	-10.1259
集团	-10.1262
ru	-10.1263
大小	-10.1265
本身	-10.1266
童	-10.1276
夏天	-10.1277
面对	-10.1277
的一部分	-10.1277
不可能	-10.1282
▁work	-10.1284
product	-10.1286
太好了	-10.1289
替	-10.1292
双方	-10.1295
▁see	-10.1297
const	-10.1306
妮	-10.1307
杆	-10.1308
％	-10.1309
爬	-10.131
ions	-10.1316
认真	-10.132
》（	-10.1321
命令	-10.1323
的情况	-10.1325
旅	-10.1325
---	-10.1329
意思	-10.1332
寒	-10.1332
不够	-10.1333
白色	-10.1334
把我	-10.1344
哎呀	-10.135
▁You	-10.1355
彈	-10.1361
my	-10.1376
上映	-10.1381
对方	-10.1386
根據	-10.1389
red	-10.1392
回来了	-10.1395
房子	-10.1396
这么多	-10.1403
link	-10.1406
ph	-10.1409
咬	-10.1414
依然	-10.1415
阅读	-10.1417
访问	-10.1417
突	-10.1421
的大	-10.1422
▁unique	-10.1431
戈	-10.1439
另一个	-10.1452
领域	-10.1457
▁been	-10.1459
洪	-10.146
魏	-10.1464
浮	-10.1466
皇帝	-10.1468
同样	-10.1468
好久	-10.1469
的感觉	-10.147
赢	-10.1472
},"	-10.1476
的方法	-10.1478
tic	-10.1478
昨晚	-10.1479
车辆	-10.1481
你不是	-10.1483
受伤	-10.1485
ick	-10.1487
饼	-10.1488
屆	-10.1492
郭	-10.1493
壮	-10.1494
讨论	-10.1495
效	-10.1495
主席	-10.1495
察	-10.1496
標	-10.1501
▁email	-10.1502
接近	-10.1505
想去	-10.1507
长得	-10.1511
以来	-10.1515
▁~
	-10.1517
old	-10.1519
狼	-10.1521
注册	-10.1522
相当	-10.1522
運動員	-10.1523
祝福	-10.1524
我就是	-10.1525
如今	-10.1526
專	-10.1539
學校	-10.154
庭	-10.1541
找个	-10.1546
吸引	-10.1548
创建	-10.1549
們	-10.1549
都可以	-10.1549
规则	-10.1549
发挥	-10.155
挑战	-10.155
证据	-10.1551
一张	-10.1554
进去	-10.1561
星期	-10.1562
▁My	-10.1564
勝	-10.157
签	-10.1573
闲	-10.1575
穆	-10.1576
親	-10.1577
想吃	-10.159
妈	-10.1594
里的	-10.1599
荷	-10.16
倫	-10.16
到达	-10.1606
公司的	-10.161
▁filter	-10.1612
很有	-10.1617
table	-10.1621
幼	-10.1628
有多	-10.1629
模型	-10.1632
变成	-10.1634
殿	-10.1634
居民	-10.1645
及其	-10.1661
下雨	-10.1662
简	-10.1663
通知	-10.1666
一樣	-10.1667
防止	-10.1672
下的	-10.1677
tra	-10.1681
风格	-10.1681
横	-10.1682
流行	-10.1682
综合	-10.1682
猛	-10.1683
让他	-10.1687
很少	-10.169
▁valid	-10.1692
▁response	-10.1694
坦	-10.1696
我还是	-10.1699
剧情	-10.17
這裡	-10.1711
答案	-10.1712
物理	-10.1718
实施	-10.172
▁un	-10.1721
老板	-10.1723
乃	-10.1724
失去	-10.1727
你去	-10.1728
湿	-10.173
！
‎	-10.1731
舰	-10.1732
岩	-10.1736
玻璃	-10.1736
惨	-10.1737
官方	-10.1742
▁into	-10.1746
ang	-10.1748
相对	-10.176
han	-10.1766
ings	-10.1767
▁how	-10.1768
大的	-10.177
关键	-10.1774
你又	-10.1779
附	-10.178
由於	-10.1783
ver	-10.1785
它是	-10.1787
fa	-10.1788
掌	-10.1789
实验	-10.1795
而言	-10.1795
一旦	-10.1797
萊	-10.1799
记者	-10.1799
ear	-10.1803
去世	-10.1811
地铁	-10.1813
很大	-10.1816
咖啡	-10.1819
丈夫	-10.1819
小心	-10.182
一部	-10.1825
耍	-10.1826
ER	-10.1831
思想	-10.1832
房间	-10.1833
结合	-10.1835
ell	-10.1835
▁team	-10.1836
item	-10.1839
最大	-10.1839
涂	-10.1842
奶	-10.1844
our	-10.1846
枝	-10.1846
摆	-10.1847
联合	-10.1848
相比	-10.1852
卫生	-10.1855
的一個	-10.1863
了呢	-10.1864
围	-10.1869
困	-10.1872
？」	-10.1872
頓	-10.1876
嗯呢	-10.1885
计算机	-10.1885
日期	-10.1889
幸	-10.1889
对不起	-10.1893
参	-10.1893
一项	-10.1895
很快	-10.19
預	-10.19
剑	-10.1903
冬	-10.1903
女朋友	-10.1905
country	-10.1917
sa	-10.1917
lu	-10.1919
ke	-10.1919
序	-10.1919
：）	-10.1923
同時	-10.1925
候	-10.1928
建设	-10.1928
羽	-10.193
▁values	-10.1942
带着	-10.1947
特别是	-10.1948
法國	-10.1949
忘了	-10.1951
的情况下	-10.1954
烤	-10.1954
斤	-10.1955
把你	-10.1956
愿意	-10.1957
靈	-10.1958
庫	-10.1959
串	-10.1959
进一步	-10.196
课程	-10.1963
bit	-10.1964
特征	-10.1965
▁match	-10.1968
互	-10.1968
我今天	-10.197
小孩	-10.197
pri	-10.1974
袋	-10.1978
出現	-10.198
没什么	-10.1981
}

	-10.1981
撞	-10.1986
教练	-10.1986
榜	-10.1987
light	-10.1989
材	-10.1991
卢	-10.1993
检	-10.2002
設	-10.2007
碰	-10.2008
é	-10.2017
并不是	-10.2018
sort	-10.2027
園	-10.2037
有机会	-10.2039
槍	-10.2041
ps	-10.2045
ja	-10.2046
杭州	-10.2047
演出	-10.205
兩個	-10.2057
败	-10.2063
看到了	-10.2065
年度	-10.2069
陵	-10.2071
镜	-10.2073
妹妹	-10.2074
表明	-10.2075
创造	-10.2075
為了	-10.2083
女儿	-10.2087
眾	-10.209
医	-10.209
积	-10.2093
申	-10.2095
健	-10.2096
晒	-10.2097
紫	-10.2098
劉	-10.21
▁*
	-10.2101
公布	-10.2101
分享	-10.2102
技能	-10.2102
没人	-10.2115
要不要	-10.2119
鼓	-10.2125
ea	-10.2126
query	-10.2128
衛	-10.2128
MA	-10.2129
【	-10.213
资金	-10.2134
ated	-10.2138
军事	-10.2139
专家	-10.214
寻找	-10.2143
param	-10.2145
壳	-10.2152
異	-10.2155
俄	-10.2157
俊	-10.2157
深圳	-10.2159
乳	-10.216
参见	-10.2161
om	-10.2175
成了	-10.2178
墨	-10.2183
联盟	-10.2185
AT	-10.2188
尝试	-10.2189
简直	-10.2195
一段	-10.2195
创	-10.2197
禮	-10.22
意外	-10.2201
争	-10.2201
红色	-10.2207
北部	-10.2209
類	-10.221
詩	-10.2212
连续	-10.2215
评论	-10.2215
°	-10.2215
机械	-10.2216
所以我	-10.2223
New	-10.2225
方案	-10.2226
▁l	-10.2229
▁test	-10.2231
運	-10.2231
早期	-10.2232
制度	-10.2233
晕	-10.2238
IT	-10.224
逐渐	-10.2241
提供了	-10.2241
舊	-10.2242
我只是	-10.2245
av	-10.2246
金属	-10.2249
▁==	-10.225
月份	-10.2253
▁where	-10.2256
symbol	-10.2257
肚子	-10.2261
庆	-10.2262
schema	-10.2268
貝	-10.2268
数量	-10.2273
上次	-10.2274
遭	-10.2284
▁V	-10.2288
▁Bo	-10.2289
%，	-10.229
渡	-10.2294
食品	-10.2296
杂	-10.2297
我国	-10.2298
不足	-10.23
移民	-10.2302
挺好的	-10.2303
老公	-10.2306
作為	-10.2311
铁路	-10.2315
开放	-10.2316
▁after	-10.2318
阀	-10.2324
在此	-10.2327
熱	-10.2328
恨	-10.2329
编辑	-10.2329
瑟	-10.233
臭	-10.233
Service	-10.2332
ner	-10.2339
reservation	-10.234
冬天	-10.234
主演	-10.2342
测	-10.2346
ud	-10.2349
讨厌	-10.2354
洲	-10.2354
承认	-10.2359
出发	-10.2361
count	-10.2375
low	-10.2376
廣	-10.2384
ach	-10.239
▁Ma	-10.2392
地下	-10.2393
Key	-10.2393
辛苦	-10.2393
等着	-10.2395
阻	-10.2397
記	-10.2401
興	-10.2403
或许	-10.2408
基于	-10.2413
▁self	-10.2416
矿	-10.2422
本文	-10.2422
使得	-10.2429
▁status	-10.243
肯	-10.2431
也在	-10.2433
基因	-10.2436
▁group	-10.2439
▁season	-10.2441
胎	-10.2441
奉	-10.2443
port	-10.2444
新加坡	-10.2447
正是	-10.2456
base	-10.2457
▁domain	-10.2458
正好	-10.246
ake	-10.246
?
-	-10.2462
status	-10.2467
销	-10.2468
的主要	-10.247
example	-10.2472
敌	-10.2473
	-10.2474
失败	-10.2475
优势	-10.2475
遊戲	-10.2476
涉及	-10.2477
YYYY	-10.2478
之中	-10.2478
你家	-10.2482
rs	-10.2482
side	-10.2484
有空	-10.2495
就有	-10.25
關係	-10.2503
屏	-10.2505
遍	-10.251
mon	-10.252
遇	-10.2522
Set	-10.2523
快点	-10.2524
尤	-10.2524
墓	-10.2525
裂	-10.2526
午	-10.2527
傷	-10.253
胃	-10.2531
▁her	-10.2533
起來	-10.2533
琴	-10.2535
现象	-10.2536
议	-10.2539
姑娘	-10.2545
qu	-10.2545
图片	-10.2548
踢	-10.2551
分别	-10.2553
实际上	-10.2555
别的	-10.2556
我會	-10.2557
俗	-10.2558
的孩子	-10.256
醉	-10.2562
游泳	-10.2565
的样子	-10.2567
si	-10.2572
最好的	-10.2572
感受	-10.2578
大约	-10.2579
能源	-10.2587
想想	-10.2592
摇	-10.2595
黑色	-10.2595
ward	-10.2596
Number	-10.2596
优	-10.2603
▁field	-10.2611
":[	-10.2613
▁part	-10.2618
旁	-10.2621
民主	-10.2622
多个	-10.2624
夫人	-10.2629
畫	-10.2645
http	-10.2648
呼吸	-10.265
选手	-10.2651
状况	-10.2653
connect	-10.2657
妻子	-10.2669
缓	-10.2681
戒	-10.2682
Filter	-10.2686
論	-10.2688
不少	-10.2691
樓	-10.2694
这不是	-10.2696
及时	-10.2704
这位	-10.2705
魯	-10.2711
痛苦	-10.2715
Value	-10.2716
输入	-10.2717
務	-10.2718
ub	-10.2722
飛	-10.2723
▁schema	-10.2727
高级	-10.2736
▁w	-10.2738
不去	-10.274
肝	-10.2744
Properties	-10.2746
真正的	-10.2748
等待	-10.2753
的位置	-10.2754
采	-10.2754
較	-10.277
冻	-10.277
插	-10.2771
娱乐	-10.2774
▁year	-10.2776
元素	-10.2782
还不错	-10.2795
Test	-10.2799
]
	-10.2802
动力	-10.2804
医疗	-10.2805
坡	-10.2805
組織	-10.2805
▁would	-10.2807
电池	-10.2808
一半	-10.2808
"}}
{"	-10.2811
是吧	-10.2815
護	-10.282
学会	-10.2825
在这	-10.2826
泽	-10.2833
损失	-10.2836
来吧	-10.2843
同年	-10.2852
隨	-10.2854
亿美元	-10.2855
def	-10.2857
▁result	-10.2858
誰	-10.286
处于	-10.2862
共有	-10.2863
欠	-10.2865
ak	-10.2865
pa	-10.2867
word	-10.2872
输	-10.2872
编	-10.2876
另	-10.2877
和其他	-10.2889
議	-10.289
挑	-10.2891
藥	-10.2894
冠軍	-10.2896
唯一	-10.2898
air	-10.2898
随便	-10.2902
ical	-10.2905
你了	-10.2911
因为我	-10.2912
pt	-10.2912
File	-10.2912
出门	-10.2913
术	-10.2914
AL	-10.2917
optional	-10.2919
不如	-10.2921
館	-10.2927
平时	-10.2931
宝贝	-10.2931
的那个	-10.2935
添加	-10.2935
还不	-10.2942
中间	-10.2947
关心	-10.2947
能量	-10.2948
nd	-10.2949
file	-10.295
闹	-10.2951
肠	-10.2954
??
	-10.2955
走吧	-10.2956
目的	-10.2958
的电影	-10.296
▁York	-10.296
replaceable	-10.2961
紧张	-10.2963
决	-10.297
尊	-10.2982
換	-10.2987
真实	-10.2987
扫	-10.2989
map	-10.2991
鲜	-10.2994
第一个	-10.2995
应当	-10.2997
我不是	-10.3003
阵	-10.3003
没办法	-10.3005
▁item	-10.3008
敏	-10.3011
伏	-10.3013
郑	-10.3015
孝	-10.3017
柔	-10.3018
大型	-10.302
推出	-10.302
论文	-10.302
积极	-10.3021
DE	-10.3022
author	-10.3024
▁Ho	-10.3025
LE	-10.3028
适应	-10.303
年人口	-10.304
▁symbol	-10.3041
USD	-10.3046
下了	-10.3049
寧	-10.3052
往往	-10.3056
破坏	-10.306
巴西	-10.3061
che	-10.3069
男生	-10.3069
可以在	-10.307
bar	-10.3072
声音	-10.3075
天啊	-10.3076
主任	-10.3079
凝	-10.3081
夹	-10.3082
View	-10.3085
对手	-10.3088
社會	-10.3097
梅西	-10.3098
bin	-10.3098
無法	-10.3099
葉	-10.3113
神经	-10.3117
在线	-10.3122
身份	-10.3123
屬於	-10.3125
反对	-10.313
高中	-10.3132
骗	-10.3135
填	-10.3136
署	-10.3139
疑	-10.3139
摸	-10.3144
威胁	-10.3145
旺	-10.3145
案件	-10.3148
最後	-10.3149
我没有	-10.3149
iv	-10.3149
这部电影	-10.315
好吃的	-10.3151
系統	-10.3156
▁}	-10.3158
▁were	-10.3161
将会	-10.3163
好玩	-10.3163
▁final	-10.3165
净	-10.317
柏	-10.3173
刺激	-10.3176
震	-10.3182
去看看	-10.3188
和你	-10.3195
▁Ro	-10.3195
輕	-10.3199
);	-10.3204
學院	-10.3206
避	-10.3206
成員	-10.3208
劲	-10.3209
观众	-10.321
合理	-10.3211
特定	-10.3212
启动	-10.3213
进行了	-10.3213
中文	-10.3217
▁String	-10.3221
一致	-10.3228
");
	-10.3229
谱	-10.324
氧化	-10.324
不久	-10.3241
益	-10.3246
▁next	-10.3248
难以	-10.325
叔	-10.325
是为了	-10.3254
store	-10.3254
大哥	-10.3255
不在	-10.3257
你说的	-10.3266
不容易	-10.327
怒	-10.3271
也能	-10.3272
ow	-10.3272
參考文獻	-10.3274
大多数	-10.3275
掉了	-10.3281
腹	-10.3282
重要的	-10.3294
一句	-10.3301
僅	-10.3302
扬	-10.3303
育	-10.3303
咱	-10.3304
随后	-10.3307
混合	-10.3308
接下来	-10.331
order	-10.3314
默	-10.3317
没想到	-10.3318
address	-10.3319
但在	-10.332
前面	-10.3324
直播	-10.3326
我们可以	-10.3327
發行	-10.3331
ov	-10.3334
Time	-10.3334
	-10.3336
营养	-10.3337
装置	-10.3338
数学	-10.3338
config	-10.3339
学名	-10.334
妹子	-10.335
公开	-10.3351
節目	-10.3352
俩	-10.3353
不住	-10.3353
窗	-10.3358
con	-10.336
相同	-10.3363
喷	-10.3365
荣	-10.3367
中华人民共和国	-10.3369
想象	-10.3369
娃	-10.3369
炒	-10.337
利益	-10.337
律	-10.3373
页面	-10.3379
▁Mo	-10.338
活動	-10.3381
面前	-10.3382
复杂	-10.3385
会不会	-10.3388
房屋	-10.3388
上帝	-10.3393
迁	-10.3399
▁v	-10.3403
▁they	-10.3409
我得	-10.3411
act	-10.3416
至今	-10.3417
每天都	-10.3422
...
‎	-10.3423
我自己	-10.3425
tri	-10.3426
发行	-10.3426
搜	-10.3428
须	-10.3432
琳	-10.3433
办公室	-10.3437
▁had	-10.3438
au	-10.3439
▁char	-10.3447
上去	-10.3449
伴	-10.345
▁rate	-10.3453
▁No	-10.3456
離開	-10.3459
纹	-10.346
厅	-10.3463
建築	-10.3464
婚姻	-10.3465
明确	-10.3466
弟弟	-10.3466
package	-10.3468
代码	-10.3469
头像	-10.347
ok	-10.347
▁each	-10.347
ess	-10.3482
營	-10.3489
分为	-10.349
奈	-10.3494
妃	-10.3496
歸	-10.3496
媽	-10.3497
必要	-10.3498
]}}}]
{"	-10.35
鸭	-10.35
陆	-10.3501
售	-10.3503
述	-10.3503
四川	-10.3504
的一种	-10.3508
網	-10.351
设施	-10.3511
配置	-10.3512
way	-10.3522
隐	-10.3527
就去	-10.3527
蛇	-10.353
情绪	-10.3532
给他	-10.3535
东北	-10.3535
公主	-10.3539
碗	-10.3543
▁local	-10.3545
email	-10.3545
有时	-10.355
▁these	-10.3551
range	-10.356
哼	-10.3562
领导	-10.3563
伊朗	-10.3564
评估	-10.3565
投票	-10.3566
说了	-10.3567
放心	-10.3581
球員	-10.3589
▁market	-10.3589
己	-10.3591
的話	-10.3594
腔	-10.3594
你来	-10.3597
module	-10.3599
德國	-10.36
在那里	-10.3603
癌	-10.3605
▁Let	-10.3607
收集	-10.3608
投入	-10.3609
先走了	-10.3609
命名	-10.3611
立即	-10.3615
後來	-10.3616
这个景点	-10.362
最新	-10.3622
染	-10.3623
划	-10.3624
赤	-10.3629
律师	-10.363
纽约	-10.3631
的发展	-10.3631
或是	-10.3631
image	-10.3633
提醒	-10.3636
SS	-10.3639
女士	-10.3643
期間	-10.3645
晓	-10.3652
机器人	-10.3656
▁U	-10.3658
勤	-10.366
CO	-10.3661
IP	-10.3662
od	-10.3663
艺	-10.3663
韦	-10.3664
门票	-10.3669
发出	-10.367
▁our	-10.3671
？
‎
-	-10.3672
审	-10.3676
)"},"	-10.3677
偶	-10.3679
...
-	-10.3681
完美	-10.3682
ail	-10.3683
介	-10.3688
搬	-10.369
响	-10.3691
不起	-10.3694
囊	-10.3694
试验	-10.3695
ng	-10.3695
都很	-10.3696
十年	-10.3699
你也是	-10.3704
▁plan	-10.3705
的声音	-10.371
▁start	-10.371
▁project	-10.3713
思考	-10.3715
▁co	-10.3716
老婆	-10.3716
~",	-10.3717
顾	-10.3717
万元	-10.3718
骑	-10.3721
TV	-10.3723
华为	-10.3723
迅速	-10.3728
乔	-10.3728
乖	-10.373
多次	-10.3732
资	-10.3732
确认	-10.3739
TO	-10.3741
出来的	-10.3743
主题	-10.3745
果然	-10.3745
ative	-10.3746
一點	-10.3746
.",
	-10.3748
饿	-10.3751
▁ride	-10.3753
见到	-10.3754
订	-10.3759
ld	-10.3762
tion	-10.3762
芳	-10.3763
煮	-10.3764
su	-10.3764
翻译	-10.3765
▁must	-10.3765
▁same	-10.3766
AM	-10.3772
CH	-10.3773
version	-10.3778
礼物	-10.3789
chi	-10.379
我一直	-10.3793
晋	-10.3794
访	-10.3794
明年	-10.3795
牧	-10.3796
亚洲	-10.3798
▁could	-10.3798
四个	-10.3799
▁app	-10.3801
task	-10.3805
哒	-10.3809
两人	-10.3811
教堂	-10.3814
多年	-10.3814
SE	-10.3819
精彩	-10.3823
英文	-10.3826
威爾斯	-10.3826
缺乏	-10.3828
du	-10.3829
斑	-10.383
你现在	-10.3832
):
	-10.3833
非洲	-10.3839
心疼	-10.3839
你自己	-10.384
和平	-10.384
堆	-10.3853
hu	-10.3856
废	-10.3858
虚	-10.3861
男孩	-10.3861
莊	-10.3863
孟	-10.3863
•	-10.3864
父親	-10.3864
饮食	-10.3864
▁found	-10.3866
一块	-10.3874
打球	-10.3882
五年	-10.3883
▁application	-10.3889
不怕	-10.3896
判	-10.3896
两种	-10.3901
然後	-10.3901
没问题	-10.3903
我不想	-10.3905
▁range	-10.3906
製作	-10.3913
項	-10.3915
把它	-10.3917
▁make	-10.3918
过年	-10.3919
录	-10.3919
lat	-10.3926
▁Co	-10.3929
ast	-10.393
污染	-10.393
ton	-10.3931
Map	-10.3931
養	-10.3931
传播	-10.3934
异常	-10.3935
last	-10.3938
print	-10.394
ct	-10.3941
ger	-10.3945
私人	-10.3946
知道了	-10.3949
。
（	-10.395
中午	-10.3951
本人	-10.3959
一生	-10.396
服務	-10.3965
夢	-10.3965
鹿	-10.3966
決定	-10.3966
歌手	-10.3968
Inquirer	-10.3968
情况下	-10.3968
运输	-10.397
态	-10.3975
说我	-10.3977
ong	-10.3979
将其	-10.398
木有	-10.3986
残	-10.3987
AN	-10.3989
les	-10.399
ride	-10.3993
如果您	-10.3996
无论	-10.3997
文字	-10.3999
一百	-10.4
穷	-10.4
丘	-10.4
拳	-10.4
樣	-10.4001
全面	-10.4002
工资	-10.4004
Item	-10.4005
產	-10.401
拍照	-10.4014
街道	-10.4016
出来了	-10.402
出來	-10.402
有哪些	-10.4021
通過	-10.4023
▁long	-10.4024
娘	-10.4025
設有	-10.4028
Code	-10.4028
▁go	-10.4029
夸	-10.4031
第五	-10.4032
‘	-10.4033
眉	-10.4034
必須	-10.4034
藤	-10.4035
▁sub	-10.4045
森林	-10.4045
味道	-10.4052
氧	-10.4053
不上	-10.4056
之外	-10.4056
今日	-10.4059
珍	-10.4067
state	-10.4071
愉快	-10.4071
▁We	-10.4075
ue	-10.4079
战斗	-10.4082
距	-10.4088
▁Me	-10.4089
生存	-10.409
OS	-10.4094
va	-10.4095
順	-10.4096
冒	-10.4097
宿	-10.4101
早就	-10.4103
а	-10.4105
资格	-10.4105
丢	-10.4114
最初	-10.4118
如下	-10.412
作业	-10.4122
般	-10.4125
art	-10.4128
又是	-10.413
组合	-10.4136
女神	-10.4136
雖然	-10.4137
了嗎	-10.4139
试图	-10.4142
操	-10.4144
▁through	-10.4146
现在的	-10.4147
off	-10.4148
提到	-10.4148
太多了	-10.416
楚	-10.417
蔡	-10.4171
有时候	-10.4171
贸易	-10.4172
成熟	-10.4172
踏	-10.4172
烏	-10.4172
sum	-10.4174
禁止	-10.4174
虾	-10.4175
取消	-10.4175
旁边	-10.4176
发现了	-10.4182
将军	-10.4182
几年	-10.4185
效率	-10.4196
gu	-10.4197
ai	-10.42
環	-10.4201
了很多	-10.4202
編	-10.4202
楊	-10.4205
傑	-10.4207
也不是	-10.4207
麗	-10.4208
▁var	-10.4208
资产	-10.4208
搜索	-10.4209
协会	-10.4211
两年	-10.4213
{
	-10.4227
自我	-10.4228
▁All	-10.4231
pi	-10.4232
是我的	-10.4232
执	-10.4238
柳	-10.4241
艇	-10.4244
▁within	-10.4251
终	-10.4252
▁Do	-10.4253
ize	-10.4254
▁IP	-10.4258
lt	-10.4266
zh	-10.4268
ral	-10.4273
主義	-10.4274
的作用	-10.4275
孫	-10.4276
肌	-10.4277
埋	-10.4277
闪	-10.4278
平衡	-10.428
标志	-10.428
很棒	-10.4284
古代	-10.4286
构成	-10.4289
好像是	-10.4291
的所有	-10.4293
這麼	-10.4293
參	-10.4298
看的	-10.43
less	-10.4301
ish	-10.4305
仪	-10.4307
有一	-10.4308
奔	-10.431
互相	-10.431
備	-10.4311
『	-10.4312
加工	-10.4312
ED	-10.4313
週	-10.4314
咨询	-10.4315
▁sorry	-10.4316
Object	-10.4316
ka	-10.4317
预测	-10.4321
▁[
	-10.4322
index	-10.4323
sign	-10.433
▁than	-10.4332
病人	-10.4332
製	-10.4332
表情	-10.4333
▁last	-10.4336
展示	-10.4337
你喜欢	-10.4338
更好的	-10.4342
粘	-10.4347
燕	-10.4349
專輯	-10.4349
▁what	-10.4352
激动	-10.4352
暴力	-10.4357
感冒	-10.4357
叫我	-10.4369
我真的	-10.437
多少钱	-10.4371
睡了	-10.4372
统计	-10.4374
▁null	-10.4376
ard	-10.4378
ron	-10.4378
耗	-10.4383
准确	-10.4385
source	-10.44
上述	-10.4403
認	-10.4404
焦	-10.4414
意见	-10.4414
絲	-10.4418
联邦	-10.4418
放弃	-10.4419
事故	-10.4419
輪	-10.442
博物馆	-10.4421
▁example	-10.4422
魔法	-10.4425
沿	-10.4425
返回	-10.4426
舉	-10.4428
的朋友	-10.4434
分以上	-10.4437
Response	-10.4437
霸	-10.4438
ob	-10.4443
爆炸	-10.4447
一定会	-10.4447
粒	-10.4448
很不错	-10.4448
有所	-10.4449
銀	-10.445
ling	-10.4452
军队	-10.4452
培训	-10.4457
的研究	-10.4459
小行星	-10.4459
State	-10.4467
点击	-10.4472
電視	-10.4474
祝你	-10.4477
大人	-10.4479
严	-10.4481
感动	-10.4483
特朗普	-10.449
▁error	-10.4492
屁	-10.4493
阻止	-10.4493
巴黎	-10.4494
▁website	-10.4494
汇	-10.4495
官员	-10.4497
用来	-10.4498
车站	-10.4498
基金	-10.4504
管道	-10.4511
财产	-10.4512
mer	-10.4513
currency	-10.4515
回來	-10.4521
奏	-10.4524
长的	-10.4524
我最近	-10.453
那麼	-10.453
▁either	-10.453
其他人	-10.4532
重大	-10.4535
auto	-10.4536
▁Al	-10.4537


#	-10.4539
ni	-10.454
作出	-10.4544
毁	-10.4546
西方	-10.4549
▁To	-10.455
商品	-10.4551
刊	-10.4556
▁flight	-10.456
肺	-10.4563
勢	-10.4563
稿	-10.4564
俱乐部	-10.4564
关闭	-10.4566
fl	-10.4566
忘	-10.4567
嫁	-10.4573
也就	-10.4581
驱动	-10.4582
找我	-10.4593
拆	-10.4593
坚	-10.4594
很久	-10.4597
作家	-10.4598
）

	-10.4598
详细	-10.46
設計	-10.4601
有限公司	-10.4605
▁Le	-10.4606
专门	-10.4606
ret	-10.4606
获得了	-10.4609
PC	-10.4613
肌肉	-10.4618
ect	-10.4619
悲	-10.462
上升	-10.4624
Th	-10.4624
保存	-10.4626
绕	-10.4628
测量	-10.463
克斯	-10.4631
欢	-10.4632
猜	-10.4636
更好	-10.4638
的酒店	-10.4638
高兴	-10.4639
去哪	-10.4641
）。
	-10.4642
并在	-10.4643
ft	-10.4645
details	-10.4649
消失	-10.4649
▁Con	-10.4655
多种	-10.4656
team	-10.4656
遭到	-10.4667
幹	-10.4668
灭	-10.467
为何	-10.4672
荒	-10.4672
稀	-10.4672
繁	-10.4672
澳大利亚	-10.4674
→	-10.4675
html	-10.4676
衞	-10.4676
胜利	-10.4676
我也觉得	-10.4678
一会	-10.4679
最終	-10.469
去吧	-10.4692
▁Use	-10.4692
后的	-10.4694
一步	-10.4694
首都	-10.4695
部队	-10.47
事业	-10.4705
妇	-10.4705
播放	-10.4707
驾驶	-10.4708
成长	-10.4709
缘	-10.4709
有了	-10.4712
经典	-10.4713
的确	-10.4721
此时	-10.4721
IC	-10.4727
Cl	-10.4727
ial	-10.473
查看	-10.4736
亡	-10.4738
我来	-10.4738
巡	-10.4744
开车	-10.4744
盡	-10.4745
也就是	-10.4746
同事	-10.4747
廳	-10.4748
爷	-10.4748
發展	-10.4749
既然	-10.4749
oc	-10.4751
??	-10.4753
找不到	-10.4754
▁Se	-10.4761
空调	-10.4762
南部	-10.4762
ran	-10.4767
做到	-10.477
做什么	-10.477
▁historical	-10.477
在美国	-10.4771
委員會	-10.4772
到时候	-10.4775
language	-10.478
遂	-10.4782
葬	-10.4782
陣	-10.4783
』	-10.4783
网上	-10.4783
繼續	-10.4784
哪些	-10.4784
結果	-10.4786
补充	-10.4786
促进	-10.4788
重庆	-10.4791
照顾	-10.4792
看完	-10.4798
錯	-10.4798
message	-10.4799
ens	-10.48
天下	-10.48
生气	-10.4803
"]	-10.4807
``	-10.4808
甚	-10.4811
qui	-10.4811
原则	-10.4811
一件	-10.4813
An	-10.4819
也不会	-10.4819
秘密	-10.4821
Com	-10.4821
></	-10.4821
宇宙	-10.4821
纤维	-10.4822
去找	-10.4823
贷款	-10.4825
ric	-10.4825
翼	-10.4825
進入	-10.4834
见过	-10.4844
一把	-10.4844
地址是	-10.4851
集中	-10.4851
外面	-10.4852
exp	-10.4854
继	-10.4854
men	-10.4854
謝	-10.4856
阳光	-10.4857
砂	-10.4858
贤	-10.4858
拍摄	-10.4861
John	-10.4861
For	-10.4864
广场	-10.4866
length	-10.4867
ight	-10.4872
▁message	-10.4874
声明	-10.4875
lar	-10.4876
医学	-10.4877
相互	-10.488
据说	-10.488
▁state	-10.4882
广泛	-10.4884
即可	-10.4893
蛋白	-10.4893
赖	-10.4894
細	-10.4894
正确	-10.4895
时刻	-10.4895
区别	-10.4896
買	-10.4896
年至	-10.4896
三十	-10.4898
column	-10.4899
发动机	-10.49
孕	-10.4901
世界上	-10.4916
鼻	-10.4921
旋	-10.4925
劳动	-10.4925
你觉得	-10.4925
批准	-10.4927
真心	-10.4927
意味着	-10.4928
烈	-10.4929
竞争	-10.493
撤	-10.4931
給我	-10.4935
平方千米	-10.4936
海拔高度	-10.4936
充满	-10.4939
青春	-10.4939
这么说	-10.494
▁else	-10.4941
帮你	-10.4942
日在	-10.4942
不得不	-10.4944
ull	-10.4944
还挺	-10.4956
美食	-10.4956
▁company	-10.496
明明	-10.4968
▁top	-10.497
腳	-10.4971
掌握	-10.4972
謝謝	-10.4973
聪明	-10.4974
statement	-10.4977
酒吧	-10.4978
旋转	-10.4979
vo	-10.4982
他家	-10.4985
gen	-10.4986
饰	-10.4988
太空	-10.4988
阿尔	-10.4989
一系列	-10.4991
赢了	-10.4995
util	-10.4996
保留	-10.4997
基地	-10.5009
東西	-10.5015
选举	-10.5016
饱	-10.5024
要不	-10.5024
Ex	-10.5027
ny	-10.5027
修改	-10.5036
資	-10.504
許	-10.5044
怀孕	-10.5047
保障	-10.5047
没关系	-10.5047
有助于	-10.5048
苗	-10.5048
摄氏度	-10.5049
tal	-10.5052
清朝	-10.5054
tr	-10.5055
cl	-10.5056
position	-10.5057
load	-10.506
患	-10.5061
算了	-10.5062
▁city	-10.5063
流量	-10.5067
()
	-10.507
[]	-10.5074
含有	-10.5075
廷	-10.5083
講	-10.5084
ual	-10.5087
外部链接	-10.5088
伟	-10.509
斷	-10.5091
tory	-10.5094
res	-10.51
陸	-10.51
Your	-10.5105
兄	-10.5109
fs	-10.511
住在	-10.5111
他人	-10.5113
',
	-10.5114
一个月	-10.5119
评价	-10.5127
view	-10.513
ship	-10.513
St	-10.5132
统	-10.5139
相似	-10.514
幅	-10.5148
FT	-10.5148
ticket	-10.5151
轻松	-10.5152
啥时候	-10.5155
找你	-10.5155
！
-	-10.5156
督	-10.5158
頂	-10.516
餘	-10.5161
戶	-10.5162
彭	-10.5163
贡献	-10.5163
商标	-10.5164
彼此	-10.5165
的重要	-10.517
输出	-10.5172
的照片	-10.5177
体系	-10.5181
国外	-10.5185
者的	-10.5187
这项	-10.5189
西北	-10.5189
終	-10.519
指定	-10.5191
定义	-10.5193
');
	-10.5197
呐	-10.5198
地位	-10.52
劍	-10.52
宅	-10.52
凱	-10.5201
挖	-10.5201
锻炼	-10.5202
俄羅斯	-10.5202
資料	-10.5203
PS	-10.5207
整体	-10.5209
的意思	-10.5212
来到	-10.5216
稍	-10.522
很多人	-10.5222
演的	-10.5224
foo	-10.5228
遗	-10.5231
分手	-10.5233
category	-10.5234
敲	-10.5239
▁maximum	-10.5239
打电话	-10.5244
充分	-10.5249
▁post	-10.5251
rating	-10.5255
但他	-10.5256
四年	-10.5257
▁org	-10.5261
经营	-10.527
机器	-10.5271
ec	-10.5273
公路	-10.5273
一段时间	-10.5275
陶	-10.5276
幫	-10.5278
歐	-10.5279
维护	-10.528
^	-10.5281
优秀	-10.5292
▁Li	-10.5297
曹	-10.5299
球迷	-10.53
配合	-10.53
我感觉	-10.53
schedule	-10.5311
..
	-10.5315
完整	-10.5316
将在	-10.5317
毫米	-10.5319
city	-10.5319
Comp	-10.532
▁Mar	-10.5321
瑞士	-10.5323
lic	-10.5323
mode	-10.5329
站在	-10.5333
的世界	-10.5334
投资者	-10.5336
的机会	-10.5336
页	-10.534
锁	-10.5341
舉行	-10.5344
得很	-10.5345
重点	-10.5352
账	-10.5353
溫	-10.5355
叛	-10.5355
GB	-10.5356
崇	-10.5356
詹姆斯	-10.5358
免疫	-10.5358
▁Pa	-10.5359
飾演	-10.536
抱抱	-10.536
▁she	-10.5362
we	-10.5364
周围	-10.5369
似	-10.5372
转换	-10.5372
));
	-10.5383
path	-10.5389
好想	-10.5389
Me	-10.539
導	-10.5391
那就是	-10.5391
一切都	-10.5392
槽	-10.5395
舒	-10.5395
缝	-10.5395
指导	-10.5396
培养	-10.5398
拿到	-10.5399
ven	-10.5409
ments	-10.5411
刚才	-10.5413
西部	-10.5415
再说	-10.5421
comp	-10.5422
就行	-10.5425
辦	-10.5426
链	-10.5427
▁news	-10.5429
触	-10.543
很容易	-10.5431
逼	-10.5434
符	-10.5434
加上	-10.5434
葛	-10.5437
的行为	-10.5437
茲	-10.5437
创作	-10.5438
町	-10.5438
离婚	-10.5439
ized	-10.5442
这件事	-10.5446
▁items	-10.5448
▁without	-10.5449
西南	-10.5452
ities	-10.5454
可以通过	-10.5461
滤	-10.5461
她是	-10.5463
选项	-10.5465
cr	-10.5466
两次	-10.5468
一周	-10.5471
schemas	-10.5472
洁	-10.5473
lock	-10.5475
的信息	-10.5475
ball	-10.5475
飾	-10.5476
Fetch	-10.5476
CD	-10.5476
amount	-10.5477
AD	-10.548
▁endpoint	-10.5482
进步	-10.5483
bi	-10.5484
以便	-10.5485
current	-10.5486
特性	-10.5488
tu	-10.5488
定位	-10.5489
必须的	-10.5492
挡	-10.5494
高速	-10.5498
喝酒	-10.55
ee	-10.5501
▁pre	-10.5503
IS	-10.5507
在這裡	-10.5511
▁art	-10.5513
魂	-10.5513
有钱	-10.5513
坎	-10.5516
尽量	-10.5522
激	-10.5522
▁path	-10.5523
▁Ba	-10.5523
我只	-10.5524
node	-10.5525
not	-10.5527
▁Be	-10.5532
As	-10.5532
ME	-10.5533
小时候	-10.5536
成就	-10.5542
ig	-10.5544
主持	-10.5544
当年	-10.5547
側	-10.5555
伦敦	-10.5555
咸	-10.5556
盧	-10.5556
行政区划	-10.5557
理由	-10.5558
Text	-10.5561
mit	-10.5563
才会	-10.5563
很大的	-10.5567
py	-10.5574
黄金	-10.5576
很喜欢	-10.558
巨大的	-10.5581
](	-10.5585
裁	-10.5588
漫	-10.5592
愈	-10.5593
国家的	-10.5593
障碍	-10.5595
诉讼	-10.5596
航班	-10.56
追求	-10.5601
建造	-10.5603
妇女	-10.5608
身边	-10.5609
我才	-10.5609
把他	-10.5611
文学	-10.5613
▁random	-10.5616
App	-10.5621
制定	-10.5622
創	-10.5622
ber	-10.5624
▁require	-10.5626
灣	-10.563
)
{
	-10.5631
惡	-10.5633
币	-10.5634
斜	-10.5634
宾	-10.5635
寿	-10.5636
被告	-10.5637
年夏季奧林匹克運動會	-10.5638
暂时	-10.5641
宗教	-10.5641
裔	-10.5642
▁category	-10.5647
▁options	-10.5648
石油	-10.5648
误	-10.5652
db	-10.5654
pr	-10.5655
瘦了	-10.5661
展开	-10.5666
ave	-10.5668
开了	-10.567
（，）	-10.5671
cy	-10.5671
▁Ra	-10.5675
吳	-10.5675
裤	-10.5676
危机	-10.5677
农业	-10.5677
地点	-10.5678
ya	-10.5678
回忆	-10.5678
探索	-10.5678
北方	-10.568
内心	-10.568
close	-10.5681
ah	-10.5681
忘记	-10.5684
賽事	-10.5688
':	-10.569
决赛	-10.5692
请求	-10.5693
可怕	-10.5694
ring	-10.5695
原本	-10.5695
不来	-10.5696
家伙	-10.5702
」。	-10.5707
詞	-10.5708
▁private	-10.5711
磁	-10.5711
难受	-10.5713
NO	-10.5715
滚	-10.5715
祥	-10.5715
亂	-10.5716
疫情	-10.5716
 	-10.5719
body	-10.572
天津	-10.5727
生涯	-10.5728
满意	-10.5732
的心	-10.5734
迟	-10.5735
了么	-10.5738
有着	-10.5744
ON	-10.5745
試	-10.5745
▁OR	-10.5746
想法	-10.5749
策	-10.5751
的表现	-10.5751
凶	-10.5752
芙雷德	-10.5753
桶	-10.5754
芬	-10.5755
吾	-10.5755
妖	-10.5756
消费	-10.5756
湾	-10.5757
他也	-10.5757
о	-10.576
感兴趣	-10.5761
维持	-10.5761
几点	-10.5761
▁Po	-10.5764
sk	-10.5765
城区	-10.5768
加强	-10.5775
用了	-10.5776
aw	-10.5777
的价格	-10.5778
room	-10.578
因而	-10.5781
是最	-10.5782
dy	-10.5782
的日子	-10.5783
合法	-10.5783
美洲	-10.5788
！”	-10.5793
饮	-10.5795
	-10.5795
晨	-10.5796
▁An	-10.5797
此前	-10.5798
相关的	-10.5799
循环	-10.5799
货币	-10.58
挤	-10.58
▁'#/	-10.5801
西安	-10.5802
战略	-10.5802
家的	-10.5804
;
	-10.5804
Windows	-10.5813
尚未	-10.5813
都被	-10.5816
中国的	-10.5819
ide	-10.5823
特色	-10.5824
><	-10.5825
▁di	-10.5826
美丽	-10.5828
返	-10.5828
！」	-10.5829
邮	-10.5838
诊断	-10.5839
\",	-10.5844
武汉	-10.5846
日子	-10.5847
特点	-10.5848
尊重	-10.5848
Al	-10.5849
吓	-10.5859
科学家	-10.5861
所在	-10.5861
帮忙	-10.5864
档	-10.5871
迎	-10.5878
浅	-10.5882
摔	-10.5883
▁during	-10.5884
Class	-10.5884
以為	-10.5885
什么的	-10.5885
What	-10.5886
不见	-10.5889
▁ticket	-10.5893
我要去	-10.5893
越南	-10.5901
ana	-10.5912
物品	-10.592
袭	-10.5921
貴	-10.5921
談	-10.5922
诉	-10.5922
玄	-10.5922
兽	-10.5923
尺寸	-10.5923
site	-10.5923
夫妻	-10.5924
我这	-10.5924
凌	-10.5924
渣	-10.5924
预防	-10.5925
destination	-10.5925
feature	-10.5926
代理	-10.5927
工艺	-10.593
SA	-10.5935
我希望	-10.5936
||	-10.5937
unit	-10.5937
启	-10.594
等人	-10.594
This	-10.594
你最近	-10.5943
你这个	-10.5945
使用的	-10.5949
教师	-10.5951
是有	-10.5954
域	-10.5957
合适的	-10.5958
我之前	-10.596
扶	-10.5962
負責管轄	-10.5963
即将	-10.5964
摘	-10.5965
par	-10.5965
柯	-10.5966
主动	-10.5966
印象	-10.5966
做好	-10.5967
学家	-10.5968
倒是	-10.5973
飞行	-10.5973
負責	-10.5973
影響	-10.598
找到了	-10.5985
看到你	-10.5987
By	-10.5988
调节	-10.5988
一路	-10.5991
AC	-10.5995
爸	-10.5996
domain	-10.5996
獨	-10.5999
恐	-10.6
陷	-10.6001
證	-10.6002
mark	-10.6004
▁Pro	-10.6004
蓋	-10.6005
飘	-10.6007
记忆	-10.6007
悦	-10.6007
的第一	-10.601
概念	-10.601
來自	-10.6014
OK	-10.6021
大脑	-10.6022
▁dis	-10.6024
水果	-10.6026
username	-10.603
随时	-10.6034
▁years	-10.6034
人均消费	-10.6041
He	-10.6042
游玩	-10.6042
▁room	-10.6043
想知道	-10.6046
赔偿	-10.6047
肾	-10.6048
▁amount	-10.6048
漏	-10.6048
勞	-10.6048
扔	-10.6049
▁account	-10.6049
互联网	-10.605
瞎	-10.6051
新年快乐	-10.6051
但是我	-10.6054
下班	-10.6056
部长	-10.6056
人都	-10.6056
很厉害	-10.6057
舒服	-10.6058
朝鲜	-10.6059
parameter	-10.6061
这部剧	-10.6063
PA	-10.6064
▁table	-10.6066
over	-10.6068
沟	-10.6071
图像	-10.6073
聊天	-10.6074
污	-10.6079
十八	-10.6081
ass	-10.6082
伐	-10.6088
樹	-10.6089
浩	-10.609
艦	-10.6091
什么都	-10.6091
犬	-10.6091
惹	-10.6092
尴尬	-10.6092
她在	-10.6093
台湾	-10.6093
她说	-10.6093
width	-10.6094
升级	-10.6097
脏	-10.6103
保護	-10.6107
我先	-10.6107
你应该	-10.6116
比我	-10.612
hy	-10.612
帝国	-10.6121
讓我	-10.6126
貌	-10.6127
tax	-10.613
潘	-10.6133
的吧	-10.6134
Exception	-10.6135
Reservation	-10.6135
▁such	-10.6135
ina	-10.6138
世紀	-10.6139
强烈	-10.614
▁See	-10.6146
分配	-10.6149
被称为	-10.6153
对话	-10.6155
point	-10.6155
上午	-10.6157
难过	-10.6157
的呢	-10.6158
過去	-10.616
read	-10.6161
性格	-10.6163
喜欢看	-10.6164
肖	-10.6166
calculate	-10.6167
不出	-10.6168
不算	-10.617
土壤	-10.6172
举办	-10.6177
gi	-10.6179
乎	-10.6179
▁him	-10.6179
浪费	-10.618
预计	-10.6184
顺利	-10.6185
说过	-10.6187
创新	-10.6188
bu	-10.6189
研	-10.6194
▁area	-10.6195
ES	-10.6199
过的	-10.6201
ten	-10.6208
坐在	-10.621
勇	-10.6211
我记得	-10.6211
早安	-10.6212
强度	-10.6213
为什么要	-10.6215
時期	-10.6216
承担	-10.6218
賣	-10.6218
卧	-10.6218
percentage	-10.6221
▁related	-10.6222
我又	-10.6224
offset	-10.6225
什么事	-10.6226
des	-10.6227
▁So	-10.6234
你都	-10.6234
最后一	-10.624
住宿	-10.6243
err	-10.6245
我怎么	-10.625
十五	-10.625
主人	-10.625
下周	-10.6251
}}
{"	-10.6253
正确的	-10.6255
分布	-10.6256
出的	-10.6258
盾	-10.6259
疏	-10.626
Qu	-10.6261
附近的	-10.6261
改革	-10.6261
迈	-10.6262
Google	-10.6263
获取	-10.6265
浙江	-10.6267
af	-10.6268
信任	-10.6269
胖了	-10.627
▁following	-10.627
识别	-10.627
▁both	-10.627
▁Public	-10.6271
出售	-10.6273
一片	-10.6277
不清楚	-10.6279
write	-10.6285
▁link	-10.6285
▁Amazon	-10.6286
靜	-10.6296
計	-10.63
实在	-10.6301
宏	-10.6302
妙	-10.6302
豐	-10.6303
躲	-10.6304
指标	-10.6306
Error	-10.6307
transfer	-10.6307
dr	-10.6314
▁level	-10.6322
的想法	-10.6329
进球	-10.6329
讀	-10.6331
分类	-10.6332
予	-10.6333
可怜	-10.6336
锋	-10.6338
▁Ar	-10.6338
MP	-10.634
一遍	-10.634
ris	-10.634
紀	-10.6343
late	-10.6346
▁returns	-10.6348
・	-10.6349
存储	-10.6349
python	-10.635
不像	-10.6354
跑步	-10.6355
士兵	-10.6355
\",\	-10.6357
▁show	-10.6361
['	-10.6362
mal	-10.6362
特別	-10.6367
捕	-10.6368
dev	-10.6369
additional	-10.6372
Jo	-10.6373
事实上	-10.6378
▁create	-10.638
薪	-10.6383
▁index	-10.6383
**\	-10.6384
算是	-10.6384
mber	-10.6386
肿	-10.6386
AI	-10.6387
琌	-10.6388
EN	-10.6388
tt	-10.639
贼	-10.6391
晉	-10.6391
列車	-10.6393
电机	-10.6395
万美元	-10.6398
▁profile	-10.6398
tor	-10.64
).","	-10.6402
事物	-10.6403
不良	-10.6405
之下	-10.6406
公民	-10.6406
選舉	-10.6408
group	-10.6409
tract	-10.641
},{"	-10.6412
这两个	-10.6413
個人	-10.6415
强大	-10.6417
MS	-10.6417
tro	-10.6422
真的好	-10.6422
平安	-10.6423
鐵路	-10.6424
济	-10.6425
▁end	-10.643
據	-10.6431
timestamp	-10.6437
蓝色	-10.6439
偶像	-10.6441
盒	-10.6443
)}	-10.6449
罚	-10.6449
▁program	-10.6449
▁Ha	-10.6455
长大	-10.6461
拉斯	-10.6464
司机	-10.6466
妻	-10.6468
仅仅	-10.6468
记住	-10.6469
▁provides	-10.647
拍的	-10.6472
決	-10.6473
願	-10.6475
尘	-10.6477
肯定是	-10.6478
蛋糕	-10.6481
日起	-10.6481
▁capability	-10.6481
释放	-10.6481
king	-10.6482
笑声	-10.6488
你是不是	-10.6488
泰国	-10.6489
智能	-10.6494
打击	-10.6496
很重要	-10.6496
角度	-10.6508
Tr	-10.6512
邀请	-10.6513
▁payment	-10.6514
汁	-10.6516
鼠	-10.6518
宴	-10.6519
沈	-10.6519
场比赛	-10.652
崔	-10.6522
凭	-10.6522
普遍	-10.6524
地面	-10.6525
so	-10.6533
win	-10.6535
路上	-10.6536
打了	-10.6537
云南	-10.6538
伙	-10.6541
CT	-10.6542
我们都	-10.6545
是要	-10.6545
member	-10.6548
意识	-10.6548
我朋友	-10.6553
这样啊	-10.6554
哪有	-10.6555
方面的	-10.6556
人体	-10.656
total	-10.6562
谋	-10.6563
侍	-10.6566
碳	-10.6566
堵	-10.6566
灌	-10.6567
演技	-10.6568
运用	-10.6568
script	-10.6569
ug	-10.6571
阿姨	-10.6571
增强	-10.6572
失望	-10.6572
故意	-10.6574
辰	-10.6577
老人	-10.6588
想看	-10.6592
ever	-10.6595
类似	-10.6596
▁total	-10.6599
晶	-10.6601
origin	-10.6601
奇怪	-10.6602
絕	-10.6607
▁analysis	-10.6608
工人	-10.6609
怎么会	-10.661
酱	-10.6611
筹	-10.6611
欣	-10.6611
complete	-10.6613
Transfer	-10.6614
收购	-10.6617
帝國	-10.6618
Fi	-10.6621
狗狗	-10.6622
的能力	-10.6623
各位	-10.6623
说什么	-10.6626
▁target	-10.6628
每一个	-10.6628
Ro	-10.6631
議員	-10.6632
梦想	-10.6636
▁people	-10.6639
他还	-10.6641
火箭	-10.665
是不	-10.6651
太太	-10.6651
情況	-10.6656
判断	-10.6657
纪念	-10.6658
в	-10.6658
的要求	-10.6659
arg	-10.666
▁static	-10.6661
偶尔	-10.6662
有一些	-10.6663
比例	-10.6665
血液	-10.6668
學生	-10.6669
常常	-10.6672
识	-10.6672
len	-10.6674
▁map	-10.6676
扩大	-10.6677
▁currency	-10.6678
解放	-10.6679
的時候	-10.6679
▁Br	-10.6683
小组	-10.6687
？”	-10.6687
是一個	-10.6689
文明	-10.6691
险	-10.6694
臨	-10.6697
舌	-10.6698
env	-10.6699
赚	-10.6699
屈	-10.67
柜	-10.6701
策略	-10.6701
▁seat	-10.6701
屏幕	-10.6701
媽媽	-10.6703
否则	-10.6703
調查	-10.6703
)、	-10.6704
Val	-10.6704
卫星	-10.6705
这家	-10.6705
Mo	-10.6706
當然	-10.6707
跟着	-10.6707
这款	-10.671
栏	-10.6713
amp	-10.6717
重量	-10.6721
一座	-10.6722
周期	-10.6732
就没	-10.6732
▁just	-10.6736
的嘛	-10.6736
▁process	-10.6737
lin	-10.6738
載	-10.674
在中国	-10.6741
并非	-10.6741
	-10.6744
Ma	-10.6744
澤	-10.6744
袭击	-10.6746
持有	-10.6747
砸	-10.6747
鼓励	-10.6747
蟹	-10.6748
á	-10.6748
ot	-10.6748
牛奶	-10.675
粉丝	-10.675
▁Instagram	-10.6751
ction	-10.6751
work	-10.6752
还是要	-10.6756
的消息	-10.676
許多	-10.6764
会被	-10.6766
法官	-10.6768
und	-10.677
▁Time	-10.6772
▁case	-10.678
/**
	-10.6786
留在	-10.6786
壓	-10.6787
歐洲	-10.6788
脂	-10.6789
乾	-10.679
姜	-10.6791
规划	-10.6792
瑪	-10.6792
遗憾	-10.6792
吻	-10.6792
澳洲	-10.6793
Calculate	-10.6794
ash	-10.6795
差点	-10.6795
回家了	-10.6795
进攻	-10.6796
海洋	-10.6799
rt	-10.6799
播出	-10.6803
这是一个	-10.6804
之間	-10.6805
成分	-10.6805
哭了	-10.6805
Add	-10.6812
LI	-10.6812
全世界	-10.6815
通道	-10.6822
截	-10.683
敌人	-10.6831
喜欢你	-10.6834
Con	-10.6835
怀疑	-10.6838
venue	-10.6839
两天	-10.6843
昭	-10.6844
可以指	-10.6844
干净	-10.6845
覺得	-10.6845
：

	-10.6845
形状	-10.6845
的力量	-10.6849
为主	-10.6856
ally	-10.686
机关	-10.6867
对我	-10.687
▁players	-10.6872
▁most	-10.6872
是個	-10.6876
给了	-10.688
俺	-10.6884
▁General	-10.6885
▁policy	-10.6885
睡不着	-10.6885
删除	-10.6888
▁‪	-10.6888
早餐	-10.6889
客人	-10.6892
国王	-10.6895
bb	-10.6895
我好	-10.6896
false	-10.6897
payment	-10.6897
第六	-10.6898
▁]
	-10.6899
临床	-10.6901
mar	-10.6904
不必	-10.6904
No	-10.6907
绿色	-10.6909
在一个	-10.6912
就知道	-10.6913
OR	-10.6919
诚	-10.6921
On	-10.6924
努	-10.6925
见面	-10.6925
歇	-10.6927
。。。。	-10.6928
彻底	-10.6929
▁username	-10.6931
引发	-10.6931
幸运	-10.6932
吸收	-10.6935
美好	-10.6935
核心	-10.6939
一篇	-10.6939
适用于	-10.694
error	-10.694
post	-10.6947
本地	-10.6949
▁place	-10.695
▁booking	-10.6952
像是	-10.6962
在这个	-10.6964
昆	-10.6966
桂	-10.6966
▁def	-10.697
棉	-10.6971
铺	-10.6971
筒	-10.6974
依据	-10.6975
未知	-10.6975
上下	-10.6975
太平洋	-10.6975
中華人民共和國	-10.6976
外部	-10.6977
著名	-10.6977
了个	-10.6978
地铁站	-10.6981
left	-10.6981
基本上	-10.6985
抓住	-10.6986
伸	-10.6986
沒事	-10.6987
强大的	-10.6988
住了	-10.6988
而在	-10.699
▁media	-10.6993
该公司	-10.6996
▁=>	-10.6996
网球	-10.7001
懒	-10.7001
您好	-10.7003
我们要	-10.7007
很好的	-10.701
径	-10.7012
Se	-10.7014
cent	-10.7016
ert	-10.7017
盗	-10.7018
类型的	-10.7018
覆	-10.7018
補	-10.7019
纵	-10.7019
押	-10.7019
驚	-10.702
虐	-10.7021
device	-10.7024
是一名	-10.7024
.

	-10.7024
好处	-10.7026
小時	-10.7026
海军	-10.7031
年轻人	-10.7038
深度	-10.7041
method	-10.7044
iz	-10.7046
一種	-10.7046
field	-10.7046
`,	-10.7055
我给你	-10.7056
蜜	-10.7057
以色列	-10.7065
翔	-10.7068
▁tier	-10.707
实验室	-10.7072
细节	-10.7073
▁Must	-10.7073
▁head	-10.7074
RA	-10.7075
十六	-10.7075
情感	-10.7081
▁while	-10.7081
演員	-10.7087
')	-10.7087
没有人	-10.7093
術	-10.7094
tag	-10.7095
形象	-10.71
一方	-10.7102
判决	-10.7103
的女人	-10.7104
箭	-10.7111
邪	-10.7113
弯	-10.7113
趁	-10.7114
▁car	-10.7114
体现	-10.7115
冲突	-10.7115
varlistentry	-10.7116
警告	-10.7116
瑞典	-10.7117
车型	-10.7123
外国	-10.7124
理想	-10.7124
工厂	-10.7126
历史上	-10.713
原理	-10.7133
相反	-10.7136
一边	-10.7142
cu	-10.7143
▁business	-10.7144
一起去	-10.7145
update	-10.7145
二年	-10.7148
孤	-10.7156
的学生	-10.7159
遺	-10.716
框	-10.716
贾	-10.7161
е	-10.7162
立刻	-10.7162
队伍	-10.7163
":{},"	-10.7163
enter	-10.7166
舞台	-10.7166
简单的	-10.7166
参数	-10.7171
这句话	-10.7173
'.	-10.7176
透露	-10.7177
▁then	-10.7185
最早	-10.7186
tain	-10.7189
忽	-10.7196
ster	-10.7197
出现了	-10.7198
Har	-10.7198
频	-10.72
生活中	-10.7202
▁OF	-10.7203
齊	-10.7204
Request	-10.7204
疫苗	-10.7206
白天	-10.7206
牢	-10.7206
浦	-10.7207
兴趣	-10.7208
阿根廷	-10.7208
×	-10.7208
選擇	-10.7208
奶奶	-10.721
严格	-10.7211
专利	-10.7216
中共	-10.7216
eg	-10.7217
纪	-10.722
地图	-10.722
genre	-10.7223
寻	-10.7227
box	-10.7227
良好的	-10.723
ries	-10.723
非法	-10.7231
">	-10.7234
议员	-10.7238
▁section	-10.7238
曾任	-10.7242
周五	-10.7243
▁look	-10.7243
▁back	-10.7246
jo	-10.7246
百度	-10.725
铜	-10.7252
敗	-10.7253
???	-10.7253
wa	-10.7254
欧盟	-10.7255
藝術	-10.7255
ite	-10.7255
提交	-10.7255
威廉	-10.7256
坊	-10.7256
涅	-10.7256
▁read	-10.7257
宣传	-10.7259
修复	-10.726
差异	-10.7262
▁support	-10.7262
后悔	-10.7263
居住	-10.7265
▁links	-10.7265
关节	-10.7265
确实是	-10.7269
La	-10.7281
ley	-10.7285
这也是	-10.7292
價	-10.7296
燃	-10.7297
鄭	-10.73
歷	-10.73
Pre	-10.73
哀	-10.7301
藝	-10.7301
岳	-10.7302
泪	-10.7302
袁	-10.7303
亏	-10.7304
常见的	-10.7304
塑料	-10.7304
图书馆	-10.7304
土耳其	-10.7304
ness	-10.7305
戰爭	-10.7306
应用程序	-10.7307
好看的	-10.7307
den	-10.7309
除非	-10.7311
电压	-10.7312
ks	-10.7316
Dr	-10.7317
').	-10.7318
一样的	-10.7321
char	-10.7323
一人	-10.7327
深入	-10.7327
比你	-10.7331
此次	-10.7332
逛	-10.7333
臂	-10.7335
ix	-10.7338
津	-10.7338
有啥	-10.7341
揭	-10.7341
赏	-10.7349
继承	-10.7349
扑	-10.7352
突破	-10.7352
ability	-10.7354
电源	-10.7358
迫	-10.7361
胆	-10.7363
他们在	-10.7367
看电影	-10.7369
▁size	-10.7374
可以用	-10.7376
巨大	-10.7376
接着	-10.7387
人類	-10.7387
聞	-10.739
不吃	-10.739
面临	-10.7395
}},"	-10.7395
殘	-10.7396
薇	-10.7399
懷	-10.7399
latitude	-10.7401
韓國	-10.7401
longitude	-10.7402
长度	-10.7407
贝尔	-10.7408
技巧	-10.7409
合适	-10.7411
链接	-10.7411
发生了	-10.7411
缩	-10.7413
发射	-10.7415
本站	-10.7416
植	-10.7419
vin	-10.7419
南方	-10.7422
发育	-10.7423
就行了	-10.7425
Pro	-10.7433
過來	-10.7436
元的	-10.7439
河流	-10.744
男女	-10.7441
錄	-10.7443
慈	-10.7444
inter	-10.7445
日至	-10.7445
拯救	-10.7446
译	-10.7447
疼痛	-10.7447
真相	-10.7448
疯狂	-10.7448
约翰	-10.7449
policy	-10.7449
公寓	-10.745
广东	-10.7453
Description	-10.7453
比赛中	-10.7459
▁calculate	-10.7462
▁World	-10.7462
搞笑	-10.7467
▁confirm	-10.7474
ute	-10.7475
技	-10.7478
我也要	-10.7479
▁import	-10.7482
You	-10.7486
援	-10.7488
遊	-10.7489
create	-10.749
廠	-10.7491
}}}]}
{"	-10.7491
有时间	-10.7493
監	-10.7495
矮	-10.7495
book	-10.7497
学术	-10.7499
强调	-10.7503
artist	-10.7503
你呢	-10.7503
读书	-10.7503
EC	-10.7507
心中	-10.7509
又要	-10.7509
长时间	-10.7514
周六	-10.7516
叫做	-10.7518
皇后	-10.7518
手段	-10.7521
ki	-10.7531
队的	-10.7534
的作品	-10.7535
发明	-10.754
虽	-10.7541
lect	-10.7542
…	-10.7544
糊	-10.7544
查询	-10.7545
大大	-10.7545
绳	-10.7546
web	-10.7547
清洁	-10.7547
▁distributed	-10.7548
》。	-10.7548
Image	-10.7551
ctor	-10.7552
▁availability	-10.7552
用途	-10.7552
進士	-10.7554
开展	-10.7555
自身	-10.7555
火车	-10.7557
教学	-10.7559
top	-10.7561
UT	-10.7564
促	-10.7565
还是很	-10.7568
山东	-10.7569
其实我	-10.757
是一位	-10.757
FC	-10.7576
好友	-10.7577
▁community	-10.7578
字母	-10.7585
小学	-10.7585
▁days	-10.7589
優	-10.7589
研究所	-10.759
狀	-10.7591
垂	-10.7591
▁report	-10.7592
辞	-10.7592
河南	-10.7593
覆盖	-10.7594
为您推荐	-10.7597
來了	-10.7598
cm	-10.76
我们在	-10.76
奥运会	-10.7602
TS	-10.7606
▁generate	-10.7609
龄	-10.761
我认为	-10.7612
王子	-10.7612
的新闻	-10.7614
phone	-10.7615
临时	-10.7616
最多	-10.7617
生意	-10.7618
的一些	-10.7621
”（	-10.7621
捷	-10.7624
oo	-10.763
猎	-10.7641
巢	-10.7641
仲	-10.7642
每个人都	-10.7642
勾	-10.7643
实践	-10.7643
采访	-10.7644
build	-10.7644
承诺	-10.7644
杂志	-10.7645
这也	-10.7646
的呀	-10.7647
浪漫	-10.7648
女兒	-10.7648
ef	-10.765
Min	-10.7652
▁game	-10.7656
我们会	-10.7657
各个	-10.7662
一大	-10.7663
恒	-10.7665
相關	-10.7665
);
	-10.7673
▁method	-10.7674
▁now	-10.7676
融	-10.7679
侵	-10.7683
().	-10.7684
说是	-10.7687
得到了	-10.7687
球隊	-10.7688
逗	-10.7689
桌	-10.7689
仇	-10.769
杀了	-10.769
吊	-10.7692
撑	-10.7692
更换	-10.7692
叔叔	-10.7693
盤	-10.7693
练习	-10.7693
捏	-10.7694
韋	-10.7694
熬夜	-10.7695
集團	-10.7698
颗	-10.7701
未能	-10.7704
一款	-10.7705
你咋	-10.7709
sport	-10.7709
周边有	-10.7712
枚	-10.7715
▁source	-10.7717
let	-10.7721
At	-10.7722
All	-10.7722
有限	-10.7725
讯	-10.7728
是什麼	-10.7732
???
	-10.7734
▁input	-10.7735
革	-10.7736
的需求	-10.7741
眼镜	-10.7741
肩	-10.7743
显然	-10.7743
扯	-10.7743
干什么	-10.7746
爆发	-10.7746
黑暗	-10.7748
官网	-10.7751
范围内	-10.7753
心态	-10.7756
适	-10.7756
分离	-10.7758
▁database	-10.7764
诊	-10.7766
Dis	-10.7777
▁__	-10.7779
构	-10.7781
疯	-10.7782
董	-10.7786
浓	-10.7786
ぃ	-10.7788
兆	-10.779
不多	-10.779
腾	-10.7791
ans	-10.7792
丰富	-10.7793
我把	-10.7796
文艺	-10.7796
▁minutes	-10.7796
▁let	-10.7796
參與	-10.7797
消费者	-10.78
ica	-10.78
js	-10.78
TE	-10.7801
所有人	-10.7807
loan	-10.7808
家长	-10.7809
▁keyword	-10.7809
PT	-10.7809
如果我	-10.7816
▁Go	-10.7816
▁add	-10.7825
会员	-10.7828
这个问题	-10.7828
址	-10.7829
RO	-10.7832
）：	-10.7833
剛	-10.7834
SO	-10.7836
col	-10.7836
斯坦	-10.7837
劫	-10.784
讨	-10.784
遮	-10.7842
SC	-10.7842
Co	-10.7844
曼联	-10.7845
With	-10.7846
▁ANY	-10.7846
▁Sa	-10.7847
我刚	-10.7849
日常	-10.7849
熟悉	-10.785
某个	-10.7852
的餐馆	-10.7856
覺	-10.7861
团体	-10.7861
▁Lo	-10.7864
两个人	-10.7864
名单	-10.7869
你这是	-10.787
▁convert	-10.7872
国足	-10.7876
▁run	-10.7877
pl	-10.788
布拉	-10.7887
▁open	-10.7887
不信	-10.7889
婴儿	-10.7891
蟲	-10.7892
四十	-10.7892
梨	-10.7894
guest	-10.7894
步骤	-10.7894
▁travel	-10.7895
反映	-10.7897
ons	-10.7899
transaction	-10.79
▁line	-10.7902
小型	-10.7903
发送	-10.7907
室内	-10.7909
很强	-10.791
其他的	-10.7913
得好	-10.7914
我不能	-10.7914
當地	-10.7918
取代	-10.792
Hi	-10.7922
動物	-10.7923
密封	-10.7924
知名	-10.7925
listite	-10.7931
我以为	-10.7932
请你	-10.7935
▁events	-10.7936
监	-10.7936
颜	-10.7937
液体	-10.7938
▁parameter	-10.7942
锡	-10.7944
臺灣	-10.7944
蠢	-10.7945
▁second	-10.7945
break	-10.7946
身材	-10.795
):	-10.7951
顺便	-10.7952
人工	-10.7953
common	-10.7956
名为	-10.7957
▁period	-10.7957
。」
	-10.7959
事务	-10.7961
：
-	-10.7963
当你	-10.7965
火锅	-10.7967
哲	-10.7969
的数据	-10.797
相机	-10.7976
假期	-10.7977
%。	-10.7981
find	-10.7981
▁fee	-10.7983
荡	-10.7984
▁standard	-10.7984
窝	-10.7985
役	-10.7987
性和	-10.7988
绵	-10.7993
eo	-10.7993
可见	-10.7994
功率	-10.7995
碧	-10.7995
tournament	-10.7997
cursor	-10.7997
present	-10.7997
当前	-10.7998
獨立	-10.7999
善良	-10.8
]
[	-10.8001
德里	-10.8005
放松	-10.8006
大陆	-10.8007
包装	-10.8011
法案	-10.8016
▁here	-10.802
一定是	-10.8021
好听	-10.8021
action	-10.8023
属性	-10.8023
我不会	-10.8025
三天	-10.8026
▁numbers	-10.8028
使其	-10.803
▁str	-10.8031
竟	-10.8032
pp	-10.8034
道德	-10.8035
葡萄	-10.8036
▁server	-10.8036
生成	-10.8039
▁!=	-10.804
想你	-10.8044
故障	-10.8045
榮	-10.8045
爽	-10.8045
卸	-10.8045
吨	-10.8046
慧	-10.8047
耳朵	-10.8047
聯賽	-10.8048
陷入	-10.8049
装备	-10.805
电路	-10.8051
厦门	-10.8053
uni	-10.8054
Sp	-10.8054
姐妹	-10.8054
pro	-10.8057
它們	-10.8057
埃及	-10.8062
▁allow	-10.8062
网友	-10.8063
EX	-10.8067
又不是	-10.8076
cial	-10.8076
不大	-10.8078
的内容	-10.8082
让他们	-10.8086
规模	-10.809
给我们	-10.809
ju	-10.8091
召	-10.8092
仰	-10.8095
續	-10.8096
锦	-10.8097
暑假	-10.8099
标签	-10.8101
az	-10.8104
temp	-10.8105
这场	-10.8107
村落	-10.8109
得了	-10.8111
重建	-10.8115
驾	-10.8116
▁latest	-10.8118
ular	-10.8118
的那种	-10.8118
相同的	-10.8118
ko	-10.8119
行動	-10.8121
剩	-10.8125
每日	-10.8126
sub	-10.8128
气体	-10.8129
ping	-10.8133
危	-10.8133
要做	-10.8138
最重要的	-10.8139
')
	-10.8139
对吧	-10.8139
的关系	-10.8143
ike	-10.8143
▁exchange	-10.8145
卿	-10.8147
扇	-10.8147
塘	-10.8148
真的吗	-10.8149
以外	-10.8149
烫	-10.8151
扩展	-10.8151
template	-10.8152
感覺	-10.8152
否	-10.8152
安慰	-10.8153
我对	-10.8154
靠近	-10.8154
你需要	-10.8154
等级	-10.8156
轨道	-10.8156
麥	-10.8158
验	-10.8162
刘海	-10.8166
血管	-10.8166
幻	-10.8167
▁real	-10.817
我相信	-10.8171
到现在	-10.8173
ham	-10.8176
分別	-10.8183
説	-10.8184
HO	-10.8186
对你	-10.8188
进口	-10.8189
經濟	-10.8192
有些人	-10.8195
慶	-10.8195
碑	-10.8197
▁them	-10.8198
赴	-10.8199
契	-10.82
原始	-10.82
被人	-10.82
height	-10.82
℃	-10.8201
static	-10.8201
爪	-10.8202
信仰	-10.8202
荷兰	-10.8203
股份	-10.8203
这个人	-10.8203
英尺	-10.8204
来着	-10.8205
观点	-10.8205
祖父	-10.8205
火星	-10.8206
了嘛	-10.8207
▁City	-10.821
▁Pe	-10.8211
不对	-10.8211
put	-10.8215
TA	-10.8215
糟糕	-10.8216
),
	-10.8217
体重	-10.8217
有道理	-10.8222
对此	-10.8222
準備	-10.8223
gra	-10.8226
续	-10.8226
grade	-10.8228
Date	-10.8228
mb	-10.8231
TH	-10.8231
地震	-10.8236
▁London	-10.8237
的歌	-10.8239
癫痫	-10.8243
这就	-10.8243
说你	-10.8244
盟	-10.8245
萧	-10.8252
總統	-10.8252
祭	-10.8252
)。",	-10.8253
有多少	-10.8253
汪	-10.8254
侠	-10.8254
妞	-10.8255
人口密度每平方公里	-10.8256
float	-10.8256
▁GNU	-10.8256
▁detailed	-10.8256
会出现	-10.8259
常见	-10.8264
"]}	-10.8266
这样做	-10.8266
校园	-10.8269
我妈	-10.827
BS	-10.827
Ar	-10.8273
付出	-10.8273
tin	-10.8274
LO	-10.8275
▁Di	-10.8276
lib	-10.8279
▁Ca	-10.8282
厉害了	-10.8289
ics	-10.8294
Base	-10.8295
cH	-10.83
的历史	-10.8301
勃	-10.8302
cha	-10.8303
卒	-10.8304
ze	-10.8304
遗传	-10.8305
夕	-10.8306
脂肪	-10.8306
趋势	-10.8306
芝	-10.8307
糟	-10.8307
损坏	-10.8308
YouTube	-10.8308
这一点	-10.8309
么么哒	-10.8309
大街	-10.8309
而成	-10.831
不是很	-10.8315
▁etc	-10.8317
Node	-10.8325
罗马	-10.8339
())	-10.8339
Do	-10.8341
一套	-10.8342
为人	-10.8342
可用	-10.8343
溜	-10.8346
是这样	-10.8347
一部分	-10.835
吵	-10.8352
起来了	-10.8353
从未	-10.8353
浆	-10.8357
丧	-10.8358
pattern	-10.8359
干燥	-10.836
鳥	-10.836
酶	-10.8361
农村	-10.8361
reason	-10.8361
看不到	-10.8363
形容	-10.8363
聯合	-10.8363
▁cannot	-10.8364
經過	-10.8365
应对	-10.8366
Bar	-10.8368
整理	-10.8368
大会	-10.8369
王朝	-10.8375
这两	-10.8378
▁right	-10.8381
back	-10.8382
open	-10.8383
单身	-10.8384
stock	-10.8386
半年	-10.8387
ress	-10.839
不动	-10.839
▁tags	-10.8391
bet	-10.8397
將軍	-10.8399
稱為	-10.84
"
"	-10.8401
▁color	-10.8406
想起	-10.8406
sur	-10.8407
恋爱	-10.8408
御	-10.8409
就會	-10.8409
赢得	-10.841
蜂	-10.841
损害	-10.8411
駐	-10.8412
塊	-10.8412
还真	-10.8414
Unique	-10.8415
神秘	-10.8415
含量	-10.8416
▁confirmation	-10.842
Of	-10.8423
一群	-10.8423
EM	-10.8427
▁Mi	-10.8428
GA	-10.8431
唯一的	-10.8432
▁matches	-10.8432
rain	-10.8433
画面	-10.8435
你没	-10.8447
涨	-10.845
钻	-10.8453
PL	-10.8453
事儿	-10.8454
澳	-10.846
福建	-10.8461
厘米	-10.8463
唇	-10.8465
肿瘤	-10.8465
苏联	-10.8465
希腊	-10.8466
']	-10.8469
label	-10.8469
自信	-10.847
你懂	-10.8471
並且	-10.8473
番	-10.8473
天空	-10.8476
从事	-10.8476
ization	-10.8477
推动	-10.8479
样子	-10.8479
）
（	-10.8482
summary	-10.8482
定期	-10.8485
玩的	-10.8487
ek	-10.8491
遭遇	-10.8493
失去了	-10.8494
ins	-10.8497
退出	-10.8499
还得	-10.85
发生在	-10.8509
東京	-10.8509
精子	-10.851
抵	-10.8512
ating	-10.8514
齒	-10.8515
Sha	-10.8516
ep	-10.8517
浸	-10.8518
佔	-10.8518
玲	-10.8518
弧	-10.8518
朴	-10.8519
墨西哥	-10.8519
塑	-10.852
呃	-10.8521
运营	-10.8522
公众	-10.8522
在于	-10.8525
的衣服	-10.8526
ous	-10.8527
一直都	-10.8529
食堂	-10.8529
擁有	-10.853
好不好	-10.8537
命运	-10.854
加班	-10.854
ome	-10.8542
因为你	-10.8543
严重的	-10.8544
列车	-10.8545
一共	-10.8552
▁movie	-10.8556
Nor	-10.8556
发作	-10.8557
曾在	-10.8557
的电话	-10.8563
▁List	-10.8567
六年	-10.8571
智慧	-10.8572
潜	-10.8572
螺	-10.8572
滅	-10.8572
蔬菜	-10.8573
棋	-10.8574
马来西亚	-10.8574
嫩	-10.8574
欣赏	-10.8574
一颗	-10.8575
民众	-10.8575
这部	-10.8576
貌似	-10.8576
True	-10.8576
▁take	-10.8577
▁password	-10.8577
人民法院	-10.8577
国际机场	-10.8578
对他	-10.8579
部位	-10.8583
途	-10.8584
ark	-10.8584
则是	-10.8586
饿了	-10.8588
{}	-10.859
开学	-10.8592
全國	-10.8596
section	-10.8599
});
	-10.8602
你太	-10.8606
接收	-10.8607
▁change	-10.8611
MO	-10.8612
低于	-10.8617
LA	-10.8618
涉	-10.8618
反而	-10.8619
ack	-10.8619
倾	-10.862
ition	-10.8624
If	-10.8624
快来	-10.8625
僧	-10.8625
逢	-10.8628
恐惧	-10.8629
Version	-10.863
loyalty	-10.863
▁model	-10.8636
Le	-10.8636
ves	-10.8636
太大	-10.8638
house	-10.864
坏了	-10.8641
饭店	-10.8647
Pa	-10.8651
海外	-10.8651
不认识	-10.8651
任何人	-10.8651
那时候	-10.8652
地区的	-10.8652
▁agent	-10.8656
我看到	-10.8658
我们将	-10.8662
▁distance	-10.8662
▁res	-10.8663
身高	-10.8664
Mac	-10.867
組成	-10.8672
告訴	-10.8673
▁length	-10.8676
顯	-10.8677
怎	-10.8679
键	-10.8679
不是我	-10.8679
伪	-10.8681
陰	-10.8682
孤独	-10.8684
孩子们	-10.8684
丫	-10.8684
ank	-10.8684
channel	-10.8685
母親	-10.8686
他曾代表	-10.8686
提示	-10.8688
巴萨	-10.8691
remove	-10.8693
内的	-10.8698
个小时	-10.8699
体内	-10.87
听起来	-10.87
自治	-10.8701
时光	-10.8702
门口	-10.8704
增加了	-10.8706
进来	-10.8706
';
	-10.8708
道理	-10.8712
led	-10.8713
token	-10.8714
random	-10.8715
同一	-10.8718
reference	-10.8719
疾	-10.8723
线路	-10.8725
良好	-10.8727
斯克	-10.8729
檢	-10.8732
蒸	-10.8734
氢	-10.8735
	-10.8736
等到	-10.8736
格式	-10.8736
慌	-10.8737
month	-10.8738
慕	-10.8738
农民	-10.8738
退役	-10.8738
呦	-10.8738
拨	-10.8739
Create	-10.874
External	-10.874
very	-10.8744
收藏	-10.8745
逮捕	-10.8749
这个电影	-10.875
ck	-10.875
也不能	-10.8751
Path	-10.8752
arr	-10.8752
问问	-10.8754
当中	-10.8757
你真	-10.8758
不过我	-10.8759
有用	-10.8761
▁option	-10.8763
.
-	-10.8765
收费	-10.8765
消除	-10.877
上市	-10.8774
協	-10.8775
CP	-10.8776
承受	-10.8776
comment	-10.8776
media	-10.8777
权利	-10.8779
Web	-10.8779
results	-10.878
跟他	-10.8783
▁definition	-10.8784
束	-10.8788
div	-10.8789
卑	-10.879
gl	-10.8791
垫	-10.8792
击败	-10.8792
莲	-10.8792
导弹	-10.8792
债务	-10.8792
时间是	-10.8793
乒乓球	-10.8795
▁dialog	-10.8795
穿着	-10.8796
神奇	-10.8797
就不会	-10.8797
每个人	-10.8798
发型	-10.88
版权	-10.88
cancel	-10.8803
▁tickets	-10.8804
得多	-10.8804
背后	-10.8806
rit	-10.8811
any	-10.8811
走向	-10.8818
dd	-10.8819
外观	-10.8821
写的	-10.8824
效力	-10.8825
很高兴	-10.8826

‪
-	-10.883
尋	-10.8831
weight	-10.8832
負	-10.8832
不准	-10.8835
with	-10.8836
去哪里	-10.8841
階	-10.8842
匹	-10.8846
dir	-10.8846
抹	-10.8847
砖	-10.8847
凤	-10.8847
钙	-10.8848
呈现	-10.8848
漂	-10.8848
学者	-10.8848
睡眠	-10.885
power	-10.8851
细菌	-10.8851
▁County	-10.8851
施工	-10.8851
Count	-10.8852
紧急	-10.8852
Open	-10.8852
！"]}	-10.8854
eep	-10.8858
维奇	-10.8858
唱片	-10.8858
▁Inc	-10.8859
parent	-10.8861
ise	-10.8861
如果是	-10.8862
为你	-10.8862
挺好	-10.8864
eng	-10.8865
bill	-10.8868
动画	-10.887
flow	-10.8872
服务器	-10.8873
成为了	-10.8874
?!
	-10.8875
gr	-10.8877
SI	-10.8883
▁Vi	-10.8883
利亚	-10.8884
press	-10.8885
一支	-10.8886
又有	-10.8887
不开心	-10.8888
cing	-10.889
我需要	-10.889
藍	-10.8893
▁returned	-10.8896
tent	-10.8896
割	-10.8896
兔	-10.8896
那时	-10.8897
round	-10.89
辈	-10.8901
幽	-10.8901
怨	-10.8901
清晰	-10.8904
刮	-10.8904
具备	-10.8905
羽毛球	-10.8905
山西	-10.8909
公斤	-10.8909
Guest	-10.8909
函数	-10.891
▁song	-10.8913
总人口	-10.8914
人均消费是	-10.8915
SD	-10.8927
是多少	-10.8927
起床	-10.8929
que	-10.893
总店	-10.8931
了一下	-10.8931
))	-10.8936
加速	-10.8938
流程	-10.8938
年底	-10.8946
ew	-10.8948
init	-10.895
wi	-10.8952
ors	-10.8953
路線	-10.8954
ology	-10.8954
统一	-10.8957
艘	-10.8959
颗粒	-10.8959
瘤	-10.8959
湯	-10.896
邓	-10.896
醇	-10.8961
腻	-10.8962
葡萄牙	-10.8962
minimum	-10.8963
radius	-10.8963
▁pagination	-10.8963
Override	-10.8963
好奇	-10.8963
共享	-10.8964
每一	-10.8969
皇家	-10.897
很好看	-10.8973
距離	-10.8977
題	-10.8981
▁human	-10.8983
只会	-10.8984
秘	-10.8984
oper	-10.8985
暴露	-10.8989
ile	-10.8994
出现在	-10.8998
|\	-10.8999
权力	-10.9004
不错的	-10.9004
的球员	-10.9007
罐	-10.9011
是怎么	-10.9012
我們的	-10.9014
飯	-10.9016
億	-10.9016
姑	-10.9016
悠	-10.9018
收拾	-10.9018
吖	-10.9019
自从	-10.9023
Model	-10.9025
UI	-10.9026
冷却	-10.9026
▁off	-10.9027
一件事	-10.9027
型号	-10.9033
夏季	-10.9038
下雪	-10.904
充电	-10.9043
有机	-10.9048
好久没	-10.9049
旨在	-10.905
离子	-10.9055
ces	-10.9055
发生的	-10.9057
dia	-10.9057
际	-10.9058
生病	-10.9058
的城市	-10.9061

|	-10.9063
晴	-10.9063
▁trip	-10.9067
ning	-10.9069
適	-10.9069
可爱的	-10.907
結束	-10.9071
我们需要	-10.9071
况	-10.9071
Group	-10.9071
我也喜欢	-10.9072
熙	-10.9072
咒	-10.9072
当事人	-10.9073
有趣	-10.9074
圓	-10.9075
嫉妒	-10.9075
cat	-10.9075
の	-10.9075
High	-10.9076
寻求	-10.9076
稍微	-10.9077
協會	-10.9077
尤其	-10.9079
▁First	-10.9083
皇马	-10.9084
ui	-10.9085
能夠	-10.9086
其次	-10.9088
可不是	-10.9089
听着	-10.9093
裤子	-10.9094
会在	-10.9095
校友	-10.91
而不	-10.9101
▁points	-10.9104
天使	-10.9105
的目的	-10.9113
便是	-10.9116
Ca	-10.9117
润	-10.9119
设有	-10.9119
去吃	-10.9122
卓	-10.9123
Te	-10.9125
聯邦	-10.9127
蓮	-10.9127
就开始	-10.9128
訊	-10.9129
乌克兰	-10.9129
臉	-10.9129
赔	-10.913
腺	-10.913
技術	-10.913
”、“	-10.9131
機構	-10.9132
签证	-10.9132
得分	-10.9132
Whether	-10.9133
性别	-10.9134
收益	-10.9134
替代	-10.9134
▁design	-10.9135
气候	-10.9136
就这样	-10.9138
带我	-10.9141
上学	-10.9141
没看	-10.9154
RI	-10.9155
新鲜	-10.9158
伤心	-10.9159
早点	-10.9168
最喜欢	-10.9175
rep	-10.9175
▁Data	-10.9177
等一下	-10.918
ung	-10.9181
矣	-10.9183
下來	-10.9184
忌	-10.9186
崎	-10.9186
農	-10.9187
跪	-10.9188
指挥	-10.9188
中華民國	-10.9189
ption	-10.9189
说得	-10.9189
依赖	-10.919
扮演	-10.919
仔细	-10.919
▁Would	-10.9191
職業	-10.9191
root	-10.9192
单独	-10.9194
健身	-10.9194
透明	-10.9196
lot	-10.9198
美丽的	-10.9199
尼克	-10.9199
的风险	-10.9205
天主教	-10.9206
少了	-10.9206
公交	-10.921
Or	-10.9211
科學	-10.9211
region	-10.9211
队员	-10.9216
▁http	-10.9217
他就	-10.922
吃完	-10.9223
有效的	-10.9228
因为他	-10.9228
uc	-10.9231
迹	-10.9232
Not	-10.9234
把自己	-10.9238
国民	-10.9239
合成	-10.9242
▁User	-10.9242
还记得	-10.9242
牵	-10.9244
sc	-10.9245
耀	-10.9245
愁	-10.9247
苑	-10.9247
简介	-10.9248
电子邮件	-10.9248
啤酒	-10.9248
▁However	-10.9249
指控	-10.925
又不	-10.9253
这类	-10.9254
▁region	-10.9256
多么	-10.9257
▁sure	-10.9257
▁word	-10.9259
更是	-10.9259
cap	-10.9261
看我	-10.9261
▁names	-10.9263
case	-10.9265
▁being	-10.9266
▁array	-10.9268
由此	-10.927
小米	-10.9271
MI	-10.9272

	-10.9274
ful	-10.9277
第七	-10.9284
希望你	-10.9285
诸	-10.9289
head	-10.9292
潜在	-10.9296
是啥	-10.9296
全身	-10.9298
责	-10.9299
盃	-10.93
評	-10.9302
準	-10.9302
筆	-10.9303
妆	-10.9303
▁assist	-10.9305
号码	-10.9306
立法	-10.9306
翁	-10.9307
解决方案	-10.9307
醫生	-10.9307
▁another	-10.9308
产生的	-10.931
社交	-10.9314
验证	-10.9314
还说	-10.9316
ati	-10.9316
英超	-10.9317
>
#	-10.9319
處理	-10.9319
▁document	-10.9319
重复	-10.9319
private	-10.9319
唱歌	-10.9321
婆	-10.9327
▁free	-10.9327
七年	-10.9329
沟通	-10.933
记载	-10.933
tip	-10.9345
DI	-10.935
["	-10.935
还行	-10.9352
race	-10.9352
▁point	-10.9356
就很	-10.9358
機會	-10.9358
尉	-10.936
繼	-10.936
吞	-10.9361
逊	-10.9361
娶	-10.9362
熬	-10.9362
計劃	-10.9362
争议	-10.9364
辆	-10.9364
珍惜	-10.9365
失眠	-10.9366
▁Returns	-10.9366
帐	-10.9368
显得	-10.9369
鎮區	-10.937
model	-10.9371
內容	-10.9371
bs	-10.9371
bool	-10.9378
镜头	-10.9381
有事	-10.9385
第二天	-10.9387
也許	-10.939
回去了	-10.9394
的结果	-10.9395
▁video	-10.9396
赛事	-10.9396
十一	-10.9403
聯盟	-10.9407
脸上	-10.9409
释	-10.9413
这条	-10.9422
寬	-10.9422
烂	-10.9423
р	-10.9423
兴奋	-10.9423
脑子	-10.9423
道歉	-10.9423
Payment	-10.9424
▁single	-10.9424
))
	-10.9425
学姐	-10.9426
开玩笑	-10.9426
制造商	-10.9426
停车场	-10.9426
cept	-10.9426
勇气	-10.9427
太棒了	-10.9427
曾經	-10.9429
Generate	-10.9429
传奇	-10.943
ign	-10.943
奥运	-10.9432
mod	-10.9432
领先	-10.9433
大量的	-10.9437
鸡蛋	-10.9438
超過	-10.9441
func	-10.9442
uri	-10.9444
Per	-10.9449
什么样的	-10.9449
老大	-10.9456
多大	-10.9458
态度	-10.9459
心脏	-10.9459
哪儿	-10.9459
造成的	-10.9461
商店	-10.9462
PO	-10.9465
兒子	-10.9471
uck	-10.9471
为什么不	-10.9473
好呀	-10.9474
客气	-10.9474
是否有	-10.9475
▁credit	-10.9476
">
	-10.9477
腦	-10.9478
賢	-10.9478
韓	-10.9478
財	-10.9479
lay	-10.9479
運動	-10.9479
SP	-10.9479
履行	-10.9481
激素	-10.9481
北京市	-10.9481
ler	-10.9481
蛋白质	-10.9482
Result	-10.9483
陪你	-10.9483
Price	-10.9487
里面的	-10.9488
法庭	-10.9489
面包	-10.949
▁copy	-10.9491
消防	-10.9494
过滤	-10.9495
通信	-10.9501
春天	-10.9503
时尚	-10.9504
distance	-10.9508
▁users	-10.9509
晚了	-10.951
海岸	-10.951
RS	-10.951
ier	-10.9517
要么	-10.952
癌症	-10.9521
給你	-10.9524
当我	-10.9524
積	-10.9524
match	-10.9527
告知	-10.9532
队长	-10.9534
亭	-10.9539
幫助	-10.9539
抑制	-10.9541
财务	-10.9542
primary	-10.9543
interface	-10.9543
時候	-10.9544
映	-10.9544
预期	-10.9546
温暖	-10.9546
总面积	-10.9547
NS	-10.9547
hot	-10.9547
----------------	-10.9548
▁NULL	-10.9548
▁property	-10.9549
牛肉	-10.9551
尼亞	-10.9556
巴士	-10.9556
大师	-10.956
簡	-10.9562
电流	-10.9562
带你	-10.9565
▁financial	-10.9565
肚	-10.9567
PE	-10.9569
在北京	-10.9574
排水	-10.9575
快去	-10.9577
黎	-10.9577
也被	-10.9578
cc	-10.958
奪	-10.9581
▁services	-10.9582
跌	-10.9582
会计	-10.9583
space	-10.9588
慢性	-10.9589
▁non	-10.9592
人群	-10.9593
gg	-10.9593
服用	-10.9595
▁main	-10.9597
砍	-10.9599
缸	-10.9599
舒适	-10.9599
ther	-10.9601
膏	-10.9601
踩	-10.9601
伞	-10.9601
好几	-10.9602
▁She	-10.9602
Bo	-10.9602
**,	-10.9602
unsigned	-10.9603
Token	-10.9603
的游戏	-10.9603
根本不	-10.9604
防守	-10.9605
规	-10.9607
▁history	-10.9607
始终	-10.9607
東北	-10.9614
受不了	-10.9621
▁week	-10.9622
一眼	-10.9624
Be	-10.9628
眼神	-10.9641
▁reservation	-10.9646
za	-10.9648
我们就	-10.9648
这么好	-10.9649
损	-10.965
工作的	-10.9656
最低	-10.9656
较高	-10.9657
危害	-10.9658
系统的	-10.9658
叉	-10.9659
炉	-10.9661
乘客	-10.9663
Ticket	-10.9663
ー	-10.9663
激烈	-10.9663
给予	-10.9664
复制	-10.9664
▁Date	-10.9665
Book	-10.9666
rd	-10.9667
办理	-10.9667
夺	-10.9667
起诉	-10.9668
裙子	-10.967
期望	-10.967
cer	-10.9672
了一些	-10.9672
▁configuration	-10.9675
这意味着	-10.9675
委员	-10.9676
sch	-10.9676
有趣的	-10.9678
停车	-10.9679
face	-10.9679
豆瓣评分	-10.9682
延长	-10.9682
ust	-10.9683

　　	-10.9685
See	-10.9686
第二次	-10.9686
項目	-10.9689
▁token	-10.9692
强制	-10.9692
在外面	-10.9693
在其	-10.9695
机制	-10.9695
用餐	-10.9696
没有什么	-10.97
hr	-10.9702
的技术	-10.9703
结束了	-10.9703
asc	-10.9705
一辆	-10.9706
▁National	-10.9707
FF	-10.9709
本来就	-10.971
的天气	-10.9712
lan	-10.9716
这几天	-10.9717
弃	-10.9717
Un	-10.9717
決賽	-10.9718
注射	-10.972
霜	-10.9721
提名	-10.9722
义务	-10.9723
▁pricing	-10.9723
level	-10.9724
老了	-10.9724
快递	-10.9725
團體	-10.9725
偷偷	-10.9725
密切	-10.9726
element	-10.973

{\	-10.9731
人員	-10.9731
是誰	-10.9731
脉	-10.9732
指令	-10.9733
外交	-10.9733
围绕	-10.9735
Li	-10.9736
空中	-10.9737
▁flights	-10.9738
人才	-10.9738
cur	-10.9738
少数	-10.9741
ney	-10.9742
不应该	-10.9743
rn	-10.9743
▁weather	-10.9744
▁discount	-10.9751
各自	-10.9751
spi	-10.9755
▁via	-10.9755
同时也	-10.9756
自行	-10.9757
无数	-10.9757
意识到	-10.9758
没有啊	-10.976
得以	-10.9763
出道	-10.9763
video	-10.9765
target	-10.9767
金牌	-10.9769
过得	-10.9769
著名的	-10.9775
貨	-10.9779
元年	-10.978
厄	-10.978
亨	-10.978
我们是	-10.9782
凑	-10.9783
撩	-10.9784
纠结	-10.9784
默默	-10.9784
translation	-10.9784
і	-10.9784
开启	-10.9786
入侵	-10.9787
二人	-10.9787
能在	-10.9788
km	-10.9788
bility	-10.9788
他会	-10.979
ification	-10.979
不存在	-10.9791
走到	-10.9795
,,,	-10.9804
ING	-10.9807
为您	-10.9809
敵	-10.9811
urs	-10.9812
在這	-10.9814
are	-10.9814
一看	-10.9815
開發	-10.9816
可以使用	-10.9818
色彩	-10.9823
一口	-10.9828
很高	-10.983
储	-10.983
工作人员	-10.9831
driver	-10.9832
尺	-10.9833
几次	-10.9835
逸	-10.9837
勿	-10.9841
昏	-10.9841
贯	-10.9842
利物浦	-10.9843
捐	-10.9843
als	-10.9844
逻辑	-10.9844
百姓	-10.9844
н	-10.9845
边缘	-10.9845
依旧	-10.9845
沒錯	-10.9846
怎么说	-10.9846
▁Park	-10.9847
DNA	-10.9847
就没有	-10.9848
差距	-10.9848
送到	-10.9849
%。
	-10.9851
捉	-10.9852
习	-10.9854
的产品	-10.9857
打的	-10.9858
的男人	-10.9859
一会儿	-10.9859
重视	-10.9861
非常好	-10.9861
fr	-10.9862
你还是	-10.9862
主角	-10.9864
時代	-10.9866
改进	-10.987
年间	-10.987
众多	-10.987
縣人	-10.9873
ENT	-10.9873
▁even	-10.9874
当初	-10.9874
Action	-10.9876
響	-10.988
有一天	-10.9883
▁Su	-10.9883
着急	-10.9884
是从	-10.9884
中有	-10.9885
带有	-10.9886
没有任何	-10.9886
艺术家	-10.9887
房产	-10.9891
result	-10.9891
keyword	-10.9892
▁count	-10.9897
对自己	-10.9902
廢	-10.9903
擦	-10.9903
畅	-10.9903
牠	-10.9904
Info	-10.9904
中等	-10.9905
狠	-10.9906
":{	-10.9906
杠	-10.9906
拜託	-10.9906
频率	-10.9907
加盟	-10.9908
去做	-10.9908
新聞	-10.991
地址在	-10.991
青岛	-10.9912
下一	-10.9914
帽子	-10.9915
等地	-10.9917
躺	-10.9918
群体	-10.9919
BO	-10.9919
够了	-10.9921
NE	-10.9922
研究人员	-10.9923
▁driver	-10.9924
场景	-10.9926
oth	-10.9927
十九	-10.9929
你才	-10.9932
fn	-10.9938
输了	-10.9938
隻	-10.9945
问你	-10.9946
后天	-10.9947
▁card	-10.9949
作战	-10.9954
meters	-10.9957
衡	-10.9959
醫	-10.9959
衰	-10.996
辨	-10.996
违	-10.9961
每周	-10.9963
燈	-10.9964
茂	-10.9965
仿	-10.9966
新西兰	-10.9968
mission	-10.9968
营业	-10.9969
▁football	-10.9969
胎儿	-10.9969
Index	-10.997
super	-10.9971
毫无	-10.9976
容量	-10.9977
现有	-10.9977
高温	-10.9982
就是这样	-10.9982
▁hours	-10.9983
不一定	-10.9985
才有	-10.9987
："	-10.9988
Mar	-10.999
主要功能	-10.999
wait	-10.9991
處於	-10.9992
Sc	-10.9992
比分	-10.9993
天然	-10.9998
清理	-11
年纪	-11.0003
ath	-11.0009
八年	-11.0012
不停	-11.0012
tw	-11.0014
】
	-11.0015
▁quote	-11.0016
放下	-11.0017
逐	-11.0024
sy	-11.0024
▁JSON	-11.0025
纽	-11.0028
奴	-11.0029
姬	-11.0029
维生素	-11.003
财富	-11.0032
細胞	-11.0032
screen	-11.0032
噶	-11.0032
缓解	-11.0032
密码	-11.0033
▁might	-11.0034
▁THE	-11.0036
究竟	-11.0042
花园	-11.0044
Gr	-11.0045
的食物	-11.0046
将于	-11.0047
Start	-11.0048
可不	-11.005
各国	-11.0052
怎麼了	-11.0053
每次都	-11.0053
小子	-11.0056
回头	-11.0058
驱	-11.0059
pin	-11.007
不可以	-11.0073
什么是	-11.0074
一面	-11.0077
找一个	-11.008
狱	-11.0084
国会	-11.0084
无限	-11.0085
裙	-11.0086
儀	-11.0088
献	-11.0089
抛	-11.0089
security	-11.0089
掩	-11.009
辖	-11.009
梯	-11.009
ano	-11.0091
兩人	-11.0091
vers	-11.0091
月球	-11.0091
廉	-11.0092
决策	-11.0093
退休	-11.0095
▁three	-11.0095
▁United	-11.0095
青少年	-11.0095
▁food	-11.0096
▁files	-11.0096
对对对	-11.0096
water	-11.0097
微软	-11.0097
▁interest	-11.0097
service	-11.0097
的变化	-11.0098
profile	-11.0099
拜托	-11.0099
ock	-11.0099
Note	-11.0102
score	-11.0102
rc	-11.0104
股东	-11.0106
签名	-11.0106
五月	-11.0107
ident	-11.011
中国大陆	-11.0111
的儿子	-11.0111
安娜	-11.0112
Ver	-11.0114
ted	-11.0115
電視劇	-11.0123
注意到	-11.0124
场所	-11.0126
是中国	-11.0127
iti	-11.0129
客房	-11.0134
出去玩	-11.0134
万人	-11.0138
?!	-11.0138
我还没	-11.0146
▁contact	-11.015
雕	-11.0151
爹	-11.0151
吕	-11.0153
衝	-11.0153
聘	-11.0154
額	-11.0154
礦	-11.0156
珊	-11.0156
笨	-11.0156
瘾	-11.0157
瞬间	-11.0157
導演	-11.0159
截至	-11.016
確	-11.016
石头	-11.0161
思维	-11.0161
政治人物	-11.0162
总结	-11.0163
我也不知道	-11.017
前几天	-11.0171
ingredients	-11.0173
的角色	-11.0173
公分	-11.0176
specific	-11.0179
这儿	-11.0183
第八	-11.0183
cho	-11.0183
议会	-11.0184
ify	-11.0184
表白	-11.0186
Point	-11.0186
Gen	-11.0188
所以你	-11.0192
結婚	-11.0195
▁Response	-11.0196
topic	-11.0197
一道	-11.0198
Up	-11.0199
▁analyze	-11.02
的国家	-11.0205
PR	-11.0206
主体	-11.0209
sw	-11.0211
:"	-11.0211
只需	-11.0211
统治	-11.0214
火山	-11.0214
▁Type	-11.0216
忧	-11.0218
泄	-11.0218
鹰	-11.0218
笼	-11.0219
淘汰	-11.022
框架	-11.0221
公尺	-11.0221
巴基斯坦	-11.0222
▁software	-11.0222
л	-11.0222
咱俩	-11.0222
认证	-11.0223
跳舞	-11.0224
算法	-11.0225
▁series	-11.0226
▁Group	-11.0226
對不起	-11.0226
著作	-11.0227
zip	-11.0227
优点	-11.0231
达成	-11.0232
厨房	-11.0233
完成了	-11.0235
变成了	-11.0235
最爱	-11.0235
DO	-11.0237
打篮球	-11.0237
队友	-11.0238
全是	-11.0244
▁day	-11.0244
review	-11.0246
产业	-11.0249
转移	-11.0252
▁rating	-11.0254
▁follows	-11.0262
初期	-11.0266
它家	-11.0267
▁share	-11.0267
食用	-11.027
oke	-11.0275
ISO	-11.0276
爵	-11.0278
CE	-11.0278
种族	-11.028
玫瑰	-11.0283
合并	-11.0284
涌	-11.0284
賓	-11.0284
闷	-11.0284
燃料	-11.0285
勇敢	-11.0285
粥	-11.0285
成績	-11.0285
他们会	-11.0285
匹配	-11.0285
Current	-11.0286
▁Software	-11.0286
Microsoft	-11.0286
▁Bu	-11.0286
▁external	-11.0287
授权	-11.0287
通讯	-11.0287
單曲	-11.0288
优化	-11.029
roll	-11.0293
武装	-11.0295
配音	-11.0297
江西	-11.0298
▁verify	-11.0299
超越	-11.0301
scan	-11.0302
博主	-11.0305
男神	-11.0305
>>	-11.0311
一條	-11.0314
Am	-11.0315
▁term	-11.0315
回收	-11.0316
快點	-11.0324
▁route	-11.0325
你真的	-11.0328
握	-11.0332
下列	-11.0337
意思是	-11.0341
嚴	-11.0342
仓	-11.0342
更有	-11.0342
測	-11.0343
身份证	-11.0343
hal	-11.0344
种植	-11.0344
緊	-11.0345
痕	-11.0347
黏	-11.0347
协调	-11.0348
橫	-11.0349
CC	-11.0349
矛盾	-11.0349
模拟	-11.0349
娇	-11.035
ey	-11.035
奎	-11.035
亞洲	-11.035
▁performance	-11.0351
▁associated	-11.0351
duration	-11.0351
商务	-11.0352
遭受	-11.0352
开关	-11.0353
物体	-11.0353
登记	-11.0353
▁&&	-11.0354
会导致	-11.0354
助理	-11.0355
交换	-11.0355
花了	-11.0357
spect	-11.0359
是以	-11.0359
你先	-11.0361
統	-11.0362
是非常	-11.0363
疯了	-11.0364
人数	-11.0366
利亞	-11.0369
周一	-11.0369
让她	-11.0377
loc	-11.0377
▁person	-11.038
ls	-11.038
好啦	-11.0381
▁Art	-11.0386
平等	-11.0388
OP	-11.0388
town	-11.0389
cor	-11.0393
二世	-11.0393
溶	-11.0396
容器	-11.04
恭喜	-11.0403
制成	-11.0403
对比	-11.0404
];
	-11.0405
也好	-11.0409
藉	-11.0411
RD	-11.0412
弦	-11.0413
蓄	-11.0413
芽	-11.0413
凌晨	-11.0413
违反	-11.0414
比较好	-11.0415
vis	-11.0415
葱	-11.0415
蹭	-11.0415
营销	-11.0416
modify	-11.0416
这家餐馆	-11.0416
芯片	-11.0417
供应	-11.0417
发病	-11.0417
ae	-11.0418
月台	-11.0418
kg	-11.0418
option	-11.0422
某种	-11.0423
信心	-11.0424
台北	-11.0424
會議	-11.0431
说说	-11.0433
这种情况	-11.0435
messages	-11.0438
也不知道	-11.0444
足够	-11.0446
得知	-11.0447
大道	-11.0453
ium	-11.0454
har	-11.0454
冬季	-11.0458
对其	-11.046
给她	-11.0463
了他的	-11.0464
五十	-11.0469
旗下	-11.0469
Out	-11.047
公平	-11.0471
丸	-11.0472
▁Car	-11.0475
崩	-11.0476
斯塔	-11.0476
铝	-11.0476
龟	-11.0477
傲	-11.0478
▁pa	-11.0479
阔	-11.0479
稻	-11.0479
监督	-11.0479
淑	-11.048
quote	-11.0481
temperature	-11.0481
新疆	-11.0483
我昨天	-11.0484
不清	-11.0484
谷歌	-11.0485
运动会	-11.0485
我们也	-11.0487
消化	-11.049
名稱	-11.0491
不不不	-11.0493
使用说明	-11.0495
价位	-11.0496
Apple	-11.0496
▁step	-11.0499
df	-11.0499
还需要	-11.0504
热情	-11.0506
观看	-11.0507
▁session	-11.0508
▁ordering	-11.0512
▁American	-11.0514
我们一起	-11.0517
++	-11.0518
乘坐	-11.0521
看到的	-11.0526
过度	-11.0527
也太	-11.0527
适当	-11.0528
辩	-11.0529
都说	-11.053
我以前	-11.0531
validate	-11.0531
现金	-11.0532
编码	-11.0533
到底是	-11.0538
扭	-11.0538
气质	-11.054
补偿	-11.0542
鏡	-11.0544
蕾	-11.0544
共和国	-11.0544
受害者	-11.0544
师傅	-11.0546
浏览器	-11.0547
這次	-11.0549
▁recent	-11.0549
join	-11.0549
▁won	-11.0553
出差	-11.0553
买个	-11.0554
后期	-11.0554
布鲁	-11.0554
].	-11.0555
更好地	-11.0558
广播	-11.0559
的存在	-11.0562
喝了	-11.0562
▁block	-11.0564
rest	-11.0569
stop	-11.0571
是法国	-11.0572
產生	-11.0573
的过程	-11.0578
改變	-11.0578
uint	-11.058
拍攝	-11.0582
刚好	-11.0584
跟你说	-11.0585
带来了	-11.0587
十三	-11.059
打造	-11.0594
▁does	-11.0596
cle	-11.0596
是你的	-11.0596
draw	-11.0597
國王	-11.0598
ency	-11.06
arm	-11.0603
辅	-11.0607
粮	-11.0608
芯	-11.0608
弓	-11.061
实行	-11.0611
ale	-11.0611
梗	-11.0611
▁live	-11.0611
認識	-11.0612
加州	-11.0612
欺负	-11.0612
魅力	-11.0613
born	-11.0613
success	-11.0613
指示	-11.0613
Status	-11.0613
没钱	-11.0613
送你	-11.0613
board	-11.0614
混蛋	-11.0614
CL	-11.0614
一点点	-11.0616
之类的	-11.0617
彼得	-11.0617
子里	-11.0618
进程	-11.0621
啊啊啊	-11.0622
的身体	-11.0624
ore	-11.0625
▁And	-11.0629
动漫	-11.0629
损伤	-11.0631
的部分	-11.0631
写作	-11.0631
export	-11.0636
最好是	-11.0637
provider	-11.0641
mil	-11.0642
")
	-11.0644
II	-11.0646
▁additional	-11.0648
generate	-11.065
确	-11.0651
UN	-11.0652
Str	-11.0652
一世	-11.0654
才知道	-11.0656
Resource	-11.0659
优秀的	-11.066
密度	-11.0662
We	-11.0669
▁resource	-11.067
一声	-11.0674
披	-11.0675
泛	-11.0675
鳳	-11.0676
濟	-11.0676
取决于	-11.0678
丰富的	-11.0678
校长	-11.0678
批评	-11.0679
▁those	-11.068
frame	-11.068
设立	-11.0681
ville	-11.0681
免费的	-11.0683
转载	-11.0683
州市	-11.0686
联合国	-11.0688
不止	-11.0694
顾问	-11.0694
利率	-11.07
你猜	-11.0701
中山	-11.0701
安静	-11.0702
依法	-11.0702
恩恩	-11.0706
唯	-11.0707
can	-11.0707
活性	-11.0707
parse	-11.0709
打破	-11.071
FA	-11.071
上周	-11.0714
的基本	-11.0715
rel	-11.0716
van	-11.0716
我想要	-11.0718
▁player	-11.0719
行星	-11.072
起了	-11.0723
▁original	-11.0726
爱吃	-11.0727
core	-11.0729
可以看到	-11.0729
东京	-11.0729
会影响	-11.0729
的安全	-11.073
就想	-11.073
關於	-11.0732
手中	-11.0737
胖子	-11.0741
custom	-11.0741
戲	-11.0742
柴	-11.0743
硅	-11.0743
赐	-11.0743
规范	-11.0744
装饰	-11.0745
傢伙	-11.0745
去过	-11.0745
Facebook	-11.0745
骄傲	-11.0746
TikTok	-11.0746
嫌弃	-11.0746
▁different	-11.0747
instance	-11.0747
▁music	-11.0747
好嗎	-11.0747
▁record	-11.0749
"],
	-11.0752
带领	-11.0754
有關	-11.0755
任命	-11.0755
货物	-11.0755
的速度	-11.0758
结局	-11.0759
的生命	-11.0761
回归	-11.0762
ari	-11.0763
风景	-11.0765
。"}]}	-11.0766
ord	-11.0767
伯特	-11.0769
来看看	-11.077
}}	-11.0773
都知道	-11.0776
drop	-11.0777
就是啊	-11.0777
hash	-11.0778
▁Bi	-11.0778
▁Ex	-11.0779
约定	-11.078
人心	-11.0781
▁issue	-11.0782
病例	-11.0784
gan	-11.0785
▁Man	-11.0785
主管	-11.0787
一定的	-11.0789
出任	-11.0789
client	-11.0793
▁phone	-11.0793
不出来	-11.0795
我明天	-11.0799
你已经	-11.0801
規	-11.0805
轴承	-11.0808
查到	-11.0808
trans	-11.0809
没看到	-11.081
Τ	-11.0811
荣誉	-11.0812
撕	-11.0813
对应	-11.0814
release	-11.0814
約翰	-11.0814
帮我查一下	-11.0814
recipient	-11.0814
github	-11.0814
Maximum	-11.0814
▁Historical	-11.0814
跟踪	-11.0815
▁planning	-11.0815
人口密度	-11.0815
结论	-11.0816
这么大	-11.0816
惊喜	-11.0816
五个	-11.0817
Find	-11.0818
我还想	-11.0819
article	-11.0819
许可	-11.0821
比較	-11.0821
放置	-11.0822
素质	-11.0823
ev	-11.0824
逝世	-11.0826
Log	-11.0828
的状态	-11.0829
城镇	-11.083
部件	-11.0832
上涨	-11.0834
湖人	-11.0835
高铁	-11.0836
▁client	-11.0836
研发	-11.0837
ado	-11.0839
我看了	-11.084
那个人	-11.084
足以	-11.084
cast	-11.084
问我	-11.0841
都不知道	-11.0842
三分	-11.0847
没见过	-11.0852
docs	-11.0853
这将	-11.0856
是一種	-11.0857
成果	-11.0857
")	-11.0859
话题	-11.086
request	-11.086
怎么做	-11.0861
AND	-11.0865
Cr	-11.0865
▁lost	-11.0865
加热	-11.0866
哪天	-11.0869
▁full	-11.0869
疗	-11.0869
諸	-11.0876
FL	-11.0876
冯	-11.0877
硂	-11.0877
lang	-11.0877
淋	-11.0877
紙	-11.0878
鄰	-11.0878
不明白	-11.0879
传递	-11.0879
喽	-11.0879
雞	-11.0879
徑	-11.088
就业	-11.088
淮	-11.088
我爱	-11.0881
player	-11.0881
／	-11.0881
庆祝	-11.0881
So	-11.0882
Component	-11.0882
Support	-11.0882
獎牌得主	-11.0882
大使	-11.0882
DATA	-11.0882
洗澡	-11.0883
South	-11.0883
的支持	-11.0883
▁limited	-11.0884
已有	-11.0885
縣的一個	-11.0886
期货	-11.0886
Po	-11.0889
分裂	-11.089
▁ok	-11.089
other	-11.089
operation	-11.0893
▁vs	-11.0895
动态	-11.0896
趣	-11.0897
▁base	-11.0898
right	-11.0899
以上的	-11.0899
市鎮	-11.09
级别	-11.09
ped	-11.0902
我从	-11.0902
那樣	-11.0902
你给我	-11.0904
第二个	-11.0905
Air	-11.0913
created	-11.0914
票价	-11.0916
提起	-11.0917
學名	-11.0917
sen	-11.0921
▁reg	-11.0923
的效果	-11.0924
价格是	-11.0924
的一切	-11.0924
你为什么	-11.093
次数	-11.0933
通用	-11.0935
所需的	-11.0935
都市	-11.0937
好嘛	-11.0939
圍	-11.0941
臺	-11.0943
隱	-11.0944
催	-11.0945
女友	-11.0945
叫你	-11.0945
傅	-11.0946
趕	-11.0947
证实	-11.0947
不锈钢	-11.0947
柄	-11.0947
英里	-11.0948
壞	-11.0948
雾	-11.0948
遵守	-11.0949
消耗	-11.0949
账户	-11.095
一辈子	-11.095
絕對	-11.095
说不定	-11.0951
周日	-11.0951
突出	-11.0951
明朝政治人物	-11.0951
Order	-11.0951
中学	-11.0952
有什麼	-11.0955
传输	-11.0955
美好的	-11.0955
next	-11.0956
${	-11.0957
▁assert	-11.0957
Port	-11.0957
影像	-11.0958
葡萄酒	-11.096
qua	-11.096
MC	-11.0962
是这样的	-11.0963
ich	-11.0963
低调	-11.0963
game	-11.0963
玉米	-11.0966
出演	-11.0966
rick	-11.0968
動畫	-11.0969
鼻子	-11.0969
spec	-11.0971
经理	-11.0972
fact	-11.0974
Ho	-11.0977
一开始	-11.0977
攻擊	-11.098
。
　　	-11.0987
月底	-11.099
的景点	-11.099
进了	-11.0992
至于	-11.0998
旦	-11.0998
但它	-11.0999
大学的	-11.1002
性质	-11.1003
bl	-11.1004
地上	-11.1007
執	-11.1009
property	-11.1012
availability	-11.1012
Sa	-11.1013
罷	-11.1015
罩	-11.1015
纪录	-11.1015
一同	-11.1016
慎	-11.1016
偉	-11.1016
洛杉矶	-11.1016
滋	-11.1017
挨	-11.1018
舉辦	-11.1018
详情	-11.1018
結構	-11.1019
琪	-11.1019
灵魂	-11.1019
巧克力	-11.1019
▁WITHOUT	-11.102
stream	-11.102
寝室	-11.102
唐朝	-11.1021
温柔	-11.1021
软件介绍	-11.1022
认定	-11.1023
▁existing	-11.1023
Room	-11.1025
是什么意思	-11.1026
听说过	-11.1027
SL	-11.1029
都不会	-11.1032
updated	-11.1033
碰到	-11.1033
());
	-11.1033
大众	-11.1034
▁IS	-11.1035
中部	-11.1036
深深	-11.1037
desc	-11.104
EL	-11.1043
▁chart	-11.1045
度假	-11.1046
怎么回事	-11.1047
月经	-11.1048
这家酒店	-11.105
篮	-11.1051
适用	-11.1059
周边还有	-11.1062
最美	-11.1062
"]
	-11.1064
icon	-11.1065
的成绩	-11.1069
採	-11.1071
抬	-11.1072
可以帮助	-11.1074
很开心	-11.1077
单纯	-11.1079
盲	-11.1082
培	-11.1082
醒了	-11.1084
▁},	-11.1085
藻	-11.1085
漆	-11.1086
轄	-11.1086
巷	-11.1086
茅	-11.1087
饮料	-11.1088
宰	-11.1088
▁difference	-11.1089
▁{
	-11.1089
Location	-11.1089
Team	-11.109
▁District	-11.109
},
	-11.109
颜值	-11.1091
prop	-11.1092
显著	-11.1093
佩服	-11.1093
婚礼	-11.1093
窗口	-11.1094
-{	-11.1095
語言	-11.1096
▁Ka	-11.1097
成功的	-11.1098
维修	-11.1098
专业的	-11.1102
港口	-11.1102
见你	-11.1102
认可	-11.1106
万一	-11.1108
shop	-11.1111
ole	-11.1118
的功能	-11.1123
的精神	-11.1129
更高	-11.1133
它们的	-11.1133
这场比赛	-11.1137
你好呀	-11.114
ace	-11.1141
ik	-11.1142
AB	-11.1145
缴	-11.1145
交给	-11.1146
帽	-11.1147
到处	-11.115
減	-11.1151
隔离	-11.1152
FI	-11.1152
Int	-11.1152
東南	-11.1154
賴	-11.1155
脊	-11.1155
電話	-11.1156
範圍	-11.1157
Format	-11.1157
泳	-11.1158
▁retrieved	-11.1158
冒险	-11.1158
我的天	-11.1159
Server	-11.1159
财政	-11.1159
Element	-11.1159
nal	-11.116
hotel	-11.1161
登录	-11.1161
Driver	-11.1162
智商	-11.1163
letter	-11.1163
罢	-11.1164
ele	-11.1164
室友	-11.1165
东南	-11.1168
块钱	-11.1168
预算	-11.1168
不怎么	-11.1169
演讲	-11.1169
地板	-11.1169
出场	-11.1169
无论是	-11.1171
争取	-11.1177
更大的	-11.1178
graph	-11.1178
▁饰	-11.1179
▁java	-11.1184
清洗	-11.1185
▁League	-11.1186
湖南	-11.119
lower	-11.119
based	-11.119
各地	-11.1191
可以吗	-11.1193
的一座	-11.1196
总会	-11.1196
超市	-11.1197
肯定会	-11.1197
一度	-11.1199
(),	-11.1202
mg	-11.1204
ding	-11.1206
要看	-11.1206
▁style	-11.1209
被迫	-11.1211
轨	-11.1213
似的	-11.1213
估	-11.1215
相应的	-11.1216
看一下	-11.1217
你就是	-11.1217
”“
	-11.1219
以前的	-11.1221
早上好	-11.1224
懂得	-11.1224
遷	-11.1225
宠	-11.1225
牆	-11.1226
毀	-11.1226
昔	-11.1226
协助	-11.1226
袖	-11.1226
赠	-11.1227
汀	-11.1228
虚拟	-11.1229
漫画	-11.1229
住宅	-11.1229
拓	-11.1229
IA	-11.1229
с	-11.1229
▁implied	-11.1229
眼前	-11.1231
跟我说	-11.1231
▁QR	-11.1231
執行	-11.1232
我先走了	-11.1232
柏林	-11.1234
怪物	-11.1235
设定	-11.1236
▁pass	-11.1237
▁score	-11.1238
女孩子	-11.1239
▁down	-11.1239
斯基	-11.1241
订阅	-11.1242
▁currently	-11.1245
\"\	-11.1245
其實	-11.1246
自行车	-11.1249
高考	-11.1251
大多	-11.1255
评分在	-11.1256
平常	-11.1257
sta	-11.1258
购物	-11.1258
去买	-11.1261
复合	-11.1263
总之	-11.1265
▁center	-11.1274
三次	-11.1283
卵	-11.1285
night	-11.1287
累了	-11.1289
册	-11.1293
ending	-11.1293
顧	-11.1295
耕	-11.1295
ware	-11.1296
這一	-11.1296
霞	-11.1296
燒	-11.1296
純	-11.1296
叠	-11.1297
期限	-11.1297
舟	-11.1298
颇	-11.1298
尹	-11.1298
紀錄	-11.1298
紐約	-11.1299
抄	-11.1299
蓬	-11.1299
main	-11.1299
擔心	-11.13
Message	-11.13
▁solutions	-11.1302
抗议	-11.1302
區域	-11.1302
故宫	-11.1304
"]},"	-11.1304
釋	-11.1304
引起的	-11.1304
resolve	-11.1305
踢球	-11.1307
说实话	-11.1312
风机	-11.1312
hour	-11.1313
也不错	-11.1314
filter	-11.1315
这么做	-11.1315
一台	-11.1319
物種	-11.132
▁follow	-11.1321
color	-11.1322
省级	-11.1323
生活在	-11.1326
也可	-11.1331
品种	-11.1335
能否	-11.1341
大臣	-11.1343
回应	-11.1346
car	-11.1352
IE	-11.1356
太子	-11.1357
摄	-11.1357
▁home	-11.1358
不利	-11.136
悔	-11.1361
巫	-11.1363
下一个	-11.1364
不让	-11.1366
眠	-11.1367
審	-11.1367
燃烧	-11.1369
企業	-11.137
扁	-11.137
行驶	-11.137
平方米	-11.1371
没法	-11.1371
隐藏	-11.1372
variable	-11.1372
Process	-11.1372
好久不见	-11.1373
哈里	-11.1373
▁FOR	-11.1375
插入	-11.1376
援助	-11.1376
男友	-11.1377
兔子	-11.1381
件事	-11.1381
空間	-11.1383
解除	-11.1385
▁short	-11.1386
再来	-11.1388
男的	-11.1388
地址在哪	-11.1389
换了	-11.139
gram	-11.139
Sh	-11.1393
选区	-11.1396
海軍	-11.1399
口味	-11.1403
夠	-11.1403
并将	-11.1405
球星	-11.1405
▁std	-11.1405
读者	-11.1406
▁refer	-11.1409
几个月	-11.141
游玩时间	-11.1411
只不过	-11.1411
路线	-11.1412
Run	-11.1414
的地址	-11.1415
整個	-11.1415
好可爱	-11.1416
host	-11.1421
牌子	-11.1421
▁album	-11.1423
或其他	-11.1424
厕所	-11.1426
手指	-11.1428
这个酒店	-11.1429
server	-11.1429
季节	-11.1429
我爸	-11.143
没啥	-11.1431
坛	-11.1431
▁terms	-11.1431
不舒服	-11.1432
可以说	-11.1432
不成	-11.1433
挥	-11.1436
完整的	-11.1436
fo	-11.1437
出身	-11.1437
齿	-11.1437
在网上	-11.1439
劃	-11.144
郁	-11.144
珀	-11.1441
伊拉克	-11.1441
依靠	-11.1441
character	-11.1441
埔	-11.1441
劝	-11.1441
錦標賽	-11.1441
zone	-11.1442
纱	-11.1442
嘉靖	-11.1442
▁refund	-11.1443
喵	-11.1443
减轻	-11.1444
宠物	-11.1446
法定	-11.1446
赚钱	-11.1447
咋样	-11.1449
反應	-11.145
发了	-11.1454
▁along	-11.1456
路口	-11.1457
記得	-11.1459
伟大的	-11.146
並在	-11.1462
application	-11.1466
来找我	-11.1469
ou	-11.147
>\	-11.147
company	-11.1471
restaurant	-11.1472
主演的	-11.1472
面上	-11.1472
电气	-11.1473
如果有	-11.1475
一千	-11.1476
你今天	-11.1477
想着	-11.1478
有问题	-11.1479
rand	-11.1481
。
《	-11.1485
实习	-11.1486
你得	-11.1488
名叫	-11.1489
vision	-11.1491
国家队	-11.1496
note	-11.15
因为它	-11.1502
run	-11.1504
什么意思	-11.1507
識	-11.1507
芒	-11.1507
gar	-11.1509
跑了	-11.1509
靖	-11.1511
翠	-11.1512
▁league	-11.1512
盼	-11.1513
浏览	-11.1513
歪	-11.1514
晃	-11.1514
交叉	-11.1516
馀	-11.1516
▁made	-11.1517
Context	-11.1519
透過	-11.152
建筑物	-11.1523
这时	-11.1525
查理	-11.1526
Unit	-11.1526
▁social	-11.1527
相当于	-11.1532
感受到	-11.1534
report	-11.1534
不适合	-11.1537
排除	-11.1542
分以上的	-11.1544
明白了	-11.1545
input	-11.1547
equal	-11.1552
."
	-11.1556
微笑	-11.1558
线上	-11.1558
电力	-11.1559
▁did	-11.156
不太好	-11.1561
单元	-11.1562
此站	-11.1565
阿爾	-11.1566
itch	-11.1568
帅哥	-11.1568
这不	-11.1568
▁well	-11.1573
彼	-11.1575
出席	-11.1577
▁near	-11.1578
抚	-11.1583
發表	-11.1583
灾	-11.1583
悟	-11.1586
职业生涯	-11.1587
贺	-11.1587
雌	-11.1587
阵容	-11.1587
奥巴马	-11.1588
莫斯科	-11.1588
紀念	-11.1588
炭	-11.1589
к	-11.1589
非建制地區	-11.1589
▁proceed	-11.1589
refsect	-11.1589
確定	-11.1589
▁exact	-11.1589
INSEE	-11.1589
所属的	-11.159
司法	-11.159
邮件	-11.1591
出血	-11.1593
腐蚀	-11.1594
机动车	-11.1595
微博	-11.1596
现在是	-11.1596
CON	-11.1596
src	-11.1597
引用	-11.1598
鞋子	-11.1601
NG	-11.1602
ult	-11.1603
創作	-11.1607
学科	-11.161
南非	-11.1611
仍在	-11.1612
还不是	-11.1614
想念	-11.1617
传统的	-11.1617
我打算	-11.162
月初	-11.162
。」
「	-11.1621
回事	-11.1623
理事	-11.1625
改造	-11.1628
片子	-11.1629
大夫	-11.1629
）
‎	-11.1632
ker	-11.1634
灵活	-11.1635
运气	-11.1636
])	-11.1636
make	-11.1637
住房	-11.1638
在日本	-11.1638
原來	-11.1641
尽快	-11.1642
委員	-11.1644
年起	-11.1644
▁Free	-11.1644
fer	-11.1647
看出来	-11.1652
浴	-11.1654
媒	-11.1655
先后	-11.1656
襄	-11.1658
牺牲	-11.1658
筋	-11.1659
煤	-11.1659
跃	-11.1659
ION	-11.1659
摊	-11.1659
部份	-11.166
绑	-11.166
要注意	-11.166
嫌	-11.166
支撑	-11.166
熔	-11.1661
趙	-11.1662
脖子	-11.1662
pg	-11.1662
监控	-11.1662
按钮	-11.1662
world	-11.1663
愿望	-11.1664
失误	-11.1665
Content	-11.1665
▁ticker	-11.1665
於是	-11.1666
▁English	-11.1667
學家	-11.1667
▁later	-11.1668
dis	-11.1669
```	-11.167
总理	-11.1673
now	-11.1678
serv	-11.1682
穿越	-11.1686
病情	-11.1687
报名	-11.1688
place	-11.1693
▁El	-11.1694
汽	-11.1694
ids	-11.1697
手上	-11.1698
缺点	-11.17
爸妈	-11.17
known	-11.1701
佛教	-11.1703
的妻子	-11.1706
年初	-11.1706
AP	-11.1709
它可以	-11.1711
對於	-11.1714
的可能性	-11.1718
一点都不	-11.1719
高达	-11.1722
后果	-11.1723
cal	-11.1724
金额	-11.1725
造型	-11.1727
tle	-11.1728
负责人	-11.173
sec	-11.173
尸	-11.1731
仕	-11.1732
羣	-11.1732
里有	-11.1733
Si	-11.1734
壽	-11.1734
敷	-11.1734
共和國	-11.1735
宣佈	-11.1735
栖	-11.1735
券	-11.1735
传感器	-11.1735
導致	-11.1736
丙	-11.1736
▁Pi	-11.1737
compensation	-11.1737
Copyright	-11.1737
▁received	-11.1737
年夏季奥林匹克运动会	-11.1737
三個	-11.1737
司令	-11.1738
▁job	-11.1738
人們	-11.1738
种子	-11.1739
callback	-11.1739
该死	-11.174
！"}]}	-11.174
era	-11.1741
无需	-11.1741
护理	-11.1741
保守	-11.1741
卡尔	-11.1742
不确定	-11.1743
无关	-11.1743
液压	-11.1743
游客	-11.1743
separated	-11.1749
你不知道	-11.1751
新型	-11.1752
採用	-11.1752
报警	-11.1752
传说	-11.1753
gre	-11.1754
假设	-11.1755
假如	-11.1757
看好	-11.1757
photo	-11.1758
tar	-11.1758
mes	-11.1759
漂亮的	-11.1761
看书	-11.1763
▁special	-11.1763
了好多	-11.1765
license	-11.1767
三月	-11.1769
？”
	-11.1769
独特的	-11.1773
改编	-11.1774
在他的	-11.1778
discount	-11.1779
进展	-11.178
Di	-11.1781
try	-11.1782
麻烦你	-11.1785
Wi	-11.1786
炎症	-11.1788
▁view	-11.1791
sql	-11.1792
答应	-11.1793
接壤的市	-11.1794
早已	-11.1794
active	-11.1794
老子	-11.1795
法规	-11.1795
过去了	-11.1797
友好	-11.18
"}]}	-11.1802
附近有	-11.1803
婦	-11.1804
痴	-11.1806
辽	-11.1807
撤销	-11.1807
Post	-11.1807
跡	-11.1808
顯示	-11.1808
揚	-11.1808
蛛	-11.1809
喬	-11.181
岭	-11.181
傳統	-11.181
鎖	-11.181
鲍	-11.181
SET	-11.181
WA	-11.1811
化合物	-11.1812
▁consider	-11.1812
娃娃	-11.1812
Work	-11.1812
interval	-11.1812
vector	-11.1813
PDF	-11.1813
网页	-11.1813
▁high	-11.1815
幹嘛	-11.1815
不爱	-11.1817
的一个市镇	-11.1817
tical	-11.1818
一对	-11.182
Size	-11.1821
本赛季	-11.1823
Sch	-11.1827
可以啊	-11.1828
▁Gu	-11.1829
同样的	-11.1829
▁starting	-11.1829
▁miles	-11.1829
▁weight	-11.1838
合格	-11.1839
克里斯	-11.1842
穿过	-11.1845
在学校	-11.1845
交往	-11.1847
DB	-11.1848
▁am	-11.1849
这里的	-11.185
我还以为	-11.1852
三角	-11.1852
毒品	-11.1854
的女儿	-11.1856
所以说	-11.1859
▁customer	-11.1863
ji	-11.1865
eb	-11.1867
可以去	-11.1867
MB	-11.1868
CBA	-11.1868
即便	-11.1868
带上	-11.187
小姐姐	-11.187
▁recipe	-11.1871
将来	-11.1872
軌	-11.1874
ded	-11.1875
通风	-11.1877
ara	-11.1878
排卵	-11.1878
獵	-11.188
徽	-11.188
鸣	-11.1881
綠	-11.1882
ê	-11.1882
陛下	-11.1883
拟	-11.1884
▁methods	-11.1884
鼎	-11.1884
栋	-11.1884
粪	-11.1885
裁判	-11.1885
激励	-11.1885
冲击	-11.1885
﹐	-11.1885
授予	-11.1886
寂寞	-11.1886
糕	-11.1886
宾馆	-11.1886
经历了	-11.1887
Example	-11.1887
install	-11.1887
英格蘭	-11.1887
坚强	-11.1889
▁ISO	-11.1889
CR	-11.189
浓度	-11.1891
Da	-11.1891
优先	-11.1892
生育	-11.1893
般的	-11.1894
){
	-11.1899
分鐘	-11.1899
的实力	-11.1899
▁University	-11.1901
情节	-11.1902
处罚	-11.1903
好美	-11.1907
▁requests	-11.1909
BA	-11.1909
水中	-11.191
下车	-11.1913
正如	-11.1914
你平时	-11.1916
obj	-11.1917
CS	-11.1919
的规定	-11.1919
所谓	-11.192
转发	-11.1922
拿了	-11.1922
西亚	-11.1933
路过	-11.1934
不明	-11.1935
种类	-11.1936
十字	-11.194
添	-11.1942
();

	-11.1944
Line	-11.1947
like	-11.1951
cn	-11.1953
遣	-11.1956
南北	-11.1956
堅	-11.1958
星球	-11.1958
軟	-11.1958
姨	-11.1958
敦	-11.1958
弘	-11.1959
薛	-11.1959
姿	-11.1959
靴	-11.196
薯	-11.1961
呵	-11.1961
lon	-11.1961
文物保护单位	-11.1962
不说	-11.1962
Manager	-11.1962
利润	-11.1964
微生物	-11.1965
对待	-11.1965
▁output	-11.1966
恐怕	-11.1967
无奈	-11.1969
hashtag	-11.197
说法	-11.197
Parameter	-11.1974
杀死	-11.1975
演唱会	-11.1976
储存	-11.1976
情形	-11.1976
买卖	-11.1978
挺喜欢	-11.198
的父亲	-11.1983
tests	-11.1988
初中	-11.1988
许多人	-11.1988
ani	-11.1989
活着	-11.1989
Color	-11.199
诱	-11.199
vol	-11.1991
arch	-11.1992
后卫	-11.1992
女排	-11.1993
來說	-11.1995
nes	-11.1996
std	-11.1996
训	-11.1999
▁gene	-11.2
我用	-11.2007
步行	-11.201
大叔	-11.2012
▁Please	-11.2013
拿下	-11.2014
▁records	-11.2016
ku	-11.2016
並不	-11.2018
平民	-11.2021
十七	-11.2022
▁way	-11.2022
block	-11.2027
一枚	-11.2027
▁got	-11.2028
我再	-11.2029
select	-11.203
也挺	-11.2031
企	-11.2031
lf	-11.2031
汝	-11.2033
驗	-11.2034
俱	-11.2034
氨	-11.2035
託	-11.2036
捞	-11.2037
之子	-11.2037
奖励	-11.2037
侵犯	-11.2038
滨	-11.2038
鹽	-11.2038
支援	-11.2038
balance	-11.2039
合併	-11.2039
旧市镇	-11.2039
违法	-11.204
案例	-11.2041
深刻	-11.2042
表現	-11.2042
完善	-11.2043
给自己	-11.2043
chat	-11.2043
大佬	-11.2043
工程师	-11.2044
▁States	-11.2045
大规模	-11.2046
las	-11.2046
議會	-11.2046
scope	-11.2047
指数	-11.2052
ming	-11.2054
境内	-11.2057
ada	-11.2058
东方	-11.2058
网红	-11.2059
namespace	-11.206
首席	-11.206
我怕	-11.2062
一堆	-11.2062
专辑	-11.2064
大幅	-11.2065
Lo	-11.2067
Ni	-11.2069
▁Ta	-11.2069
PG	-11.207
作为一个	-11.207
亲自	-11.2073
复杂的	-11.2074
做饭	-11.2074
此刻	-11.2075
▁align	-11.2076
geo	-11.2079
▁Ja	-11.2083
coin	-11.2084
得出	-11.2087
一首	-11.2089
更改	-11.2091
最小	-11.2092
全都	-11.2094
Part	-11.2094
不是说	-11.2096
▁Lu	-11.2097
lines	-11.21
SU	-11.2101
拒	-11.211
銷	-11.211
辭	-11.2111
名為	-11.2112
彰	-11.2112
賞	-11.2112
贈	-11.2112
垂直	-11.2113
庙	-11.2113
负担	-11.2113
指揮	-11.2113
IF	-11.2113
activity	-11.2116
Source	-11.2116
forecast	-11.2116
生殖	-11.2116
wood	-11.2116
Config	-11.2116
永久	-11.2118
黑人	-11.2119
互动	-11.2119
电话号码	-11.2123
什么呢	-11.2124
棒球	-11.2124
随意	-11.2124
迟到	-11.2125
北美	-11.2127
直至	-11.2128
unt	-11.213
实体	-11.2132
很小	-11.2133
特拉	-11.2134
校区	-11.2136
有意思	-11.2137
处理器	-11.2138
我发现	-11.214
姓名	-11.2141
▁average	-11.2142
▁{\	-11.2143
將其	-11.2146
中华	-11.2148
選手	-11.2151
Mi	-11.2155
证书	-11.2156
如果我们	-11.2156
代价	-11.216
DA	-11.216
else	-11.2162
▁Ko	-11.2163
小孩子	-11.2163
遇见	-11.2167
那位	-11.2167
已被	-11.2169
▁summary	-11.2173
Page	-11.2174
发起	-11.2178
难得	-11.2179
};

	-11.218
OT	-11.2181
有两个	-11.2187
邑	-11.2189
▁games	-11.2189
隧道	-11.219
焦虑	-11.219
规律	-11.219
耶稣	-11.2191
引擎	-11.2191
叙利亚	-11.2192
т	-11.2192
芙	-11.2193
▁capabilities	-11.2193
▁family	-11.2193
克莱	-11.2194
一杯	-11.2195
回国	-11.2198
冷静	-11.22
天哪	-11.2202
没得	-11.2203
的关键	-11.2204
积分	-11.2205
你知道吗	-11.2206
▁IN	-11.2207
学期	-11.2209
▁surge	-11.2209
之处	-11.221
大致	-11.2212
什么啊	-11.2212
仪式	-11.2212
九年	-11.2214
晚餐	-11.2215
生理	-11.2219
":[]}},	-11.222
要把	-11.222
可是我	-11.2221
ony	-11.2221
吃货	-11.2224
Ru	-11.2225
过于	-11.2226
一日	-11.2228
产品的	-11.2238
部落	-11.2239
没时间	-11.224
Net	-11.224
電子	-11.2242
"
#	-11.2245
你不能	-11.2249
一顿	-11.2251
取得了	-11.2256
現代	-11.2257
醒来	-11.2257
我跟	-11.2262
的温度	-11.2263
一本	-11.2263
节奏	-11.2264
表格	-11.2265
誓	-11.2265
笑了	-11.2266
什麼事	-11.2267
裕	-11.2267
弥	-11.2268
我最	-11.2268
牙齿	-11.2269
related	-11.227
用於	-11.227
咧	-11.2271
是一部	-11.2271
split	-11.2271
▁always	-11.2271
形态	-11.2272
參見	-11.2272
都快	-11.2272
ble	-11.2281
▁supported	-11.2282
格林	-11.2283
告訴我	-11.2284
▁useful	-11.2285
同志	-11.2287
过敏	-11.2289
外套	-11.229
民间	-11.2295
天生	-11.2298
▁double	-11.2299
爱我	-11.23
doc	-11.2304
研究生	-11.2305
國民	-11.2306
此后	-11.2307
而且还	-11.2309
以确保	-11.2318
目標	-11.2319
四月	-11.2319
不错啊	-11.232
就被	-11.2321
reg	-11.2323
罗斯	-11.2324
pre	-11.2324
的压力	-11.2325
一句话	-11.2326
bt	-11.2327
出色	-11.2328
三人	-11.2332
竞	-11.2332
很快就	-11.2334
猴	-11.234
赌	-11.234
Max	-11.2345
惟	-11.2345
課	-11.2347
煎	-11.2347
缺陷	-11.2347
这方面	-11.2347
总部	-11.2347
脫	-11.2348
英格兰	-11.2348
致力于	-11.2348
竞技	-11.2349
豹	-11.2349
例子	-11.2349
い	-11.235
HTML	-11.235
Hello	-11.235
purchase	-11.235
NY	-11.235
搭配	-11.2353
化妆	-11.2353
以此	-11.2353
大事	-11.2353
我看你	-11.2353
哈喽	-11.2353
▁articles	-11.2353
环保	-11.2354
control	-11.2355
Only	-11.2355
。”
“	-11.2356
機場	-11.2357
▁height	-11.2358
刑事	-11.236
前锋	-11.2361
桌子	-11.2362
鐵道	-11.2362
集成	-11.2363
讲述	-11.2363
内存	-11.2364
Ride	-11.2367
车牌	-11.2367
▁PM	-11.2368
hit	-11.2368
down	-11.2371
▁handle	-11.2372
▁pickup	-11.2375
旨	-11.2378
因为他们	-11.2378
精力	-11.2378
好好看	-11.2378
建成	-11.2378
Sub	-11.2381
▁Then	-11.2386
▁delivery	-11.2387
杰克	-11.2389
近日	-11.2392
Ra	-11.2392
▁integers	-11.2393
点儿	-11.2404
SM	-11.2405
也就是说	-11.2405
便利	-11.2407
不受	-11.2412
政党	-11.2412
幾個	-11.2416
腐	-11.2421
Hey	-11.2421
尼亚	-11.2422
陪我	-11.2424
▁coordinates	-11.2425
较低	-11.2425
的身份	-11.2426
碼	-11.2426
卜	-11.2426
钥匙	-11.2427
標準	-11.2427
总体	-11.2427
煙	-11.2427
舞蹈	-11.2428
彩票	-11.2429
抵达	-11.2429
ン	-11.2429
AAPL	-11.243
Array	-11.243
▁against	-11.243
省市镇	-11.2432
Domain	-11.2432
▁sports	-11.2434
▁metadata	-11.2435
城鎮	-11.2438
batch	-11.2438
两者	-11.2439
高于	-11.244
▁One	-11.2442
黄色	-11.2442
brand	-11.2444
分為	-11.2447
國立	-11.2447
如果不	-11.2449
之上	-11.2454
数据库	-11.2454
ren	-11.2456
都會	-11.2457
其中包括	-11.246
嗯呐	-11.2466
▁population	-11.2466
相信我	-11.2467
IR	-11.2467
再也	-11.247
Returns	-11.2471
append	-11.2471
還沒	-11.2472
热门	-11.2473
名人	-11.2474
▁codes	-11.2476
同一个	-11.2478
物种	-11.248
让自己	-11.2481
市場	-11.2484
í	-11.2485
****************	-11.2488
对抗	-11.2488
rows	-11.249
爭	-11.2491
##	-11.2496
哲学	-11.2499
大战	-11.2501
约为	-11.2501
橡胶	-11.2504
正面	-11.2505
恭	-11.2506
辉	-11.2506
挖掘	-11.2506
須	-11.2506
特斯拉	-11.2507
铃	-11.2508
鹅	-11.2509
Language	-11.2509
lies	-11.2509
settings	-11.251
聽到	-11.251
投降	-11.251
另一方面	-11.2511
嚴重	-11.2511
Wil	-11.2511
影视	-11.2513
▁played	-11.2516
条款	-11.2518
Car	-11.2518
城堡	-11.2519
变形	-11.2519
PM	-11.252
卡拉	-11.2521
tur	-11.2521
杀人	-11.2524
战胜	-11.2528
ye	-11.2532
十四	-11.2534
='	-11.2534
错过	-11.2535
;
}

	-11.2536
的眼睛	-11.2541
前后	-11.2545
的态度	-11.2545
window	-11.2545
子女	-11.255
▁send	-11.2553
How	-11.2554
的角度	-11.2557
夺冠	-11.2559
半夜	-11.2559
老年人	-11.256
以下是	-11.2561
再去	-11.2562
多谢	-11.2562
拥	-11.2563
小于	-11.2564
pic	-11.2565
爱国	-11.257
▁host	-11.2571
▁note	-11.2574
好漂亮	-11.2574
球场	-11.2577
毕	-11.2581
End	-11.2581
aa	-11.2582
pm	-11.2582
屯	-11.2585
織	-11.2586
渔	-11.2586
湘	-11.2586
寨	-11.2587
災	-11.2587
condition	-11.2587
准备好	-11.2588
抵抗	-11.2588
羞	-11.2588
华盛顿	-11.2588
）；	-11.2588
锦标赛	-11.2588
途径	-11.2588
顆	-11.2589
被你	-11.2589
怡	-11.2589
醫院	-11.259
任務	-11.259
夫妇	-11.259
Field	-11.259
growth	-11.259
出版社	-11.2591
传染	-11.2591
主力	-11.2592
蒙古	-11.2592
对面	-11.2592
參考	-11.2593
thread	-11.2593
gt	-11.2593
团结	-11.2595
不看	-11.2595
▁attribute	-11.2596
摄影	-11.2597
觉得自己	-11.2599
酒精	-11.26
save	-11.2602
指甲	-11.2602
在家里	-11.2602
▁Ga	-11.2604
AV	-11.2604
▁cost	-11.2605
情报	-11.2605
her	-11.2605
简称	-11.2609
season	-11.261
现在已经	-11.2612
面试	-11.2613
別人	-11.2614
同感	-11.2616
就觉得	-11.2616
有點	-11.2617
umb	-11.2617
别说	-11.2621
就不能	-11.2623
美国人	-11.2623
▁answers	-11.2628
rl	-11.2629
说道	-11.2632
我叫	-11.2633
▁types	-11.2636
sl	-11.2637
IL	-11.2638
▁May	-11.2641
朵	-11.2642
集体	-11.2642
▁love	-11.2643
了自己的	-11.2644
向上	-11.2647
Wal	-11.2648
tech	-11.2649
Mu	-11.2651
Sport	-11.2652
你这样	-11.2654
基督教	-11.2655
更容易	-11.2658
逝	-11.2664
▁Foundation	-11.2665
疫	-11.2666
观念	-11.2667
憲	-11.2667
点半	-11.2668
潛	-11.2669
捧	-11.2669
乔治	-11.267
報告	-11.267
趴	-11.267
Power	-11.2672
airport	-11.2672
怀念	-11.2673
▁express	-11.2675
NA	-11.2675
公園	-11.2677
里斯	-11.2678
xml	-11.2678
资本	-11.268
很想	-11.2681
That	-11.2683
ade	-11.2685
EUR	-11.2687
引入	-11.2688
vel	-11.2693
style	-11.2696
西藏	-11.2696
高压	-11.2697
VIP	-11.2699
市长	-11.27
结婚了	-11.2702
输送	-11.2702
有一种	-11.2704
zz	-11.2705
ax	-11.2706
Inter	-11.2706
接到	-11.271
还有一个	-11.2711
指的是	-11.2711
坦克	-11.2713
第十	-11.2716
▁apply	-11.2717
这是什么	-11.2717
大于	-11.2719
就可以了	-11.2721
在意	-11.2722
只需要	-11.2723
ria	-11.2729
不开	-11.273
我知道你	-11.2731
AG	-11.2732
好运	-11.2732
stats	-11.2734
Ge	-11.2738
分解	-11.2738
暂	-11.2739
很好吃	-11.2741
公子	-11.2744
殺了	-11.2744
Bal	-11.2745
辛苦了	-11.2746
贡	-11.2747
TP	-11.2747
輔	-11.2748
討	-11.2749
姚	-11.2749
儒	-11.275
涉嫌	-11.275
渐	-11.275
虹	-11.275
琼	-11.2751
比特币	-11.2751
艳	-11.2751
歡迎	-11.2751
辅助	-11.2752
始建於	-11.2752
审查	-11.2753
天安门广场	-11.2753
Policy	-11.2753

|-
|	-11.2753
▁stay	-11.2754
民主党	-11.2754
很美	-11.2754
吃完饭	-11.2754
敏感	-11.2756
IO	-11.2757
大海	-11.2757
推广	-11.2759
ism	-11.2759
无人	-11.2761
可以说是	-11.2765
文本	-11.2766
HE	-11.2769
auth	-11.277
不满	-11.277
市中心	-11.277
携带	-11.2771
缺少	-11.2771
的家庭	-11.2771
tab	-11.2772
前提	-11.2772
明治	-11.2773
精度	-11.2773
使命	-11.2774
Tools	-11.2774
Exp	-11.2776
并未	-11.2779
标记	-11.278
问题是	-11.2782
如同	-11.2784
就得	-11.2785
晓得	-11.2786
攝影	-11.2786
反正我	-11.2787
克里	-11.2787
每月	-11.2788
eas	-11.2788
所得	-11.2794
明显的	-11.2797
It	-11.2799
raw	-11.2804
!!!!
	-11.2806
部門	-11.2808
echo	-11.2811
拿着	-11.2816
構	-11.282
热量	-11.2823
马尔	-11.2823
▁San	-11.2824
▁night	-11.2829
详	-11.2831
郊	-11.2831
藩	-11.2832
麟	-11.2832
訂	-11.2832
〉	-11.2832
郵	-11.2832
硫	-11.2832
庞	-11.2832
愚蠢	-11.2832
搏	-11.2832
癸	-11.2833
比较喜欢	-11.2833
蹲	-11.2833
御史	-11.2833
譯	-11.2833
氮	-11.2834
metric	-11.2834
耻	-11.2834
这点	-11.2834
阿拉伯	-11.2834
子宫	-11.2835
邮政编码为	-11.2836
storage	-11.2836
♫	-11.2836
▁until	-11.2836
陕西	-11.2836
▁good	-11.2837
供应商	-11.2837
鉴定	-11.2837
args	-11.2837
短发	-11.2838
clear	-11.2838
小镇	-11.2839
布朗	-11.2841
》《	-11.2842
戰鬥	-11.2842
Vi	-11.2842
ches	-11.2843
当选	-11.2843
部署	-11.2843
品质	-11.2845
组件	-11.2846
的法律	-11.2847
推荐菜	-11.2847
景区	-11.2847
频道	-11.2848
▁‪
-	-11.2849
▁context	-11.2852
污水	-11.2853
同步	-11.2855
▁try	-11.2857
山東	-11.2858
》（）	-11.286
GE	-11.2863
狗粮	-11.2863
連接	-11.2865
小编	-11.2866
恰	-11.2866
用作	-11.2868
首相	-11.2869
通常是	-11.2872
座位	-11.2872
dam	-11.2875
▁requested	-11.2875
吃过	-11.2875
」（	-11.2876
Main	-11.2877
的目标	-11.2883
{\"	-11.2884
不行了	-11.2885
八十	-11.2886
找一家	-11.2889
不说了	-11.2892
▁track	-11.2898
玩具	-11.2901
現時	-11.2907
半天	-11.291
祸	-11.2913
监测	-11.2914
削	-11.2915
勇士	-11.2915
泊	-11.2915
媒體	-11.2916
织	-11.2916
锤	-11.2916
領導	-11.2916
天才	-11.2917
詹	-11.2917
潭	-11.2918
的电话是多少	-11.2919
前段时间	-11.2919
▁further	-11.2919
高等	-11.292
▁products	-11.292
脾气	-11.2921
廣場	-11.2921
但这	-11.2922
混乱	-11.2922
隨後	-11.2923
ux	-11.2923
顺序	-11.2923
土豪	-11.2924
报纸	-11.2925
sil	-11.2927
导航	-11.2927
马上就	-11.2928
极端	-11.2928
单词	-11.2928
家中	-11.2928
那我就	-11.2929
单击	-11.293
公告	-11.2932
厚度	-11.2932
經營	-11.2934
阴道	-11.2934
声称	-11.2935
▁War	-11.2936
排球	-11.2936
三种	-11.2937
国庆	-11.2938
短信	-11.2939
老師	-11.294
广泛的	-11.2941
较大	-11.2943
海上	-11.2944
知道你	-11.2949
列出	-11.295
代替	-11.2951
你不会	-11.2953
軍事	-11.2955
ple	-11.2956
真的太	-11.2956
▁manage	-11.2959
away	-11.2961
月至	-11.2962
要不然	-11.2965
局部	-11.2965
写了	-11.2966
堪	-11.2966
王国	-11.2968
Play	-11.2968
游戏中	-11.2968
现在都	-11.298
NC	-11.2987
phy	-11.2988
中學	-11.2989
怎么可能	-11.2989
iro	-11.2991
有毒	-11.2992
聚集	-11.2994
函	-11.2995
Ju	-11.2995
此事	-11.2997
奖项	-11.2997
床上	-11.2997
极大	-11.2997
贷	-11.2999
瓣	-11.3
溢	-11.3
咪	-11.3
誠	-11.3
不安	-11.3001
)**	-11.3001
岡	-11.3001
瘋	-11.3001
斗争	-11.3001
消毒	-11.3001
拐	-11.3001
艰难	-11.3002
酮	-11.3002
挪威	-11.3002
體育	-11.3003
其实是	-11.3003
辞职	-11.3003
part	-11.3003
global	-11.3003
Premium	-11.3003
▁species	-11.3003
▁directly	-11.3004
玛丽	-11.3004
监管	-11.3004
我懂	-11.3005
的时区	-11.3006
本科	-11.3007
肿么	-11.3008
bound	-11.301
Refund	-11.3011
会儿	-11.3011
你說	-11.3017
外卖	-11.3017
天文	-11.3023
你不要	-11.3024
下跌	-11.3025
▁meet	-11.3026
额外的	-11.3027
难度	-11.3028
梦见	-11.303
罚款	-11.303
米兰	-11.3031
cri	-11.3034
提取	-11.3036
cell	-11.304
大学生	-11.3043
安全性	-11.3049
分别是	-11.3052
两位	-11.3052
前进	-11.3054
亿元	-11.3055
吉他	-11.3055
IM	-11.3056
转变	-11.3056
wal	-11.3057
转让	-11.3058
alia	-11.3059
从来不	-11.3059
";
	-11.3063
▁Col	-11.3068
老是	-11.3068
签订	-11.307
好事	-11.3074
还是挺	-11.3075
中国人	-11.3076
吃点	-11.3077
▁platform	-11.3077
改为	-11.3078
BE	-11.308
肢	-11.3082
▁safety	-11.3082
分开	-11.3083
誤	-11.3084
你會	-11.3084
胀	-11.3084
短期	-11.3084
和他的	-11.3084
歡	-11.3085
設施	-11.3086
展览	-11.3086
惊讶	-11.3086
主场	-11.3086
候选人	-11.3086
枕	-11.3087
高速公路	-11.3087
賈	-11.3087
悄悄	-11.3087
裸	-11.3087
豆腐	-11.3088
daily	-11.3088
google	-11.3088
empty	-11.3088
sequence	-11.3088
When	-11.3088
categories	-11.3088
speed	-11.3089
特里	-11.3089
压缩	-11.309
饺子	-11.309
澳门	-11.309
guide	-11.309
夏令时	-11.3091
岩石	-11.3091
足球運動員	-11.3091
▁tell	-11.3092
網站	-11.3093
不应	-11.3093
Updated	-11.3094
玩了	-11.3095
▁play	-11.31
和谐	-11.3101
这对	-11.3102
打败	-11.3102
▁dates	-11.3107
udi	-11.3111
的房子	-11.3113
航天	-11.3114
更为	-11.3115
十几	-11.3115
作曲	-11.3116
一個人	-11.3116
可怜的	-11.3119
ml	-11.312
我还在	-11.312
一所	-11.3122
ration	-11.3125
改变了	-11.3126
ature	-11.3126
ston	-11.3128
任意	-11.3128
][	-11.3128
部隊	-11.3131
学长	-11.3132
manager	-11.3133
▁reviews	-11.3137
找出	-11.3137
打包	-11.3138
process	-11.3139
车上	-11.314
ET	-11.314
human	-11.3145
：《	-11.3152
我们家	-11.3152
kin	-11.3152
以往	-11.3157
為何	-11.3158
椅	-11.3158
白人	-11.3161
晚上好	-11.3163
做梦	-11.3163
你居然	-11.3164
廟	-11.3168
摩擦	-11.3169
工作室	-11.3169
獄	-11.3169
蹄	-11.3169
〈	-11.3169
形成的	-11.3169
擴	-11.317
我知道了	-11.317
干扰	-11.317
乾隆	-11.3171
劑	-11.3171
雀	-11.3171
製造	-11.3172
陪伴	-11.3173
Require	-11.3173
ü	-11.3173
憋	-11.3173
▁Communicates	-11.3174
▁inquirer	-11.3174
▁whether	-11.3174
September	-11.3174
的人口数量	-11.3174
噗	-11.3174
竞赛	-11.3174
解決	-11.3174
演奏	-11.3174
钢琴	-11.3174
骑士	-11.3175
视觉	-11.3175
From	-11.3175
Link	-11.3175
▁law	-11.3175
绝望	-11.3176
ane	-11.3178
像你	-11.3178
但她	-11.3179
电视台	-11.318
尼斯	-11.3182
▁below	-11.3183
endif	-11.3184
看新闻	-11.3184
待遇	-11.3184
票房	-11.3186
不愿意	-11.3187
ified	-11.3187
lookup	-11.3188
地说	-11.3188
模特	-11.3189
对阵	-11.3192
接壤	-11.3193
公開	-11.3195
說話	-11.3195
数十	-11.3195
看起來	-11.3196
long	-11.3196
不是你	-11.3198
推进	-11.3198
反复	-11.3199
本质	-11.3206
教会	-11.3208
在哪儿	-11.3209
▁\\	-11.321
上传	-11.3211
eth	-11.3212
▁June	-11.3213
本书	-11.3216
change	-11.322
发达	-11.3221
\\	-11.3224
ama	-11.3224
我說	-11.3225
真爱	-11.3227
马克	-11.3228
我們要	-11.3229
看他	-11.3229
進去	-11.323
選區	-11.323
为此	-11.3231
Top	-11.3231
底部	-11.3232
国产	-11.3236
issue	-11.3244
▁network	-11.3244
新人	-11.3246
付款	-11.3247
態	-11.3248

【	-11.3248
Para	-11.3249
受欢迎	-11.3249
周四	-11.325
邻	-11.3251
带来的	-11.3252
电缆	-11.3253
崖	-11.3255
你想要	-11.3255
酬	-11.3256
訓練	-11.3256
愤怒	-11.3256
舱	-11.3257
亚马逊	-11.3257
渴望	-11.3257
丛	-11.3257
凸	-11.3257
娅	-11.3257
遗产	-11.3258
mic	-11.3258
經歷	-11.3258
捡	-11.3259
蛙	-11.3259
quantity	-11.326
▁inquiry	-11.326
♪	-11.326
Thank	-11.326
▁instead	-11.3262
Project	-11.3262
目录	-11.3262
配备	-11.3263
Profile	-11.3264
出租车	-11.3264
變成	-11.3265
▁comments	-11.3266
交付	-11.3266
你以为	-11.3266
的特点	-11.3269
与其他	-11.327
vert	-11.3273
replace	-11.3273
予以	-11.3274
热水	-11.3275
哪家	-11.3275
编码为	-11.3276
小仙女	-11.3277
适当的	-11.328
奇怪的	-11.3282
angle	-11.3283
刚开始	-11.3283
被捕	-11.3285
▁active	-11.3285
ible	-11.3286
太难	-11.3291
我最喜欢	-11.3291
仙女	-11.3293
考虑到	-11.3293
主意	-11.3293
med	-11.3294
formula	-11.3294
啊啊啊啊	-11.3298
体会	-11.3301
目的是	-11.3301
component	-11.3302
真实的	-11.3304
star	-11.3305
!!!!	-11.3305
的标准	-11.3305
的女孩	-11.3307
一个小	-11.3312
你这么	-11.3313
▁initial	-11.3315
当我们	-11.3316
好人	-11.3316
BC	-11.3321
美军	-11.3323
行李	-11.3324
filename	-11.3324
period	-11.3327
必须要	-11.3327
ired	-11.3328
Def	-11.3329
因子	-11.3329
▁Gi	-11.333
Ha	-11.3332
着呢	-11.3332
女王	-11.3335
我想去	-11.3335
tan	-11.3337
又名	-11.3338
毫不	-11.334
誉	-11.3341
矩	-11.3341
啊哈哈	-11.3342
咽	-11.3342
閃	-11.3342
虛	-11.3343
巾	-11.3343
美味	-11.3343
誕	-11.3343
仗	-11.3344
本次	-11.3345
痘	-11.3345
TYPE	-11.3346
平面	-11.3346
д	-11.3347
Method	-11.3347
protocol	-11.3347
▁small	-11.3347
International	-11.3347
SQL	-11.3347
欧冠	-11.3347
辦法	-11.3348
Market	-11.3348
打扰	-11.3349
income	-11.3349
延伸	-11.335
最高温度	-11.335
占据	-11.335
手里	-11.335
冰箱	-11.3351
好喜欢	-11.3352
舍不得	-11.3352
units	-11.3353
满满	-11.3355
的节奏	-11.3355
Stock	-11.3355
说的是	-11.3355
拆除	-11.3358
▁say	-11.3358
再度	-11.3359
環境	-11.3359
Store	-11.336
gender	-11.336
哇塞	-11.336
广西	-11.3362
的形式	-11.3366
有什么好	-11.3366
scheduled	-11.3367
Options	-11.3368
▁compar	-11.3369
▁vehicle	-11.3369
好滴	-11.3373
▁Fa	-11.3375
Plan	-11.3377
向前	-11.3377
活力	-11.3379
遵	-11.338
领域的	-11.3382
特别喜欢	-11.3387
軍隊	-11.3388
军人	-11.339
外表	-11.3391
接口	-11.3391
ox	-11.3393
來到	-11.3395
rot	-11.3396
三个月	-11.3396
▁pair	-11.3396
以免	-11.3399
艾特	-11.3401
不要再	-11.3402
为止	-11.3405
当局	-11.3408
殿下	-11.341
日前	-11.3411
拿出	-11.3414
之所以	-11.3416
伍	-11.3418
了解一下	-11.3419
high	-11.3419
玩耍	-11.342
怪不得	-11.3421
我们应该	-11.3421
LED	-11.3423
盈	-11.3427
象征	-11.3427
穴	-11.3428
OD	-11.343
炼	-11.3431
騙	-11.3431
助攻	-11.3432
贸	-11.3433
保健	-11.3433
人工智能	-11.3433
座標為	-11.3434
體長可達	-11.3434
apache	-11.3434
没用	-11.3435
键盘	-11.3435
隐私	-11.3436
▁raises	-11.3436
哎呦	-11.3436
必然	-11.3437
tree	-11.3439
言论	-11.344
流浪	-11.344
威尔	-11.344
海域	-11.344
那不是	-11.3441
rm	-11.3441
老家	-11.3442
发布了	-11.3442
。

	-11.3443
长城	-11.3445
▁annual	-11.3445
的权利	-11.3446
帮我找一个	-11.3447
振动	-11.345
。。。。
	-11.345
poli	-11.3451
ient	-11.3452
Url	-11.3452
年輕	-11.3452
TM	-11.3453
号线	-11.3453
好用	-11.3453
Send	-11.3453
其後	-11.3456
被认为是	-11.3457
America	-11.3457
过多	-11.3458
：

。

	-11.3458
换个	-11.3459
你确定	-11.3461
好棒	-11.3462
定制	-11.3465
麦克	-11.3468
发动	-11.3468
所谓的	-11.3471
格雷	-11.3474
非常重要	-11.3477
好好休息	-11.3477
理論	-11.3477
符号	-11.3478
erry	-11.348
ture	-11.348
天堂	-11.3481
▁rates	-11.3481
bra	-11.3485
送给	-11.3486
行程	-11.3491
}-	-11.3495
▁Tra	-11.3495
这两天	-11.3495
也會	-11.3498
▁Na	-11.3498
镜子	-11.3502
厨	-11.3504
看来你	-11.3512
递	-11.3514
我很喜欢	-11.3514
我覺得	-11.3515
暫	-11.3516
做什麼	-11.3516
馬來西亞	-11.3518
坠	-11.3519
	-11.3519
▁turn	-11.3519
喉	-11.352
钉	-11.352
遵循	-11.3521
惩罚	-11.3521
资讯	-11.3522
含义	-11.3522
持續	-11.3522
苯	-11.3522
解析	-11.3523
唧	-11.3523
▁verification	-11.3523
學習	-11.3523
侵权	-11.3523
▁collection	-11.3524
verse	-11.3525
▁many	-11.3526
▁characters	-11.3526
看來	-11.3526
▁since	-11.3528
举报	-11.3529
多数	-11.353
英語	-11.353
你别	-11.353
馬上	-11.353
世界上最	-11.3534
看見	-11.3534
威爾	-11.3534
成年人	-11.3538
direct	-11.354
而来	-11.3546
耐心	-11.3546
身體	-11.3548
当他	-11.3549
维尔	-11.3552
UC	-11.3553
新生	-11.3557
Full	-11.3557
想买	-11.3557
▁<<	-11.3562
幻想	-11.3564
于时	-11.3567
LC	-11.3568
▁film	-11.3568
atch	-11.3569
met	-11.3574
当然了	-11.3575
API	-11.3575
在内的	-11.3576
emb	-11.3576
ALL	-11.3577
也可能	-11.3577
ico	-11.3578
排放	-11.3581
患有	-11.3585
▁teams	-11.3585
鐘	-11.3591
小哥哥	-11.3593
电动	-11.3601
做得	-11.3602
我也很	-11.3603
允	-11.3603
毅	-11.3605
却是	-11.3606
过分	-11.3606
铸	-11.3607
绘	-11.3607
塌	-11.3608
胞	-11.3608
悬	-11.3608
搖	-11.3608
抖	-11.3608
購	-11.3608
氯	-11.3609
橙	-11.3609
找了	-11.361
办公	-11.361
度过	-11.361
搅拌	-11.361
痒	-11.361
颠	-11.361
資訊	-11.361
output	-11.361
忽略	-11.361
奋斗	-11.3611
沉积	-11.3611
沙漠	-11.3612
揍	-11.3612
Stream	-11.3612
alpha	-11.3612
TABLE	-11.3612
investment	-11.3612
folder	-11.3612
multi	-11.3613
下方	-11.3613
Char	-11.3614
仪器	-11.3615
▁metrics	-11.3615
江苏	-11.3617
条件下	-11.3617
Report	-11.3617
IG	-11.3618
老鼠	-11.3618
你什么时候	-11.362
Hash	-11.362
▁prices	-11.362
ticker	-11.3621
ense	-11.3622
first	-11.3622
的颜色	-11.3627
Table	-11.363
第三方	-11.363
何时	-11.363
饰演	-11.3631
他俩	-11.3632
小伙伴	-11.3632
流动	-11.3634
嫁给	-11.3636
十大	-11.3636
塞尔	-11.3636
分数	-11.3637
RT	-11.3638
中最	-11.3639
經常	-11.3641
我当时	-11.3642
走路	-11.3644
交易所	-11.3646
还好吧	-11.3646
科比	-11.3649
征收	-11.3653
女主	-11.3655
轻轻	-11.3656
▁statistics	-11.3659
▁health	-11.3659
opt	-11.3663
die	-11.3671
吓人	-11.3673
享	-11.3676
申请人	-11.3678
伙伴	-11.368
布雷	-11.3683
叹	-11.3688
与其	-11.3688
商業	-11.3689
And	-11.3689
嘞	-11.369
interest	-11.3691
徵	-11.3692
死去	-11.3693
og	-11.3694
胚胎	-11.3696
髮	-11.3697
很抱歉	-11.3698
	-11.3699
拱	-11.3699
攀	-11.3699
兑	-11.37
妥	-11.37
伊斯兰	-11.3701
●	-11.3701
專業	-11.3701
反馈	-11.3701
minute	-11.3701
枯	-11.3701
註	-11.3701
茄	-11.3702
CREATE	-11.3702
依照	-11.3702
澳門	-11.3702
▁described	-11.3703
最低温度	-11.3703
用品	-11.3704
iPhone	-11.3705
敬业	-11.3705
眉毛	-11.3705
delete	-11.3706
收获	-11.3706
修建	-11.3706
是如何	-11.3707
反抗	-11.3708
detect	-11.3708
▁System	-11.3708
render	-11.3708
ates	-11.3711
入口	-11.3711
▁NOT	-11.3711
远离	-11.3712
起飞	-11.3713
他家的	-11.3715
▁Role	-11.3717
的说法	-11.3718
的重要性	-11.3718
溶液	-11.3718
Trans	-11.372
打印	-11.3722
升高	-11.3722
rie	-11.3723
說什麼	-11.3723
peak	-11.3726
msg	-11.3726
bor	-11.3729
小朋友	-11.373
政权	-11.3731
ez	-11.3733
不小心	-11.3733
花费	-11.3733
我们现在	-11.3734
以來	-11.3735
乐队	-11.3735
理性	-11.3735
fund	-11.3735
但是他	-11.3737
的看法	-11.3738
一层	-11.3738
保罗	-11.3739
see	-11.374
行走	-11.3745
实在是	-11.3747
恒大	-11.3747
Sw	-11.3749
眼光	-11.3752
未來	-11.3752
颈	-11.3754
主題	-11.3757
二次	-11.3757
不服	-11.3759
Card	-11.376
二级	-11.376
CI	-11.3762
▁responses	-11.3763
排出	-11.3769
▁IDs	-11.377
想说	-11.3772
创造了	-11.3773
改編	-11.3777
沃尔	-11.3779
用心	-11.3781
際	-11.3781
看不见	-11.3785
▁En	-11.3786
▁October	-11.3786
輸	-11.3786
阁	-11.3786
焊	-11.3789
棚	-11.3789
监狱	-11.3789
滾	-11.379
菲律宾	-11.379
栗	-11.3791
喀	-11.3791
匈牙利	-11.3792
volume	-11.3793
extension	-11.3793
Standard	-11.3793
签署	-11.3793
忍不住	-11.3794
治愈	-11.3794
是位於美國	-11.3794
信用卡	-11.3794
▁every	-11.3795
吸烟	-11.3795
悲伤	-11.3795
產品	-11.3795
▁district	-11.3795
missing	-11.3796
进化	-11.3799
热闹	-11.3799
职位	-11.3802
CPU	-11.3803
);
}

	-11.3803
我想知道	-11.3803
的核心	-11.3807
两名	-11.3807
未经	-11.3809
山峰	-11.3809
帅气	-11.3809
最後一	-11.381
原料	-11.3811
行為	-11.3812
曼城	-11.3814
听听	-11.3814
los	-11.3816
手臂	-11.3816
结束后	-11.3817
CM	-11.3821
富有	-11.3822
建立了	-11.3823
我爱你	-11.3827
好点	-11.3827
这么想	-11.3827
▁included	-11.3828
▁functions	-11.3828
欧元	-11.3831
的数量	-11.3833
这家酒店的	-11.3835
的时候就	-11.3837
能看到	-11.3839
推荐您	-11.3843
單位	-11.3844
像我	-11.3844
就已经	-11.3847
提出了	-11.385
下面的	-11.385
My	-11.3851
。”“	-11.3852
▁criteria	-11.3853
啟	-11.3853
水分	-11.3858
等于	-11.3859
微信	-11.3859
Vo	-11.3859
季度	-11.386
...
...
	-11.3864
公元	-11.3864
|
|	-11.3865
参加了	-11.3871
Non	-11.3872
req	-11.3874
稳定性	-11.3876
阶	-11.3876
倉	-11.3879
做过	-11.388
責	-11.388
遜	-11.3881
均匀	-11.3881
繼承	-11.3881
涛	-11.3881
恢復	-11.3882
韵	-11.3882
鋒	-11.3882
岗	-11.3882
逾	-11.3882
侄	-11.3882
腊	-11.3883
	-11.3883
标题	-11.3883
喘	-11.3883
ame	-11.3883
兜	-11.3883
英寸	-11.3883
序列	-11.3883
峯	-11.3884
Ka	-11.3884
翅	-11.3884
峡	-11.3884
萝	-11.3884
怎麼樣	-11.3884
virtual	-11.3885
▁relevant	-11.3885
辽宁	-11.3885
擅长	-11.3885
吐槽	-11.3885
扩展阅读	-11.3886
同樣	-11.3887
认知	-11.3887
expected	-11.3887
我好像	-11.3887
恶意	-11.3888
▁suggest	-11.389
一阵	-11.389
另一种	-11.3892
人民币	-11.3892
不好看	-11.3893
反射	-11.3895
预约	-11.3896
社会主义	-11.3896
▁across	-11.3898
打得	-11.3899
后者	-11.3901
看著	-11.3903
ura	-11.3905
▁around	-11.3907
完美的	-11.3909
市场上	-11.3909
中毒	-11.3914
视为	-11.3914
ó	-11.3915
指南	-11.3915
器官	-11.3916
清除	-11.3919
也对	-11.3919
不给	-11.3921
在乎	-11.3922
停留	-11.3923
看得	-11.3924
一次性	-11.3926
中期	-11.3927
演唱	-11.3928
这段	-11.393
有意	-11.3934
factor	-11.3934
ool	-11.3934
DR	-11.3937
你俩	-11.3939
信用	-11.3939
▁Ve	-11.394
rap	-11.3941
是因為	-11.3944
给他们	-11.3945
的过程中	-11.3947
高清	-11.3948
▁needed	-11.3948
west	-11.3949
ao	-11.395
死者	-11.395
是一家	-11.3953
将被	-11.3954
六个	-11.396
公安	-11.3962
EST	-11.3965
运作	-11.3967
棄	-11.397
场地	-11.397
是滴	-11.3972
閉	-11.3972
我们去	-11.3972
的最大	-11.3972
掛	-11.3973
１	-11.3974
肤	-11.3974
曉	-11.3974
遥	-11.3974
欺	-11.3974
烏克蘭	-11.3974
谈判	-11.3975
阶级	-11.3976
鹏	-11.3976
与此同时	-11.3976
逐步	-11.3976
廣播	-11.3976
酿	-11.3976
沉默	-11.3977
爷爷	-11.3977
仿佛	-11.3977
locale	-11.3977
German	-11.3977
融合	-11.3977
Cloud	-11.3978
Module	-11.3978
北京天伦王朝酒店	-11.3978
cultural	-11.3978
願意	-11.3978
男篮	-11.3978
▁structure	-11.3979
睡吧	-11.3979
创业	-11.3979
到位	-11.398
sync	-11.398
山脈	-11.398
stack	-11.3981
你们都	-11.3981
夸张	-11.3982
构建	-11.3983
四川省	-11.3984
科幻	-11.3986
銀行	-11.3987
嘴巴	-11.3989


..	-11.3989
▁multiple	-11.3989
会发生	-11.399
care	-11.3991
羅馬	-11.3991
社區	-11.3991
环境中	-11.3992
爱上	-11.3993
才行	-11.3994
图形	-11.3995
尽可能	-11.3996
百万	-11.3996
不見	-11.3996
教練	-11.3996
协	-11.3998
抱着	-11.4
啥子	-11.4005
出名	-11.4007
原来是	-11.4009
reach	-11.401
Track	-11.402
主张	-11.4022
十二年	-11.4025
赛车	-11.4025
特殊的	-11.4026
物流	-11.4027
火了	-11.4027
途中	-11.4029
▁display	-11.4033
擔	-11.4033
吃饱	-11.4034
AA	-11.4035
的理由	-11.4036
更快	-11.4036
第九	-11.4037
我们已经	-11.4042
一夜	-11.4043
Ab	-11.4043
神马	-11.4044
的母亲	-11.4052
可真	-11.4056
穿了	-11.4058
rec	-11.406
也行	-11.4063
	-11.4065
滞	-11.4065
滑雪	-11.4066
緩	-11.4066
畢	-11.4066
寿命	-11.4066
獸	-11.4066
破壞	-11.4067
屠	-11.4067
循	-11.4067
繁殖	-11.4068
幾乎	-11.4068
蜀	-11.4068
谜	-11.4068
纲	-11.4068
甚麼	-11.4068
至关重要	-11.4068
外援	-11.4069
芝加哥	-11.4069
爛	-11.4069
怎樣	-11.4069
烦恼	-11.407
追踪	-11.407
參賽	-11.407
怎么能	-11.407
ö	-11.4071
灾难	-11.4071
phrase	-11.4071
▁WARRANTIES	-11.4071
▁determine	-11.4071
protected	-11.4071
▁ensure	-11.4072
权益	-11.4072
▁appear	-11.4072
▁India	-11.4073
收錄	-11.4073
康复	-11.4074
模块	-11.4074
玩游戏	-11.4075
的人都	-11.4077
给出	-11.408
分布于	-11.4081
原告	-11.4082
实话	-11.4083
这些人	-11.4083
只好	-11.4084
好嘞	-11.4084
曾祖	-11.4089
files	-11.4089
这份	-11.409
域名	-11.4091
百年	-11.4096
报导	-11.4096
你到底	-11.4098
更大	-11.4098
乐观	-11.41
回报	-11.4102
遇到了	-11.4103
借款	-11.4103
这样说	-11.4104
acc	-11.4105
band	-11.4107
原子	-11.4109
京都	-11.4112
一代	-11.4116
Game	-11.4118
GT	-11.4118
發出	-11.4119
並於	-11.4123
约会	-11.4124
早点睡	-11.4124
常规	-11.4124
去玩	-11.4126
长江	-11.4128
转向	-11.413
餐馆吗	-11.413
花钱	-11.4131
大气	-11.4132
rule	-11.4132
丢了	-11.4134
把她	-11.4134
好哒	-11.4135
碱	-11.4137
公正	-11.4137
Ag	-11.4137
在香港	-11.4137
cp	-11.4138
Mark	-11.4142
隨著	-11.4146
我猜	-11.4146
很长	-11.4151
小說	-11.4157
的概念	-11.4157
騎	-11.4158
Ly	-11.4158
蕭	-11.4159
年开始	-11.416
劣	-11.416
well	-11.416
坪	-11.416
椒	-11.416
範	-11.4162
联络	-11.4162
高效	-11.4162
罕	-11.4162
粤	-11.4162
谨慎	-11.4162
狀況	-11.4162
锐	-11.4163
足够的	-11.4163
否认	-11.4163
Shi	-11.4163
派遣	-11.4163
計畫	-11.4163
动车	-11.4164
大厦	-11.4165
Android	-11.4165
▁garden	-11.4165
▁village	-11.4165
▁applicable	-11.4165
奧林匹克運動會	-11.4165
console	-11.4166
perfect	-11.4166
三角形	-11.4166
参观	-11.4167
獎項	-11.4167
句子	-11.4168
▁documentation	-11.4168
subject	-11.4168
古典	-11.417
哎哟	-11.4172
谢谢啦	-11.4172
酸奶	-11.4173
我应该	-11.4177
把握	-11.4178
坐下	-11.4179
忽然	-11.418
表现出	-11.4185
成语	-11.4186
起源	-11.4188
▁locations	-11.419
剩下的	-11.4193
VA	-11.4194
巴斯	-11.4196
集合	-11.4197
Optional	-11.42
變得	-11.4201
州府	-11.4201
选用	-11.4202
喜剧	-11.4204
节日	-11.4205
最新的	-11.4205
▁systems	-11.4206
宫颈	-11.4206
向你	-11.4211
两个月	-11.4213
▁answer	-11.4216
周围的	-11.4216
同名	-11.4222
live	-11.4224
▁Cor	-11.4226
可以选择	-11.4227
RM	-11.4231
句话	-11.4232
好多人	-11.4232
太大了	-11.4232
阅	-11.4233
偿	-11.4237
挺好看的	-11.4239
Step	-11.4243
我们必须	-11.4244
admin	-11.4245
cross	-11.4248
共产党	-11.4249
我可是	-11.425
▁hear	-11.425
领导人	-11.425
je	-11.4252
文學	-11.4254
较为	-11.4254
０	-11.4255
彬	-11.4256
螺旋	-11.4256
斥	-11.4256
簽	-11.4257
road	-11.4257
稅	-11.4258
发言人	-11.4258
訴	-11.4258
采购	-11.4258
抛弃	-11.4259
甩	-11.4259
雕塑	-11.4259
俱樂部	-11.4259
创始人	-11.4259
吼	-11.4259
坤	-11.4259
姿势	-11.4259
领袖	-11.426
治療	-11.426
网址	-11.426
Linux	-11.426
馋	-11.4261
French	-11.4261
▁think	-11.4261
Address	-11.4261
▁early	-11.4261
暗示	-11.4261
吵架	-11.4262
真理	-11.4262
▁extends	-11.4262
规格	-11.4262
軌道	-11.4263
joke	-11.4263
狮子	-11.4264
豪华	-11.4266
在哪裡	-11.4266
希望他	-11.4268
布里	-11.427
祖国	-11.4272
参赛	-11.4273
alt	-11.4275
chain	-11.4276
再也不	-11.4276
業務	-11.4278
市民	-11.4282
陆军	-11.4283
has	-11.4286
头上	-11.4288
考完	-11.4288
近期	-11.429
一根	-11.429
)
#	-11.4293
ject	-11.4293
春秋	-11.4294
九月	-11.4296
审判	-11.4296
我只想	-11.43
想问	-11.4303
人间	-11.4304
西甲	-11.4304
独自	-11.4306
本土	-11.4309
讓你	-11.4312
跟她	-11.4313
Let	-11.4314
》

	-11.4315
主持人	-11.4315
登上	-11.4318
UP	-11.4321
雷斯	-11.4324
final	-11.4331
周年	-11.4331
LL	-11.4331
▁implement	-11.4335
大楼	-11.4337
影响力	-11.4337
看出	-11.4342
的東西	-11.4344
一場	-11.4345
謀	-11.4351
vil	-11.4352
圣诞	-11.4352
钩	-11.4353
证券	-11.4353
贪	-11.4353
上海市	-11.4354
危險	-11.4354
惯	-11.4354
剥	-11.4354
貼	-11.4354
秩序	-11.4354
EV	-11.4354
我比较喜欢	-11.4355
大西洋	-11.4355
氟	-11.4356
瞧	-11.4356
咦	-11.4356
濱	-11.4356
Summary	-11.4357
Mexico	-11.4357
直径	-11.4357
乐趣	-11.4357
頻道	-11.4357
田径	-11.4357
transform	-11.4358
一下吧	-11.4358
▁places	-11.4358
税收	-11.4358
群众	-11.4358
选中	-11.4359
highlight	-11.4362
相遇	-11.4363
ump	-11.4364
Pri	-11.4364
淡定	-11.4367
！
‪	-11.4368
设计师	-11.4369
显卡	-11.4369
▁cover	-11.4371
timezone	-11.4371
太陽	-11.4374
▁Hu	-11.4374
税务	-11.4375
后续	-11.4377
脱发	-11.4379
dict	-11.438
都不是	-11.438
时间内	-11.438
小区	-11.4381
▁invalid	-11.4382
玩儿	-11.4382
++)	-11.4387
!",	-11.4388
干啥	-11.4389
真人	-11.439
mean	-11.4392
玩意	-11.4392
喜爱	-11.4393
法兰	-11.4393
这个地方	-11.4398
好朋友	-11.4399
弹性	-11.44
▁best	-11.4404
专用	-11.4404
movie	-11.4406
关联	-11.4408
现在还	-11.4409
抑郁	-11.441
該死	-11.4412
编剧	-11.4412
不錯	-11.4412
好么	-11.4415
licenses	-11.4415
extra	-11.4417
该国	-11.4417
tail	-11.4421
聚会	-11.4421
怎么这么	-11.4422
通行	-11.4424
君主	-11.4424
▁library	-11.4426
統治	-11.4428
额外	-11.4432
戏剧	-11.4432
昭和	-11.4432
从此	-11.4434
帖	-11.4435
月亮	-11.4436
捕捉	-11.4436
老天	-11.4437
解釋	-11.4439
skip	-11.4444
習	-11.4444
謂	-11.4447
枢	-11.4447
磨损	-11.4449
的路上	-11.4449
緣	-11.4449
寡	-11.445
owner	-11.445
防御	-11.445
闯	-11.4451
梳	-11.4451
勋	-11.4451
模糊	-11.4452
蝴蝶	-11.4452
Python	-11.4453
怎麼辦	-11.4454
cuisine	-11.4454
撸	-11.4454
Community	-11.4454
plugin	-11.4454
After	-11.4454
▁actual	-11.4454
摆脱	-11.4454
Command	-11.4454
尸体	-11.4454
公元前	-11.4455
History	-11.4455
委托	-11.4455
我也不	-11.4455
欢乐	-11.4455
建議	-11.4456
fresh	-11.4456
設立	-11.4457
INT	-11.4457
好巧	-11.4458
天赋	-11.4459
润滑	-11.4459
首播	-11.446
有一個	-11.4461
手機	-11.4461
海南	-11.4462
fu	-11.4463
生產	-11.4464
童年	-11.4464
电磁	-11.4465
一组	-11.4465
inner	-11.4465
神父	-11.4466
不仅仅是	-11.4468
注意安全	-11.4469
基督	-11.447
真是太	-11.4471
她們	-11.4472
bus	-11.4473
六月	-11.4475
片段	-11.4478
注意力	-11.4479
星系	-11.4479
谈恋爱	-11.4479
离心	-11.4479
以後	-11.4483
market	-11.4484
▁Ti	-11.4484
很漂亮	-11.4485
外界	-11.4485
▁past	-11.4487
导师	-11.4487
事業	-11.4487
最高的	-11.4489
span	-11.449
激活	-11.4492
Lake	-11.4493
master	-11.4495
sound	-11.45
你有没有	-11.4504
})	-11.4507
西瓜	-11.4509
不带	-11.4509
istic	-11.451
整天	-11.451
detail	-11.4515
天地	-11.4515
終於	-11.4518
打游戏	-11.4522
长春	-11.4525
就这么	-11.4526
得起	-11.4526
地名	-11.4526
光明	-11.453
GS	-11.453
▁give	-11.4532
高級	-11.4535
就是一个	-11.4536
▁changes	-11.4537
的味道	-11.4537
歌词	-11.4543
APP	-11.4545
冥	-11.4547
OC	-11.4547
上网	-11.4547
他们都	-11.4548
彦	-11.4548
八月	-11.4548
訪	-11.4548
普通的	-11.4549
奴隶	-11.4549
魁	-11.4549
軸	-11.4549
衫	-11.4549
狄	-11.455
贊	-11.455
截止	-11.455
扫描	-11.455
旅客	-11.455
崩溃	-11.4551
then	-11.4551
Length	-11.4551
毯	-11.4551
媳妇	-11.4551
走出	-11.4551
amazon	-11.4552
烷	-11.4552
buffer	-11.4552
债券	-11.4552
生态	-11.4552
register	-11.4552
害羞	-11.4553
吏	-11.4553
隸屬於	-11.4553
透过	-11.4553
烧烤	-11.4554
shape	-11.4554
录音	-11.4554
▁building	-11.4555
分泌	-11.4555
Uni	-11.4555
致命	-11.4556
。
【	-11.4556
掌声	-11.4556
整合	-11.4557
股权	-11.4557
cd	-11.4558
▁due	-11.4558
长沙	-11.4561
冲动	-11.4561
也得	-11.4562
尾巴	-11.4562
职务	-11.4563
symbols	-11.4563
见证	-11.4564
你必须	-11.4565
留言	-11.4566
buf	-11.4567
或者是	-11.4568
GH	-11.4568
則是	-11.4568
产物	-11.4569
随机	-11.4571
大雨	-11.4573
FR	-11.4575
出生于	-11.4577
保险公司	-11.4577
常用	-11.4578
无线	-11.4579
大连	-11.458
options	-11.458
don	-11.458
意志	-11.4584
立场	-11.4589
某人	-11.459
ella	-11.4593
还以为	-11.4594
quality	-11.4595
应用于	-11.4597
ender	-11.4597
服装	-11.4599
一身	-11.4599
其余	-11.46
更高的	-11.46
Cam	-11.4602
project	-11.4607
的人生	-11.4609
评分是多少	-11.461
開心	-11.4611
east	-11.4614
然后就	-11.4615
play	-11.4615
free	-11.4616
新增	-11.4616
典型	-11.4619
那就好	-11.4621
他自己	-11.4624
筑	-11.4628
这只	-11.4629
东部	-11.4633
爺	-11.4634
news	-11.4639
日常生活	-11.464
问一下	-11.4642
这么晚	-11.4642
之地	-11.4645
枣	-11.4646
寸	-11.4646
庸	-11.4646
▁great	-11.4647
乏	-11.4647
拒絕	-11.4648
的秘密	-11.4648
洛克	-11.4649
股价	-11.4649
鹤	-11.4649
糖尿病	-11.4649
沾	-11.465
房地产	-11.465
活跃	-11.4651
Australia	-11.4651
▁specify	-11.4651
永遠	-11.4651
organization	-11.4651
蘇聯	-11.4651
是烏克蘭的	-11.4651
芒果	-11.4651
电台	-11.4651
题材	-11.4652
indexterm	-11.4652
在上海	-11.4653
UR	-11.4653
ata	-11.4653
?",	-11.4653
战术	-11.4654
▁whose	-11.4655
主流	-11.4655
年間	-11.4655
▁called	-11.4656
各種	-11.4656
Media	-11.4657
了不起	-11.4658
走走	-11.4659
劇情	-11.4659
▁research	-11.4659
我是说	-11.466
听过	-11.4661
▁Cup	-11.4663
Requested	-11.4664
实用	-11.4664
EP	-11.4665
"/>	-11.4665
利斯	-11.4665
就是要	-11.4665
角落	-11.4666
料理	-11.4666
TI	-11.4668
Hol	-11.4669
耳机	-11.4671
最多的	-11.4671
tter	-11.4675
如果没有	-11.4675
GET	-11.4679
这种事	-11.468
sco	-11.468
一级	-11.4681
参与者	-11.4682
星星	-11.4683
接受了	-11.4687
太平	-11.4699
放大	-11.4703
这个时候	-11.4703
微微	-11.4707
格拉	-11.4707
伟大	-11.4709
cont	-11.4709
ita	-11.4709
FO	-11.471
它会	-11.471
之路	-11.4711
RC	-11.4712
COL	-11.4716
fix	-11.4717
推荐一个	-11.4719
ski	-11.472
路段	-11.472
抗日	-11.4721
pot	-11.4721
前任	-11.4723
contains	-11.4724
ago	-11.4725
地形	-11.4725
福州	-11.4728
entity	-11.4731
的第一个	-11.4731
不幸	-11.4731
Over	-11.4735
三星	-11.4736
留学	-11.4737
TR	-11.4738
Man	-11.4741

{
	-11.4741
不易	-11.4741
《》	-11.4742
襲	-11.4744
混凝土	-11.4746
亩	-11.4747
渐渐	-11.4747
硕	-11.4747
纠纷	-11.4747
匠	-11.4748
擬	-11.4748
丟	-11.4748
苏格兰	-11.4748
衬	-11.4749
频繁	-11.4749
据悉	-11.4749
簡單	-11.4749
驴	-11.4749
呼吁	-11.4749
缓慢	-11.475
消灭	-11.475
菊	-11.475
招聘	-11.475
年美國人口普查	-11.4751
▁writing	-11.4751
ä	-11.4751
deviation	-11.4751
▁still	-11.4751
':
	-11.4751
创办	-11.4751
Show	-11.4753
吉祥	-11.4753
拳击	-11.4753
改名	-11.4753
鼓楼	-11.4754
▁located	-11.4754
晋级	-11.4754
models	-11.4756
口红	-11.4756
push	-11.4757
零食	-11.4758
嗯哼	-11.4759
的道路	-11.4762
肠道	-11.4763
几十	-11.4764
支流	-11.4764
我也在	-11.4766
千米	-11.4769
可用于	-11.4769
descr	-11.4769
发烧	-11.4771
主帅	-11.4772
cons	-11.4773
甲基	-11.4774
GO	-11.4774
转会	-11.4775
填写	-11.4776
公交车	-11.4777
诗人	-11.4777
管理局	-11.4777
早起	-11.4779
COM	-11.4782
]]	-11.4785
亿美元的	-11.4785
OL	-11.4786
会让	-11.4787
iter	-11.479
米尔	-11.4793
从来没有	-11.4796
嫌疑人	-11.4799
"}}]	-11.4799
幫我	-11.4803
没去	-11.4805
没看过	-11.4808
商人	-11.4815
但如果	-11.4816
朋友圈	-11.4816
個月	-11.4816
落后	-11.4817
书籍	-11.4818
ino	-11.4821
show	-11.4822
美女	-11.4823
还想	-11.4825
衍	-11.4825
希望能	-11.4827
谈谈	-11.4829
气温	-11.4829
空军	-11.4829
require	-11.483
盒子	-11.4834
比较多	-11.4841
我帮你	-11.4841
悉	-11.4844
吃什么	-11.4845
霉	-11.4847
就喜欢	-11.4847
脆	-11.4847
妓	-11.4848
光緒	-11.4848
幣	-11.4848
暑	-11.4848
庚	-11.4848
靶	-11.4848
多多	-11.4849
爲	-11.4849
弊	-11.4849
遲	-11.4849
狐	-11.4849
有利于	-11.485
仇恨	-11.485
對吧	-11.485
昆虫	-11.4851
气氛	-11.4851
凭借	-11.4851
黛	-11.4851
©	-11.4852
蒸汽	-11.4852
▁restrictions	-11.4852
帆船	-11.4852
▁desired	-11.4852
审理	-11.4852
digit	-11.4852
乖乖	-11.4852
必需	-11.4853
客观	-11.4854
礼拜	-11.4854
亨利	-11.4855
姓氏	-11.4856
大阪	-11.4856
移植	-11.4857
圆形	-11.4858
Total	-11.4858
印尼	-11.486
ious	-11.4861
我就不	-11.4864
济南	-11.4865
在同一	-11.4865
見到	-11.4868
▁generated	-11.4871
曲线	-11.4872
出租	-11.4874
意義	-11.4876
Back	-11.488
上场	-11.4882
酒店住宿	-11.4882
loss	-11.4884
会长	-11.4886
排名第	-11.4888
若是	-11.4891
那裡	-11.4891
反對	-11.4893
产量	-11.4895
safe	-11.4898
(&	-11.4899
有個	-11.49
毕竟是	-11.49
这么久	-11.4904
網路	-11.4905
wo	-11.4905
巴尔	-11.4908
布置	-11.4909
LD	-11.4909
电影院	-11.491
rum	-11.4912
要好好	-11.4915
已经被	-11.4916
move	-11.4919
露出	-11.492
一趟	-11.4926
华人	-11.4928
还不知道	-11.493
十三年	-11.4931
中国队	-11.4932
zo	-11.4933
完毕	-11.4936
我平时	-11.4938
卡斯	-11.4941
不晓得	-11.4943
拘	-11.4944
yo	-11.4945
擊敗	-11.4946
去医院	-11.4946
conf	-11.4946
複	-11.4947
一万	-11.4948
協助	-11.4948
輛	-11.4949
輝	-11.4949
窃	-11.4949
株	-11.4949
隙	-11.4949
蒋	-11.4949
rank	-11.495
怎么不	-11.4951
雜	-11.4951
苍	-11.4951
奧地利	-11.4952
BTC	-11.4952
绣	-11.4953
睁	-11.4953
阿富汗	-11.4953
歧视	-11.4953
游泳池	-11.4953
報導	-11.4954
北京全聚德	-11.4954
▁continue	-11.4954
Details	-11.4954
Property	-11.4954
▁published	-11.4954
荷蘭	-11.4955
强迫	-11.4955
male	-11.4956
沈阳	-11.4956
資格	-11.4957
总裁	-11.4957
El	-11.4957
坚定	-11.4958
考研	-11.4958
HD	-11.4959
都不能	-11.4962
散步	-11.4962
組合	-11.4964
智利	-11.4967
加油加油	-11.4969
缴纳	-11.4969
波兰	-11.497
太高	-11.497
IV	-11.4971
埃尔	-11.4971
allOf	-11.4972
我刚刚	-11.4973
Sy	-11.4973
;

	-11.4973
烤肉	-11.4974
pose	-11.4974
考古	-11.4975
mac	-11.4977
制品	-11.4982
意甲	-11.4984
好厉害	-11.4985
福利	-11.4987
七月	-11.4988
pu	-11.4993
三百	-11.4994
下课	-11.4999
hat	-11.5
ties	-11.5001
巨人	-11.5001
买到	-11.5003
自杀	-11.5003
剧院	-11.5004
depend	-11.5008
眼里	-11.5012
出色的	-11.5012
场合	-11.5016
那種	-11.502
那只	-11.502
holder	-11.5021
pet	-11.5022
担	-11.5023
mail	-11.5028
HK	-11.5028
他曾	-11.5031
尝	-11.5042
▁offer	-11.5043
喜欢他	-11.5043
ART	-11.5044
vent	-11.5047
NULL	-11.5048
assert	-11.5049
進來	-11.5049
屑	-11.5052
辦公室	-11.5052
斩	-11.5052
淹	-11.5053
叙	-11.5054
殷	-11.5054
棵	-11.5054
短暂	-11.5055
轩	-11.5056
貓	-11.5056
Twitter	-11.5056
大床房	-11.5057
SELECT	-11.5057
▁previous	-11.5057
▁much	-11.5057
sample	-11.5057
一起玩	-11.5057
Record	-11.5057
律師	-11.5058
副主席	-11.5058
迎接	-11.5059
我觉得你	-11.506
Auto	-11.506
硬盘	-11.5062
初步	-11.5063
我現在	-11.5063
玩玩	-11.5065
自主	-11.5066
看上去	-11.5066
河北	-11.5068
URL	-11.5068
force	-11.5069
超級	-11.5069
所述	-11.5069
shi	-11.507
房费	-11.5072
card	-11.5074
還在	-11.5074
在这儿	-11.5075
uk	-11.5075
能找到	-11.5077
溜达	-11.5082
海水	-11.5085
Op	-11.5089
做不到	-11.5089
▁Che	-11.509
独特	-11.5094
什么鬼	-11.5095
报道称	-11.5095
会使	-11.5098
cut	-11.51
enc	-11.51
如果他	-11.5101
主教	-11.5104
的任务	-11.5107
周三	-11.5107
选民	-11.5109
小时的景点	-11.5111
你還	-11.5111
mat	-11.5112
將會	-11.5113
不要太	-11.5113
▁objects	-11.5115
▁Wa	-11.5121
不论	-11.5123
的平均	-11.5124
合唱	-11.5126
热爱	-11.5127
年以来	-11.5127
ory	-11.513
ray	-11.5135
被告人	-11.5136
很久了	-11.5137
一番	-11.5141
任性	-11.5141
▁They	-11.5143
舉人	-11.5149
lap	-11.515
war	-11.515
一分	-11.5151
ters	-11.5152
損	-11.5154
你也可以	-11.5155
的例子	-11.5155
刃	-11.5156
expression	-11.5157
焉	-11.5157
遗址	-11.5158
肆	-11.5158
绍	-11.5159
焊接	-11.5159
渊	-11.5159
殼	-11.516
password	-11.516
response	-11.516
绒	-11.516
潇洒	-11.5161
collect	-11.5161
情侣	-11.5161
康熙	-11.5161
Green	-11.5161
论坛	-11.5161
▁authentication	-11.5161
Credit	-11.5161
河畔	-11.5161
座椅	-11.5162
▁club	-11.5162
折磨	-11.5162
战役	-11.5162
质疑	-11.5162
▁rules	-11.5164
▁conditions	-11.5165
科研	-11.5166
感觉到	-11.5166
monthly	-11.5166
蚊子	-11.5167
strong	-11.5168
▁again	-11.5169
MAX	-11.5169
三大	-11.517
可怕的	-11.517
你是在	-11.5172
alert	-11.5172
保养	-11.5173
长发	-11.5173
世界各地	-11.5175
原谅	-11.5175
不相信	-11.5179
场上	-11.518
LS	-11.518
接种	-11.5183
邀	-11.5184
不管是	-11.5184
shad	-11.5185
ough	-11.5189
▁Du	-11.519
形成了	-11.5191
一波	-11.5191
嗯啊	-11.5192
当然可以	-11.5192
dra	-11.5194
周边的餐馆有	-11.5195
召开	-11.5196
典型的	-11.5198
完工	-11.52
太阳能	-11.52
目的地	-11.5201
不下去	-11.5201
東部	-11.5204
类似的	-11.5207
matic	-11.5208
當選	-11.521
有种	-11.5214
惜	-11.5214
讲话	-11.5216
windows	-11.5219
动脉	-11.5223
的心情	-11.5226
原创	-11.5227
长官	-11.5229
概	-11.5229
看不懂	-11.5229
分成	-11.5229
宪法	-11.5231
卡车	-11.5231
篇文章	-11.5231
Her	-11.5232
起到	-11.5232
体积	-11.5234
了不少	-11.5237
对称	-11.5239
拿走	-11.524
sources	-11.5241
Mode	-11.5245
去北京	-11.525
的最高	-11.525
罢了	-11.525
建于	-11.5251
小白	-11.5253
岁时	-11.5254
方言	-11.5255
这里有	-11.5255
院长	-11.5257
▁orders	-11.5257
翰	-11.5259
这么早	-11.526
奋	-11.526
贫	-11.5261
板上	-11.5261
birth	-11.5262
掠	-11.5262
考慮	-11.5263
投诉	-11.5263
邁	-11.5264
沸	-11.5264
坂	-11.5264
潔	-11.5265
震惊	-11.5265
救援	-11.5266
基础设施	-11.5266
炫	-11.5266
▁FITNESS	-11.5266
护国寺	-11.5266
护国寺小吃店	-11.5266
▁cryptocurrency	-11.5266
▁identify	-11.5266
协商	-11.5267
Client	-11.5267
溶解	-11.5267
programlistin	-11.5267
slug	-11.5267
ignore	-11.5267
给我推荐一家	-11.5267
电梯	-11.5268
熊猫	-11.5268
KEY	-11.5268
團隊	-11.5268
给我推荐一个	-11.5269
负载	-11.5269
轻易	-11.527
初始	-11.527
這件事	-11.5271
countries	-11.5271
公益	-11.5273
面部	-11.5273
窗户	-11.5274
不适	-11.5276
分布於	-11.5276
serve	-11.5278
國會	-11.5278
吸引力	-11.528
cf	-11.5281
谁知道	-11.5281
生效	-11.5283
聊聊	-11.5285
化石	-11.5285
人民政府	-11.5287
给你们	-11.529
养老	-11.5291
小可爱	-11.5295
输给	-11.5297
').","	-11.5298
utter	-11.5302
睡觉了	-11.5303
record	-11.5304
这一次	-11.5304
应该会	-11.5308
悲剧	-11.5308
meta	-11.5309
江南	-11.5311
是為了	-11.5311
的梦想	-11.5311
mini	-11.5311
飛機	-11.5316
upload	-11.5317
內部	-11.5317
籃球	-11.5319
奖金	-11.5319
急性	-11.5322
睡得	-11.5323
不理	-11.5328
坐车	-11.5332
听见	-11.5334
德尔	-11.5335
斯科	-11.5338
里亚	-11.5339
屋顶	-11.5339
这座	-11.534
plan	-11.534
为其	-11.5341
一批	-11.5342
有害	-11.5342
可能导致	-11.5342
eye	-11.5346
几种	-11.5351
出去了	-11.5352
董事	-11.5358
几百	-11.5363
畢業	-11.5363
每個	-11.5364
BR	-11.5364
ava	-11.5365
夷	-11.5366
閣	-11.5367
调用	-11.5368
匯	-11.5368
學者	-11.5368
省的一个市镇	-11.5369
縮	-11.5369
凹	-11.537
嚇	-11.537
匪	-11.5371
Select	-11.5371
袍	-11.5371
蜡	-11.5371
牠們	-11.5371
戊	-11.5372
雜誌	-11.5372
錫	-11.5373
Feature	-11.5373
▁Street	-11.5373
生活習性不明	-11.5373
な	-11.5373
️	-11.5373
ス	-11.5373
Application	-11.5373
▁above	-11.5373
榴莲	-11.5373
获胜	-11.5374
怕是	-11.5374
来来来	-11.5375
burg	-11.5375
给您推荐	-11.5375
引导	-11.5375
精确	-11.5375
房間	-11.538
波蘭	-11.5381
JSON	-11.5385
exchange	-11.5386
所有人都	-11.5386
友善	-11.5388
海拔	-11.5388
体力	-11.5389
帮我推荐一个	-11.5389
上班了	-11.5391
激光	-11.5391
魔力	-11.5392
cache	-11.5393
▁posts	-11.5396
良心	-11.5396
感觉你	-11.5396
成功了	-11.5402
这么厉害	-11.5403
力气	-11.5404
三名	-11.5406
▁once	-11.5407
Meta	-11.5407
一隻	-11.5408
下令	-11.541
對方	-11.5413
组成的	-11.5414
也是很	-11.5415
合约	-11.5416
Gold	-11.5416
你怎么知道	-11.5423
▁adjust	-11.5424
ement	-11.5425
推出的	-11.5427
这事	-11.5431
美人	-11.5431
那么大	-11.5433
这个世界	-11.5436
家具	-11.5439
源自	-11.5441
留着	-11.5442
告诉我一下	-11.5444
放入	-11.5447
的家人	-11.545
一副	-11.546
cation	-11.5465
ala	-11.5467
哥们	-11.5469
▁includes	-11.547
渴	-11.5473
丞	-11.5473
有必要	-11.5474
穿上	-11.5474
賜	-11.5475
	-11.5475
淨	-11.5475
飲	-11.5476
耶穌	-11.5476
驅	-11.5477
規模	-11.5477
是个好	-11.5477
勘	-11.5477
喃	-11.5477
沛	-11.5478
杉	-11.5478
大赛	-11.5478
战绩	-11.5478
弯曲	-11.5479
副主任	-11.5479
岗位	-11.5479
extern	-11.5479
票价是	-11.5479
publish	-11.548
是下辖的一个乡镇级行政单位	-11.548
LICENSE	-11.548
eligibility	-11.548
Integer	-11.548
quarter	-11.548
印刷	-11.548
午餐	-11.5481
David	-11.5481
▁Germany	-11.5481
谈论	-11.5481
Query	-11.5481
Agent	-11.5482
特别好	-11.5482
安徽	-11.5482
征服	-11.5484
常用的	-11.5485
scale	-11.5485
證明	-11.5486
watch	-11.5487
Music	-11.5488
放弃了	-11.5489
实时	-11.5491
想像	-11.5493
fast	-11.5494
多名	-11.5494
地球上	-11.5496
概率	-11.5497
势力	-11.5498
理工	-11.55
network	-11.5501
讓我們	-11.5507
track	-11.5507
防护	-11.5507
无力	-11.5508
是哪	-11.5515
所屬	-11.5517
自動	-11.5518
这个餐馆	-11.5519
同情	-11.5521
保安	-11.5521
UK	-11.5524
GL	-11.5524
成人	-11.5524
光线	-11.5524
？
‪
-	-11.5524
景点吗	-11.5525
太久	-11.5526
头部	-11.5528
▁named	-11.5529
注重	-11.5529
去除	-11.553
福德	-11.5533
的數據	-11.5537
下巴	-11.5538
Sam	-11.5539
一股	-11.5541
我不會	-11.5541
AU	-11.5543
params	-11.5547
德斯	-11.5551
那么好	-11.5555
那您	-11.5561
被发现	-11.5564
展现	-11.5564
谓	-11.5565
PI	-11.5566
分類	-11.5569
在那裡	-11.557
尽力	-11.5571
▁interact	-11.5574
????	-11.5575
瞬間	-11.558
远远	-11.558
全力	-11.5581
	-11.5583
趋	-11.5584
PV	-11.5584
惑	-11.5585
貫	-11.5585
勳	-11.5585
錦	-11.5586
包裹	-11.5586
穗	-11.5587
友谊	-11.5587
賀	-11.5587
哄	-11.5587
这话	-11.5588
肋	-11.5588
合作伙伴	-11.5589
诱惑	-11.5589
咔	-11.5589
漏洞	-11.5589
nWould	-11.5589
typically	-11.5589
ifndef	-11.5589
讷	-11.5589
Foot	-11.5589
▁hope	-11.5589
NAME	-11.559
verified	-11.559
▁estimated	-11.559
numeric	-11.559
▁least	-11.559
Country	-11.559
James	-11.5591
jpg	-11.5591
破碎	-11.5592
早晨	-11.5592
武帝	-11.5593
predict	-11.5593
失业	-11.5594
面對	-11.5595
底下	-11.5596
静脉	-11.5596
室外	-11.5596
改為	-11.5598
不远	-11.5599
十月	-11.56
生于	-11.5601
能吃	-11.5602
▁requires	-11.5605
del	-11.5605
认同	-11.5606
好累	-11.5607
button	-11.5608
Su	-11.5609
越大	-11.561
agents	-11.561
朋友们	-11.5616
这么快	-11.5617
PIN	-11.562
的地位	-11.562
列入	-11.5621
上方	-11.5621
▁come	-11.5624
试着	-11.5624
Match	-11.5625
ua	-11.5631
Last	-11.5632
▁though	-11.5633
来这里	-11.5634
克服	-11.5634
Ben	-11.5634
对她	-11.5636
源于	-11.5639
defs	-11.5639
预定	-11.564
治理	-11.564
系统中	-11.5643
默认	-11.5647
"}	-11.5649
之内	-11.565
是位於	-11.5652
很高的	-11.5654
想过	-11.5655
Pass	-11.5659
些什么	-11.5659
睡着了	-11.5662
吃火锅	-11.5664
pay	-11.5664
爱好	-11.5669
管制	-11.5669
理念	-11.5673
心灵	-11.5677
但他们	-11.5679
熟悉的	-11.5681
可以让	-11.5682
说出来	-11.5683
uff	-11.5684
▁words	-11.5685
手动	-11.5687
你看过	-11.5688
充满了	-11.5688
说服	-11.5692
人死亡	-11.5692
奸	-11.5693
膝	-11.5693
ili	-11.5694
設備	-11.5694
膨胀	-11.5695
普及	-11.5695
鞭	-11.5695
謝謝你	-11.5695
冊	-11.5696
淘	-11.5697
彻	-11.5697
铭	-11.5697
忽视	-11.5697
tier	-11.5697
壇	-11.5698
切割	-11.5698
倫敦	-11.5698
幽默	-11.5698
希臘	-11.5698
投資	-11.5699
Compensation	-11.5699
▁failure	-11.5699
▁geographic	-11.5699
哩	-11.5699
杆菌	-11.5699
番茄	-11.5699
attempt	-11.5699
我想吃	-11.57
Blue	-11.5701
▁said	-11.5701
充足	-11.5701
放棄	-11.5701
▁permissions	-11.5701
衡量	-11.5702
Suite	-11.5702
Weather	-11.5702
昆明	-11.5702
盯着	-11.5703
KE	-11.5703
阿拉	-11.5703
的唯一	-11.5703
cla	-11.5704
"}],"	-11.5704
有许多	-11.5704
八卦	-11.5705
▁own	-11.5705
部長	-11.5706
Year	-11.5706
湖人队	-11.5706
Core	-11.5708
南昌	-11.5708
银河	-11.5709
当然是	-11.571
正義	-11.5711
注入	-11.5711
nearby	-11.5711
出于	-11.5711
變化	-11.5712
个体	-11.5713
天坛	-11.5714
这一切	-11.5715
工業	-11.5715
推理	-11.5716
fuel	-11.5718
借口	-11.572
菜单	-11.5724
ext	-11.5724
green	-11.5729
tel	-11.5731
▁fetched	-11.5732
说出	-11.5732
关键是	-11.5733
sky	-11.5736
的形象	-11.5736
吃完了	-11.5738
日语	-11.574
瓦尔	-11.574
好喝	-11.5741
ures	-11.5742
還要	-11.5746
传动	-11.5746
vt	-11.5748
丹尼	-11.5752
全新的	-11.5753
转子	-11.5753
大卫	-11.5756
二手	-11.5757
前列腺	-11.5758
uel	-11.5758
打入	-11.5761
四大	-11.5761
夜晚	-11.5762
我俩	-11.5768
不介意	-11.5773
书记	-11.5778
▁Gra	-11.5779
先进	-11.578
expect	-11.5786
喝点	-11.5789
大神	-11.579
points	-11.579
大奖	-11.5793
ram	-11.5794
鉴	-11.5799
Men	-11.58
挺不错的	-11.5801
老实	-11.5804
蒲	-11.5804
用药	-11.5805
卵巢	-11.5805
碞	-11.5806
①	-11.5806
棘	-11.5806
龜	-11.5807
戀	-11.5807
我沒	-11.5807
桩	-11.5807
平静	-11.5808
邀請	-11.5808
检验	-11.5808
簿	-11.5808
王國	-11.5809
绑架	-11.5809
‧	-11.5809
询问	-11.5809
很清楚	-11.581
▁FROM	-11.581
▁PARTICULAR	-11.581
▁cancellation	-11.581
у	-11.581
Cancellation	-11.581
Api	-11.581
我都没	-11.581
ATION	-11.5811
优惠	-11.5812
▁occur	-11.5812
感謝	-11.5812
登陆	-11.5812
不好吃	-11.5813
边境	-11.5813
Function	-11.5814
Provide	-11.5814
Author	-11.5814
潜力	-11.5815
貝爾	-11.5815
创意	-11.5816
很帅	-11.5817
笑容	-11.5818
正能量	-11.582
HR	-11.582
宁波	-11.5821
史上	-11.5821
贏得	-11.5821
无敌	-11.5823
无所谓	-11.5823
泰國	-11.5823
沿着	-11.5824
之間的	-11.5825
一般来说	-11.5826
duct	-11.5829
想起来	-11.5831
就不要	-11.5834
外交部	-11.5836
这张	-11.5837
而非	-11.5838
西蒙	-11.5839
Block	-11.5839
目光	-11.5839
中断	-11.584
来源于	-11.5841
男主	-11.5845
半岛	-11.5847
海滩	-11.5851
地鐵	-11.5852
lip	-11.5854
手表	-11.5855
早年	-11.5857
开口	-11.5863
ground	-11.5868
前方	-11.5868
没那么	-11.587
醋	-11.587
清醒	-11.5872
双手	-11.5874
六十	-11.5875
离开了	-11.5875
une	-11.5877
艺人	-11.5884
迷人	-11.5884
过几天	-11.589
你看看	-11.5894
个国家	-11.5895
吃吧	-11.5898
當中	-11.59
法令	-11.59
救了	-11.5902
据报道	-11.5906
受到了	-11.5907
到期	-11.5911
扮	-11.5912
在路上	-11.5914
剪了	-11.5915
慰	-11.5916
圭	-11.5917
噴	-11.5917
慘	-11.5917
璶	-11.5918
辱	-11.5918
蠕	-11.5919
合肥	-11.5919
近年来	-11.5919
斯堡	-11.5919
妾	-11.592
畏	-11.592
担忧	-11.592
禽	-11.592
颂	-11.592
犹豫	-11.5921
模仿	-11.5921
掏	-11.5921
幼儿园	-11.5921
迈克尔	-11.5921
保證	-11.5921
香蕉	-11.5921
邱	-11.5921
颖	-11.5922
偶然	-11.5922
湖泊	-11.5922
攒	-11.5922
individual	-11.5922
street	-11.5922
▁PURPOSE	-11.5922
▁School	-11.5922
minLength	-11.5923
onic	-11.5924
收缩	-11.5924
賽季	-11.5925
有一定的	-11.5926
足球运动员	-11.5928
日报	-11.5931
▁USA	-11.5932
这家店	-11.5933
无效	-11.5934
Word	-11.5934
UM	-11.5935
热刺	-11.5936
水晶	-11.5936
可能會	-11.5937
文档	-11.5943
自助	-11.5944
波斯	-11.5944
眼中	-11.5945
脑袋	-11.5946
跟随	-11.5949
手工	-11.5949
起码	-11.5952
」。

	-11.5953
我还有事	-11.5954
能把	-11.5956
我也没	-11.5959
面向	-11.5961
但愿	-11.5961
见到你	-11.5962
享有	-11.5963
大声	-11.5963
Que	-11.5966
Cy	-11.5969
▁far	-11.5971
好几个	-11.5975
两条	-11.5978
受傷	-11.5978
变量	-11.5982
暖和	-11.5986
照明	-11.5991
你好你好	-11.5994
流通	-11.5996
director	-11.5996
越来越好	-11.5997
ptr	-11.6002
小姑娘	-11.6003
文物	-11.6003
个赛季	-11.6004
你一定	-11.6004
被稱為	-11.6005
Rule	-11.6005
學會	-11.6008
我一个人	-11.6013
米爾	-11.6022
Low	-11.6022
ford	-11.6023
要素	-11.6023
dding	-11.6026
喜欢吃	-11.6027
Tag	-11.6027
然后再	-11.6028
不允许	-11.6029
雖	-11.6029
咋了	-11.6029
庇	-11.6031
贞	-11.6032
秤	-11.6032
籌	-11.6032
鮮	-11.6032
轰	-11.6032
She	-11.6032
摧毁	-11.6033
疲	-11.6033
」、「	-11.6033
DC	-11.6033
question	-11.6033
勁	-11.6033
ㄓ	-11.6033
*************	-11.6033
填充	-11.6033
朝廷	-11.6034
措	-11.6034
獅	-11.6034
儘管	-11.6034
银屑病	-11.6034
钢筋	-11.6034
融资	-11.6035
附属	-11.6035
失踪	-11.6036
è	-11.6036
探讨	-11.6036
▁upcoming	-11.6036
Target	-11.6036
Health	-11.6036
draft	-11.6036
园区	-11.6036
▁compliance	-11.6036
坝	-11.6036
Change	-11.6037
▁comma	-11.6037
檢查	-11.6037
流域	-11.6038
Convert	-11.6038
闭嘴	-11.6038
盈利	-11.6038
地點	-11.6038
政黨	-11.6038
紧密	-11.6039
建築物	-11.6039
醫學	-11.604
穩定	-11.6041
resource	-11.6043
土豆	-11.6043
称呼	-11.6044
printf	-11.6044
老爸	-11.6045
安逸	-11.6046
相应	-11.605
記載	-11.6051
風格	-11.6051
假装	-11.6051
什么类型的	-11.6052
户口	-11.6052
入境	-11.6052
zy	-11.6054
村民	-11.6055
Light	-11.6055
推迟	-11.6056
晴天	-11.606
名單	-11.606
很简单	-11.6061
不肯	-11.6063
Sign	-11.6064
还有很多	-11.6065
边界	-11.6065
通往	-11.6066
宪	-11.6069
布莱	-11.6071
很多人都	-11.6071
平板	-11.6073
贵州	-11.6074
有效地	-11.6074
梦到	-11.6075
fit	-11.6076
千万	-11.6078
RK	-11.6078
ery	-11.6079
edu	-11.6079
元之间	-11.6081
开门	-11.6085
▁+=	-11.6085
！
‎
-	-11.6085
啥都	-11.6087
懒得	-11.6088
Star	-11.6089
街上	-11.6091
上车	-11.6092
san	-11.6094
公式	-11.6097
傷害	-11.6098
dog	-11.6101
ona	-11.6102
bank	-11.6104
來吧	-11.6105
拿去	-11.611
Sun	-11.6113
快走	-11.6113
孩	-11.6114
有木有	-11.6115
那张	-11.6115
战场	-11.6119
派出	-11.6121
bot	-11.6121
此時	-11.6122
大胆	-11.6124
谁都	-11.6131
ush	-11.6131
鬥	-11.6135
步兵	-11.6136
做个	-11.6138
运转	-11.6138
毫	-11.6139
TT	-11.6141
abc	-11.6144
tl	-11.6144
弹簧	-11.6145
憑	-11.6147
蜂蜜	-11.6147
帆	-11.6147
橡	-11.6147
擾	-11.6147
拦	-11.6147
鋼	-11.6148
擺	-11.6148
２	-11.6148
忠诚	-11.6148
厌	-11.6148
拾	-11.6148
钦	-11.6149
繪	-11.6149
高手	-11.6149
娛樂	-11.615
冈	-11.615
萬曆	-11.615
抱怨	-11.6151
該地的面積	-11.6151
currencies	-11.6151
Factory	-11.6151
▁MERCHANTABILITY	-11.6151
benefits	-11.6151
裡面	-11.6151
False	-11.6151
邪恶	-11.6151
圣诞节	-11.6151
曝光	-11.6152
研制	-11.6152
dispute	-11.6152
爵士	-11.6152
原住民	-11.6152
Cal	-11.6153
train	-11.6153
虚假	-11.6153
公爵	-11.6153
中国共产党	-11.6154
存款	-11.6154
隔壁	-11.6154
Product	-11.6154
▁births	-11.6154
感激	-11.6154
攻略	-11.6154
類似	-11.6155
}\	-11.6155
via	-11.6155
陸軍	-11.6155
吃东西	-11.6155
代谢	-11.6157
猜测	-11.6157
加以	-11.6158
尖叫	-11.616
机票	-11.6161
美术	-11.6163
partment	-11.6163
地狱	-11.6164
诞生	-11.6166
我跟你	-11.6168
白宫	-11.6168
库尔	-11.6169
趟	-11.6169
物业	-11.617
或許	-11.617
American	-11.6178
自身的	-11.6178
pop	-11.6179
阿里	-11.6181
我们学校	-11.6181
仍是	-11.6183
都已经	-11.6183
那个时候	-11.6183
十五年	-11.6185
赢得了	-11.6191
我已經	-11.6191
展示了	-11.6193
张照片	-11.6197
BL	-11.6197
元的餐馆	-11.6198
mot	-11.6199
我以为你	-11.6202
EG	-11.6203
那你就	-11.6203
▁feel	-11.6203
數據	-11.6205
去哪儿	-11.6206
END	-11.6207
事實	-11.6207
极其	-11.621
路易斯	-11.621
handle	-11.621
格里	-11.6214
那邊	-11.6214
platform	-11.6218
session	-11.6219
FS	-11.622
钱包	-11.6221
route	-11.6224
動作	-11.6225
山区	-11.6227
带到	-11.6227
这是个	-11.6228
比起	-11.6228
我沒有	-11.6229
字体	-11.623
Player	-11.6231
豆瓣	-11.6232
▁"""	-11.6236
but	-11.6237
才发现	-11.6238
agent	-11.6238
你在哪	-11.6239
JR	-11.624
是一座	-11.624
hrs	-11.624
support	-11.624
很正常	-11.6243
改天	-11.6245
融入	-11.6247
上诉	-11.6247
贏	-11.6248
加入了	-11.6249
rust	-11.6255
aries	-11.6256
撰	-11.6256
脈	-11.6259
债	-11.626
名進士	-11.6261
朝鮮	-11.6261
高峰	-11.6262
Cancel	-11.6263
衷	-11.6263
氛围	-11.6263
禄	-11.6263
屏蔽	-11.6264
蝶	-11.6264
杏	-11.6264
咳嗽	-11.6265
哨	-11.6265
麻煩	-11.6265
疗法	-11.6266
祈祷	-11.6266
嵌	-11.6267
欺骗	-11.6267
Europe	-11.6267
王府井	-11.6267
▁calculation	-11.6267
電腦	-11.6267
Custom	-11.6267
▁Museum	-11.6267
慈善	-11.6267
缺席	-11.6267
娘娘	-11.6268
介质	-11.6268
square	-11.6268
拘留	-11.6269
不用客气	-11.6269
渠道	-11.627
电动机	-11.627
健身房	-11.627
北起	-11.627
Garden	-11.627
臺北	-11.627
戒指	-11.627
精灵	-11.6272
创立	-11.6273
▁elements	-11.6273
爱好者	-11.6274
Next	-11.6274
碎片	-11.6275
师兄	-11.6276
安妮	-11.6277
路径	-11.6277
不胖	-11.6277
这首歌	-11.6277
降落	-11.6278
注定	-11.6278
來源	-11.6279
再加上	-11.6279
竞选	-11.628
帶著	-11.6282
方形	-11.6282
ette	-11.6282
在英国	-11.6283
一圈	-11.6285
lean	-11.6286
特效	-11.6286
合金	-11.629
达到了	-11.6291
民國	-11.6291
忍受	-11.6292
而且他	-11.6292
Win	-11.6292
住院	-11.6294
战士	-11.6295
第一位	-11.6296
骗子	-11.6296
pool	-11.6296
一脸	-11.6297
真棒	-11.6299
stat	-11.63
民事	-11.6301
五一	-11.6302
在里面	-11.6302
長官	-11.6303
控制器	-11.6303
nam	-11.631
删	-11.631
ami	-11.6314
真好看	-11.6315
还有什么	-11.6315
执法	-11.6317
曹操	-11.6317
可以直接	-11.6319
长大了	-11.6323
"）	-11.6324
Edit	-11.6325
剧本	-11.6326
怎么看	-11.6328
散热	-11.6329
化學	-11.6335
attr	-11.6337
download	-11.6339
double	-11.6343
exports	-11.6346
mate	-11.635
latest	-11.6354
')","	-11.6361
哪裡	-11.6361
:`	-11.6362
日报道	-11.6362
为什么会	-11.6364
台风	-11.6366
得很好	-11.6369
他们说	-11.6369
扰	-11.6374
dom	-11.6377
必定	-11.6377
Handle	-11.6378
丈	-11.6379
PH	-11.6379
斌	-11.638
喪	-11.638
寇	-11.6381
譜	-11.6381
ぐ或	-11.6382
泄漏	-11.6382
鸿	-11.6382
Pol	-11.6382
斐	-11.6382
施加	-11.6383
澡	-11.6383
評論	-11.6383
婉	-11.6383
饶	-11.6383
縣知縣	-11.6383
嶺	-11.6384
規定	-11.6384
小伙子	-11.6384
Art	-11.6384
拌	-11.6384
人口普查	-11.6384
优质	-11.6384
彩虹	-11.6385
Document	-11.6385
Session	-11.6385
sentiment	-11.6385
▁Once	-11.6385
我第一次	-11.6385
策划	-11.6385
Verify	-11.6385
Place	-11.6385
公佈	-11.6386
spring	-11.6386
Task	-11.6387
总监	-11.6387
▁death	-11.6387
不稳定	-11.6387
background	-11.6387
registration	-11.6388
响应	-11.6388
木材	-11.6389
Hotel	-11.6389
硬件	-11.6391
可能需要	-11.6391
师范	-11.6391
▁News	-11.6392
可不是嘛	-11.6392
赶快	-11.6392
破产	-11.6393
较大的	-11.6393
不起来	-11.6393
少量	-11.6394
告诉我们	-11.6394
左边	-11.6396
贵族	-11.6396
现代化	-11.6397
走进	-11.6397
书中	-11.6397
playlist	-11.6398
usage	-11.6399
只想	-11.64
缘分	-11.6401
周边的景点有	-11.6401
死后	-11.6401
好消息	-11.6402
明智	-11.6402
正义	-11.6402
自豪	-11.6404
不用担心	-11.6404
明明是	-11.6405
切换	-11.6406
逃跑	-11.6406
老虎	-11.6407
人造	-11.6409
快要	-11.6411
伤口	-11.6412
车队	-11.6412
节省	-11.6413
尋找	-11.6415
学到	-11.6416
同盟	-11.6417
保重	-11.6426
big	-11.6428
SK	-11.6434
达尔	-11.6434
超出	-11.6435
要找	-11.6437
婆婆	-11.644
出自	-11.6441
生於	-11.6441
在未来	-11.6444
▁[]
	-11.6445
教室	-11.6452
高端	-11.646
不变	-11.6461
客场	-11.6462
都喜欢	-11.6462
local	-11.6463
edit	-11.6464
很可爱	-11.6465
yan	-11.6467
你在看	-11.6471
有一次	-11.6472
收到了	-11.6481
顾客	-11.6481
(*	-11.6481
Some	-11.6481
女主角	-11.6482
used	-11.6482
是哪个	-11.6483
十一年	-11.6483
工商	-11.6483
引进	-11.6484
某一	-11.6484
白白	-11.6485
▁Sal	-11.6486
此类	-11.6486
脚本	-11.6487
Big	-11.649
德拉	-11.649
SH	-11.6491
我看到了	-11.6493
過程	-11.6495
bil	-11.6496
lam	-11.6496
带走	-11.6497
大选	-11.6497
准备好了	-11.6498
縱	-11.6498
嗣	-11.6498
试管婴儿	-11.6499
淳	-11.65
扳	-11.65
妨	-11.6501
韧	-11.6501
阿森纳	-11.6501
缠	-11.6501
仆	-11.6502
茜	-11.6502
抗生素	-11.6502
感慨	-11.6503
首席执行官	-11.6503
gate	-11.6503
哈尔滨	-11.6503
外地	-11.6503
殖民地	-11.6503
服役	-11.6503
脉冲	-11.6503
卢瓦尔省	-11.6503
谁说	-11.6503
estimate	-11.6503
痘痘	-11.6504
综艺	-11.6504
菇	-11.6504
written	-11.6504
▁impact	-11.6504
▁potential	-11.6504
William	-11.6504
ISBN	-11.6504
尝尝	-11.6504
edge	-11.6504
鄉試第	-11.6504
注释	-11.6505
goal	-11.6505
邻居	-11.6505
幫忙	-11.6506
宣告	-11.6506
他妈的	-11.6506
原名	-11.6507
提议	-11.6507
对我来说	-11.6507
妳們	-11.6508
无人机	-11.6508
零件	-11.6508
大區	-11.651
普京	-11.6511
没必要	-11.6512
长安	-11.6514
非常感谢	-11.6516

	-11.6517
resolution	-11.6518
郑州	-11.6518
確實	-11.6519
原来你	-11.6525
晚期	-11.6529
解答	-11.6532
和人口	-11.6532
已经开始	-11.6532
kind	-11.6534
科学院	-11.6536
加密	-11.6537
偶遇	-11.6537
▁filtering	-11.6537
基金会	-11.6537
GR	-11.6538
Bl	-11.654
金斯	-11.6543
淡水	-11.6544
弟子	-11.6544
是最好的	-11.6548
事務	-11.6549
所以我们	-11.6549
周二	-11.655
首位	-11.6552
不在乎	-11.6552
回学校	-11.6553
wan	-11.6554
层面	-11.6556
▁Mon	-11.6557
理想的	-11.6557
球場	-11.6559
层次	-11.656
上线	-11.6561
转动	-11.6564
野生	-11.6564
奶茶	-11.6565
oul	-11.6566
的兒子	-11.6568
就是个	-11.6569
好不容易	-11.6572
一架	-11.6573
▁gas	-11.6576
找工作	-11.6576
劇集	-11.6576
很可能	-11.6577
顶部	-11.6578
▁recipes	-11.6578
;

/**
	-11.6578
沿海	-11.6581
拉丁	-11.6581
官員	-11.6586
lie	-11.6588
Na	-11.6595
西亞	-11.6596
叶子	-11.6598
不斷	-11.6599
wind	-11.6599
放到	-11.6601
大會	-11.6606
下次再	-11.6608
byte	-11.6609
王者	-11.6609
▁rights	-11.6611
心动	-11.6612
狮	-11.6614
甲状腺	-11.6614
负面	-11.6615
蚊	-11.6617
杖	-11.6618
泡沫	-11.6619
挽	-11.6619
骸	-11.662
徹底	-11.662
死我了	-11.6621
旱	-11.6621
網絡	-11.6621
髓	-11.6621
吟	-11.6622
榮譽	-11.6622
托马斯	-11.6623
称之为	-11.6623
绞	-11.6623
圖書館	-11.6623
碟	-11.6623
蛤	-11.6623
意識	-11.6623
幼稚	-11.6623
喬治	-11.6623
充滿	-11.6624
騎士	-11.6624
®	-11.6624
algorithm	-11.6624
campaign	-11.6624
莹	-11.6625
Controller	-11.6625
medium	-11.6625
Network	-11.6625
指责	-11.6625
Output	-11.6625
framework	-11.6625
表现为	-11.6625
过滤器	-11.6626
这部电视剧	-11.6626
Tech	-11.6626
條約	-11.6627
订单	-11.6628
無論	-11.6629
占领	-11.6629
已经很	-11.6629
沒關係	-11.663
复活	-11.6632
固体	-11.6635
夸我	-11.6636
转化	-11.6636
机智	-11.6637
三世	-11.6639
长达	-11.6641
讓他	-11.6642
莫雷	-11.6644
▁paint	-11.6645
lab	-11.6647
期刊	-11.6648
only	-11.6649
之旅	-11.665
风雨	-11.6651
hin	-11.6654
ault	-11.6655
...
‪	-11.6655
废水	-11.6655
的做法	-11.6656
学霸	-11.6656
Case	-11.6661
只有一个	-11.6662
感恩	-11.6664
fig	-11.6664
百科	-11.6664
OUT	-11.6665
Paul	-11.6665
▁**$	-11.6666
做法	-11.6666
ban	-11.6666
mix	-11.6668
发生了什么	-11.6669
廣東	-11.6669
另有	-11.667
左手	-11.6671
还不如	-11.6671
最为	-11.6671
不堪	-11.6674
Yes	-11.6675
平方	-11.6676
无可	-11.6676
幸好	-11.668
殺死	-11.668
編曲	-11.6681
帶來	-11.6684
这才是	-11.6685
▁films	-11.6686
特雷	-11.6687
还有其他	-11.6698
脱离	-11.67
Who	-11.6702
大门	-11.6702
间接	-11.671
售价	-11.671
我们不能	-11.6711
▁Mat	-11.6711
責任	-11.6714
携	-11.6714
岁月	-11.6718
等方面	-11.6718
否定	-11.6719
說過	-11.6723
仅有	-11.6724
成这样	-11.6725
VR	-11.6725
迫使	-11.6729
ready	-11.6729
context	-11.673
电阻	-11.6732
变得更	-11.6734
如果你想	-11.6734
邨	-11.6738
requested	-11.674
▁obtain	-11.674
陀	-11.6741
涵	-11.6741
針	-11.6741
▁Gar	-11.6741
顏	-11.6741
貢	-11.6742
纷纷	-11.6743
聪	-11.6743
辐射	-11.6743
試圖	-11.6743
煩	-11.6744
竭	-11.6744
觀眾	-11.6744
穆斯林	-11.6744
茎	-11.6744
鄂	-11.6744
愧	-11.6744
壹	-11.6744
凤凰	-11.6745
委书记	-11.6745
剃	-11.6745
珍珠	-11.6745
膝盖	-11.6745
維持	-11.6746
脆弱	-11.6746
加快	-11.6746
chapter	-11.6746
海底	-11.6746
KIND	-11.6746
▁school	-11.6746
怼	-11.6746
闺蜜	-11.6747
cluster	-11.6747
科尔	-11.6747
鸽	-11.6747
古老的	-11.6748
編號	-11.6748
voice	-11.6748
Local	-11.6749
专注于	-11.6749
持久	-11.6749
銀牌	-11.6749
光芒	-11.6751
年建立的	-11.6751
旅遊	-11.6751
▁four	-11.6752
▁obtained	-11.6753
Input	-11.6753
Handler	-11.6753
单一	-11.6754
活塞	-11.6755
有益	-11.6758
吃药	-11.6761
飛行	-11.6762
又称	-11.6762
拍卖	-11.6763
確認	-11.6763
湿度	-11.6764
夺得	-11.6766
曲目	-11.6766
首府	-11.6767
湖北	-11.6768
搞定	-11.677
還好嗎	-11.677
bc	-11.677
▁too	-11.6771
太原	-11.6771
当今	-11.6772
考生	-11.6772
定居	-11.6772
最后一个	-11.6773
推出了	-11.6773
情人	-11.6777
风水	-11.6777
▁matching	-11.6779
羡慕你	-11.6779
為主	-11.6783
白云	-11.6785
让它	-11.6785
珠海	-11.6788
主导	-11.6788
fight	-11.6794
confirmed	-11.6795
好一点	-11.6795
好帅	-11.6797
局面	-11.6799
没睡	-11.6803
都不敢	-11.6804
根本就	-11.6806
来玩	-11.6808
场均	-11.6808
孔子	-11.6808
站台	-11.6809
pack	-11.6809
▁Cap	-11.681
前景	-11.6812
dec	-11.6814
所在地	-11.6816
入住	-11.6816
北极	-11.6818
网站上	-11.6821
两只	-11.6822
returns	-11.6824
逛街	-11.6825
跑去	-11.6825
我在看	-11.6825
流感	-11.6826
谈话	-11.6834
两国	-11.6844
fall	-11.6845
wel	-11.6845
什么叫	-11.6847
蒜	-11.6847
curr	-11.6848
摩托	-11.6848
书面	-11.6849
大多数人	-11.6852
不容	-11.6854
谁能	-11.6856
我听说	-11.6856
易于	-11.6856
洗衣	-11.6857
猶	-11.686
辅导班	-11.6862
遞	-11.6863
農業	-11.6863
佑	-11.6864
沖	-11.6865
閒	-11.6865
噪音	-11.6866
讚	-11.6866
給他	-11.6866
誌	-11.6867
==	-11.6867
incident	-11.6867
邵	-11.6868
滕	-11.6868
火焰	-11.6868
延续	-11.6868
在地上	-11.6868
奇迹	-11.6869
共和党	-11.6869
produce	-11.687
Black	-11.687
委屈	-11.687
北京贵都大酒店	-11.687
Column	-11.687
宣傳	-11.687
Configuration	-11.687
▁anything	-11.687
Http	-11.687
釜	-11.687
蜜蜂	-11.687
annotation	-11.687
▁visit	-11.687
崇拜	-11.687
basic	-11.687
▁blockchain	-11.687
申請	-11.687
し	-11.687
椰	-11.687
▁Also	-11.6871
black	-11.6871
抽象	-11.6872
分散	-11.6872
Robert	-11.6872
激情	-11.6873
sentence	-11.6873
拥抱	-11.6873
zero	-11.6875
電視台	-11.6875
市政	-11.6876
交互	-11.6877
彩色	-11.6877
春节	-11.6878
elli	-11.688
助手	-11.6882
WO	-11.6882
功夫	-11.6882
Ci	-11.6882
》
《	-11.6882
潜水	-11.6884
帮我找个	-11.6884
涂层	-11.6885
有任何	-11.6885
你是谁	-11.6887
难道你	-11.6888
......	-11.689
你要是	-11.6891
装修	-11.6894
足球比赛	-11.6895
就是为了	-11.6899
sheet	-11.69
神话	-11.6903
requ	-11.6904
什么东西	-11.6906
最重要	-11.6906
付费	-11.6907
相當	-11.6908
Route	-11.6908
过期	-11.691
给您	-11.691
Love	-11.691
秋天	-11.6911
骂人	-11.6915
Er	-11.6916
的观点	-11.6918
从小就	-11.6919
幫你	-11.6922
actions	-11.6922
昨	-11.6924
爆發	-11.6925
一方面	-11.6928
upper	-11.693
水面	-11.6931
不愿	-11.6932
您将	-11.6934
还蛮	-11.6935
二战	-11.694
Read	-11.6941
▁Mc	-11.6944
▁done	-11.6946
最长	-11.6954
oon	-11.6956
周边餐馆有	-11.6957
里面有	-11.696
Sim	-11.6961
即使是	-11.6962
fc	-11.6962
pass	-11.6963
已知	-11.6964
支持者	-11.6965
▁videos	-11.6971
Now	-11.6972
不通	-11.698
hard	-11.6985
相對	-11.6986
履	-11.6987
歧	-11.6988
Update	-11.6989
所说的	-11.6989
併	-11.6989
窄	-11.699
皱	-11.699
览	-11.699
倦	-11.6991
蚂蚁	-11.6991
婷	-11.6991
證據	-11.6992
挠	-11.6992
排行榜	-11.6993
炖	-11.6994
监视	-11.6994
楷	-11.6994
rated	-11.6994
engine	-11.6994
記錄	-11.6995
執導	-11.6995
科的其中一種	-11.6995
而該地的平均海拔高度為	-11.6995
右边	-11.6995
relationship	-11.6995
▁Toolbench	-11.6995
前门大街	-11.6995
British	-11.6995
sensitive	-11.6995
▁future	-11.6995
Collection	-11.6995
cloud	-11.6995
伯爵	-11.6995
normal	-11.6995
▁various	-11.6995
补贴	-11.6995
暂停	-11.6996
走廊	-11.6997
漫畫	-11.6997
▁reserve	-11.6998
足球俱乐部	-11.6998
迷你	-11.7
突变	-11.7001
终身	-11.7001
▁containing	-11.7002
分割	-11.7002
▁===	-11.7003
信徒	-11.7003
切除	-11.7004
augh	-11.7004
帮我看看	-11.7005
总冠军	-11.7005
Super	-11.7006
五百	-11.7007
凶手	-11.7007
附加	-11.7008
椅子	-11.7009
dice	-11.701
智力	-11.701
黑洞	-11.7012
前两天	-11.7012
航行	-11.7013
RNA	-11.7017
安置	-11.7018
毛病	-11.7018
▁uses	-11.702
快捷	-11.702
深夜	-11.7021
OB	-11.7022
线索	-11.7023
超声	-11.7024
踢足球	-11.7024
带你去	-11.7028
成立於	-11.7028
关键词	-11.7029
你竟然	-11.7031
VM	-11.7033
為止	-11.7035
party	-11.7036
pc	-11.7037
卡特	-11.7038
个别	-11.7038
你啥时候	-11.7039
外科	-11.7041
无语	-11.7043
uf	-11.7048
我就知道	-11.7049
坐等	-11.7052
类别	-11.7053
社长	-11.7055
each	-11.7058
分支	-11.706
準備好	-11.7062
前途	-11.7064
cus	-11.7064
我经常	-11.7066
you	-11.7066
毕业了	-11.7066
▁trend	-11.7067
杯子	-11.7067
一碗	-11.707
性感	-11.707
可乐	-11.7076
▁throw	-11.7077
强行	-11.7078
Song	-11.7079
注意身体	-11.7079
这个新闻	-11.7084
积累	-11.7084
▁checking	-11.7087
img	-11.709
黑客	-11.709
▁March	-11.7092
uring	-11.7093
成交	-11.7095
案子	-11.7097
还真是	-11.7098
夫卡	-11.7099
是一颗	-11.71
这款车	-11.7101
HC	-11.7104
关税	-11.7104
一定會	-11.7106
ridge	-11.7106
就是因为	-11.711
店里	-11.7111
南路	-11.7112
獻	-11.7113
究	-11.7114
觸	-11.7115
悼	-11.7116
惡魔	-11.7116
矢	-11.7117
甫	-11.7117
螺丝	-11.7117
批評	-11.7118
茫	-11.7118
比利时	-11.7118
十七年	-11.7118
貿易	-11.7119
果断	-11.7119
困扰	-11.7119
甸	-11.7119
阮	-11.7119
戴维斯	-11.7119
爱尔兰	-11.712
百分之	-11.712
る	-11.712
瑶	-11.712
严肃	-11.712
洒	-11.712
揉	-11.712
雾霾	-11.712
个性	-11.7121
披露	-11.7121
主要原因	-11.7121
疹	-11.7121
±	-11.7121
怎麼回事	-11.7121
嘎	-11.7121
接觸	-11.7121
泄露	-11.7121
望远镜	-11.7121
holiday	-11.7121
basket	-11.7121
嗷	-11.7121
Instance	-11.7121
century	-11.7121
这辈子	-11.7121
Spanish	-11.7121
▁making	-11.7122
抚养	-11.7122
memory	-11.7122
总决赛	-11.7122
摄影师	-11.7122
包围	-11.7123
这家餐厅	-11.7123
birthdate	-11.7123
Accept	-11.7123
休闲	-11.7123
摄入	-11.7124
连锁	-11.7124
卧室	-11.7125
孙杨	-11.7126
桥梁	-11.7127
using	-11.7127
权限	-11.7128
league	-11.7128
一瓶	-11.7129
环节	-11.7129
降温	-11.7129
發動	-11.713
阀门	-11.713
两周	-11.7131
腹部	-11.7132
当代	-11.7133
顶级	-11.7134
远程	-11.7134
解散	-11.7135
司馬	-11.7136
.....	-11.7139
跑到	-11.714
並沒有	-11.7142
右手	-11.7143
南至	-11.7146
赞同	-11.7148
排队	-11.7148
拿来	-11.7151
總部	-11.7153
棲息在	-11.7154
吉林	-11.7155
汽車	-11.7156
PRO	-11.7157
元件	-11.7157
exit	-11.7161
不了解	-11.7167
促使	-11.7175
推特	-11.7175
任教	-11.7176
▁/**	-11.7176
用力	-11.7176
={	-11.7178
索尼	-11.718
哪里有	-11.718
何必	-11.7187
精心	-11.7188
总共	-11.7189
哪种	-11.7193
入选	-11.7196
nThis	-11.7198
赶上	-11.72
你怎麼	-11.7201
哪怕	-11.7202
并于	-11.7203
那些人	-11.7204
▁coordinate	-11.7205
动手	-11.7205
你爸	-11.7206
中間	-11.7207
消失了	-11.7211
DJ	-11.7212
我一直都	-11.7214
个星期	-11.7214
被判	-11.7217
ola	-11.7219
金钱	-11.7221
推荐一下	-11.7223
犹	-11.7224
影院	-11.7226
支球队	-11.7227
QU	-11.7229
你也喜欢	-11.723
ference	-11.723
FE	-11.7235
玩笑	-11.7237
做的事	-11.7238
況	-11.724
沼	-11.7241
盯	-11.7241
浇	-11.7241
傾	-11.7245
史密斯	-11.7245
鳴	-11.7245
愚	-11.7245
②	-11.7246
陷阱	-11.7246
两家	-11.7246
纤	-11.7246
俘	-11.7246
訓	-11.7246
国务院	-11.7247
二氧化碳	-11.7247
博物館	-11.7247
mem	-11.7247
禾	-11.7247
紐	-11.7248
淺	-11.7248
侮辱	-11.7248
能玩	-11.7248
啃	-11.7248
谭	-11.7248
烘	-11.7248
綱	-11.7248
荆	-11.7248
Calculates	-11.7248
奧運	-11.7248
口罩	-11.7248
户外	-11.7249
貴族	-11.7249
Michael	-11.725
游玩时长	-11.725
Flexible	-11.725
鹿晗	-11.725
INSERT	-11.725
▁WARRANTY	-11.725
营业时间是周一至周日	-11.725
built	-11.725
樂團	-11.725
戰役	-11.725
观测	-11.725
答應	-11.7251
钢铁	-11.7251
情人节	-11.7252
ister	-11.7253
ena	-11.7253
考察	-11.7254
寒假	-11.7255
轻微	-11.7255
Java	-11.7256
重返	-11.7257
条例	-11.7257
作詞	-11.7257
外出	-11.7257
外婆	-11.7258
身分	-11.7259
area	-11.726
马恩省	-11.726
令吉	-11.7261
类似于	-11.7261
局势	-11.7261
里昂	-11.7261
Builder	-11.7262
电器	-11.7262
png	-11.7263
少吃	-11.7265
当地时间	-11.7266
借助	-11.7266
credit	-11.7266
各类	-11.7267
密集	-11.7267
平凡	-11.7268
剂量	-11.7268
决心	-11.7268
这个词	-11.7268
死于	-11.7268
實施	-11.727
标准间	-11.727
星座	-11.7271
制动	-11.7273
TX	-11.7276
体育场	-11.7276
地域	-11.7276
):**	-11.7279
师姐	-11.728
\"*	-11.728
Asia	-11.7283
存活	-11.7284
词汇	-11.7286
很有可能	-11.7287
四周	-11.7287
micro	-11.7288
获奖	-11.7289
头痛	-11.7289
有能力	-11.729
照相	-11.7291
的聲音	-11.7293
睡着	-11.7293
星期一	-11.7295
Tele	-11.7296
供给	-11.7297
西北部	-11.7299
难怪	-11.7299
pher	-11.7303
这道菜	-11.7306
请问你	-11.7307
不能再	-11.7307
stage	-11.7308
稍等	-11.7308
联想	-11.731
支出	-11.7311
corn	-11.7312
四個	-11.7313
XX	-11.7314
setup	-11.7315
▁correct	-11.7317
量子	-11.7318
第一個	-11.7318
筛	-11.7322
Well	-11.7323
差别	-11.7324
ula	-11.7326
提及	-11.7331
区分	-11.7332
您需要	-11.7333
手续	-11.7342
划分	-11.7347
放手	-11.7353
好好好	-11.7356
Long	-11.7357
LT	-11.736
是的呀	-11.736
住手	-11.7361
oma	-11.7362
正確	-11.7364
呜呜	-11.7365
現場	-11.7365
桃花	-11.7365
怪我	-11.7365
北京大学	-11.7368
我都不知道	-11.7369
手下	-11.7371
Bur	-11.7371
脾	-11.7373
我身边	-11.7373
家乡	-11.7374
毛泽东	-11.7374
祂	-11.7374
憂	-11.7374
卯	-11.7375
搶	-11.7375
篮板	-11.7375
豫	-11.7375
报价	-11.7375
钠	-11.7376
庶	-11.7377
翅膀	-11.7377
侵略	-11.7377
栓	-11.7377
磅	-11.7377
鄧	-11.7377
莽	-11.7377
伴侣	-11.7377
基礎	-11.7377
兮	-11.7378
淫	-11.7378
操控	-11.7378
訪問	-11.7378
揭示	-11.7378
蹦	-11.7379
簡介	-11.7379
と	-11.7379
甄	-11.7379
社交媒体	-11.7379
纠正	-11.7379
丧失	-11.7379
位於該國西部	-11.7379
興趣	-11.7379
DVD	-11.7379
實驗	-11.7379
Reason	-11.7379
‬
‪	-11.7379
children	-11.738
competition	-11.738
▁little	-11.738
Japan	-11.738
Include	-11.738
companies	-11.738
管辖	-11.738
Buffer	-11.738
shipping	-11.738
气候变化	-11.738
卓越	-11.738
廣告	-11.7381
qr	-11.7381
邮箱	-11.7381
制裁	-11.7382
hk	-11.7383
▁few	-11.7383
mous	-11.7384
天然气	-11.7385
捷克	-11.7386
▁months	-11.7386
出国	-11.7387
极限	-11.7387
王某	-11.7389
Provider	-11.7389
Final	-11.7389
Range	-11.7389
客服	-11.7389
所需	-11.739
增大	-11.739
精英	-11.7392
浴室	-11.7393
nearest	-11.7394
越来越多的	-11.7396
给力	-11.7396
維爾	-11.7397
叶片	-11.7397
难民	-11.7401
expectation	-11.7402
主教练	-11.7402
院士	-11.7403
简直是	-11.7405
这段时间	-11.7405
星夜	-11.7406
构造	-11.7408
打擊	-11.7408
organ	-11.7408
先进的	-11.7409
全程	-11.7409
聽說	-11.7409
市区	-11.7411
平行	-11.7413
挑选	-11.7413
每一天	-11.7413
名义	-11.7414
岂不是	-11.7414
有人说	-11.7417
Home	-11.7417
大約	-11.7426
Col	-11.7427
merge	-11.7428
特意	-11.7432
找找	-11.7437
叫什么	-11.7442
就是那个	-11.7442
打工	-11.7443
相处	-11.7443
lm	-11.7445
考虑一下	-11.7446
精密	-11.7447
告诉他	-11.7456
再見	-11.7456
非要	-11.7456
发电	-11.7458
*/

#	-11.7459
楼上	-11.7461
home	-11.7462
接待	-11.7462
手法	-11.7464
不公平	-11.7468
到这里	-11.7468
比尔	-11.747
總是	-11.7473
停下	-11.7474
这些都是	-11.7476
孕妇	-11.7477
国防部	-11.7479
addr	-11.7484
大麻	-11.7487
inal	-11.7487
讲述了	-11.7488
中药	-11.7489
洛夫	-11.7494
柴油	-11.7495
引起了	-11.7496
嘻嘻嘻	-11.7498
析	-11.7499
SW	-11.75
这篇	-11.7502
	-11.7502
都觉得	-11.7503
亚军	-11.7504
遗嘱	-11.7505
沉淀	-11.7506
将成为	-11.7506
一下子	-11.7506
lv	-11.7507
牲	-11.7507
冤	-11.7507
▁lead	-11.7507
貧	-11.7507
帳	-11.7507
潜艇	-11.7508
僕	-11.7509
的基础上	-11.7509
除此之外	-11.751
外星人	-11.751
旭	-11.751
编译	-11.751
秃	-11.751
瀑布	-11.751
朕	-11.751
纯粹	-11.751
潮湿	-11.7511
計算	-11.7511
冰淇淋	-11.7511
calendar	-11.7511
Access	-11.7511
▁education	-11.7511
▁international	-11.7511
Operation	-11.7511
▁July	-11.7511
ALTER	-11.7511
た	-11.7512
终结	-11.7512
硕士	-11.7512
屁股	-11.7512
不聊了	-11.7512
click	-11.7512
資源	-11.7512
blue	-11.7513
por	-11.7513
轮胎	-11.7513
robot	-11.7513
恶魔	-11.7513
麻麻	-11.7514
hang	-11.7514
▁River	-11.7515
优雅	-11.7515
自治区	-11.7515
但由于	-11.7516
截图	-11.7516
套餐	-11.7516
汤姆	-11.7516
受益	-11.7517
紫色	-11.7518
▁shows	-11.7518
SHA	-11.7518
BBC	-11.7519
视角	-11.7519
样品	-11.7522
胃口	-11.7522
阻力	-11.7523
聽著	-11.7525
两侧	-11.7525
富强	-11.7526
抓到	-11.7528
还不睡	-11.7528
Just	-11.7528
Why	-11.7529
硬度	-11.7529
難道	-11.7531
ABC	-11.7533
阳台	-11.7534
hl	-11.754
Free	-11.7546
该省份为法国	-11.7546
啟用	-11.7547
商量	-11.7548
被视为	-11.7555
最低价格	-11.7557
错过了	-11.7562
操作系统	-11.7562
谢谢您	-11.7562
MX	-11.7563
感觉很	-11.7565
graphic	-11.757
ography	-11.757
缩小	-11.7572
时机	-11.7575
ound	-11.7577
怎么样啊	-11.7578
▁focus	-11.7581
电信	-11.7581
不会再	-11.7584
这个名字	-11.7585
得主	-11.7585
零售	-11.7586
纳德	-11.7587
好的好的	-11.7587
下半	-11.7592
抗原	-11.7592
timeout	-11.7596
一场比赛	-11.7598
EE	-11.7599
吸入	-11.7601
么么	-11.7604
▁resources	-11.7606
总觉得	-11.7606
postal	-11.7607
汉子	-11.7608
看比赛	-11.761
。。。。。	-11.7611
请你吃	-11.7612
clu	-11.7613
那好吧	-11.7615
首要	-11.7615
逮	-11.7616
全新	-11.7616
ONE	-11.7617
大象	-11.7618
Form	-11.7619
这只是	-11.7619
references	-11.762
yl	-11.7626
巴拉	-11.7627
這就是	-11.7629
早晚	-11.7629
也曾	-11.7631
海报	-11.7631
澄	-11.7632
測試	-11.7633
Lu	-11.7634
描	-11.7635
你也在看	-11.7636
	-11.7638
窟	-11.7638
妊娠	-11.7638
窮	-11.7638
廊	-11.7639
驰	-11.7639
棍	-11.7639
又稱	-11.764
轟	-11.764
劈	-11.764
爭議	-11.764
中国人民解放军	-11.7641
畜	-11.7641
咳	-11.7641
栽培	-11.7641
齋	-11.7641
法语	-11.7641
臀	-11.7642
直升机	-11.7642
診	-11.7642
盜	-11.7642
职责	-11.7642
雕刻	-11.7642
嘲笑	-11.7643
營運	-11.7643
第一天	-11.7643
壶	-11.7643
馅	-11.7643
资助	-11.7643
顏色	-11.7644
虐待	-11.7644
emergency	-11.7644
PostgreSQL	-11.7644
决议	-11.7644
愛爾蘭	-11.7644
August	-11.7644
▁Province	-11.7644
▁Since	-11.7644
Video	-11.7645
胺	-11.7645
帐户	-11.7645
扩张	-11.7645
Authentication	-11.7645
困境	-11.7645
乳房	-11.7645
部主事	-11.7646
示威	-11.7646
温泉	-11.7647
simple	-11.7647
兒童	-11.7647
驾照	-11.7647
搬到	-11.7648
眼泪	-11.7649
妹纸	-11.7649
辣椒	-11.7649
條件	-11.7651
出战	-11.7651
Series	-11.7651
业绩	-11.7652
升降	-11.7652
▁validation	-11.7652
argv	-11.7653
；
（	-11.7655
楼下	-11.7655
不宜	-11.7656
Load	-11.7657
宽度	-11.766
Draw	-11.766
}"}}]}	-11.7661
css	-11.7665
多吃点	-11.7666
examples	-11.7671
甜蜜	-11.7671
就此	-11.7675
乐器	-11.7675
在做什么	-11.7675
最后一次	-11.7678
营业时间是	-11.7682
新建	-11.7684
好羡慕	-11.7686
可靠	-11.7687
发给我	-11.7689
convert	-11.7689
罪行	-11.7691
守护	-11.7692
出手	-11.7695
南極	-11.7695
跨越	-11.7697
你可以去	-11.7697
Go	-11.77
委会	-11.7701
最强	-11.7702
ove	-11.7702
BD	-11.7706
TOR	-11.7706
走开	-11.7712
杀手	-11.7713
好难	-11.7715
全家	-11.772
其他国家	-11.7722
进而	-11.7723
大樓	-11.7723
照顧	-11.7725
小小的	-11.7725
begin	-11.7729
有好多	-11.773
seat	-11.7732
小學	-11.7733
UL	-11.7748
比如说	-11.7751
Any	-11.7755


@	-11.7757
里奇	-11.7758
打出	-11.7763
yu	-11.7766
恆	-11.7771
廈	-11.7771
全体	-11.7773
賊	-11.7773
屡	-11.7773
▁flag	-11.7774
杜兰特	-11.7774
学费	-11.7774
container	-11.7775
瓷	-11.7775
####	-11.7775
谦	-11.7775
債	-11.7775
愤	-11.7775
旧金山	-11.7776
罰	-11.7776
撫	-11.7777
狭	-11.7777
摸摸	-11.7777
焚	-11.7777
儲	-11.7777
墩	-11.7778
忘记了	-11.7778
担保	-11.7778
酯	-11.7778
啪	-11.7778
勺	-11.7779
奢侈	-11.7779
对不对	-11.7779
價值	-11.7779
而人口密度為每平方千米	-11.7779
當地共有人口	-11.7779
加密货币	-11.778
乔丹	-11.778
北京首都宾馆	-11.778
Specifies	-11.778
▁representing	-11.778
▁warranty	-11.778
positive	-11.778
п	-11.778
comparison	-11.778
摄像头	-11.778
Label	-11.778
▁INTO	-11.778
背叛	-11.7781
archive	-11.7781
拿到了	-11.7781
txt	-11.7782
预订	-11.7782
兼容	-11.7782
防晒	-11.7784
静静	-11.7784
冷冻	-11.7784
录制	-11.7785
意味	-11.7785
群島	-11.7785
是一样的	-11.7785
杀害	-11.7785
数百	-11.7786
灰色	-11.7786
展開	-11.7786
像个	-11.7787
实例	-11.7787
大城市	-11.7788
染色	-11.7788
巨星	-11.7788
可靠的	-11.7789
半島	-11.779
排列	-11.779
在床上	-11.7791
();	-11.7791
享用	-11.7791
現任	-11.7792
这本书	-11.7793
毛衣	-11.7794
球衣	-11.7795
病因	-11.7795
Lock	-11.7799
请假	-11.7799
加载	-11.7801
体质	-11.7802
可分为	-11.7803
那场	-11.7804
起初	-11.7811
莱斯	-11.7814
可恶	-11.7814
水泥	-11.7814
厂家	-11.7817
东临	-11.7819
重要的是	-11.7819
谈到	-11.7822
职工	-11.7826
生物学	-11.7826
什么情况	-11.7827
布局	-11.7828
清单	-11.783
对战	-11.7831
换成	-11.7833
refund	-11.784
Lib	-11.7841
清水	-11.7843
睡醒	-11.7846
什么样	-11.7846
商场	-11.7846
Tom	-11.7847
大概是	-11.7847
一点也不	-11.7849
笑话	-11.7851
可以根据	-11.786
帮我找	-11.7863
tru	-11.7866
节点	-11.7866
取出	-11.7872
直达	-11.7874
ease	-11.7874
转速	-11.7875
PP	-11.7875
名舉人	-11.7878
语音	-11.7882
是的呢	-11.7884
).

	-11.7888
第一季	-11.7889
假日	-11.7891
").	-11.7896
eur	-11.7896
看见你	-11.7897
变更	-11.7899
麼	-11.7899
这是一种	-11.7899
物料	-11.7902
有点像	-11.7904
Use	-11.7905
喻	-11.7909
说的对	-11.7909
发热	-11.791
accept	-11.7911
界面	-11.7911
這場	-11.7912
桿	-11.7912
州刺史	-11.7912
瓊	-11.7913
顽	-11.7913
帥	-11.7914
窥	-11.7914
心理学	-11.7914
歹	-11.7915
狀態	-11.7915
峽	-11.7915
违规	-11.7915
溝	-11.7915
缔	-11.7915
;
}	-11.7916
交通事故	-11.7916
葵	-11.7916
employee	-11.7917
я	-11.7917
▁possible	-11.7917
Official	-11.7917
▁because	-11.7917
▁Angeles	-11.7917
奖牌得主	-11.7917
符合您要求的	-11.7917
}
	-11.7917
终止	-11.7918
祠	-11.7918
内涵	-11.7918
州长	-11.7919
滚动	-11.7919
风扇	-11.7921
生態	-11.7921
赞助	-11.7922
阴影	-11.7922
▁operations	-11.7922
打进	-11.7925
▁'./	-11.7925
肥胖	-11.7925
价值观	-11.7926
成为一个	-11.7926
▁river	-11.7927
挺多的	-11.7927
民国	-11.7928
林肯	-11.7928
之际	-11.7929
指纹	-11.7929
经纪人	-11.7929
还是不错的	-11.793
粉色	-11.7931
死刑	-11.7931
祖先	-11.7933
越野	-11.7934
idae	-11.7934
[[	-11.7936
明亮	-11.7936
▁added	-11.7936
所示	-11.7937
波特	-11.7939
价钱	-11.7941
是假的	-11.7942
大半夜	-11.7943
还行吧	-11.7943
有沒有	-11.7945
摩托车	-11.7946
center	-11.7946
productid	-11.7951
扎心	-11.7955
mile	-11.7958
会产生	-11.7963
又没	-11.7965
▁throws	-11.7966
但却	-11.7966
道具	-11.7966
foot	-11.7967
承認	-11.7971
语法	-11.7972
rock	-11.7973
pound	-11.7977
分区	-11.7983
交給	-11.7984
可愛	-11.7985
ination	-11.7988
十六年	-11.7992
original	-11.7997
人权	-11.7997
写道	-11.7997
门店	-11.7998
样本	-11.7998
▁exist	-11.8002
不记得	-11.8004
同期	-11.8007
躺在	-11.8008
可能性	-11.8011
開放	-11.8011
判处	-11.8011
MIT	-11.8012
alter	-11.8012
cam	-11.8013
ique	-11.8013
明天就	-11.8015
船上	-11.8016
到最后	-11.8022
立马	-11.8026
SN	-11.8029
浙	-11.803
金刚	-11.8033
居住在	-11.8034
变革	-11.8035
▁movies	-11.8036
赋	-11.8038
佈	-11.8043
TER	-11.8043
殊	-11.8045
掘	-11.8045
有钱人	-11.8046
疆	-11.8047
很忙	-11.8047
駕駛	-11.8049
壬	-11.8049
衔	-11.805
駕	-11.8051
铲	-11.8051
冕	-11.8051
邸	-11.8052
纷	-11.8052
镁	-11.8052
在这种情况下	-11.8053
农历	-11.8053
恭王府	-11.8053
崽	-11.8053
醫療	-11.8053
日上午	-11.8053
研讨	-11.8053
檔	-11.8054
蓉	-11.8054
設置	-11.8054
躁	-11.8054
pal	-11.8054
堵塞	-11.8054
翘	-11.8054
扩散	-11.8055
哥伦比亚	-11.8055
confidence	-11.8055
socket	-11.8055
▁functionality	-11.8055
Available	-11.8055
equity	-11.8055
Information	-11.8056
Bitcoin	-11.8056
▁already	-11.8056
Special	-11.8056
▁suggestions	-11.8056
超喜欢	-11.8056
尊敬	-11.8056
淋巴	-11.8057
insert	-11.8058
考验	-11.8058
解锁	-11.8058
▁Games	-11.806
恐龙	-11.806
终端	-11.8061
按摩	-11.8063
笔记本	-11.8064
attend	-11.8064
羊肉	-11.8065
半个月	-11.8066
转化为	-11.8067
...
...	-11.8068
情報	-11.8069
▁cup	-11.807
reviews	-11.8071
色情	-11.8071
一艘	-11.8073
體系	-11.8074
打開	-11.8075
注明	-11.8075
马刺	-11.8076
工伤	-11.8077
記者	-11.8078
伴有	-11.8081
太快了	-11.8083
请客	-11.8086
rac	-11.8088
也算是	-11.8088
知情	-11.8088
收取	-11.8088
还没睡	-11.8091
复发	-11.8091
ensis	-11.8091
草原	-11.8091
theme	-11.8094
Gui	-11.8097
哇哦	-11.8097
一个新的	-11.8097
十四年	-11.8098
各大	-11.8099
達到	-11.8099
动机	-11.8099
启用	-11.81
多项	-11.8101
tags	-11.8102
你覺得	-11.8111
同行	-11.8112
git	-11.8118
开花	-11.8119
二十年	-11.8124
我不喜欢	-11.8124
只能说	-11.8125
学位	-11.8127
SEC	-11.8127
traditional	-11.8131
加重	-11.8133
没怎么	-11.8137
相连	-11.814
簡稱	-11.814
明天去	-11.8141
出生於	-11.8141
restaurants	-11.8142
apply	-11.8148
Roman	-11.815
align	-11.8151
VT	-11.8152
}
}	-11.8152
事先	-11.8152
Bill	-11.8154
护士	-11.8155
wide	-11.8157
layer	-11.8158
投手	-11.816
喝水	-11.8162
好开心	-11.8163
▁ratings	-11.8164
想找	-11.8166
教會	-11.8169
首发	-11.8169
我倒是	-11.8171
职员	-11.8172
才會	-11.8175
AY	-11.8178
水库	-11.8179
改成	-11.818
大桥	-11.8185
唤	-11.8187
椎	-11.8188
拉姆	-11.8191
硝	-11.8191
渠	-11.8191
USB	-11.8191
祿	-11.8191
懈	-11.8193
伤病	-11.8193
蔓延	-11.8193
灶	-11.8193
廖	-11.8193
锥	-11.8193
討論	-11.8193
屠杀	-11.8194
谴责	-11.8194
赋予	-11.8194
魄	-11.8194
蹟	-11.8194
堤	-11.8194
有兴趣	-11.8195
瞒	-11.8195
介紹	-11.8195
祈	-11.8195
痕迹	-11.8195
□	-11.8195
餐廳	-11.8195
rent	-11.8196
寮	-11.8196
Historic	-11.8196
HTTP	-11.8196
exclude	-11.8196
祝您生活愉快	-11.8196
保佑	-11.8196
陝西	-11.8196
progress	-11.8196
▁limitations	-11.8196
銅牌	-11.8196
▁directory	-11.8197
Southern	-11.8197
折叠	-11.8197
剛才	-11.8197
伙计	-11.8197
degree	-11.8197
效应	-11.8197
★	-11.8197
rat	-11.8197
wallet	-11.8197
寻常	-11.8197
预告	-11.8198
免費	-11.8199
比喻	-11.8199
音频	-11.8199
通宵	-11.8199
▁remain	-11.8199
河南省	-11.82
紅色	-11.8201
SG	-11.8202
Good	-11.8202
flags	-11.8202
星期六	-11.8202
accepted	-11.8203
啥意思	-11.8204
搜查	-11.8205
村庄	-11.8205
保密	-11.8207
客户端	-11.8207
波动	-11.8208
休假	-11.821
猴子	-11.821
泰勒	-11.821
pair	-11.8212
身邊	-11.8213
富含	-11.8213
愛情	-11.8217
终点	-11.8217
同伴	-11.8219
生活方式	-11.8219
想不到	-11.822
流传	-11.8221
Sk	-11.8221
看电视	-11.8222
direction	-11.8223
钻石	-11.823
墓地	-11.8235
开头	-11.8237
成型	-11.8239
"}}	-11.8239
的那一	-11.8239
库里	-11.8244
Sir	-11.8246
这样子	-11.825
斯顿	-11.8252
当作	-11.8255
这个游戏	-11.8259
回合	-11.8261
中国人民	-11.8261
街头	-11.8261
XXX	-11.8264
下个月	-11.8264
grant	-11.8264
本来就是	-11.8266
电容	-11.8267
桌上	-11.827
用來	-11.827
留学生	-11.8272
沒什麼	-11.8272
我们知道	-11.8272
中医	-11.8272
越好	-11.8276
recipe	-11.828
access	-11.8283
java	-11.8284
gy	-11.8286
凉快	-11.8287
MV	-11.8287
外国人	-11.8291
卡爾	-11.8293
Return	-11.8294
上演	-11.8297
logo	-11.8299
更喜欢	-11.83
就够了	-11.83
先後	-11.8303
防水	-11.8309
VER	-11.831
cia	-11.831
/{	-11.8315
UST	-11.8316
说起	-11.8322
有两种	-11.8322
绪	-11.8326
都不想	-11.8326
中共中央	-11.8327
頻	-11.833
检察	-11.8333
運輸	-11.8333
龐	-11.8333
毗	-11.8334
蔽	-11.8335
赎	-11.8335
牽	-11.8335
锈	-11.8335
僵	-11.8335
疮	-11.8335
銅	-11.8335
抵押	-11.8336
銜	-11.8336
伽	-11.8336
詳	-11.8336
安东尼	-11.8336
募	-11.8336
梭	-11.8336
俠	-11.8337
贫困	-11.8337
恕	-11.8337
碰撞	-11.8337
鏈	-11.8337
罕见	-11.8338
悍	-11.8338
乌龟	-11.8338
萍	-11.8338
磊	-11.8338
迭	-11.8338
孟加拉	-11.8338
靓	-11.8339
缩短	-11.8339
發佈	-11.8339
Security	-11.8339
阴阳	-11.8339
traffic	-11.8339
高档型	-11.8339
friendly	-11.8339
▁CONDITIONS	-11.8339
領域	-11.8339
呸	-11.8339
照顾好自己	-11.8339
針對	-11.8339
debug	-11.834
switch	-11.834
配偶	-11.834
suite	-11.834
white	-11.8341
rip	-11.8341
大學校友	-11.8341
早点休息	-11.8341
丹麦	-11.8342
Govern	-11.8343
军训	-11.8343
Row	-11.8343
魔鬼	-11.8344
有所不同	-11.8344
醒醒	-11.8345
来得及	-11.8345
因其	-11.8346
谋杀	-11.8347
代购	-11.8349
权威	-11.835
灵感	-11.835
Body	-11.8351
坐标	-11.8351
是谁啊	-11.8351
小狗	-11.8352
星期五	-11.8352
之战	-11.8353
想起了	-11.8354
理事会	-11.8354
博客	-11.8354
mount	-11.8355
坐着	-11.8357
也很好	-11.8358
幅度	-11.8359
MVP	-11.8359
prime	-11.8359
lash	-11.836
refname	-11.836
躺着	-11.836
传达	-11.8361
研究表明	-11.8362
咋办	-11.8362
请不要	-11.8363
under	-11.8365
美国总统	-11.8366
产权	-11.8368
iOS	-11.8369
站点	-11.8373
fun	-11.8376
我看过	-11.8377
炸弹	-11.838
纳斯	-11.8383
锁定	-11.8383
位于中国	-11.8383
古巴	-11.8385
HH	-11.8386
就讀	-11.8389
AO	-11.8392
逃走	-11.8393
PD	-11.8396
三国	-11.84
整整	-11.8405
误会	-11.8405
敵人	-11.8407
不超过	-11.8408
Ku	-11.841
科目	-11.8412
▁thing	-11.8412
先把	-11.8417
延期	-11.8419
mass	-11.8419
对付	-11.842
字符	-11.8425
业主	-11.8428
别客气	-11.8429
替你	-11.8431
{{	-11.8432
PER	-11.8434
average	-11.8434
week	-11.8436
weather	-11.8436
LOG	-11.8437
某某	-11.8438
這位	-11.8442
同學	-11.8444
罪名	-11.8446
我們會	-11.8446
不过现在	-11.8449
准备去	-11.845
安心	-11.8454
地质	-11.8455
一双	-11.8457
怎麼會	-11.8458
Call	-11.846
mag	-11.8464
solution	-11.8464
本片	-11.8467
hex	-11.8468
wil	-11.8468
▁seconds	-11.847
recommendation	-11.8474
北京时间	-11.8474
lim	-11.8477
▁similar	-11.8478
乞	-11.8478
瘋狂	-11.8478
汉语	-11.8479
谅	-11.8479
壯	-11.848
巴塞罗那	-11.848
争夺	-11.848
逐漸	-11.848
噪声	-11.8481
新冠肺炎	-11.8481
共產黨	-11.8481
禅	-11.8482
屎	-11.8482
沦	-11.8482
紋	-11.8482
彎	-11.8482
襲擊	-11.8482
鍵	-11.8482
ん	-11.8482
評價	-11.8483
統計	-11.8483
弥补	-11.8483
讽刺	-11.8484
怂	-11.8484
夏威夷	-11.8484
當中陸地面積為	-11.8484
而水域面積為	-11.8484
直隸	-11.8484
奥地利	-11.8484
Azure	-11.8484
remote	-11.8484
Button	-11.8484
Register	-11.8484
Second	-11.8484
▁Africa	-11.8484
▁professional	-11.8484
▁applied	-11.8484
Global	-11.8484
industry	-11.8484
▁operationId	-11.8484
ā	-11.8484
悠久	-11.8485
secret	-11.8485
寶貝	-11.8485
布政使	-11.8485
接下來	-11.8485
剧烈	-11.8485
▁completed	-11.8486
▁sorted	-11.8486
更名為	-11.8486
鉴于	-11.8487
别这样	-11.8487
拉黑	-11.8487
疑问	-11.8487
旅程	-11.8488
派出所	-11.8488
Chris	-11.8488
prom	-11.8488
舒适型	-11.8489
Section	-11.8489
浙江省	-11.849
孤单	-11.849
拼命	-11.849
撰写	-11.8491
主页	-11.8493
圣经	-11.8494
north	-11.8494
干预	-11.8494
PAC	-11.8494
推翻	-11.8495
人均消费在	-11.8495
我的意思是	-11.8495
洛阳	-11.8496
黑白	-11.8497
勝利	-11.8497
行使	-11.8498
主义者	-11.85
这周	-11.8501
partial	-11.8502
干细胞	-11.8503
看待	-11.8504
男票	-11.8505
妈呀	-11.8506
头脑	-11.8507
营业时间	-11.8507
自带	-11.8508
买家	-11.8508
恶心	-11.8509
尿道	-11.8509
SMS	-11.8509
若干	-11.8509
几率	-11.851
回應	-11.851
fini	-11.8513
日讯	-11.8514
被窝	-11.8515
现任	-11.8515
reset	-11.8515
术语	-11.8515
太郎	-11.8516
马丁	-11.8518
生化	-11.8521
份额	-11.8522
事宜	-11.8524
米饭	-11.8526
日益	-11.8528
买房	-11.8529
吉尔	-11.8531
水印	-11.8532
原油	-11.8532
当成	-11.8533
!!!!!	-11.8537
元首	-11.8537
玩过	-11.8539
家属	-11.8539
▁};
	-11.854
英镑	-11.8542
画家	-11.8544
多长时间	-11.8545
扩	-11.8546
定義	-11.8552
辣么	-11.8558
▁understand	-11.8558
指向	-11.856
平成	-11.8563
見面	-11.8563
。

　　	-11.8567
滩	-11.857
无线电	-11.8573
---------------	-11.8575
高校	-11.8576
Box	-11.8578
▁refunds	-11.8578
special	-11.8581
很明显	-11.8583
岂	-11.8585
World	-11.8592
eigh	-11.8592
should	-11.8593
resp	-11.8598
阿德	-11.8598
step	-11.8598
typ	-11.8602
SV	-11.8605
同款	-11.8608
▁listed	-11.8613
才开始	-11.8615
重力	-11.8615
实质	-11.8617
眸	-11.8624
築	-11.8624
Connect	-11.8624
廚	-11.8626
哉	-11.8627
撤退	-11.8627
铅	-11.8627
障	-11.8627
囉	-11.8627
姊妹	-11.8627
斬	-11.8628
倩	-11.8628
輩	-11.8628
material	-11.8628
肅	-11.8628
purpose	-11.8628
掃	-11.8628
	-11.8629
琉球	-11.8629
親愛的	-11.8629
养殖	-11.8629
笔记	-11.8629
None	-11.8629
貞	-11.8629
楠	-11.8629
撕裂	-11.8629
頁	-11.8629
批判	-11.8629
烯	-11.863
胳膊	-11.863
绘画	-11.863
辅导	-11.863
も	-11.863
无疑	-11.863
保險	-11.8631
execute	-11.8631
Living	-11.8631
Business	-11.8631
front	-11.8631
▁VALUES	-11.8631
Specify	-11.8631
▁requirements	-11.8632
氯化	-11.8632
裴	-11.8633
平原	-11.8633
Account	-11.8633
Space	-11.8633
封闭	-11.8635
Direct	-11.8636
trail	-11.8636
几分钟	-11.8637
车祸	-11.8637
身亡	-11.8638
布魯	-11.8638
運動會	-11.8639
hook	-11.864
富贵	-11.864
兼任	-11.864
Apply	-11.8641
本周	-11.8641
沒問題	-11.8642
仓库	-11.8643
骗人	-11.8643
联系方式	-11.8644
▁*/
#	-11.8644
朝阳	-11.8644
▁tracking	-11.8645
海鲜	-11.8647
太可爱了	-11.8647
诸多	-11.8649
一家人	-11.865
古城	-11.8651
利息	-11.8652
将继续	-11.8652
tweets	-11.8653
yes	-11.8654
较多	-11.8654
学妹	-11.8654
帖子	-11.8654
情景	-11.8654
自愿	-11.8654
身体健康	-11.8656
欧文	-11.8656
南宁	-11.8658
Maria	-11.8662
走起	-11.8662
最重要的是	-11.8662
有名的	-11.8662
数据显示	-11.8665
重点是	-11.8671
▁contain	-11.8672
食欲	-11.8672
套路	-11.8673
不重要	-11.8674
成立于	-11.8677
并通过	-11.8677
语气	-11.8681
Real	-11.8681
手套	-11.8682
我的朋友	-11.8685
astro	-11.8686
的景点游玩	-11.8687
逛逛	-11.8689
逆转	-11.8691
不能吃	-11.8692
列為	-11.8692
more	-11.8693
听力	-11.8693
數學	-11.8694
性命	-11.8695
岛上	-11.8699
抢到	-11.87
一定很	-11.87
fd	-11.8703
满分	-11.8706
向往	-11.8708
Sl	-11.8709
stone	-11.8713
很冷	-11.8713
▁platforms	-11.8713
称号	-11.8714
Pat	-11.8716
条规定	-11.8716
美国政府	-11.8719
分校	-11.8722
沙拉	-11.8723
processing	-11.8727
络	-11.8727
door	-11.8729
Spa	-11.8733
面具	-11.8744
先前	-11.8746
ETH	-11.8749
放开	-11.8751
surge	-11.8752
陌生	-11.8752
间隔	-11.8758
迎来	-11.8759
看球	-11.8761
修理	-11.8762
坏人	-11.8762
HL	-11.8766
侦	-11.8772
诡	-11.8774
婴	-11.8774
朱元璋	-11.8774
〕	-11.8775
帮助您	-11.8775
桓	-11.8776
⊿	-11.8776
雯	-11.8776
咐	-11.8776
巅峰	-11.8777
贩	-11.8777
靡	-11.8777
濕	-11.8777
允許	-11.8777
奢	-11.8778
南斯拉夫	-11.8778
湛	-11.8778
賦	-11.8778
毫無	-11.8778
注意事项	-11.8778
▁cook	-11.8778
告訴你	-11.8778
乙烯	-11.8779
芦	-11.8779
弗雷德	-11.8779
枫	-11.8779
銷售	-11.8779
Chrome	-11.8779
内陆省份	-11.8779
討厭	-11.8779
優秀	-11.878
mobile	-11.878
嘘	-11.878
Mexican	-11.878
patient	-11.878
Entity	-11.878
student	-11.878
▁BASIS	-11.878
✅	-11.878
ル	-11.878
鹃	-11.878
wiki	-11.8781
興建	-11.8781
android	-11.8781
ase	-11.8782
撞击	-11.8782
节日快乐	-11.8782
炒肝	-11.8782
汽油	-11.8782
牛津	-11.8782
Limit	-11.8783
锅炉	-11.8783
ASIN	-11.8783
拜仁	-11.8783
鸡汤	-11.8783
单身狗	-11.8784
▁nullable	-11.8785
没吃过	-11.8785
任期	-11.8786
外汇	-11.8786
鸟类	-11.8787
剛剛	-11.8788
enabled	-11.8789
开枪	-11.8789
安卓	-11.8789
記憶	-11.8789
Write	-11.879
销量	-11.8791
霸气	-11.8791
died	-11.8791
董事会	-11.8793
地铁直达	-11.8795
permission	-11.8795
数额	-11.8799
▁allowed	-11.8799
触发	-11.88
沉重	-11.8801
login	-11.8803
劳动者	-11.8804
協議	-11.8806
领导者	-11.8809
留意	-11.8811
anti	-11.8811
粒子	-11.8811
前期	-11.8811
下周三	-11.8812
handler	-11.8814
Water	-11.8814
真空	-11.8816
full	-11.8817
打电话给	-11.8819
查找	-11.8819
gain	-11.8819
}

	-11.882
德川	-11.8823
爱心	-11.8824
小説	-11.8824
洪水	-11.8824
属下的一个种	-11.8826
车道	-11.8827
晚饭	-11.8827
exists	-11.8831
bytes	-11.8838
科普	-11.8839
hours	-11.8845
":"{\	-11.8846
四季	-11.8847
还原	-11.8856
牛排	-11.8859
xref	-11.886
▁*\"	-11.8862
vor	-11.8865
[...]
